▁like	-4.44861
<s>	0
</s>	0
<unk>	0
▁feel	-4.45899
▁wa	-4.48754
▁time	-4.7229
▁life	-4.72468
▁get	-4.79837
▁know	-4.83274
▁want	-4.90168
▁thing	-4.97574
▁day	-5.03936
▁even	-5.12042
▁people	-5.14086
▁year	-5.16723
▁really	-5.25081
▁one	-5.27311
▁make	-5.28963
▁work	-5.30433
▁help	-5.32786
▁ha	-5.32894
▁stress	-5.36872
▁think	-5.37211
▁would	-5.4424
▁go	-5.52062
▁going	-5.52457
▁something	-5.58709
▁much	-5.5899
▁friend	-5.59271
▁way	-5.63595
▁feeling	-5.64929
▁love	-5.67806
▁always	-5.6998
▁take	-5.70137
▁never	-5.7061
▁everything	-5.72685
▁thought	-5.73495
▁back	-5.76465
▁also	-5.76969
▁u	-5.76969
▁need	-5.78496
▁keep	-5.81797
▁good	-5.82507
▁still	-5.84665
▁anxiety	-5.93003
▁right	-5.93201
▁every	-5.93598
▁new	-5.94396
▁job	-5.94999
▁depression	-5.96012
▁happy	-5.97448
▁anyone	-5.99959
▁better	-6.00383
▁could	-6.00383
▁say	-6.00596
▁lot	-6.01024
▁anything	-6.01238
▁week	-6.02317
▁month	-6.06979
▁someone	-6.06979
▁happiness	-6.08122
▁got	-6.08352
▁hard	-6.08583
▁school	-6.09046
▁start	-6.09046
▁moment	-6.10683
▁bad	-6.12348
▁try	-6.12348
▁family	-6.1307
▁trying	-6.13312
▁amp	-6.13797
▁come	-6.15021
▁first	-6.15021
▁everyone	-6.1651
▁well	-6.1651
▁see	-6.17263
▁many	-6.18786
▁today	-6.19299
▁since	-6.20073
▁find	-6.22167
▁nothing	-6.22964
▁self	-6.25667
▁anymore	-6.26769
▁give	-6.28727
▁last	-6.28727
▁person	-6.29578
▁live	-6.29863
▁ever	-6.32176
▁else	-6.36051
▁hate	-6.37582
▁mental	-6.37582
▁point	-6.37582
▁long	-6.38513
▁mind	-6.38513
▁around	-6.38825
▁best	-6.40083
▁made	-6.40083
▁world	-6.41356
▁end	-6.42
▁stressed	-6.42
▁sleep	-6.42647
▁talk	-6.43298
▁change	-6.43954
▁started	-6.43954
▁health	-6.44614
▁sometimes	-6.44946
▁care	-6.45947
▁doe	-6.46621
▁problem	-6.4764
▁getting	-6.48324
▁im	-6.48324
▁past	-6.48324
▁let	-6.48669
▁fucking	-6.49014
▁pain	-6.49709
▁depressed	-6.51112
▁felt	-6.51821
▁tell	-6.53617
▁stop	-6.5398
▁away	-6.54344
▁home	-6.54344
▁parent	-6.5471
▁thinking	-6.55445
▁please	-6.55815
▁experience	-6.56558
▁hour	-6.57307
▁different	-6.59974
▁used	-6.60361
▁told	-6.60749
▁without	-6.61139
▁tired	-6.6153
▁look	-6.62714
▁said	-6.64718
▁working	-6.64718
▁hope	-6.65531
▁little	-6.65531
▁others	-6.66763
▁though	-6.6843
▁part	-6.69274
▁reason	-6.69274
▁might	-6.71849
▁put	-6.73162
▁body	-6.73603
▁taking	-6.73603
▁maybe	-6.74492
▁ago	-6.75389
▁done	-6.75389
▁living	-6.75389
▁emotion	-6.7584
▁focus	-6.7584
▁remember	-6.7675
▁listen	-6.77207
▁cry	-6.78129
▁mom	-6.78129
▁place	-6.78593
▁shit	-6.78593
▁worse	-6.78593
▁two	-6.79059
▁wanted	-6.79059
▁sad	-6.79998
▁wrong	-6.79998
▁wish	-6.80946
▁actually	-6.81423
▁alone	-6.82869
▁dont	-6.82869
▁enough	-6.82869
▁able	-6.83356
▁high	-6.84336
▁may	-6.84336
▁idea	-6.8483
▁college	-6.85326
▁relationship	-6.85326
▁head	-6.85825
▁guy	-6.86326
▁tried	-6.86326
▁constantly	-6.88357
▁making	-6.88357
▁etc	-6.88871
▁situation	-6.88871
▁already	-6.89907
▁another	-6.89907
▁great	-6.90429
▁money	-6.90429
▁night	-6.91482
▁video	-6.91482
▁normal	-6.92013
▁everyday	-6.92546
▁hurt	-6.92546
▁lost	-6.92546
▁step	-6.92546
▁looking	-6.93082
▁energy	-6.93621
▁goal	-6.94163
▁heart	-6.94708
▁went	-6.94708
▁kind	-6.96918
▁mean	-6.97478
▁anxious	-6.98042
▁success	-6.98042
▁understand	-6.98608
▁almost	-6.99178
▁study	-6.99178
▁post	-6.99751
▁important	-7.0149
▁issue	-7.0149
▁lt	-7.02077
▁found	-7.0326
▁class	-7.03857
▁future	-7.03857
▁old	-7.03857
▁therapy	-7.03857
▁minute	-7.06282
▁positive	-7.06282
▁sure	-7.06282
▁share	-7.06897
▁brain	-7.07516
▁happen	-7.07516
▁left	-7.07516
▁mother	-7.07516
▁learn	-7.08139
▁next	-7.08766
▁pretty	-7.08766
▁question	-7.08766
▁drey	-7.09397
▁social	-7.09397
▁whole	-7.09397
▁matter	-7.10671
▁music	-7.10671
▁move	-7.11314
▁die	-7.12613
▁present	-7.12613
▁covid	-7.13269
▁daily	-7.13269
▁leave	-7.13269
▁become	-7.13929
▁human	-7.13929
▁le	-7.13929
▁talking	-7.13929
▁advice	-7.14593
▁scared	-7.14593
▁call	-7.15936
▁use	-7.15936
▁least	-7.16613
▁yet	-7.16613
▁recently	-7.17296
▁cause	-7.17983
▁seems	-7.17983
▁ask	-7.18675
▁fear	-7.18675
▁house	-7.18675
▁stuff	-7.18675
▁support	-7.18675
▁free	-7.19372
▁often	-7.19372
▁believe	-7.20074
▁meditation	-7.21493
▁deal	-7.22209
▁enjoy	-7.22931
▁read	-7.22931
▁real	-7.22931
▁break	-7.23659
▁due	-7.24391
▁course	-7.25129
▁finally	-7.25873
▁bed	-7.26622
▁inside	-7.26622
▁bit	-7.28137
▁gonna	-7.28137
▁level	-7.28137
▁ok	-7.28137
▁close	-7.28903
▁completely	-7.28903
▁dream	-7.28903
▁together	-7.28903
▁writing	-7.28903
▁state	-7.29676
▁control	-7.30454
▁push	-7.31238
▁fuck	-7.32029
▁kid	-7.32029
▁either	-7.32825
▁word	-7.32825
▁guess	-7.34438
▁needed	-7.35255
▁difficult	-7.36078
▁second	-7.36078
▁starting	-7.36078
▁dad	-7.36908
▁face	-7.36908
▁later	-7.36908
▁motivation	-7.36908
▁online	-7.36908
▁thank	-7.36908
▁full	-7.37744
▁probably	-7.37744
▁seem	-7.37744
▁medication	-7.38588
▁stay	-7.38588
▁suffering	-7.38588
▁cant	-7.39439
▁rather	-7.39439
▁thats	-7.39439
▁took	-7.39439
▁sorry	-7.40298
▁wanna	-7.40298
▁happened	-7.41164
▁peace	-7.41164
▁small	-7.41164
▁story	-7.41164
▁symptom	-7.41164
▁hi	-7.42037
▁honestly	-7.42037
▁pandemic	-7.42037
▁morning	-7.42918
▁doctor	-7.43807
▁came	-7.44704
▁forward	-7.44704
▁interview	-7.44704
▁negative	-7.44704
▁saying	-7.44704
▁currently	-7.45609
▁fact	-7.45609
▁outside	-7.45609
▁especially	-7.46522
▁worst	-7.46522
▁big	-7.48374
▁learning	-7.48374
▁sense	-7.48374
▁god	-7.49313
▁turn	-7.49313
▁usually	-7.49313
▁couple	-7.50261
▁deep	-7.50261
▁emotional	-7.50261
▁basically	-7.51218
▁learned	-7.51218
▁low	-7.51218
▁show	-7.51218
▁stressful	-7.51218
▁student	-7.51218
▁truly	-7.51218
▁grade	-7.52184
▁age	-7.53159
▁attack	-7.53159
▁car	-7.53159
▁child	-7.53159
▁habit	-7.53159
▁man	-7.53159
▁book	-7.54145
▁pay	-7.5514
▁plan	-7.5514
▁set	-7.5514
▁true	-7.5514
▁whatever	-7.5514
▁worked	-7.5514
▁open	-7.56145
▁therapist	-7.56145
▁worry	-7.56145
▁hand	-7.5716
▁memory	-7.5716
▁struggling	-7.5716
▁successful	-7.5716
▁given	-7.58186
▁hey	-7.58186
▁literally	-7.58186
▁rest	-7.58186
▁behind	-7.59222
▁eat	-7.59222
▁fine	-7.59222
▁super	-7.59222
▁top	-7.59222
▁cannot	-7.60269
▁gone	-7.60269
▁phone	-7.60269
▁write	-7.60269
▁wake	-7.61327
▁called	-7.62397
▁girl	-7.62397
▁group	-7.62397
▁tip	-7.62397
▁happens	-7.63478
▁nice	-7.63478
▁suicide	-7.63478
▁thanks	-7.63478
▁far	-7.64571
▁fun	-7.64571
▁possible	-7.64571
▁room	-7.64571
▁spent	-7.64571
▁along	-7.65676
▁constant	-7.65676
▁eye	-7.65676
▁helped	-7.65676
▁kill	-7.65676
▁okay	-7.65676
▁pressure	-7.65676
▁short	-7.65676
▁test	-7.65676
▁university	-7.65676
▁choice	-7.66793
▁easy	-7.66793
▁instead	-7.66793
▁coming	-7.67923
▁lately	-7.67923
▁light	-7.67923
▁meet	-7.67923
▁result	-7.67923
▁sound	-7.67923
▁calm	-7.69066
▁decided	-7.69066
▁happening	-7.69066
▁joy	-7.69066
▁physical	-7.69066
▁interested	-7.70222
▁whenever	-7.70222
▁boyfriend	-7.71392
▁drive	-7.71392
▁effect	-7.71392
▁mistake	-7.71392
▁panic	-7.71392
▁mindset	-7.72575
▁research	-7.72575
▁soon	-7.72575
▁supposed	-7.72575
▁worried	-7.72575
▁asked	-7.73773
▁handle	-7.73773
▁loved	-7.73773
▁must	-7.73773
▁country	-7.74985
▁healthy	-7.74985
▁lived	-7.74985
▁personal	-7.74985
▁stuck	-7.74985
▁teacher	-7.74985
▁three	-7.74985
▁amount	-7.76212
▁awareness	-7.76212
▁bring	-7.76212
▁healing	-7.76212
▁hit	-7.76212
▁journey	-7.76212
▁proud	-7.76212
▁realize	-7.76212
▁seeing	-7.76212
▁single	-7.76212
▁space	-7.76212
▁towards	-7.76212
▁brother	-7.77454
▁forget	-7.77454
▁practice	-7.77454
▁reading	-7.77454
▁angry	-7.78712
▁aware	-7.78712
▁game	-7.78712
▁lead	-7.78712
▁name	-7.78712
▁sadness	-7.78712
▁sick	-7.78712
▁taken	-7.78712
▁telling	-7.78712
▁treatment	-7.78712
▁universe	-7.78712
▁youtube	-7.78712
▁disorder	-7.79986
▁side	-7.79986
▁asking	-7.81276
▁create	-7.81276
▁extremely	-7.81276
▁knew	-7.81276
▁longer	-7.81276
▁reach	-7.81276
▁suicidal	-7.81276
▁within	-7.81276
▁accept	-7.82583
▁answer	-7.82583
▁career	-7.82583
▁early	-7.82583
▁expectation	-7.82583
▁giving	-7.82583
▁moving	-7.82583
▁nobody	-7.82583
▁afraid	-7.83908
▁hello	-7.83908
▁process	-7.83908
▁seen	-7.83908
▁survey	-7.83908
▁wanting	-7.83908
▁broke	-7.8525
▁hold	-7.8525
▁link	-7.8525
▁purpose	-7.8525
▁spend	-7.8525
▁alive	-7.86611
▁based	-7.86611
▁half	-7.86611
▁med	-7.86611
▁play	-7.86611
▁pushing	-7.86611
▁sit	-7.86611
▁worth	-7.86611
▁breathe	-7.8799
▁kept	-7.8799
▁medium	-7.8799
▁waiting	-7.8799
▁activity	-7.89389
▁certain	-7.89389
▁check	-7.89389
▁eventually	-7.89389
▁example	-7.89389
▁follow	-7.89389
▁idk	-7.89389
▁reality	-7.89389
▁sort	-7.89389
▁stupid	-7.89389
▁fight	-7.90807
▁food	-7.90807
▁late	-7.90807
▁meant	-7.90807
▁met	-7.90807
▁walk	-7.90807
▁business	-7.92246
▁death	-7.92246
▁diagnosed	-7.92246
▁grateful	-7.92246
▁miss	-7.92246
▁struggle	-7.92246
▁attention	-7.93706
▁beautiful	-7.93706
▁company	-7.93706
▁failure	-7.93706
▁figure	-7.93706
▁hear	-7.93706
▁however	-7.93706
▁became	-7.95187
▁empty	-7.95187
▁episode	-7.95187
▁knowing	-7.95187
▁power	-7.95187
▁quite	-7.95187
▁type	-7.95187
▁event	-7.96691
▁girlfriend	-7.96691
▁helping	-7.96691
▁passion	-7.96691
▁path	-7.96691
▁reddit	-7.96691
▁stopped	-7.96691
▁whether	-7.96691
▁anyway	-7.98218
▁individual	-7.98218
▁lonely	-7.98218
▁sister	-7.98218
▁action	-7.99768
▁continue	-7.99768
▁dealing	-7.99768
▁eating	-7.99768
▁finding	-7.99768
▁mentally	-7.99768
▁mood	-7.99768
▁simple	-7.99768
▁watch	-7.99768
▁yes	-7.99768
▁young	-7.99768
▁assignment	-8.01343
▁drug	-8.01343
▁exercise	-8.01343
▁experienced	-8.01343
▁fill	-8.01343
▁heard	-8.01343
▁information	-8.01343
▁lack	-8.01343
▁account	-8.02943
▁focusing	-8.02943
▁huge	-8.02943
▁sleeping	-8.02943
▁term	-8.02943
▁weird	-8.02943
▁woman	-8.02943
▁achieve	-8.04569
▁amazing	-8.04569
▁anger	-8.04569
▁article	-8.04569
▁changed	-8.04569
▁cut	-8.04569
▁impact	-8.04569
▁message	-8.04569
▁notice	-8.04569
▁period	-8.04569
▁project	-8.04569
▁run	-8.04569
▁severe	-8.04569
▁soul	-8.04569
▁turned	-8.04569
▁watching	-8.04569
▁adult	-8.06222
▁breath	-8.06222
▁exam	-8.06222
▁force	-8.06222
▁form	-8.06222
▁four	-8.06222
▁kinda	-8.06222
▁lie	-8.06222
▁wife	-8.06222
▁barely	-8.07903
▁entire	-8.07903
▁explain	-8.07903
▁gratitude	-8.07903
▁mine	-8.07903
▁numb	-8.07903
▁several	-8.07903
▁comment	-8.09612
▁easier	-8.09612
▁sitting	-8.09612
▁strong	-8.09612
▁absolutely	-8.11352
▁act	-8.11352
▁appreciate	-8.11352
▁choose	-8.11352
▁improve	-8.11352
▁known	-8.11352
▁option	-8.11352
▁podcasts	-8.11352
▁release	-8.11352
▁studying	-8.11352
▁suck	-8.11352
▁technique	-8.11352
▁trust	-8.11352
▁whats	-8.11352
▁degree	-8.13122
▁desire	-8.13122
▁greater	-8.13122
▁hell	-8.13122
▁losing	-8.13122
▁pas	-8.13122
▁realized	-8.13122
▁simply	-8.13122
▁wait	-8.13122
▁across	-8.14923
▁allow	-8.14923
▁cope	-8.14923
▁father	-8.14923
▁listening	-8.14923
▁opportunity	-8.14923
▁putting	-8.14923
▁reduce	-8.14923
▁straight	-8.14923
▁truth	-8.14923
▁wondering	-8.14923
▁chest	-8.16758
▁complete	-8.16758
▁conversation	-8.16758
▁driving	-8.16758
▁hair	-8.16758
▁manage	-8.16758
▁quit	-8.16758
▁slowly	-8.16758
▁somehow	-8.16758
▁suffer	-8.16758
▁understanding	-8.16758
▁using	-8.16758
▁fast	-8.18628
▁gotten	-8.18628
▁member	-8.18628
▁ready	-8.18628
▁saw	-8.18628
▁smile	-8.18628
▁stand	-8.18628
▁terrible	-8.18628
▁trauma	-8.18628
▁anybody	-8.20532
▁apart	-8.20532
▁comfort	-8.20532
▁exactly	-8.20532
▁growth	-8.20532
▁harder	-8.20532
▁list	-8.20532
▁mess	-8.20532
▁similar	-8.20532
▁art	-8.22474
▁born	-8.22474
▁caused	-8.22474
▁decision	-8.22474
▁dog	-8.22474
▁fall	-8.22474
▁lose	-8.22474
▁nature	-8.22474
▁participant	-8.22474
▁society	-8.22474
▁worrying	-8.22474
▁appreciated	-8.24454
▁comfortable	-8.24454
▁contact	-8.24454
▁current	-8.24454
▁deserve	-8.24454
▁major	-8.24454
▁missing	-8.24454
▁mostly	-8.24454
▁order	-8.24454
▁relate	-8.24454
▁relief	-8.24454
▁stressing	-8.24454
▁tension	-8.24454
▁belief	-8.26475
▁content	-8.26475
▁cycle	-8.26475
▁following	-8.26475
▁front	-8.26475
▁general	-8.26475
▁horrible	-8.26475
▁killing	-8.26475
▁knowledge	-8.26475
▁moved	-8.26475
▁perspective	-8.26475
▁physically	-8.26475
▁sharing	-8.26475
▁talked	-8.26475
▁water	-8.26475
▁add	-8.28537
▁breakdown	-8.28537
▁breathing	-8.28537
▁died	-8.28537
▁easily	-8.28537
▁ex	-8.28537
▁goosebump	-8.28537
▁growing	-8.28537
▁hobby	-8.28537
▁hospital	-8.28537
▁management	-8.28537
▁miserable	-8.28537
▁playing	-8.28537
▁semester	-8.28537
▁son	-8.28537
▁tomorrow	-8.28537
▁wave	-8.28537
▁computer	-8.30642
▁fail	-8.30642
▁faith	-8.30642
▁illness	-8.30642
▁noticed	-8.30642
▁opinion	-8.30642
▁overwhelmed	-8.30642
▁weak	-8.30642
▁ability	-8.32793
▁alcohol	-8.32793
▁circumstance	-8.32793
▁cost	-8.32793
▁crazy	-8.32793
▁despite	-8.32793
▁expect	-8.32793
▁grow	-8.32793
▁happier	-8.32793
▁headache	-8.32793
▁loser	-8.32793
▁perfect	-8.32793
▁relax	-8.32793
▁skill	-8.32793
▁spiritual	-8.32793
▁sun	-8.32793
▁upset	-8.32793
▁yesterday	-8.32793
▁balance	-8.34991
▁chance	-8.34991
▁depressive	-8.34991
▁eligible	-8.34991
▁emotionally	-8.34991
▁ended	-8.34991
▁exhausted	-8.34991
▁failed	-8.34991
▁interesting	-8.34991
▁internet	-8.34991
▁ive	-8.34991
▁method	-8.34991
▁movie	-8.34991
▁number	-8.34991
▁paying	-8.34991
▁questionnaire	-8.34991
▁shitty	-8.34991
▁useless	-8.34991
▁allowed	-8.37238
▁becoming	-8.37238
▁blood	-8.37238
▁busy	-8.37238
▁challenge	-8.37238
▁condition	-8.37238
▁dead	-8.37238
▁dying	-8.37238
▁fix	-8.37238
▁hoping	-8.37238
▁lazy	-8.37238
▁mad	-8.37238
▁oh	-8.37238
▁related	-8.37238
▁text	-8.37238
▁awful	-8.39537
▁brings	-8.39537
▁chill	-8.39537
▁drink	-8.39537
▁fault	-8.39537
▁final	-8.39537
▁google	-8.39537
▁honest	-8.39537
▁ill	-8.39537
▁main	-8.39537
▁meaning	-8.39537
▁personality	-8.39537
▁progress	-8.39537
▁source	-8.39537
▁uni	-8.39537
▁visit	-8.39537
▁birthday	-8.4189
▁brief	-8.4189
▁buy	-8.4189
▁cold	-8.4189
▁finish	-8.4189
▁focused	-8.4189
▁non	-8.4189
▁relaxing	-8.4189
▁session	-8.4189
▁speak	-8.4189
▁tend	-8.4189
▁vent	-8.4189
▁waste	-8.4189
▁yeah	-8.4189
▁although	-8.443
▁app	-8.443
▁benefit	-8.443
▁breaking	-8.443
▁build	-8.443
▁causing	-8.443
▁creating	-8.443
▁email	-8.443
▁mention	-8.443
▁multiple	-8.443
▁quote	-8.443
▁receive	-8.443
▁regret	-8.443
▁screen	-8.443
▁sibling	-8.443
▁supplement	-8.443
▁system	-8.443
▁ups	-8.443
▁wonder	-8.443
▁broken	-8.46769
▁burden	-8.46769
▁community	-8.46769
▁damn	-8.46769
▁dark	-8.46769
▁effort	-8.46769
▁except	-8.46769
▁failing	-8.46769
▁field	-8.46769
▁gave	-8.46769
▁guilty	-8.46769
▁husband	-8.46769
▁line	-8.46769
▁none	-8.46769
▁office	-8.46769
▁r	-8.46769
▁response	-8.46769
▁seemed	-8.46769
▁somewhere	-8.46769
▁specific	-8.46769
▁tool	-8.46769
▁weekend	-8.46769
▁begin	-8.49301
▁drinking	-8.49301
▁earth	-8.49301
▁experiencing	-8.49301
▁falling	-8.49301
▁fully	-8.49301
▁impossible	-8.49301
▁including	-8.49301
▁insecurity	-8.49301
▁leaving	-8.49301
▁platform	-8.49301
▁random	-8.49301
▁safe	-8.49301
▁schedule	-8.49301
▁task	-8.49301
▁value	-8.49301
▁voice	-8.49301
▁weight	-8.49301
▁abuse	-8.51898
▁brought	-8.51898
▁city	-8.51898
▁detail	-8.51898
▁difference	-8.51898
▁fucked	-8.51898
▁helpful	-8.51898
▁loss	-8.51898
▁march	-8.51898
▁older	-8.51898
▁painful	-8.51898
▁sign	-8.51898
▁spotify	-8.51898
▁stomach	-8.51898
▁track	-8.51898
▁tv	-8.51898
▁waking	-8.51898
▁affect	-8.54565
▁bc	-8.54565
▁beginning	-8.54565
▁com	-8.54565
▁higher	-8.54565
▁keeping	-8.54565
▁key	-8.54565
▁nearly	-8.54565
▁piece	-8.54565
▁shift	-8.54565
▁smart	-8.54565
▁solution	-8.54565
▁unless	-8.54565
▁walking	-8.54565
▁worthless	-8.54565
▁apartment	-8.57305
▁apple	-8.57305
▁b	-8.57305
▁caught	-8.57305
▁coping	-8.57305
▁education	-8.57305
▁excuse	-8.57305
▁feedback	-8.57305
▁hurting	-8.57305
▁increase	-8.57305
▁insomnia	-8.57305
▁men	-8.57305
▁mindfulness	-8.57305
▁natural	-8.57305
▁overcome	-8.57305
▁partner	-8.57305
▁pill	-8.57305
▁program	-8.57305
▁psychiatrist	-8.57305
▁relieve	-8.57305
▁seriously	-8.57305
▁staying	-8.57305
▁suddenly	-8.57305
▁summer	-8.57305
▁tough	-8.57305
▁afford	-8.60122
▁beat	-8.60122
▁chronic	-8.60122
▁common	-8.60122
▁created	-8.60122
▁defining	-8.60122
▁dr	-8.60122
▁exist	-8.60122
▁forced	-8.60122
▁interest	-8.60122
▁letting	-8.60122
▁lol	-8.60122
▁meeting	-8.60122
▁offer	-8.60122
▁public	-8.60122
▁quick	-8.60122
▁running	-8.60122
▁subject	-8.60122
▁throughout	-8.60122
▁win	-8.60122
▁antidepressant	-8.63021
▁avoid	-8.63021
▁boundary	-8.63021
▁changing	-8.63021
▁compassion	-8.63021
▁date	-8.63021
▁deeper	-8.63021
▁direction	-8.63021
▁door	-8.63021
▁extra	-8.63021
▁fighting	-8.63021
▁immediately	-8.63021
▁laugh	-8.63021
▁loneliness	-8.63021
▁news	-8.63021
▁patience	-8.63021
▁reply	-8.63021
▁sex	-8.63021
▁strength	-8.63021
▁topic	-8.63021
▁treat	-8.63021
▁yoga	-8.63021
▁anywhere	-8.66006
▁attempt	-8.66006
▁blame	-8.66006
▁closer	-8.66006
▁develop	-8.66006
▁environment	-8.66006
▁filled	-8.66006
▁held	-8.66006
▁homework	-8.66006
▁hopefully	-8.66006
▁liked	-8.66006
▁looked	-8.66006
▁middle	-8.66006
▁motivated	-8.66006
▁obviously	-8.66006
▁picture	-8.66006
▁poor	-8.66006
▁powerful	-8.66006
▁pretending	-8.66006
▁professional	-8.66006
▁seek	-8.66006
▁seeking	-8.66006
▁serious	-8.66006
▁special	-8.66006
▁strategy	-8.66006
▁tear	-8.66006
▁totally	-8.66006
▁touch	-8.66006
▁toxic	-8.66006
▁trigger	-8.66006
▁unable	-8.66006
▁uncomfortable	-8.66006
▁consider	-8.69083
▁darkness	-8.69083
▁dating	-8.69083
▁didnt	-8.69083
▁drop	-8.69083
▁e	-8.69083
▁escape	-8.69083
▁film	-8.69083
▁genuinely	-8.69083
▁gift	-8.69083
▁greatly	-8.69083
▁incredibly	-8.69083
▁normally	-8.69083
▁onto	-8.69083
▁otherwise	-8.69083
▁paid	-8.69083
▁passed	-8.69083
▁quickly	-8.69083
▁rate	-8.69083
▁responsibility	-8.69083
▁rush	-8.69083
▁stage	-8.69083
▁struggled	-8.69083
▁syndrome	-8.69083
▁baby	-8.72258
▁cancer	-8.72258
▁case	-8.72258
▁clean	-8.72258
▁concentrate	-8.72258
▁confidence	-8.72258
▁cried	-8.72258
▁ease	-8.72258
▁fit	-8.72258
▁guide	-8.72258
▁heal	-8.72258
▁heavy	-8.72258
▁lay	-8.72258
▁leg	-8.72258
▁male	-8.72258
▁naturally	-8.72258
▁podcast	-8.72258
▁position	-8.72258
▁rant	-8.72258
▁send	-8.72258
▁training	-8.72258
▁trouble	-8.72258
▁twice	-8.72258
▁alot	-8.75537
▁anyways	-8.75537
▁appointment	-8.75537
▁bill	-8.75537
▁building	-8.75537
▁bullshit	-8.75537
▁bunch	-8.75537
▁concept	-8.75537
▁confused	-8.75537
▁distress	-8.75537
▁divine	-8.75537
▁doubt	-8.75537
▁dropped	-8.75537
▁ending	-8.75537
▁explains	-8.75537
▁fatigue	-8.75537
▁five	-8.75537
▁forever	-8.75537
▁gf	-8.75537
▁grandma	-8.75537
▁holding	-8.75537
▁intention	-8.75537
▁join	-8.75537
▁joke	-8.75537
▁manager	-8.75537
▁quality	-8.75537
▁shut	-8.75537
▁skin	-8.75537
▁song	-8.75537
▁wall	-8.75537
▁wasted	-8.75537
▁wont	-8.75537
▁actual	-8.78927
▁air	-8.78927
▁apply	-8.78927
▁area	-8.78927
▁badly	-8.78927
▁battle	-8.78927
▁bother	-8.78927
▁cool	-8.78927
▁disappointed	-8.78927
▁embrace	-8.78927
▁excited	-8.78927
▁female	-8.78927
▁figured	-8.78927
▁financial	-8.78927
▁ground	-8.78927
▁hole	-8.78927
▁mum	-8.78927
▁posting	-8.78927
▁psychology	-8.78927
▁routine	-8.78927
▁speaking	-8.78927
▁unhappy	-8.78927
▁accepting	-8.82436
▁accident	-8.82436
▁arm	-8.82436
▁asleep	-8.82436
▁aspect	-8.82436
▁beyond	-8.82436
▁blog	-8.82436
▁bought	-8.82436
▁catch	-8.82436
▁credit	-8.82436
▁dealt	-8.82436
▁deeply	-8.82436
▁earlier	-8.82436
▁effective	-8.82436
▁existence	-8.82436
▁express	-8.82436
▁factor	-8.82436
▁harm	-8.82436
▁improvement	-8.82436
▁inner	-8.82436
▁invited	-8.82436
▁lesson	-8.82436
▁math	-8.82436
▁meditate	-8.82436
▁offering	-8.82436
▁passionate	-8.82436
▁pleasure	-8.82436
▁regularly	-8.82436
▁rent	-8.82436
▁resource	-8.82436
▁road	-8.82436
▁role	-8.82436
▁selfish	-8.82436
▁sexual	-8.82436
▁spirit	-8.82436
▁teeth	-8.82436
▁vision	-8.82436
▁younger	-8.82436
▁blue	-8.86073
▁childhood	-8.86073
▁clear	-8.86073
▁coffee	-8.86073
▁connect	-8.86073
▁connection	-8.86073
▁foot	-8.86073
▁hopeless	-8.86073
▁luck	-8.86073
▁material	-8.86073
▁mobile	-8.86073
▁note	-8.86073
▁ocd	-8.86073
▁ourself	-8.86073
▁overwhelming	-8.86073
▁presence	-8.86073
▁scary	-8.86073
▁science	-8.86073
▁sent	-8.86073
▁significant	-8.86073
▁sport	-8.86073
▁subconscious	-8.86073
▁trained	-8.86073
▁view	-8.86073
▁york	-8.86073
▁zone	-8.86073
▁annoying	-8.89847
▁available	-8.89847
▁biggest	-8.89847
▁coronavirus	-8.89847
▁everytime	-8.89847
▁fell	-8.89847
▁finished	-8.89847
▁frustration	-8.89847
▁influence	-8.89847
▁jump	-8.89847
▁latest	-8.89847
▁limit	-8.89847
▁loving	-8.89847
▁near	-8.89847
▁opposite	-8.89847
▁overall	-8.89847
▁particularly	-8.89847
▁party	-8.89847
▁productive	-8.89847
▁reaction	-8.89847
▁rule	-8.89847
▁shoulder	-8.89847
▁shown	-8.89847
▁spending	-8.89847
▁stranger	-8.89847
▁supportive	-8.89847
▁till	-8.89847
▁tl	-8.89847
▁travel	-8.89847
▁ugly	-8.89847
▁wear	-8.89847
▁willing	-8.89847
▁acting	-8.93769
▁addiction	-8.93769
▁agree	-8.93769
▁applied	-8.93769
▁began	-8.93769
▁besides	-8.93769
▁cared	-8.93769
▁certainly	-8.93769
▁courage	-8.93769
▁cuz	-8.93769
▁decade	-8.93769
▁decide	-8.93769
▁english	-8.93769
▁external	-8.93769
▁extreme	-8.93769
▁february	-8.93769
▁fresh	-8.93769
▁frustrated	-8.93769
▁hug	-8.93769
▁imagine	-8.93769
▁killed	-8.93769
▁law	-8.93769
▁led	-8.93769
▁managed	-8.93769
▁master	-8.93769
▁medical	-8.93769
▁nightmare	-8.93769
▁page	-8.93769
▁planet	-8.93769
▁properly	-8.93769
▁pushed	-8.93769
▁recognize	-8.93769
▁relaxation	-8.93769
▁separately	-8.93769
▁surface	-8.93769
▁team	-8.93769
▁throw	-8.93769
▁ultimately	-8.93769
▁useful	-8.93769
▁animal	-8.97851
▁click	-8.97851
▁columbia	-8.97851
▁connected	-8.97851
▁considered	-8.97851
▁contribute	-8.97851
▁creative	-8.97851
▁definitely	-8.97851
▁distance	-8.97851
▁dumb	-8.97851
▁edge	-8.97851
▁exact	-8.97851
▁exhausting	-8.97851
▁facing	-8.97851
▁graduated	-8.97851
▁hang	-8.97851
▁imposter	-8.97851
▁intense	-8.97851
▁internal	-8.97851
▁likely	-8.97851
▁married	-8.97851
▁medicine	-8.97851
▁participate	-8.97851
▁passing	-8.97851
▁pathetic	-8.97851
▁pop	-8.97851
▁pre	-8.97851
▁provide	-8.97851
▁ptsd	-8.97851
▁refuse	-8.97851
▁respond	-8.97851
▁rich	-8.97851
▁scare	-8.97851
▁shared	-8.97851
▁six	-8.97851
▁solve	-8.97851
▁somewhat	-8.97851
▁suggestion	-8.97851
▁teach	-8.97851
▁teaching	-8.97851
▁tonight	-8.97851
▁train	-8.97851
▁unfortunately	-8.97851
▁wisdom	-8.97851
▁wrote	-8.97851
▁addition	-9.02107
▁author	-9.02107
▁average	-9.02107
▁card	-9.02107
▁celebrate	-9.02107
▁chat	-9.02107
▁checked	-9.02107
▁clinician	-9.02107
▁debt	-9.02107
▁define	-9.02107
▁drunk	-9.02107
▁ego	-9.02107
▁enjoying	-9.02107
▁everywhere	-9.02107
▁existing	-9.02107
▁fog	-9.02107
▁forgot	-9.02107
▁friendship	-9.02107
▁function	-9.02107
▁grew	-9.02107
▁holiday	-9.02107
▁judge	-9.02107
▁loan	-9.02107
▁loud	-9.02107
▁mechanism	-9.02107
▁missed	-9.02107
▁noise	-9.02107
▁possibly	-9.02107
▁psychological	-9.02107
▁pull	-9.02107
▁raise	-9.02107
▁realised	-9.02107
▁repeat	-9.02107
▁rid	-9.02107
▁root	-9.02107
▁sensation	-9.02107
▁smoking	-9.02107
▁sober	-9.02107
▁specially	-9.02107
▁stick	-9.02107
▁tea	-9.02107
▁tho	-9.02107
▁title	-9.02107
▁turning	-9.02107
▁valid	-9.02107
▁wealth	-9.02107
▁wellbeing	-9.02107
▁worker	-9.02107
▁acknowledge	-9.06553
▁among	-9.06553
▁bathroom	-9.06553
▁becomes	-9.06553
▁calling	-9.06553
▁channel	-9.06553
▁christmas	-9.06553
▁compensated	-9.06553
▁considering	-9.06553
▁cover	-9.06553
▁daughter	-9.06553
▁decent	-9.06553
▁feature	-9.06553
▁january	-9.06553
▁judgement	-9.06553
▁lucky	-9.06553
▁managing	-9.06553
▁mindful	-9.06553
▁novel	-9.06553
▁overthinking	-9.06553
▁private	-9.06553
▁realise	-9.06553
▁realizing	-9.06553
▁respect	-9.06553
▁screaming	-9.06553
▁sky	-9.06553
▁terrified	-9.06553
▁thousand	-9.06553
▁thus	-9.06553
▁trans	-9.06553
▁wow	-9.06553
▁abundance	-9.11205
▁abusive	-9.11205
▁access	-9.11205
▁allows	-9.11205
▁apparently	-9.11205
▁application	-9.11205
▁attitude	-9.11205
▁basic	-9.11205
▁bf	-9.11205
▁character	-9.11205
▁embracing	-9.11205
▁euphoria	-9.11205
▁floor	-9.11205
▁followed	-9.11205
▁generally	-9.11205
▁gmail	-9.11205
▁graduate	-9.11205
▁hardly	-9.11205
▁highschool	-9.11205
▁identity	-9.11205
▁ignore	-9.11205
▁mainly	-9.11205
▁maintain	-9.11205
▁meditating	-9.11205
▁misery	-9.11205
▁nervous	-9.11205
▁pick	-9.11205
▁planning	-9.11205
▁plant	-9.11205
▁played	-9.11205
▁pm	-9.11205
▁product	-9.11205
▁psychologist	-9.11205
▁rare	-9.11205
▁react	-9.11205
▁rn	-9.11205
▁secret	-9.11205
▁service	-9.11205
▁slept	-9.11205
▁succeed	-9.11205
▁trip	-9.11205
▁vacation	-9.11205
▁various	-9.11205
▁vulnerable	-9.11205
▁welcome	-9.11205
▁accepted	-9.16084
▁accomplish	-9.16084
▁achieving	-9.16084
▁affection	-9.16084
▁atleast	-9.16084
▁blessing	-9.16084
▁block	-9.16084
▁blocked	-9.16084
▁bottle	-9.16084
▁bottom	-9.16084
▁bright	-9.16084
▁center	-9.16084
▁chi	-9.16084
▁conscious	-9.16084
▁development	-9.16084
▁disappointment	-9.16084
▁discover	-9.16084
▁edit	-9.16084
▁empathy	-9.16084
▁esteem	-9.16084
▁evening	-9.16084
▁everybody	-9.16084
▁hanging	-9.16084
▁happinessnow	-9.16084
▁hated	-9.16084
▁hormone	-9.16084
▁industry	-9.16084
▁innovative	-9.16084
▁isolation	-9.16084
▁kindness	-9.16084
▁lockdown	-9.16084
▁muscle	-9.16084
▁painting	-9.16084
▁per	-9.16084
▁popular	-9.16084
▁prana	-9.16084
▁pretend	-9.16084
▁produce	-9.16084
▁pursue	-9.16084
▁quiet	-9.16084
▁reached	-9.16084
▁realization	-9.16084
▁recent	-9.16084
▁regular	-9.16084
▁save	-9.16084
▁season	-9.16084
▁series	-9.16084
▁slow	-9.16084
▁soothing	-9.16084
▁stopping	-9.16084
▁suffered	-9.16084
▁sweet	-9.16084
▁taught	-9.16084
▁telehealth	-9.16084
▁trash	-9.16084
▁utilize	-9.16084
▁venting	-9.16084
▁war	-9.16084
▁yorkers	-9.16084
▁absolute	-9.21213
▁added	-9.21213
▁adhd	-9.21213
▁ahead	-9.21213
▁allowing	-9.21213
▁attractive	-9.21213
▁aura	-9.21213
▁bank	-9.21213
▁bos	-9.21213
▁bringing	-9.21213
▁calming	-9.21213
▁chore	-9.21213
▁clothes	-9.21213
▁combination	-9.21213
▁compare	-9.21213
▁compared	-9.21213
▁conclusion	-9.21213
▁consume	-9.21213
▁convince	-9.21213
▁dramatic	-9.21213
▁driven	-9.21213
▁explaining	-9.21213
▁fake	-9.21213
▁fixed	-9.21213
▁folk	-9.21213
▁greatest	-9.21213
▁income	-9.21213
▁journal	-9.21213
▁lying	-9.21213
▁meal	-9.21213
▁mid	-9.21213
▁monday	-9.21213
▁nurse	-9.21213
▁p	-9.21213
▁participation	-9.21213
▁particular	-9.21213
▁payment	-9.21213
▁pet	-9.21213
▁porn	-9.21213
▁previous	-9.21213
▁principle	-9.21213
▁relaxed	-9.21213
▁return	-9.21213
▁roommate	-9.21213
▁saving	-9.21213
▁sensitive	-9.21213
▁sentence	-9.21213
▁shake	-9.21213
▁shape	-9.21213
▁showing	-9.21213
▁site	-9.21213
▁smiling	-9.21213
▁store	-9.21213
▁sub	-9.21213
▁tiny	-9.21213
▁unique	-9.21213
▁weed	-9.21213
▁wise	-9.21213
▁abused	-9.2662
▁acceptance	-9.2662
▁alternative	-9.2662
▁anti	-9.2662
▁anytime	-9.2662
▁argument	-9.2662
▁background	-9.2662
▁bigger	-9.2662
▁bitch	-9.2662
▁cat	-9.2662
▁chose	-9.2662
▁clearly	-9.2662
▁commit	-9.2662
▁conditioned	-9.2662
▁consequence	-9.2662
▁context	-9.2662
▁core	-9.2662
▁crap	-9.2662
▁crisis	-9.2662
▁customer	-9.2662
▁data	-9.2662
▁developed	-9.2662
▁directly	-9.2662
▁disease	-9.2662
▁distant	-9.2662
▁doesnt	-9.2662
▁dollar	-9.2662
▁essay	-9.2662
▁favorite	-9.2662
▁frequently	-9.2662
▁funny	-9.2662
▁guided	-9.2662
▁healthier	-9.2662
▁hearing	-9.2662
▁hide	-9.2662
▁hitting	-9.2662
▁judging	-9.2662
▁leading	-9.2662
▁load	-9.2662
▁local	-9.2662
▁mask	-9.2662
▁min	-9.2662
▁minor	-9.2662
▁mix	-9.2662
▁monster	-9.2662
▁motivate	-9.2662
▁nerve	-9.2662
▁outcome	-9.2662
▁performance	-9.2662
▁perhaps	-9.2662
▁prior	-9.2662
▁promotion	-9.2662
▁prove	-9.2662
▁released	-9.2662
▁rising	-9.2662
▁shower	-9.2662
▁slip	-9.2662
▁socially	-9.2662
▁stressor	-9.2662
▁stronger	-9.2662
▁sudden	-9.2662
▁sunshine	-9.2662
▁talent	-9.2662
▁teenager	-9.2662
▁treated	-9.2662
▁urge	-9.2662
▁version	-9.2662
▁walked	-9.2662
▁wonderful	-9.2662
▁xanax	-9.2662
▁annoyed	-9.32335
▁applying	-9.32335
▁basis	-9.32335
▁bike	-9.32335
▁boring	-9.32335
▁bothering	-9.32335
▁built	-9.32335
▁burnt	-9.32335
▁caring	-9.32335
▁chemical	-9.32335
▁complain	-9.32335
▁countless	-9.32335
▁craft	-9.32335
▁culture	-9.32335
▁curious	-9.32335
▁desperately	-9.32335
▁diary	-9.32335
▁discus	-9.32335
▁drawing	-9.32335
▁ecstasy	-9.32335
▁financially	-9.32335
▁grab	-9.32335
▁guilt	-9.32335
▁gym	-9.32335
▁hardest	-9.32335
▁history	-9.32335
▁increased	-9.32335
▁info	-9.32335
▁insane	-9.32335
▁involved	-9.32335
▁jesus	-9.32335
▁lasted	-9.32335
▁lo	-9.32335
▁marriage	-9.32335
▁mg	-9.32335
▁paper	-9.32335
▁pattern	-9.32335
▁perception	-9.32335
▁perform	-9.32335
▁personally	-9.32335
▁philosophy	-9.32335
▁photo	-9.32335
▁plus	-9.32335
▁pure	-9.32335
▁ride	-9.32335
▁roosh	-9.32335
▁rough	-9.32335
▁ruined	-9.32335
▁senior	-9.32335
▁setting	-9.32335
▁smoke	-9.32335
▁specifically	-9.32335
▁spring	-9.32335
▁stutter	-9.32335
▁total	-9.32335
▁uk	-9.32335
▁vitamin	-9.32335
▁white	-9.32335
▁zoom	-9.32335
▁addict	-9.38398
▁advance	-9.38398
▁affected	-9.38398
▁affirmation	-9.38398
▁alice	-9.38398
▁appetite	-9.38398
▁approach	-9.38398
▁artist	-9.38398
▁aside	-9.38398
▁authentic	-9.38398
▁bear	-9.38398
▁boy	-9.38398
▁brand	-9.38398
▁capacity	-9.38398
▁challenging	-9.38398
▁church	-9.38398
▁claim	-9.38398
▁closed	-9.38398
▁coach	-9.38398
▁cutting	-9.38398
▁december	-9.38398
▁designed	-9.38398
▁difficulty	-9.38398
▁disappear	-9.38398
▁draw	-9.38398
▁ear	-9.38398
▁entirely	-9.38398
▁fire	-9.38398
▁flow	-9.38398
▁green	-9.38398
▁grief	-9.38398
▁homeless	-9.38398
▁improved	-9.38398
▁insight	-9.38398
▁instagram	-9.38398
▁invite	-9.38398
▁kick	-9.38398
▁large	-9.38398
▁lift	-9.38398
▁messed	-9.38398
▁mild	-9.38398
▁mile	-9.38398
▁neck	-9.38398
▁negativity	-9.38398
▁neglect	-9.38398
▁noticing	-9.38398
▁nowhere	-9.38398
▁peaceful	-9.38398
▁piano	-9.38398
▁planned	-9.38398
▁police	-9.38398
▁political	-9.38398
▁practicing	-9.38398
▁prescribed	-9.38398
▁prevent	-9.38398
▁quitting	-9.38398
▁radical	-9.38398
▁recommend	-9.38398
▁regarding	-9.38398
▁sat	-9.38398
▁scream	-9.38398
▁smell	-9.38398
▁snap	-9.38398
▁somebody	-9.38398
▁sometime	-9.38398
▁spare	-9.38398
▁spoken	-9.38398
▁standard	-9.38398
▁table	-9.38398
▁tendency	-9.38398
▁tight	-9.38398
▁town	-9.38398
▁tunnel	-9.38398
▁uncle	-9.38398
▁voluntary	-9.38398
▁ward	-9.38398
▁warm	-9.38398
▁website	-9.38398
▁wind	-9.38398
▁yelling	-9.38398
▁zero	-9.38398
▁alright	-9.44852
▁attraction	-9.44852
▁believed	-9.44852
▁capable	-9.44852
▁club	-9.44852
▁clue	-9.44852
▁completed	-9.44852
▁complicated	-9.44852
▁connecting	-9.44852
▁count	-9.44852
▁critical	-9.44852
▁cup	-9.44852
▁delete	-9.44852
▁depressing	-9.44852
▁differently	-9.44852
▁distraction	-9.44852
▁emptiness	-9.44852
▁expected	-9.44852
▁f	-9.44852
▁fi	-9.44852
▁frequency	-9.44852
▁gain	-9.44852
▁graduating	-9.44852
▁highest	-9.44852
▁infinite	-9.44852
▁instantly	-9.44852
▁intervention	-9.44852
▁laptop	-9.44852
▁laughing	-9.44852
▁laying	-9.44852
▁leaf	-9.44852
▁letter	-9.44852
▁mana	-9.44852
▁melody	-9.44852
▁neither	-9.44852
▁ocean	-9.44852
▁pleasing	-9.44852
▁possibility	-9.44852
▁posted	-9.44852
▁prepared	-9.44852
▁professor	-9.44852
▁qi	-9.44852
▁quarantine	-9.44852
▁rapture	-9.44852
▁report	-9.44852
▁request	-9.44852
▁rise	-9.44852
▁satisfaction	-9.44852
▁scale	-9.44852
▁score	-9.44852
▁searching	-9.44852
▁silence	-9.44852
▁stable	-9.44852
▁subreddit	-9.44852
▁swear	-9.44852
▁tbh	-9.44852
▁third	-9.44852
▁ton	-9.44852
▁tracking	-9.44852
▁trick	-9.44852
▁triggered	-9.44852
▁understands	-9.44852
▁understood	-9.44852
▁unhealthy	-9.44852
▁upon	-9.44852
▁usual	-9.44852
▁vulnerability	-9.44852
▁wearing	-9.44852
▁youth	-9.44852
▁achievement	-9.51751
▁advantage	-9.51751
▁affecting	-9.51751
▁anonymous	-9.51751
▁apologize	-9.51751
▁assumption	-9.51751
▁attached	-9.51751
▁awkward	-9.51751
▁behavior	-9.51751
▁behaviour	-9.51751
▁bipolar	-9.51751
▁bored	-9.51751
▁client	-9.51751
▁cognitive	-9.51751
▁commitment	-9.51751
▁complex	-9.51751
▁continues	-9.51751
▁convinced	-9.51751
▁counselor	-9.51751
▁criticism	-9.51751
▁describe	-9.51751
▁desperate	-9.51751
▁diagnosis	-9.51751
▁distract	-9.51751
▁distracted	-9.51751
▁dull	-9.51751
▁editing	-9.51751
▁famous	-9.51751
▁finger	-9.51751
▁forum	-9.51751
▁gathering	-9.51751
▁gentle	-9.51751
▁gpa	-9.51751
▁hardship	-9.51751
▁helper	-9.51751
▁highly	-9.51751
▁hot	-9.51751
▁hung	-9.51751
▁ice	-9.51751
▁ielts	-9.51751
▁instant	-9.51751
▁jaw	-9.51751
▁l	-9.51751
▁license	-9.51751
▁majority	-9.51751
▁market	-9.51751
▁mentioned	-9.51751
▁mirror	-9.51751
▁mouth	-9.51751
▁nauseous	-9.51751
▁observe	-9.51751
▁plate	-9.51751
▁prescription	-9.51751
▁reaching	-9.51751
▁received	-9.51751
▁recover	-9.51751
▁recovered	-9.51751
▁recovering	-9.51751
▁resolve	-9.51751
▁review	-9.51751
▁reward	-9.51751
▁roof	-9.51751
▁severely	-9.51751
▁shame	-9.51751
▁shine	-9.51751
▁spoke	-9.51751
▁spot	-9.51751
▁stayed	-9.51751
▁surgery	-9.51751
▁surrounded	-9.51751
▁taste	-9.51751
▁tested	-9.51751
▁toll	-9.51751
▁toward	-9.51751
▁toy	-9.51751
▁tutorial	-9.51751
▁unit	-9.51751
▁virus	-9.51751
▁winner	-9.51751
▁woke	-9.51751
▁accountability	-9.59162
▁admit	-9.59162
▁afterwards	-9.59162
▁agreed	-9.59162
▁apps	-9.59162
▁arise	-9.59162
▁attend	-9.59162
▁autism	-9.59162
▁awesome	-9.59162
▁band	-9.59162
▁beloved	-9.59162
▁bothered	-9.59162
▁burn	-9.59162
▁buying	-9.59162
▁c	-9.59162
▁cell	-9.59162
▁chosen	-9.59162
▁cloud	-9.59162
▁co	-9.59162
▁concerned	-9.59162
▁corner	-9.59162
▁correct	-9.59162
▁cousin	-9.59162
▁crush	-9.59162
▁cure	-9.59162
▁deadline	-9.59162
▁dear	-9.59162
▁dedication	-9.59162
▁destination	-9.59162
▁destroyed	-9.59162
▁developing	-9.59162
▁diet	-9.59162
▁dinner	-9.59162
▁dorm	-9.59162
▁drama	-9.59162
▁drowning	-9.59162
▁endless	-9.59162
▁enemy	-9.59162
▁essentially	-9.59162
▁extended	-9.59162
▁faster	-9.59162
▁finance	-9.59162
▁fkn	-9.59162
▁fold	-9.59162
▁friday	-9.59162
▁fulfilling	-9.59162
▁gained	-9.59162
▁gas	-9.59162
▁gender	-9.59162
▁glad	-9.59162
▁gotta	-9.59162
▁government	-9.59162
▁guidance	-9.59162
▁happiest	-9.59162
▁ignored	-9.59162
▁immune	-9.59162
▁improving	-9.59162
▁induced	-9.59162
▁inspiration	-9.59162
▁insurance	-9.59162
▁interaction	-9.59162
▁joined	-9.59162
▁journaling	-9.59162
▁language	-9.59162
▁lifestyle	-9.59162
▁linear	-9.59162
▁loop	-9.59162
▁lovely	-9.59162
▁marketing	-9.59162
▁massive	-9.59162
▁minimum	-9.59162
▁mri	-9.59162
▁necessarily	-9.59162
▁necessary	-9.59162
▁nephesch	-9.59162
▁numbness	-9.59162
▁occasionally	-9.59162
▁opening	-9.59162
▁organization	-9.59162
▁paint	-9.59162
▁perfectly	-9.59162
▁persistence	-9.59162
▁plenty	-9.59162
▁potential	-9.59162
▁productivity	-9.59162
▁psych	-9.59162
▁punch	-9.59162
▁remove	-9.59162
▁ruah	-9.59162
▁ruin	-9.59162
▁saved	-9.59162
▁scenario	-9.59162
▁shaking	-9.59162
▁solely	-9.59162
▁speed	-9.59162
▁strange	-9.59162
▁strongly	-9.59162
▁supported	-9.59162
▁teenage	-9.59162
▁tldr	-9.59162
▁touched	-9.59162
▁twitch	-9.59162
▁unexpected	-9.59162
▁ungrateful	-9.59162
▁vice	-9.59162
▁violent	-9.59162
▁weather	-9.59162
▁wheel	-9.59162
▁whose	-9.59162
▁winning	-9.59162
▁withdrawal	-9.59162
▁workload	-9.59162
▁worthy	-9.59162
▁wound	-9.59162
▁x	-9.59162
▁abby	-9.67166
▁accomplishment	-9.67166
▁achieved	-9.67166
▁ad	-9.67166
▁alarm	-9.67166
▁ambitious	-9.67166
▁answering	-9.67166
▁august	-9.67166
▁awake	-9.67166
▁box	-9.67166
▁canada	-9.67166
▁charge	-9.67166
▁cheer	-9.67166
▁clinic	-9.67166
▁communicate	-9.67166
▁confident	-9.67166
▁crash	-9.67166
▁creation	-9.67166
▁creativity	-9.67166
▁crowd	-9.67166
▁dig	-9.67166
▁director	-9.67166
▁dirty	-9.67166
▁dm	-9.67166
▁drag	-9.67166
▁drained	-9.67166
▁driver	-9.67166
▁employee	-9.67166
▁entrepreneur	-9.67166
▁ethic	-9.67166
▁everyones	-9.67166
▁evidence	-9.67166
▁evil	-9.67166
▁facebook	-9.67166
▁favour	-9.67166
▁feed	-9.67166
▁fired	-9.67166
▁flat	-9.67166
▁forth	-9.67166
▁freedom	-9.67166
▁functioning	-9.67166
▁fundraiser	-9.67166
▁gaming	-9.67166
▁grown	-9.67166
▁gun	-9.67166
▁healthcare	-9.67166
▁helpless	-9.67166
▁hungry	-9.67166
▁identify	-9.67166
▁illusion	-9.67166
▁impacted	-9.67166
▁importance	-9.67166
▁include	-9.67166
▁injury	-9.67166
▁inspire	-9.67166
▁inspiring	-9.67166
▁instance	-9.67166
▁isolated	-9.67166
▁jealous	-9.67166
▁jeremy	-9.67166
▁judged	-9.67166
▁jumping	-9.67166
▁launched	-9.67166
▁narcissistic	-9.67166
▁neurologist	-9.67166
▁nowadays	-9.67166
▁organized	-9.67166
▁paranoid	-9.67166
▁participating	-9.67166
▁pass	-9.67166
▁paul	-9.67166
▁permission	-9.67166
▁pillar	-9.67166
▁pissed	-9.67166
▁playlist	-9.67166
▁price	-9.67166
▁profile	-9.67166
▁promoted	-9.67166
▁race	-9.67166
▁raised	-9.67166
▁ran	-9.67166
▁range	-9.67166
▁rarely	-9.67166
▁recognizing	-9.67166
▁record	-9.67166
▁red	-9.67166
▁reflect	-9.67166
▁reminds	-9.67166
▁require	-9.67166
▁restriction	-9.67166
▁risk	-9.67166
▁rock	-9.67166
▁row	-9.67166
▁sale	-9.67166
▁sell	-9.67166
▁shot	-9.67166
▁smarter	-9.67166
▁spiral	-9.67166
▁spirituality	-9.67166
▁streaming	-9.67166
▁sunday	-9.67166
▁sunny	-9.67166
▁surely	-9.67166
▁surprised	-9.67166
▁survive	-9.67166
▁teen	-9.67166
▁temporary	-9.67166
▁thankfully	-9.67166
▁thread	-9.67166
▁threw	-9.67166
▁throat	-9.67166
▁trapped	-9.67166
▁trial	-9.67166
▁typing	-9.67166
▁weakness	-9.67166
▁winter	-9.67166
▁wishing	-9.67166
▁yell	-9.67166
▁accomplished	-9.75867
▁accountable	-9.75867
▁active	-9.75867
▁aim	-9.75867
▁album	-9.75867
▁april	-9.75867
▁asshole	-9.75867
▁aunt	-9.75867
▁avoiding	-9.75867
▁ball	-9.75867
▁beauty	-9.75867
▁beg	-9.75867
▁bird	-9.75867
▁birth	-9.75867
▁black	-9.75867
▁blind	-9.75867
▁boost	-9.75867
▁cake	-9.75867
▁chaos	-9.75867
▁cheap	-9.75867
▁clock	-9.75867
▁consistent	-9.75867
▁corona	-9.75867
▁coworker	-9.75867
▁creator	-9.75867
▁damage	-9.75867
▁definition	-9.75867
▁depth	-9.75867
▁discovered	-9.75867
▁disgusting	-9.75867
▁dose	-9.75867
▁dread	-9.75867
▁effectively	-9.75867
▁eliminate	-9.75867
▁embarrassed	-9.75867
▁encouraged	-9.75867
▁excitement	-9.75867
▁expecting	-9.75867
▁expert	-9.75867
▁explanation	-9.75867
▁explode	-9.75867
▁exploring	-9.75867
▁favourite	-9.75867
▁finishing	-9.75867
▁fortunate	-9.75867
▁freaking	-9.75867
▁ghost	-9.75867
▁goodbye	-9.75867
▁grandpa	-9.75867
▁havent	-9.75867
▁hoped	-9.75867
▁idiot	-9.75867
▁ignoring	-9.75867
▁independent	-9.75867
▁inevitable	-9.75867
▁initially	-9.75867
▁intelligence	-9.75867
▁isnt	-9.75867
▁j	-9.75867
▁lasting	-9.75867
▁lung	-9.75867
▁mark	-9.75867
▁measure	-9.75867
▁mentor	-9.75867
▁minded	-9.75867
▁minimal	-9.75867
▁modern	-9.75867
▁movement	-9.75867
▁negatively	-9.75867
▁obvious	-9.75867
▁opposed	-9.75867
▁optimism	-9.75867
▁originally	-9.75867
▁overwhelm	-9.75867
▁patient	-9.75867
▁pause	-9.75867
▁perseverance	-9.75867
▁phase	-9.75867
▁picked	-9.75867
▁pile	-9.75867
▁pointless	-9.75867
▁pound	-9.75867
▁pregnant	-9.75867
▁questioning	-9.75867
▁receiving	-9.75867
▁remind	-9.75867
▁reminded	-9.75867
▁replace	-9.75867
▁resilience	-9.75867
▁restaurant	-9.75867
▁retail	-9.75867
▁river	-9.75867
▁rope	-9.75867
▁rude	-9.75867
▁sadly	-9.75867
▁server	-9.75867
▁shining	-9.75867
▁shorter	-9.75867
▁shy	-9.75867
▁silent	-9.75867
▁silly	-9.75867
▁solo	-9.75867
▁speaker	-9.75867
▁statement	-9.75867
▁storm	-9.75867
▁stroke	-9.75867
▁subconsciously	-9.75867
▁suggest	-9.75867
▁surprise	-9.75867
▁ten	-9.75867
▁tends	-9.75867
▁thankful	-9.75867
▁throwing	-9.75867
▁tiring	-9.75867
▁transform	-9.75867
▁traumatic	-9.75867
▁tw	-9.75867
▁ugh	-9.75867
▁unknown	-9.75867
▁unmotivated	-9.75867
▁victim	-9.75867
▁wasting	-9.75867
▁weekly	-9.75867
▁whilst	-9.75867
▁workout	-9.75867
▁writer	-9.75867
▁written	-9.75867
▁answered	-9.85398
▁appear	-9.85398
▁approval	-9.85398
▁ate	-9.85398
▁bag	-9.85398
▁bald	-9.85398
▁beating	-9.85398
▁betty	-9.85398
▁blaming	-9.85398
▁bloom	-9.85398
▁bpd	-9.85398
▁bullied	-9.85398
▁burned	-9.85398
▁calendar	-9.85398
▁cancel	-9.85398
▁chasing	-9.85398
▁clarity	-9.85398
▁closest	-9.85398
▁communication	-9.85398
▁commute	-9.85398
▁complaining	-9.85398
▁concentration	-9.85398
▁concern	-9.85398
▁consistently	-9.85398
▁continuing	-9.85398
▁counseling	-9.85398
▁court	-9.85398
▁cream	-9.85398
▁cross	-9.85398
▁crushing	-9.85398
▁dedicated	-9.85398
▁delay	-9.85398
▁delivered	-9.85398
▁demand	-9.85398
▁deserves	-9.85398
▁despair	-9.85398
▁dick	-9.85398
▁discord	-9.85398
▁discussion	-9.85398
▁double	-9.85398
▁draining	-9.85398
▁dude	-9.85398
▁engage	-9.85398
▁enjoyment	-9.85398
▁essential	-9.85398
▁ether	-9.85398
▁excess	-9.85398
▁exciting	-9.85398
▁exhale	-9.85398
▁extent	-9.85398
▁faced	-9.85398
▁fallen	-9.85398
▁fat	-9.85398
▁filling	-9.85398
▁flip	-9.85398
▁forgive	-9.85398
▁freshman	-9.85398
▁friendly	-9.85398
▁frustrating	-9.85398
▁fulfillment	-9.85398
▁fund	-9.85398
▁garden	-9.85398
▁graduation	-9.85398
▁greatness	-9.85398
▁hiding	-9.85398
▁ideal	-9.85398
▁india	-9.85398
▁insecure	-9.85398
▁instructor	-9.85398
▁irl	-9.85398
▁irritated	-9.85398
▁literal	-9.85398
▁lock	-9.85398
▁longevity	-9.85398
▁lower	-9.85398
▁lowest	-9.85398
▁lunch	-9.85398
▁lyme	-9.85398
▁magic	-9.85398
▁meaningful	-9.85398
▁michael	-9.85398
▁neighbor	-9.85398
▁november	-9.85398
▁obstacle	-9.85398
▁october	-9.85398
▁offered	-9.85398
▁opened	-9.85398
▁optimistic	-9.85398
▁orange	-9.85398
▁pray	-9.85398
▁probability	-9.85398
▁progression	-9.85398
▁projecting	-9.85398
▁protect	-9.85398
▁racing	-9.85398
▁radio	-9.85398
▁recognise	-9.85398
▁regardless	-9.85398
▁reminder	-9.85398
▁rnb	-9.85398
▁rushing	-9.85398
▁schoolwork	-9.85398
▁screamed	-9.85398
▁screw	-9.85398
▁search	-9.85398
▁section	-9.85398
▁seed	-9.85398
▁significantly	-9.85398
▁socialize	-9.85398
▁sore	-9.85398
▁specialist	-9.85398
▁spotlight	-9.85398
▁spread	-9.85398
▁sri	-9.85398
▁staring	-9.85398
▁street	-9.85398
▁structure	-9.85398
▁succeeding	-9.85398
▁therefore	-9.85398
▁thrive	-9.85398
▁timing	-9.85398
▁tutor	-9.85398
▁twitter	-9.85398
▁typically	-9.85398
▁unbearable	-9.85398
▁uncertainty	-9.85398
▁unemployed	-9.85398
▁unlearning	-9.85398
▁unwanted	-9.85398
▁user	-9.85398
▁vayu	-9.85398
▁via	-9.85398
▁virtual	-9.85398
▁warning	-9.85398
▁whatsoever	-9.85398
▁wide	-9.85398
▁window	-9.85398
▁abuser	-9.95934
▁ache	-9.95934
▁adderall	-9.95934
▁adding	-9.95934
▁adrenaline	-9.95934
▁ambition	-9.95934
▁anhedonia	-9.95934
▁ashamed	-9.95934
▁asks	-9.95934
▁aspiration	-9.95934
▁assuming	-9.95934
▁attain	-9.95934
▁attempted	-9.95934
▁automatically	-9.95934
▁begun	-9.95934
▁believer	-9.95934
▁bhagavan	-9.95934
▁bi	-9.95934
▁bite	-9.95934
▁bitter	-9.95934
▁blamed	-9.95934
▁boat	-9.95934
▁breakfast	-9.95934
▁bridge	-9.95934
▁btw	-9.95934
▁bum	-9.95934
▁burning	-9.95934
▁burnout	-9.95934
▁ceo	-9.95934
▁chase	-9.95934
▁cheating	-9.95934
▁collection	-9.95934
▁color	-9.95934
▁competition	-9.95934
▁conducting	-9.95934
▁consciously	-9.95934
▁consistency	-9.95934
▁consuming	-9.95934
▁cook	-9.95934
▁correctly	-9.95934
▁counting	-9.95934
▁creates	-9.95934
▁damaged	-9.95934
▁dance	-9.95934
▁determine	-9.95934
▁devastating	-9.95934
▁diabetes	-9.95934
▁diploma	-9.95934
▁drove	-9.95934
▁drown	-9.95934
▁dry	-9.95934
▁earning	-9.95934
▁ect	-9.95934
▁encouragement	-9.95934
▁energetic	-9.95934
▁enjoyed	-9.95934
▁enrolled	-9.95934
▁examining	-9.95934
▁exercising	-9.95934
▁exhaustion	-9.95934
▁expensive	-9.95934
▁explore	-9.95934
▁expressing	-9.95934
▁fade	-9.95934
▁fairly	-9.95934
▁faking	-9.95934
▁false	-9.95934
▁flash	-9.95934
▁fleeting	-9.95934
▁flower	-9.95934
▁follows	-9.95934
▁forgotten	-9.95934
▁formula	-9.95934
▁foundation	-9.95934
▁freak	-9.95934
▁fruit	-9.95934
▁gaining	-9.95934
▁gap	-9.95934
▁garbage	-9.95934
▁global	-9.95934
▁grad	-9.95934
▁gt	-9.95934
▁gut	-9.95934
▁h	-9.95934
▁hall	-9.95934
▁happily	-9.95934
▁harming	-9.95934
▁hill	-9.95934
▁ideation	-9.95934
▁imagining	-9.95934
▁item	-9.95934
▁john	-9.95934
▁ketamine	-9.95934
▁kicked	-9.95934
▁knocked	-9.95934
▁legit	-9.95934
▁lexapro	-9.95934
▁location	-9.95934
▁locked	-9.95934
▁logical	-9.95934
▁map	-9.95934
▁meanwhile	-9.95934
▁migraine	-9.95934
▁mixed	-9.95934
▁monthly	-9.95934
▁named	-9.95934
▁nausea	-9.95934
▁nervousness	-9.95934
▁ob	-9.95934
▁occasion	-9.95934
▁oneself	-9.95934
▁overnight	-9.95934
▁owner	-9.95934
▁peer	-9.95934
▁physiological	-9.95934
▁poetry	-9.95934
▁potentially	-9.95934
▁practical	-9.95934
▁prepare	-9.95934
▁press	-9.95934
▁provides	-9.95934
▁raising	-9.95934
▁realisation	-9.95934
▁realistically	-9.95934
▁religion	-9.95934
▁remain	-9.95934
▁remembered	-9.95934
▁remembering	-9.95934
▁removed	-9.95934
▁repeatedly	-9.95934
▁replaced	-9.95934
▁replied	-9.95934
▁resistance	-9.95934
▁restilen	-9.95934
▁returning	-9.95934
▁rut	-9.95934
▁scientist	-9.95934
▁sea	-9.95934
▁security	-9.95934
▁sh	-9.95934
▁smallest	-9.95934
▁snapped	-9.95934
▁snow	-9.95934
▁solving	-9.95934
▁somethings	-9.95934
▁south	-9.95934
▁spark	-9.95934
▁split	-9.95934
▁status	-9.95934
▁stepped	-9.95934
▁sticking	-9.95934
▁suggested	-9.95934
▁sunlight	-9.95934
▁suppose	-9.95934
▁surrounding	-9.95934
▁swept	-9.95934
▁threatening	-9.95934
▁thrown	-9.95934
▁truck	-9.95934
▁v	-9.95934
▁vibe	-9.95934
▁visited	-9.95934
▁vivid	-9.95934
▁vocal	-9.95934
▁wage	-9.95934
▁warmth	-9.95934
▁watched	-9.95934
▁wedding	-9.95934
▁yelled	-9.95934
▁activate	-10.0771
▁adulthood	-10.0771
▁agency	-10.0771
▁amsterdam	-10.0771
▁appearance	-10.0771
▁appreciation	-10.0771
▁approved	-10.0771
▁argue	-10.0771
▁arguing	-10.0771
▁arrive	-10.0771
▁ascension	-10.0771
▁associate	-10.0771
▁assume	-10.0771
▁attachment	-10.0771
▁audio	-10.0771
▁australia	-10.0771
▁autistic	-10.0771
▁awhile	-10.0771
▁backwards	-10.0771
▁barrier	-10.0771
▁battling	-10.0771
▁bedroom	-10.0771
▁beginner	-10.0771
▁bell	-10.0771
▁belong	-10.0771
▁betrayed	-10.0771
▁bliss	-10.0771
▁breathwork	-10.0771
▁brushing	-10.0771
▁buck	-10.0771
▁bucket	-10.0771
▁bully	-10.0771
▁bullying	-10.0771
▁burst	-10.0771
▁caffeine	-10.0771
▁cancelled	-10.0771
▁carry	-10.0771
▁celebration	-10.0771
▁challenged	-10.0771
▁chapter	-10.0771
▁characteristic	-10.0771
▁cheated	-10.0771
▁checking	-10.0771
▁cigarette	-10.0771
▁clench	-10.0771
▁clip	-10.0771
▁colleague	-10.0771
▁compassionate	-10.0771
▁confide	-10.0771
▁consideration	-10.0771
▁cortisol	-10.0771
▁coward	-10.0771
▁crippling	-10.0771
▁cured	-10.0771
▁decrease	-10.0771
▁demon	-10.0771
▁deny	-10.0771
▁depend	-10.0771
▁dependent	-10.0771
▁depressant	-10.0771
▁design	-10.0771
▁detached	-10.0771
▁disabled	-10.0771
▁disagree	-10.0771
▁dissatisfied	-10.0771
▁divorced	-10.0771
▁dopamine	-10.0771
▁download	-10.0771
▁dozen	-10.0771
▁drift	-10.0771
▁dysfunctional	-10.0771
▁ebook	-10.0771
▁educational	-10.0771
▁effexor	-10.0771
▁elementary	-10.0771
▁embarrassing	-10.0771
▁encounter	-10.0771
▁engineering	-10.0771
▁enjoyable	-10.0771
▁entered	-10.0771
▁envy	-10.0771
▁expects	-10.0771
▁fair	-10.0771
▁fancy	-10.0771
▁faridabad	-10.0771
▁farther	-10.0771
▁firstly	-10.0771
▁fly	-10.0771
▁forcing	-10.0771
▁fought	-10.0771
▁fuel	-10.0771
▁fulfilled	-10.0771
▁gay	-10.0771
▁grandmother	-10.0771
▁grey	-10.0771
▁grocery	-10.0771
▁gross	-10.0771
▁guitar	-10.0771
▁haha	-10.0771
▁harmful	-10.0771
▁hating	-10.0771
▁headed	-10.0771
▁heartbroken	-10.0771
▁hence	-10.0771
▁hollow	-10.0771
▁holy	-10.0771
▁hometown	-10.0771
▁hundred	-10.0771
▁hygiene	-10.0771
▁hyper	-10.0771
▁id	-10.0771
▁ignorance	-10.0771
▁ignorant	-10.0771
▁image	-10.0771
▁inability	-10.0771
▁incredible	-10.0771
▁inflicted	-10.0771
▁inhale	-10.0771
▁insanely	-10.0771
▁interact	-10.0771
▁internship	-10.0771
▁introverted	-10.0771
▁ishtar	-10.0771
▁jolene	-10.0771
▁june	-10.0771
▁junior	-10.0771
▁junk	-10.0771
▁king	-10.0771
▁kitchen	-10.0771
▁knife	-10.0771
▁laid	-10.0771
▁larger	-10.0771
▁league	-10.0771
▁lightheadedness	-10.0771
▁limiting	-10.0771
▁lisa	-10.0771
▁luckily	-10.0771
▁machine	-10.0771
▁mailto	-10.0771
▁manipulate	-10.0771
▁mantra	-10.0771
▁meaningless	-10.0771
▁meantime	-10.0771
▁messaged	-10.0771
▁messing	-10.0771
▁mode	-10.0771
▁motorcycle	-10.0771
▁nap	-10.0771
▁neglected	-10.0771
▁netflix	-10.0771
▁neutral	-10.0771
▁noisy	-10.0771
▁numbing	-10.0771
▁obsessing	-10.0771
▁obsessive	-10.0771
▁op	-10.0771
▁ops	-10.0771
▁outlet	-10.0771
▁oxygen	-10.0771
▁partly	-10.0771
▁pc	-10.0771
▁picking	-10.0771
▁positivity	-10.0771
▁practise	-10.0771
▁praying	-10.0771
▁precious	-10.0771
▁previously	-10.0771
▁privately	-10.0771
▁processing	-10.0771
▁promised	-10.0771
▁promos	-10.0771
▁prompt	-10.0771
▁providing	-10.0771
▁psyche	-10.0771
▁pursuit	-10.0771
▁pussy	-10.0771
▁rain	-10.0771
▁rambling	-10.0771
▁randomly	-10.0771
▁rash	-10.0771
▁reassure	-10.0771
▁recommendation	-10.0771
▁regard	-10.0771
▁rejected	-10.0771
▁relearning	-10.0771
▁releasing	-10.0771
▁reliable	-10.0771
▁relieving	-10.0771
▁religious	-10.0771
▁rely	-10.0771
▁requirement	-10.0771
▁ringing	-10.0771
▁sacred	-10.0771
▁sake	-10.0771
▁seasonal	-10.0771
▁sergio	-10.0771
▁seven	-10.0771
▁shooting	-10.0771
▁shop	-10.0771
▁showed	-10.0771
▁slightly	-10.0771
▁solid	-10.0771
▁sooner	-10.0771
▁speech	-10.0771
▁spiraling	-10.0771
▁stillness	-10.0771
▁strict	-10.0771
▁stuttering	-10.0771
▁subscribe	-10.0771
▁succeeded	-10.0771
▁supporting	-10.0771
▁sweating	-10.0771
▁target	-10.0771
▁theory	-10.0771
▁thesis	-10.0771
▁trainer	-10.0771
▁trait	-10.0771
▁translation	-10.0771
▁twenty	-10.0771
▁underneath	-10.0771
▁vital	-10.0771
▁volunteer	-10.0771
▁web	-10.0771
▁wendy	-10.0771
▁wished	-10.0771
▁abandoned	-10.2107
▁abundant	-10.2107
▁academic	-10.2107
▁according	-10.2107
▁acid	-10.2107
▁actively	-10.2107
▁adopt	-10.2107
▁afternoon	-10.2107
▁agony	-10.2107
▁alcoholic	-10.2107
▁anniversary	-10.2107
▁asap	-10.2107
▁associated	-10.2107
▁athlete	-10.2107
▁attempting	-10.2107
▁bachelor	-10.2107
▁baseline	-10.2107
▁beer	-10.2107
▁blanket	-10.2107
▁blocking	-10.2107
▁blow	-10.2107
▁board	-10.2107
▁branch	-10.2107
▁brighter	-10.2107
▁brink	-10.2107
▁capital	-10.2107
▁careful	-10.2107
▁cbt	-10.2107
▁certification	-10.2107
▁chair	-10.2107
▁circle	-10.2107
▁cleaning	-10.2107
▁clinical	-10.2107
▁code	-10.2107
▁compound	-10.2107
▁confusion	-10.2107
▁consciousness	-10.2107
▁consumption	-10.2107
▁contentment	-10.2107
▁contribution	-10.2107
▁controlled	-10.2107
▁copy	-10.2107
▁cuddle	-10.2107
▁cute	-10.2107
▁danger	-10.2107
▁dangerous	-10.2107
▁dare	-10.2107
▁deciding	-10.2107
▁deepest	-10.2107
▁dentist	-10.2107
▁derlin	-10.2107
▁described	-10.2107
▁destructive	-10.2107
▁detailed	-10.2107
▁determined	-10.2107
▁device	-10.2107
▁diego	-10.2107
▁digital	-10.2107
▁discipline	-10.2107
▁dislike	-10.2107
▁drain	-10.2107
▁dress	-10.2107
▁dwell	-10.2107
▁dysphoria	-10.2107
▁eaten	-10.2107
▁employer	-10.2107
▁endure	-10.2107
▁engaged	-10.2107
▁entering	-10.2107
▁error	-10.2107
▁evolved	-10.2107
▁evolving	-10.2107
▁expression	-10.2107
▁fame	-10.2107
▁fantasize	-10.2107
▁fantastic	-10.2107
▁fellow	-10.2107
▁fewer	-10.2107
▁fiction	-10.2107
▁file	-10.2107
▁fitness	-10.2107
▁forgetting	-10.2107
▁fragile	-10.2107
▁functional	-10.2107
▁gather	-10.2107
▁glass	-10.2107
▁gravity	-10.2107
▁grieving	-10.2107
▁grounded	-10.2107
▁grows	-10.2107
▁guard	-10.2107
▁hamster	-10.2107
▁heartbreak	-10.2107
▁hidden	-10.2107
▁hoo	-10.2107
▁horny	-10.2107
▁hr	-10.2107
▁humanity	-10.2107
▁humor	-10.2107
▁hunt	-10.2107
▁ignores	-10.2107
▁immediate	-10.2107
▁informed	-10.2107
▁intent	-10.2107
▁intrusive	-10.2107
▁involve	-10.2107
▁involves	-10.2107
▁iphone	-10.2107
▁iron	-10.2107
▁jazz	-10.2107
▁jennifer	-10.2107
▁juice	-10.2107
▁july	-10.2107
▁karma	-10.2107
▁kingdom	-10.2107
▁kiss	-10.2107
▁lash	-10.2107
▁leader	-10.2107
▁learnt	-10.2107
▁lifetime	-10.2107
▁limited	-10.2107
▁lingering	-10.2107
▁lip	-10.2107
▁lmk	-10.2107
▁logic	-10.2107
▁longest	-10.2107
▁loose	-10.2107
▁lover	-10.2107
▁maintaining	-10.2107
▁manageable	-10.2107
▁manifest	-10.2107
▁marine	-10.2107
▁mature	-10.2107
▁midterm	-10.2107
▁model	-10.2107
▁momma	-10.2107
▁motion	-10.2107
▁mud	-10.2107
▁national	-10.2107
▁nootropic	-10.2107
▁numerous	-10.2107
▁obsessed	-10.2107
▁obsession	-10.2107
▁original	-10.2107
▁ounce	-10.2107
▁overcoming	-10.2107
▁overthink	-10.2107
▁owe	-10.2107
▁park	-10.2107
▁perceived	-10.2107
▁perfection	-10.2107
▁perfectionist	-10.2107
▁petty	-10.2107
▁phrase	-10.2107
▁pounding	-10.2107
▁practiced	-10.2107
▁pregnancy	-10.2107
▁procrastinate	-10.2107
▁procrastination	-10.2107
▁proper	-10.2107
▁psychotic	-10.2107
▁pulling	-10.2107
▁punishment	-10.2107
▁pursuing	-10.2107
▁qualified	-10.2107
▁quietly	-10.2107
▁quits	-10.2107
▁rajinder	-10.2107
▁rapist	-10.2107
▁recipe	-10.2107
▁recommended	-10.2107
▁recorded	-10.2107
▁reducing	-10.2107
▁reduction	-10.2107
▁relapse	-10.2107
▁reminding	-10.2107
▁repeated	-10.2107
▁repeating	-10.2107
▁repressed	-10.2107
▁researcher	-10.2107
▁reset	-10.2107
▁resulting	-10.2107
▁rollercoaster	-10.2107
▁rushed	-10.2107
▁safety	-10.2107
▁scan	-10.2107
▁scene	-10.2107
▁scratch	-10.2107
▁screwed	-10.2107
▁selling	-10.2107
▁semi	-10.2107
▁sending	-10.2107
▁sens	-10.2107
▁september	-10.2107
▁serve	-10.2107
▁sharp	-10.2107
▁shes	-10.2107
▁shopping	-10.2107
▁shortly	-10.2107
▁shouldnt	-10.2107
▁slightest	-10.2107
▁slipping	-10.2107
▁snack	-10.2107
▁socialising	-10.2107
▁soft	-10.2107
▁soreness	-10.2107
▁sought	-10.2107
▁stare	-10.2107
▁stem	-10.2107
▁strain	-10.2107
▁striving	-10.2107
▁studied	-10.2107
▁studio	-10.2107
▁style	-10.2107
▁sucking	-10.2107
▁suit	-10.2107
▁swallow	-10.2107
▁swarm	-10.2107
▁swimming	-10.2107
▁swing	-10.2107
▁switch	-10.2107
▁tablet	-10.2107
▁technology	-10.2107
▁tense	-10.2107
▁texted	-10.2107
▁threat	-10.2107
▁thru	-10.2107
▁traffic	-10.2107
▁trajectory	-10.2107
▁trap	-10.2107
▁tree	-10.2107
▁troll	-10.2107
▁tuesday	-10.2107
▁typical	-10.2107
▁ultimate	-10.2107
▁unnecessary	-10.2107
▁validation	-10.2107
▁victory	-10.2107
▁visual	-10.2107
▁willingly	-10.2107
▁wondered	-10.2107
▁www	-10.2107
▁yellow	-10.2107
▁academically	-10.3648
▁acoustic	-10.3648
▁acted	-10.3648
▁addicted	-10.3648
▁address	-10.3648
▁adrenal	-10.3648
▁affordable	-10.3648
▁aggressive	-10.3648
▁aligning	-10.3648
▁alleviate	-10.3648
▁alt	-10.3648
▁american	-10.3648
▁analogy	-10.3648
▁ancient	-10.3648
▁announced	-10.3648
▁apologized	-10.3648
▁arises	-10.3648
▁assessment	-10.3648
▁attending	-10.3648
▁autopilot	-10.3648
▁avoided	-10.3648
▁award	-10.3648
▁backed	-10.3648
▁baggage	-10.3648
▁banned	-10.3648
▁base	-10.3648
▁begged	-10.3648
▁behavioral	-10.3648
▁belly	-10.3648
▁betrayal	-10.3648
▁binge	-10.3648
▁biological	-10.3648
▁blah	-10.3648
▁bleeding	-10.3648
▁bless	-10.3648
▁blessed	-10.3648
▁blonded	-10.3648
▁blown	-10.3648
▁bout	-10.3648
▁bread	-10.3648
▁brick	-10.3648
▁buddha	-10.3648
▁budget	-10.3648
▁bummed	-10.3648
▁bump	-10.3648
▁burger	-10.3648
▁bus	-10.3648
▁campus	-10.3648
▁catching	-10.3648
▁celebrated	-10.3648
▁charity	-10.3648
▁chatbot	-10.3648
▁chicken	-10.3648
▁christian	-10.3648
▁citizen	-10.3648
▁clearing	-10.3648
▁clothing	-10.3648
▁committee	-10.3648
▁comparison	-10.3648
▁competitive	-10.3648
▁conditioning	-10.3648
▁confront	-10.3648
▁cooking	-10.3648
▁counter	-10.3648
▁covered	-10.3648
▁coz	-10.3648
▁crave	-10.3648
▁craving	-10.3648
▁creep	-10.3648
▁crimsonpill	-10.3648
▁crucial	-10.3648
▁cruel	-10.3648
▁dalai	-10.3648
▁dedicate	-10.3648
▁defence	-10.3648
▁defensive	-10.3648
▁deficiency	-10.3648
▁delhi	-10.3648
▁destroying	-10.3648
▁diaphram	-10.3648
▁digging	-10.3648
▁disciplined	-10.3648
▁discussing	-10.3648
▁dish	-10.3648
▁dizziness	-10.3648
▁dizzy	-10.3648
▁dunno	-10.3648
▁dust	-10.3648
▁earn	-10.3648
▁economic	-10.3648
▁effected	-10.3648
▁emergency	-10.3648
▁employment	-10.3648
▁endeavor	-10.3648
▁enhance	-10.3648
▁ensure	-10.3648
▁entrepreneurship	-10.3648
▁epilepsy	-10.3648
▁equal	-10.3648
▁esc	-10.3648
▁essence	-10.3648
▁established	-10.3648
▁evaluate	-10.3648
▁evolution	-10.3648
▁evolve	-10.3648
▁excel	-10.3648
▁excellent	-10.3648
▁exchange	-10.3648
▁executive	-10.3648
▁exists	-10.3648
▁explained	-10.3648
▁explores	-10.3648
▁exposure	-10.3648
▁facet	-10.3648
▁familiar	-10.3648
▁fantasy	-10.3648
▁firm	-10.3648
▁flashback	-10.3648
▁flight	-10.3648
▁foggy	-10.3648
▁follower	-10.3648
▁former	-10.3648
▁fred	-10.3648
▁fundamental	-10.3648
▁gate	-10.3648
▁genuine	-10.3648
▁germany	-10.3648
▁giant	-10.3648
▁grandfather	-10.3648
▁grasp	-10.3648
▁greener	-10.3648
▁grind	-10.3648
▁grinding	-10.3648
▁ham	-10.3648
▁handling	-10.3648
▁harmed	-10.3648
▁hat	-10.3648
▁heat	-10.3648
▁hire	-10.3648
▁horizon	-10.3648
▁horribly	-10.3648
▁horse	-10.3648
▁hospitalized	-10.3648
▁hughes	-10.3648
▁icu	-10.3648
▁imagination	-10.3648
▁imagined	-10.3648
▁immense	-10.3648
▁impressed	-10.3648
▁included	-10.3648
▁increasingly	-10.3648
▁inferior	-10.3648
▁infusion	-10.3648
▁ingrained	-10.3648
▁ingredient	-10.3648
▁input	-10.3648
▁intelligent	-10.3648
▁intensity	-10.3648
▁invest	-10.3648
▁invested	-10.3648
▁investment	-10.3648
▁invitation	-10.3648
▁iq	-10.3648
▁jealousy	-10.3648
▁judgment	-10.3648
▁judgmental	-10.3648
▁justify	-10.3648
▁kicking	-10.3648
▁lama	-10.3648
▁landed	-10.3648
▁laundry	-10.3648
▁lb	-10.3648
▁lecture	-10.3648
▁length	-10.3648
▁libido	-10.3648
▁lightheaded	-10.3648
▁lined	-10.3648
▁linked	-10.3648
▁listened	-10.3648
▁log	-10.3648
▁magnesium	-10.3648
▁manner	-10.3648
▁mariana	-10.3648
▁match	-10.3648
▁mccartney	-10.3648
▁measurable	-10.3648
▁meme	-10.3648
▁mentality	-10.3648
▁meth	-10.3648
▁midnight	-10.3648
▁million	-10.3648
▁miriam	-10.3648
▁mission	-10.3648
▁monetary	-10.3648
▁motivational	-10.3648
▁mountain	-10.3648
▁mutual	-10.3648
▁narcissist	-10.3648
▁narrow	-10.3648
▁needing	-10.3648
▁neuro	-10.3648
▁neurological	-10.3648
▁nigel	-10.3648
▁noone	-10.3648
▁nose	-10.3648
▁nutrition	-10.3648
▁occasional	-10.3648
▁oil	-10.3648
▁ongoing	-10.3648
▁orgasm	-10.3648
▁overbearing	-10.3648
▁packed	-10.3648
▁packing	-10.3648
▁palpitation	-10.3648
▁panicking	-10.3648
▁passenger	-10.3648
▁patch	-10.3648
▁penny	-10.3648
▁perfectionism	-10.3648
▁permanently	-10.3648
▁personalized	-10.3648
▁philip	-10.3648
▁pic	-10.3648
▁po	-10.3648
▁powerhouse	-10.3648
▁ppl	-10.3648
▁prefer	-10.3648
▁preparation	-10.3648
▁pretended	-10.3648
▁preventing	-10.3648
▁priority	-10.3648
▁pro	-10.3648
▁professionally	-10.3648
▁prolonged	-10.3648
▁promise	-10.3648
▁property	-10.3648
▁psychiatric	-10.3648
▁pulled	-10.3648
▁pumped	-10.3648
▁purchase	-10.3648
▁puzzle	-10.3648
▁quest	-10.3648
▁quiz	-10.3648
▁ramana	-10.3648
▁raped	-10.3648
▁reasoning	-10.3648
▁reckless	-10.3648
▁recording	-10.3648
▁relapsed	-10.3648
▁remote	-10.3648
▁researching	-10.3648
▁responder	-10.3648
▁resting	-10.3648
▁retarded	-10.3648
▁rhythm	-10.3648
▁robert	-10.3648
▁roll	-10.3648
▁romantic	-10.3648
▁rotten	-10.3648
▁rupee	-10.3648
▁sacrifice	-10.3648
▁samadhi	-10.3648
▁sandwich	-10.3648
▁satisfied	-10.3648
▁satisfying	-10.3648
▁scenery	-10.3648
▁scholarship	-10.3648
▁secure	-10.3648
▁selfishness	-10.3648
▁sends	-10.3648
▁settle	-10.3648
▁sexuality	-10.3648
▁shall	-10.3648
▁shell	-10.3648
▁shoe	-10.3648
▁shoot	-10.3648
▁sing	-10.3648
▁singing	-10.3648
▁size	-10.3648
▁skull	-10.3648
▁slot	-10.3648
▁sold	-10.3648
▁sole	-10.3648
▁sorrow	-10.3648
▁ssri	-10.3648
▁stated	-10.3648
▁static	-10.3648
▁stepping	-10.3648
▁stone	-10.3648
▁stream	-10.3648
▁sugar	-10.3648
▁surroundings	-10.3648
▁sweat	-10.3648
▁takeaway	-10.3648
▁terribly	-10.3648
▁texture	-10.3648
▁thinker	-10.3648
▁throwaway	-10.3648
▁timeline	-10.3648
▁tiredness	-10.3648
▁toe	-10.3648
▁totaled	-10.3648
▁trace	-10.3648
▁triggering	-10.3648
▁tuition	-10.3648
▁turkey	-10.3648
▁twin	-10.3648
▁unstable	-10.3648
▁unsure	-10.3648
▁upbeat	-10.3648
▁uplifting	-10.3648
▁upside	-10.3648
▁utter	-10.3648
▁vaccine	-10.3648
▁variety	-10.3648
▁venture	-10.3648
▁verbally	-10.3648
▁vibration	-10.3648
▁videogames	-10.3648
▁visualization	-10.3648
▁void	-10.3648
▁vomit	-10.3648
▁warren	-10.3648
▁wash	-10.3648
▁wasnt	-10.3648
▁whoever	-10.3648
▁wiki	-10.3648
▁wild	-10.3648
▁workplace	-10.3648
▁wrapped	-10.3648
▁wrist	-10.3648
▁yea	-10.3648
▁yo	-10.3648
▁yr	-10.3648
▁acceptable	-10.5471
▁aching	-10.5471
▁acknowledging	-10.5471
▁activism	-10.5471
▁additional	-10.5471
▁addressed	-10.5471
▁admission	-10.5471
▁adopted	-10.5471
▁adventure	-10.5471
▁affectionate	-10.5471
▁aid	-10.5471
▁aka	-10.5471
▁aligned	-10.5471
▁alignment	-10.5471
▁ally	-10.5471
▁analysing	-10.5471
▁apologise	-10.5471
▁apology	-10.5471
▁applies	-10.5471
▁approximately	-10.5471
▁apt	-10.5471
▁arrives	-10.5471
▁ashwaganda	-10.5471
▁assault	-10.5471
▁attacked	-10.5471
▁attainable	-10.5471
▁auric	-10.5471
▁automation	-10.5471
▁awakening	-10.5471
▁balancing	-10.5471
▁basketball	-10.5471
▁bedtime	-10.5471
▁begging	-10.5471
▁believing	-10.5471
▁berate	-10.5471
▁bleed	-10.5471
▁blurry	-10.5471
▁bone	-10.5471
▁brake	-10.5471
▁breakup	-10.5471
▁brilliant	-10.5471
▁bro	-10.5471
▁bug	-10.5471
▁bulletin	-10.5471
▁butterfly	-10.5471
▁buzzing	-10.5471
▁cage	-10.5471
▁calmer	-10.5471
▁calmly	-10.5471
▁calmness	-10.5471
▁candle	-10.5471
▁candy	-10.5471
▁capability	-10.5471
▁cardiologist	-10.5471
▁caretaker	-10.5471
▁carrot	-10.5471
▁cartoon	-10.5471
▁cash	-10.5471
▁catastrophic	-10.5471
▁centre	-10.5471
▁chart	-10.5471
▁chatting	-10.5471
▁cherish	-10.5471
▁childish	-10.5471
▁chillls	-10.5471
▁cicely	-10.5471
▁circuit	-10.5471
▁classmate	-10.5471
▁climate	-10.5471
▁climb	-10.5471
▁clinically	-10.5471
▁cluster	-10.5471
▁collected	-10.5471
▁committed	-10.5471
▁completing	-10.5471
▁compulsive	-10.5471
▁concentrating	-10.5471
▁conference	-10.5471
▁confirm	-10.5471
▁contacting	-10.5471
▁continually	-10.5471
▁contributes	-10.5471
▁convert	-10.5471
▁convincing	-10.5471
▁corporate	-10.5471
▁crack	-10.5471
▁crappy	-10.5471
▁creepy	-10.5471
▁criminal	-10.5471
▁crutch	-10.5471
▁ct	-10.5471
▁cultivate	-10.5471
▁curl	-10.5471
▁cuss	-10.5471
▁daisy	-10.5471
▁darkest	-10.5471
▁dated	-10.5471
▁de	-10.5471
▁decreased	-10.5471
▁defense	-10.5471
▁delisa	-10.5471
▁dementia	-10.5471
▁denial	-10.5471
▁denied	-10.5471
▁department	-10.5471
▁depending	-10.5471
▁depleted	-10.5471
▁deserved	-10.5471
▁desired	-10.5471
▁desk	-10.5471
▁desperation	-10.5471
▁destroy	-10.5471
▁determination	-10.5471
▁devere	-10.5471
▁dieing	-10.5471
▁direct	-10.5471
▁disability	-10.5471
▁disappoint	-10.5471
▁disconnected	-10.5471
▁disturbing	-10.5471
▁documentary	-10.5471
▁downhill	-10.5471
▁drank	-10.5471
▁drill	-10.5471
▁easter	-10.5471
▁edition	-10.5471
▁editor	-10.5471
▁em	-10.5471
▁employed	-10.5471
▁empowerment	-10.5471
▁enlightenment	-10.5471
▁ent	-10.5471
▁enter	-10.5471
▁entry	-10.5471
▁er	-10.5471
▁excessive	-10.5471
▁existed	-10.5471
▁exiting	-10.5471
▁exposed	-10.5471
▁fantasizing	-10.5471
▁feb	-10.5471
▁fiance	-10.5471
▁figuring	-10.5471
▁fixing	-10.5471
▁flag	-10.5471
▁flake	-10.5471
▁florence	-10.5471
▁flu	-10.5471
▁football	-10.5471
▁forehead	-10.5471
▁forest	-10.5471
▁foster	-10.5471
▁frankly	-10.5471
▁frequent	-10.5471
▁fuckin	-10.5471
▁funeral	-10.5471
▁gathered	-10.5471
▁ged	-10.5471
▁ghosted	-10.5471
▁golden	-10.5471
▁gp	-10.5471
▁grace	-10.5471
▁grand	-10.5471
▁grass	-10.5471
▁greedy	-10.5471
▁grieve	-10.5471
▁han	-10.5471
▁handful	-10.5471
▁hanged	-10.5471
▁hardworking	-10.5471
▁haunt	-10.5471
▁haunted	-10.5471
▁heath	-10.5471
▁heck	-10.5471
▁hectic	-10.5471
▁hip	-10.5471
▁honesty	-10.5471
▁hormonal	-10.5471
▁humour	-10.5471
▁ig	-10.5471
▁impacting	-10.5471
▁importantly	-10.5471
▁indeed	-10.5471
▁infant	-10.5471
▁infected	-10.5471
▁infection	-10.5471
▁initial	-10.5471
▁innovate	-10.5471
▁intended	-10.5471
▁intensely	-10.5471
▁intentionally	-10.5471
▁interacting	-10.5471
▁interfere	-10.5471
▁intro	-10.5471
▁introduce	-10.5471
▁introvert	-10.5471
▁investing	-10.5471
▁ironic	-10.5471
▁irritable	-10.5471
▁island	-10.5471
▁james	-10.5471
▁japanese	-10.5471
▁julie	-10.5471
▁jumped	-10.5471
▁justified	-10.5471
▁km	-10.5471
▁kyle	-10.5471
▁labor	-10.5471
▁largest	-10.5471
▁lastly	-10.5471
▁laughed	-10.5471
▁lawyer	-10.5471
▁layer	-10.5471
▁lessen	-10.5471
▁liberate	-10.5471
▁lied	-10.5471
▁listens	-10.5471
▁locking	-10.5471
▁logically	-10.5471
▁loosing	-10.5471
▁luxury	-10.5471
▁magically	-10.5471
▁manic	-10.5471
▁marathon	-10.5471
▁massage	-10.5471
▁mastermind	-10.5471
▁masturbate	-10.5471
▁medically	-10.5471
▁meh	-10.5471
▁messy	-10.5471
▁military	-10.5471
▁milk	-10.5471
▁miracle	-10.5471
▁mobilize	-10.5471
▁moderator	-10.5471
▁mr	-10.5471
▁n	-10.5471
▁nearby	-10.5471
▁netherlands	-10.5471
▁network	-10.5471
▁nootropics	-10.5471
▁nope	-10.5471
▁norma	-10.5471
▁normalcy	-10.5471
▁normalize	-10.5471
▁notification	-10.5471
▁nut	-10.5471
▁nyc	-10.5471
▁obese	-10.5471
▁object	-10.5471
▁odd	-10.5471
▁official	-10.5471
▁ordinary	-10.5471
▁origin	-10.5471
▁outlook	-10.5471
▁outstanding	-10.5471
▁outward	-10.5471
▁overreacting	-10.5471
▁overweight	-10.5471
▁paced	-10.5471
▁pack	-10.5471
▁pakistan	-10.5471
▁pan	-10.5471
▁panicked	-10.5471
▁paranoia	-10.5471
▁partnership	-10.5471
▁pathway	-10.5471
▁permanent	-10.5471
▁pit	-10.5471
▁pity	-10.5471
▁plague	-10.5471
▁plastic	-10.5471
▁pleasant	-10.5471
▁pls	-10.5471
▁pocket	-10.5471
▁pointed	-10.5471
▁poisoned	-10.5471
▁policy	-10.5471
▁pool	-10.5471
▁posse	-10.5471
▁powerless	-10.5471
▁prayer	-10.5471
▁preference	-10.5471
▁prestigious	-10.5471
▁primary	-10.5471
▁prison	-10.5471
▁privacy	-10.5471
▁privilege	-10.5471
▁privileged	-10.5471
▁profound	-10.5471
▁programming	-10.5471
▁progressively	-10.5471
▁protecting	-10.5471
▁provider	-10.5471
▁punish	-10.5471
▁punished	-10.5471
▁racist	-10.5471
▁rainbow	-10.5471
▁realising	-10.5471
▁realistic	-10.5471
▁reasonable	-10.5471
▁recognized	-10.5471
▁recovery	-10.5471
▁reference	-10.5471
▁reflection	-10.5471
▁register	-10.5471
▁rehab	-10.5471
▁relatively	-10.5471
▁relevant	-10.5471
▁reliever	-10.5471
▁remains	-10.5471
▁replacement	-10.5471
▁requires	-10.5471
▁resentment	-10.5471
▁reserving	-10.5471
▁resilient	-10.5471
▁resistant	-10.5471
▁responding	-10.5471
▁responsible	-10.5471
▁restful	-10.5471
▁retire	-10.5471
▁rewiring	-10.5471
▁riding	-10.5471
▁ritual	-10.5471
▁rocky	-10.5471
▁rolled	-10.5471
▁rot	-10.5471
▁sane	-10.5471
▁sanity	-10.5471
▁satisfy	-10.5471
▁scattered	-10.5471
▁script	-10.5471
▁scrolling	-10.5471
▁searched	-10.5471
▁seemingly	-10.5471
▁separate	-10.5471
▁shallow	-10.5471
▁shed	-10.5471
▁sheet	-10.5471
▁shocked	-10.5471
▁shortage	-10.5471
▁signing	-10.5471
▁skinny	-10.5471
▁skipping	-10.5471
▁smooth	-10.5471
▁sobbing	-10.5471
▁socialise	-10.5471
▁sooo	-10.5471
▁sophomore	-10.5471
▁specie	-10.5471
▁spiritually	-10.5471
▁square	-10.5471
▁stalking	-10.5471
▁standing	-10.5471
▁star	-10.5471
▁station	-10.5471
▁steal	-10.5471
▁stepmom	-10.5471
▁stereotype	-10.5471
▁stiff	-10.5471
▁stigma	-10.5471
▁stoic	-10.5471
▁stretch	-10.5471
▁subjective	-10.5471
▁submitted	-10.5471
▁subsided	-10.5471
▁substance	-10.5471
▁sucked	-10.5471
▁summary	-10.5471
▁surgeon	-10.5471
▁surprisingly	-10.5471
▁suspect	-10.5471
▁synthesis	-10.5471
▁tall	-10.5471
▁tap	-10.5471
▁tearing	-10.5471
▁tedious	-10.5471
▁temporarily	-10.5471
▁texting	-10.5471
▁thigh	-10.5471
▁tie	-10.5471
▁tied	-10.5471
▁tiktok	-10.5471
▁tire	-10.5471
▁toast	-10.5471
▁toilet	-10.5471
▁tone	-10.5471
▁tracker	-10.5471
▁trade	-10.5471
▁tragedy	-10.5471
▁treating	-10.5471
▁tremendous	-10.5471
▁trend	-10.5471
▁trusted	-10.5471
▁unaware	-10.5471
▁unfortunate	-10.5471
▁united	-10.5471
▁unlearn	-10.5471
▁unlikely	-10.5471
▁unloved	-10.5471
▁unpaid	-10.5471
▁unproductive	-10.5471
▁unrealistic	-10.5471
▁upcoming	-10.5471
▁update	-10.5471
▁upsetting	-10.5471
▁ur	-10.5471
▁validated	-10.5471
▁valuable	-10.5471
▁vibrating	-10.5471
▁viewing	-10.5471
▁wade	-10.5471
▁webinar	-10.5471
▁wellbutrin	-10.5471
▁wellness	-10.5471
▁wet	-10.5471
▁willpower	-10.5471
▁wolf	-10.5471
▁wouldnt	-10.5471
▁yall	-10.5471
▁abandonment	-10.7703
▁abortion	-10.7703
▁abroad	-10.7703
▁absent	-10.7703
▁absorb	-10.7703
▁accidentally	-10.7703
▁accordingly	-10.7703
▁accumulate	-10.7703
▁adamant	-10.7703
▁adapt	-10.7703
▁adequate	-10.7703
▁adversity	-10.7703
▁advertising	-10.7703
▁affective	-10.7703
▁aforementioned	-10.7703
▁aged	-10.7703
▁agreement	-10.7703
▁ah	-10.7703
▁alienated	-10.7703
▁align	-10.7703
▁amazingly	-10.7703
▁amazon	-10.7703
▁america	-10.7703
▁amongst	-10.7703
▁amplified	-10.7703
▁android	-10.7703
▁angel	-10.7703
▁animation	-10.7703
▁anyones	-10.7703
▁ap	-10.7703
▁apathy	-10.7703
▁apparent	-10.7703
▁approached	-10.7703
▁appt	-10.7703
▁arthritis	-10.7703
▁ashwagandha	-10.7703
▁asmi	-10.7703
▁aspergers	-10.7703
▁atlas	-10.7703
▁attract	-10.7703
▁auditory	-10.7703
▁axis	-10.7703
▁ba	-10.7703
▁backstory	-10.7703
▁backup	-10.7703
▁bahadurgarh	-10.7703
▁balanced	-10.7703
▁bang	-10.7703
▁barley	-10.7703
▁baseball	-10.7703
▁bawling	-10.7703
▁beach	-10.7703
▁bead	-10.7703
▁beam	-10.7703
▁beatles	-10.7703
▁belt	-10.7703
▁beta	-10.7703
▁bias	-10.7703
▁biking	-10.7703
▁billion	-10.7703
▁bio	-10.7703
▁blank	-10.7703
▁bloody	-10.7703
▁blooming	-10.7703
▁border	-10.7703
▁bore	-10.7703
▁boss	-10.7703
▁bowel	-10.7703
▁brazil	-10.7703
▁brazilian	-10.7703
▁briefly	-10.7703
▁brien	-10.7703
▁browsing	-10.7703
▁brush	-10.7703
▁brushed	-10.7703
▁bubble	-10.7703
▁buddhism	-10.7703
▁buddhist	-10.7703
▁buffet	-10.7703
▁bumpy	-10.7703
▁bustling	-10.7703
▁calculus	-10.7703
▁caller	-10.7703
▁calmed	-10.7703
▁camera	-10.7703
▁canadian	-10.7703
▁candidate	-10.7703
▁capture	-10.7703
▁carlos	-10.7703
▁carried	-10.7703
▁carrying	-10.7703
▁casual	-10.7703
▁category	-10.7703
▁cave	-10.7703
▁cease	-10.7703
▁celebrating	-10.7703
▁censored	-10.7703
▁centerforfearlessresearch	-10.7703
▁certified	-10.7703
▁chain	-10.7703
▁chamomile	-10.7703
▁charm	-10.7703
▁chastise	-10.7703
▁chatted	-10.7703
▁cheesy	-10.7703
▁chilled	-10.7703
▁chip	-10.7703
▁chiropractor	-10.7703
▁chunk	-10.7703
▁circuiting	-10.7703
▁claimed	-10.7703
▁claude	-10.7703
▁climbing	-10.7703
▁clumsy	-10.7703
▁cocktail	-10.7703
▁collapse	-10.7703
▁collective	-10.7703
▁combat	-10.7703
▁comfortably	-10.7703
▁comforting	-10.7703
▁compete	-10.7703
▁complaint	-10.7703
▁compliment	-10.7703
▁conforming	-10.7703
▁confusing	-10.7703
▁conscience	-10.7703
▁consent	-10.7703
▁consist	-10.7703
▁contains	-10.7703
▁contemplated	-10.7703
▁continuous	-10.7703
▁contrary	-10.7703
▁controling	-10.7703
▁controlling	-10.7703
▁conversion	-10.7703
▁cooked	-10.7703
▁coworkers	-10.7703
▁cracked	-10.7703
▁crime	-10.7703
▁critic	-10.7703
▁crumbling	-10.7703
▁crushed	-10.7703
▁cunt	-10.7703
▁curiosity	-10.7703
▁cutest	-10.7703
▁cycling	-10.7703
▁davis	-10.7703
▁daycare	-10.7703
▁decides	-10.7703
▁defeated	-10.7703
▁defend	-10.7703
▁deleted	-10.7703
▁deliberately	-10.7703
▁deliver	-10.7703
▁delivering	-10.7703
▁delusion	-10.7703
▁denying	-10.7703
▁depletion	-10.7703
▁despise	-10.7703
▁dessert	-10.7703
▁determines	-10.7703
▁devise	-10.7703
▁diagnose	-10.7703
▁diamond	-10.7703
▁dictate	-10.7703
▁diminishing	-10.7703
▁ding	-10.7703
▁dirt	-10.7703
▁disagreement	-10.7703
▁disappeared	-10.7703
▁disclaimer	-10.7703
▁discomfort	-10.7703
▁distanced	-10.7703
▁dj	-10.7703
▁dna	-10.7703
▁downstairs	-10.7703
▁dragging	-10.7703
▁drastic	-10.7703
▁drastically	-10.7703
▁dreadful	-10.7703
▁dressed	-10.7703
▁drtlab	-10.7703
▁dweck	-10.7703
▁dwelling	-10.7703
▁earpiece	-10.7703
▁economy	-10.7703
▁ed	-10.7703
▁edited	-10.7703
▁eeyore	-10.7703
▁efficient	-10.7703
▁eg	-10.7703
▁eh	-10.7703
▁elevate	-10.7703
▁elon	-10.7703
▁emailed	-10.7703
▁embarrassment	-10.7703
▁empathetic	-10.7703
▁enable	-10.7703
▁encompassing	-10.7703
▁engaging	-10.7703
▁enhancing	-10.7703
▁enters	-10.7703
▁enthusiasm	-10.7703
▁envious	-10.7703
▁epiphany	-10.7703
▁eternal	-10.7703
▁eudaimonia	-10.7703
▁euphoric	-10.7703
▁everlasting	-10.7703
▁evoke	-10.7703
▁exaggerating	-10.7703
▁exempt	-10.7703
▁existencial	-10.7703
▁existent	-10.7703
▁existential	-10.7703
▁exit	-10.7703
▁expand	-10.7703
▁expense	-10.7703
▁exponentially	-10.7703
▁extends	-10.7703
▁exurbs	-10.7703
▁factory	-10.7703
▁failiure	-10.7703
▁fails	-10.7703
▁faint	-10.7703
▁fan	-10.7703
▁fasting	-10.7703
▁fate	-10.7703
▁fearful	-10.7703
▁featured	-10.7703
▁fed	-10.7703
▁fee	-10.7703
▁feminine	-10.7703
▁fence	-10.7703
▁fever	-10.7703
▁fish	-10.7703
▁fixating	-10.7703
▁flare	-10.7703
▁flawed	-10.7703
▁flourish	-10.7703
▁flowing	-10.7703
▁fluctuated	-10.7703
▁fluent	-10.7703
▁folder	-10.7703
▁forgets	-10.7703
▁fortune	-10.7703
▁founder	-10.7703
▁frame	-10.7703
▁frank	-10.7703
▁french	-10.7703
▁ft	-10.7703
▁fulfill	-10.7703
▁fundraising	-10.7703
▁futile	-10.7703
▁gambino	-10.7703
▁gang	-10.7703
▁garyvee	-10.7703
▁generate	-10.7703
▁generation	-10.7703
▁generous	-10.7703
▁genetic	-10.7703
▁gland	-10.7703
▁goddamn	-10.7703
▁gold	-10.7703
▁gossip	-10.7703
▁gradual	-10.7703
▁grammar	-10.7703
▁granted	-10.7703
▁greed	-10.7703
▁grudge	-10.7703
▁guideline	-10.7703
▁hallucination	-10.7703
▁hallway	-10.7703
▁handbook	-10.7703
▁harsh	-10.7703
▁hater	-10.7703
▁hatred	-10.7703
▁headspace	-10.7703
▁heaven	-10.7703
▁heavily	-10.7703
▁hella	-10.7703
▁hilarious	-10.7703
▁hint	-10.7703
▁hired	-10.7703
▁hiv	-10.7703
▁homeschooling	-10.7703
▁homophobic	-10.7703
▁honour	-10.7703
▁hooker	-10.7703
▁household	-10.7703
▁howard	-10.7703
▁howell	-10.7703
▁hugged	-10.7703
▁hw	-10.7703
▁hydrogen	-10.7703
▁hypochondriac	-10.7703
▁imperfection	-10.7703
▁inbox	-10.7703
▁inbreath	-10.7703
▁includes	-10.7703
▁indian	-10.7703
▁indoors	-10.7703
▁inevitably	-10.7703
▁inflatable	-10.7703
▁influenced	-10.7703
▁infront	-10.7703
▁inherently	-10.7703
▁inquiry	-10.7703
▁instinct	-10.7703
▁instrument	-10.7703
▁instrumental	-10.7703
▁insulting	-10.7703
▁intake	-10.7703
▁internally	-10.7703
▁international	-10.7703
▁interpretation	-10.7703
▁intimacy	-10.7703
▁intimidating	-10.7703
▁introduced	-10.7703
▁intuitive	-10.7703
▁io	-10.7703
▁irritating	-10.7703
▁ish	-10.7703
▁israel	-10.7703
▁ivy	-10.7703
▁jayne	-10.7703
▁jim	-10.7703
▁joining	-10.7703
▁joint	-10.7703
▁jp	-10.7703
▁judgemental	-10.7703
▁jukebox	-10.7703
▁keen	-10.7703
▁kickboxing	-10.7703
▁kidney	-10.7703
▁kilometer	-10.7703
▁kindly	-10.7703
▁la	-10.7703
▁lab	-10.7703
▁label	-10.7703
▁lacking	-10.7703
▁lady	-10.7703
▁land	-10.7703
▁lane	-10.7703
▁lap	-10.7703
▁laughter	-10.7703
▁lifting	-10.7703
▁liking	-10.7703
▁lillie	-10.7703
▁limitation	-10.7703
▁limitless	-10.7703
▁lionsheartlifestyle	-10.7703
▁listed	-10.7703
▁listing	-10.7703
▁loathing	-10.7703
▁loyal	-10.7703
▁lust	-10.7703
▁luther	-10.7703
▁mabye	-10.7703
▁makeup	-10.7703
▁manages	-10.7703
▁manga	-10.7703
▁manipulated	-10.7703
▁manipulative	-10.7703
▁marble	-10.7703
▁marry	-10.7703
▁massaging	-10.7703
▁mastery	-10.7703
▁mbct	-10.7703
▁mcdonald	-10.7703
▁mediavine	-10.7703
▁mega	-10.7703
▁messaging	-10.7703
▁metal	-10.7703
▁mft	-10.7703
▁mindless	-10.7703
▁mindlessly	-10.7703
▁minimalism	-10.7703
▁minuscule	-10.7703
▁misinterpret	-10.7703
▁moderate	-10.7703
▁mooji	-10.7703
▁moral	-10.7703
▁moreover	-10.7703
▁msc	-10.7703
▁musician	-10.7703
▁musk	-10.7703
▁myth	-10.7703
▁nail	-10.7703
▁napoleon	-10.7703
▁native	-10.7703
▁nde	-10.7703
▁niche	-10.7703
▁nico	-10.7703
▁nobel	-10.7703
▁noble	-10.7703
▁nonetheless	-10.7703
▁notified	-10.7703
▁nursing	-10.7703
▁nurture	-10.7703
▁oblivion	-10.7703
▁occupied	-10.7703
▁occur	-10.7703
▁occurred	-10.7703
▁occurrence	-10.7703
▁odds	-10.7703
▁ofc	-10.7703
▁officer	-10.7703
▁officially	-10.7703
▁outbreath	-10.7703
▁output	-10.7703
▁outright	-10.7703
▁outwardly	-10.7703
▁overlooked	-10.7703
▁overseas	-10.7703
▁pace	-10.7703
▁pageviews	-10.7703
▁palm	-10.7703
▁papaw	-10.7703
▁paralysis	-10.7703
▁passive	-10.7703
▁penis	-10.7703
▁permit	-10.7703
▁persona	-10.7703
▁pete	-10.7703
▁ph	-10.7703
▁phd	-10.7703
▁phobia	-10.7703
▁physic	-10.7703
▁picky	-10.7703
▁piss	-10.7703
▁plab	-10.7703
▁player	-10.7703
▁playground	-10.7703
▁pleasanton	-10.7703
▁plodding	-10.7703
▁plp	-10.7703
▁poisoning	-10.7703
▁polish	-10.7703
▁politely	-10.7703
▁poll	-10.7703
▁poorly	-10.7703
▁popularity	-10.7703
▁poverty	-10.7703
▁preparing	-10.7703
▁presentation	-10.7703
▁presented	-10.7703
▁prioritised	-10.7703
▁prize	-10.7703
▁procrastinating	-10.7703
▁production	-10.7703
▁profit	-10.7703
▁profoundly	-10.7703
▁programme	-10.7703
▁progressing	-10.7703
▁promising	-10.7703
▁propelled	-10.7703
▁proposal	-10.7703
▁proudly	-10.7703
▁prozac	-10.7703
▁psychologically	-10.7703
▁publicly	-10.7703
▁published	-10.7703
▁puppy	-10.7703
▁qualification	-10.7703
▁quickest	-10.7703
▁quo	-10.7703
▁rage	-10.7703
▁rainy	-10.7703
▁rake	-10.7703
▁ramble	-10.7703
▁rapidly	-10.7703
▁rational	-10.7703
▁rationally	-10.7703
▁raver	-10.7703
▁ray	-10.7703
▁reacting	-10.7703
▁realign	-10.7703
▁realignment	-10.7703
▁reconnect	-10.7703
▁reduces	-10.7703
▁reel	-10.7703
▁reflecting	-10.7703
▁refused	-10.7703
▁regaining	-10.7703
▁reinvent	-10.7703
▁rejection	-10.7703
▁relating	-10.7703
▁relative	-10.7703
▁relearn	-10.7703
▁relentless	-10.7703
▁reluctant	-10.7703
▁relying	-10.7703
▁repressing	-10.7703
▁requested	-10.7703
▁required	-10.7703
▁resisting	-10.7703
▁resolution	-10.7703
▁resolved	-10.7703
▁resort	-10.7703
▁restart	-10.7703
▁rested	-10.7703
▁restroom	-10.7703
▁resume	-10.7703
▁retired	-10.7703
▁returned	-10.7703
▁reverse	-10.7703
▁reviewed	-10.7703
▁round	-10.7703
▁ruled	-10.7703
▁rupert	-10.7703
▁safer	-10.7703
▁salary	-10.7703
▁sansation	-10.7703
▁sapphire	-10.7703
▁scar	-10.7703
▁scheduled	-10.7703
▁schollarship	-10.7703
▁scientific	-10.7703
▁scrolled	-10.7703
▁seat	-10.7703
▁seizure	-10.7703
▁semblance	-10.7703
▁separated	-10.7703
▁serotonin	-10.7703
▁sertraline	-10.7703
▁setback	-10.7703
▁settled	-10.7703
▁settling	-10.7703
▁severity	-10.7703
▁sexually	-10.7703
▁shattered	-10.7703
▁shortened	-10.7703
▁shuts	-10.7703
▁shutting	-10.7703
▁sight	-10.7703
▁signal	-10.7703
▁signed	-10.7703
▁silently	-10.7703
▁simplest	-10.7703
▁simultaneously	-10.7703
▁sin	-10.7703
▁sincerely	-10.7703
▁sink	-10.7703
▁sits	-10.7703
▁skip	-10.7703
▁slap	-10.7703
▁slave	-10.7703
▁sleepless	-10.7703
▁smaller	-10.7703
▁snapchat	-10.7703
▁solace	-10.7703
▁soldier	-10.7703
▁someday	-10.7703
▁sonething	-10.7703
▁sorta	-10.7703
▁sounded	-10.7703
▁specialized	-10.7703
▁spell	-10.7703
▁spine	-10.7703
▁spreadsheet	-10.7703
▁stab	-10.7703
▁stabbed	-10.7703
▁starving	-10.7703
▁stats	-10.7703
▁steady	-10.7703
▁stiffness	-10.7703
▁stock	-10.7703
▁stood	-10.7703
▁strained	-10.7703
▁strand	-10.7703
▁straw	-10.7703
▁stretching	-10.7703
▁structured	-10.7703
▁suffice	-10.7703
▁suffocating	-10.7703
▁sum	-10.7703
▁suppress	-10.7703
▁surpass	-10.7703
▁survival	-10.7703
▁survived	-10.7703
▁survivor	-10.7703
▁suspicion	-10.7703
▁suspicious	-10.7703
▁sustainable	-10.7703
▁swim	-10.7703
▁switched	-10.7703
▁tai	-10.7703
▁talented	-10.7703
▁tax	-10.7703
▁tech	-10.7703
▁technical	-10.7703
▁technically	-10.7703
▁tennis	-10.7703
▁terrifies	-10.7703
▁testing	-10.7703
▁thereby	-10.7703
▁thirty	-10.7703
▁threaten	-10.7703
▁tia	-10.7703
▁til	-10.7703
▁tinnitus	-10.7703
▁tolerance	-10.7703
▁tom	-10.7703
▁tongue	-10.7703
▁torturous	-10.7703
▁trading	-10.7703
▁tradition	-10.7703
▁transformation	-10.7703
▁translate	-10.7703
▁transness	-10.7703
▁transportation	-10.7703
▁trump	-10.7703
▁trusting	-10.7703
▁twelve	-10.7703
▁ub	-10.7703
▁un	-10.7703
▁uncertain	-10.7703
▁unconditional	-10.7703
▁unconditionally	-10.7703
▁underage	-10.7703
▁underlying	-10.7703
▁unemployment	-10.7703
▁unexpectedly	-10.7703
▁unfold	-10.7703
▁unfulfilled	-10.7703
▁unlovable	-10.7703
▁unplanned	-10.7703
▁unpleasant	-10.7703
▁unprecedented	-10.7703
▁unresolved	-10.7703
▁urgent	-10.7703
▁us	-10.7703
▁utility	-10.7703
▁valdez	-10.7703
▁valentine	-10.7703
▁valerian	-10.7703
▁veggie	-10.7703
▁vehicle	-10.7703
▁vessel	-10.7703
▁viewpoint	-10.7703
▁violation	-10.7703
▁visible	-10.7703
▁w	-10.7703
▁wallow	-10.7703
▁washing	-10.7703
▁wealthy	-10.7703
▁welcomed	-10.7703
▁wherever	-10.7703
▁wholesome	-10.7703
▁wich	-10.7703
▁wine	-10.7703
▁wing	-10.7703
▁wire	-10.7703
▁workflow	-10.7703
▁wwii	-10.7703
▁xx	-10.7703
▁yogic	-10.7703
▁zoloft	-10.7703
▁abandon	-11.058
▁abiding	-11.058
▁abnormal	-11.058
▁absence	-11.058
▁absurd	-11.058
▁abyss	-11.058
▁academy	-11.058
▁accepts	-11.058
▁accessible	-11.058
▁accolade	-11.058
▁accomplishing	-11.058
▁accurately	-11.058
▁accused	-11.058
▁achievable	-11.058
▁acne	-11.058
▁acquiring	-11.058
▁actor	-11.058
▁actualized	-11.058
▁acute	-11.058
▁additionally	-11.058
▁adhere	-11.058
▁adjust	-11.058
▁admitted	-11.058
▁admittedly	-11.058
▁adopting	-11.058
▁advocate	-11.058
▁african	-11.058
▁afterthought	-11.058
▁agenda	-11.058
▁agent	-11.058
▁aging	-11.058
▁agitated	-11.058
▁agreeing	-11.058
▁ai	-11.058
▁al	-11.058
▁alarming	-11.058
▁alert	-11.058
▁alongside	-11.058
▁alpha	-11.058
▁altogether	-11.058
▁altruism	-11.058
▁amazed	-11.058
▁ambrosio	-11.058
▁anemia	-11.058
▁angst	-11.058
▁anguished	-11.058
▁animating	-11.058
▁annoy	-11.058
▁anonymously	-11.058
▁anorexia	-11.058
▁appealing	-11.058
▁appears	-11.058
▁appreciative	-11.058
▁apprenticeship	-11.058
▁approving	-11.058
▁arent	-11.058
▁arising	-11.058
▁army	-11.058
▁artwork	-11.058
▁asexual	-11.058
▁aspire	-11.058
▁assigned	-11.058
▁assistance	-11.058
▁assure	-11.058
▁atheist	-11.058
▁athletic	-11.058
▁atm	-11.058
▁atmosphere	-11.058
▁attended	-11.058
▁attribute	-11.058
▁auto	-11.058
▁automatic	-11.058
▁autumn	-11.058
▁awaits	-11.058
▁aziz	-11.058
▁babe	-11.058
▁banging	-11.058
▁bare	-11.058
▁basement	-11.058
▁bat	-11.058
▁bay	-11.058
▁behave	-11.058
▁behold	-11.058
▁belgium	-11.058
▁belonged	-11.058
▁benefited	-11.058
▁berating	-11.058
▁bible	-11.058
▁biology	-11.058
▁bleach	-11.058
▁blew	-11.058
▁blockage	-11.058
▁blueberry	-11.058
▁boil	-11.058
▁boiled	-11.058
▁bombarded	-11.058
▁bond	-11.058
▁bonus	-11.058
▁booked	-11.058
▁boom	-11.058
▁borderline	-11.058
▁boredom	-11.058
▁bouncing	-11.058
▁boxing	-11.058
▁breeze	-11.058
▁broadly	-11.058
▁brunch	-11.058
▁bubbly	-11.058
▁burdened	-11.058
▁butt	-11.058
▁byproduct	-11.058
▁cabin	-11.058
▁calc	-11.058
▁cambodia	-11.058
▁campaign	-11.058
▁canceled	-11.058
▁capitalism	-11.058
▁captain	-11.058
▁cardiovascular	-11.058
▁caregiver	-11.058
▁ceiling	-11.058
▁cent	-11.058
▁century	-11.058
▁certificate	-11.058
▁chakra	-11.058
▁chakras	-11.058
▁cheat	-11.058
▁chem	-11.058
▁chemistry	-11.058
▁chew	-11.058
▁chin	-11.058
▁china	-11.058
▁choosing	-11.058
▁cinematic	-11.058
▁circus	-11.058
▁citizenship	-11.058
▁classic	-11.058
▁cleaned	-11.058
▁cleaner	-11.058
▁climbed	-11.058
▁cling	-11.058
▁coaching	-11.058
▁cocoon	-11.058
▁cognitively	-11.058
▁colorful	-11.058
▁combine	-11.058
▁combining	-11.058
▁commented	-11.058
▁commenting	-11.058
▁commited	-11.058
▁committing	-11.058
▁compelled	-11.058
▁composure	-11.058
▁concerning	-11.058
▁confirming	-11.058
▁conflict	-11.058
▁confronting	-11.058
▁conquer	-11.058
▁constraint	-11.058
▁construction	-11.058
▁contend	-11.058
▁contract	-11.058
▁cop	-11.058
▁cornerstone	-11.058
▁correlation	-11.058
▁cosmic	-11.058
▁couch	-11.058
▁counselling	-11.058
▁counsellor	-11.058
▁counteract	-11.058
▁coupled	-11.058
▁covidya	-11.058
▁cozy	-11.058
▁crackhead	-11.058
▁cramming	-11.058
▁crashed	-11.058
▁crashing	-11.058
▁creature	-11.058
▁crew	-11.058
▁criticised	-11.058
▁criticized	-11.058
▁crowded	-11.058
▁crumble	-11.058
▁crypto	-11.058
▁cube	-11.058
▁cultivating	-11.058
▁cum	-11.058
▁cwru	-11.058
▁dagger	-11.058
▁damaging	-11.058
▁damned	-11.058
▁dampens	-11.058
▁david	-11.058
▁daytime	-11.058
▁deadbeat	-11.058
▁dearly	-11.058
▁debate	-11.058
▁debilitating	-11.058
▁decline	-11.058
▁defined	-11.058
▁deflect	-11.058
▁delayed	-11.058
▁deliberate	-11.058
▁delivery	-11.058
▁describes	-11.058
▁deserving	-11.058
▁destress	-11.058
▁destruction	-11.058
▁detox	-11.058
▁devil	-11.058
▁devoid	-11.058
▁devotion	-11.058
▁diarrhea	-11.058
▁dieting	-11.058
▁digestion	-11.058
▁digestive	-11.058
▁dilemma	-11.058
▁dimension	-11.058
▁diminished	-11.058
▁disappointing	-11.058
▁disengagement	-11.058
▁disguise	-11.058
▁disney	-11.058
▁disrupt	-11.058
▁dissapointed	-11.058
▁dissertation	-11.058
▁dissonance	-11.058
▁distancing	-11.058
▁distracts	-11.058
▁distressed	-11.058
▁doc	-11.058
▁donate	-11.058
▁dos	-11.058
▁dot	-11.058
▁downtown	-11.058
▁dragged	-11.058
▁dragon	-11.058
▁drawn	-11.058
▁dreaming	-11.058
▁drone	-11.058
▁dual	-11.058
▁dumbass	-11.058
▁dumped	-11.058
▁duty	-11.058
▁dy	-11.058
▁eachother	-11.058
▁eager	-11.058
▁earned	-11.058
▁easiest	-11.058
▁eats	-11.058
▁economics	-11.058
▁ecstatic	-11.058
▁effortless	-11.058
▁effortlessly	-11.058
▁egypt	-11.058
▁el	-11.058
▁elaborate	-11.058
▁elder	-11.058
▁electricity	-11.058
▁electromagnetic	-11.058
▁element	-11.058
▁eli	-11.058
▁elite	-11.058
▁embraced	-11.058
▁emits	-11.058
▁empowered	-11.058
▁enables	-11.058
▁encourage	-11.058
▁encouraging	-11.058
▁endeavour	-11.058
▁endorphin	-11.058
▁endured	-11.058
▁engineer	-11.058
▁england	-11.058
▁enjoys	-11.058
▁ensuring	-11.058
▁entail	-11.058
▁entertain	-11.058
▁entirety	-11.058
▁entity	-11.058
▁entrepreneurial	-11.058
▁equally	-11.058
▁errand	-11.058
▁escapism	-11.058
▁eternally	-11.058
▁eventual	-11.058
▁everthing	-11.058
▁evolutionary	-11.058
▁exceptionally	-11.058
▁excluding	-11.058
▁exhibition	-11.058
▁expanding	-11.058
▁experiment	-11.058
▁experimented	-11.058
▁explicit	-11.058
▁exploit	-11.058
▁expressed	-11.058
▁extraordinary	-11.058
▁fabricated	-11.058
▁facial	-11.058
▁fading	-11.058
▁favor	-11.058
▁fearing	-11.058
▁fearlessness	-11.058
▁feat	-11.058
▁feminist	-11.058
▁filmmaker	-11.058
▁fist	-11.058
▁flatmate	-11.058
▁flavour	-11.058
▁flaw	-11.058
▁fling	-11.058
▁flipped	-11.058
▁float	-11.058
▁flood	-11.058
▁flunked	-11.058
▁foe	-11.058
▁fomo	-11.058
▁forbid	-11.058
▁forgiveness	-11.058
▁formal	-11.058
▁formatting	-11.058
▁fortunately	-11.058
▁fourteen	-11.058
▁framed	-11.058
▁framework	-11.058
▁freely	-11.058
▁fridge	-11.058
▁fried	-11.058
▁frightening	-11.058
▁frisson	-11.058
▁froze	-11.058
▁frozen	-11.058
▁ftm	-11.058
▁fuhg	-11.058
▁fulfils	-11.058
▁fullest	-11.058
▁fulltime	-11.058
▁fundamentally	-11.058
▁gaba	-11.058
▁gambling	-11.058
▁gear	-11.058
▁genetics	-11.058
▁genre	-11.058
▁german	-11.058
▁gesture	-11.058
▁gina	-11.058
▁glance	-11.058
▁gosh	-11.058
▁graciously	-11.058
▁gradually	-11.058
▁grandparent	-11.058
▁grant	-11.058
▁gratification	-11.058
▁grease	-11.058
▁grit	-11.058
▁guiding	-11.058
▁gum	-11.058
▁gutted	-11.058
▁handed	-11.058
▁hangout	-11.058
▁harassment	-11.058
▁harbor	-11.058
▁hardcore	-11.058
▁harmony	-11.058
▁harshly	-11.058
▁heading	-11.058
▁healed	-11.058
▁healer	-11.058
▁heave	-11.058
▁heavenly	-11.058
▁height	-11.058
▁heir	-11.058
▁helicopter	-11.058
▁herb	-11.058
▁herbal	-11.058
▁himalaya	-11.058
▁hive	-11.058
▁hmm	-11.058
▁ho	-11.058
▁homeschooled	-11.058
▁honor	-11.058
▁hook	-11.058
▁host	-11.058
▁hosting	-11.058
▁hypocrite	-11.058
▁idle	-11.058
▁ik	-11.058
▁illustration	-11.058
▁immigrated	-11.058
▁impatient	-11.058
▁impress	-11.058
▁impressive	-11.058
▁inappropriate	-11.058
▁incapable	-11.058
▁indicated	-11.058
▁indication	-11.058
▁individually	-11.058
▁inducing	-11.058
▁indulge	-11.058
▁ineffective	-11.058
▁inflammation	-11.058
▁initiate	-11.058
▁injustice	-11.058
▁insanity	-11.058
▁insidious	-11.058
▁instability	-11.058
▁instrumentals	-11.058
▁insufficient	-11.058
▁insult	-11.058
▁integrity	-11.058
▁intellectual	-11.058
▁intend	-11.058
▁interactive	-11.058
▁interruption	-11.058
▁intersection	-11.058
▁intimate	-11.058
▁intuition	-11.058
▁inventory	-11.058
▁involvement	-11.058
▁iowa	-11.058
▁ip	-11.058
▁irrational	-11.058
▁iv	-11.058
▁jaded	-11.058
▁jan	-11.058
▁jeremyhughes	-11.058
▁joyous	-11.058
▁junky	-11.058
▁jus	-11.058
▁ki	-11.058
▁killer	-11.058
▁kissed	-11.058
▁knocking	-11.058
▁lake	-11.058
▁lame	-11.058
▁landlord	-11.058
▁largely	-11.058
▁leaning	-11.058
▁lecturing	-11.058
▁legitimate	-11.058
▁lesbian	-11.058
▁lethal	-11.058
▁leveled	-11.058
▁leverage	-11.058
▁lgbtq	-11.058
▁lick	-11.058
▁licorice	-11.058
▁liege	-11.058
▁lifelong	-11.058
▁lighting	-11.058
▁lightly	-11.058
▁lionel	-11.058
▁listener	-11.058
▁lit	-11.058
▁lively	-11.058
▁livestream	-11.058
▁lmao	-11.058
▁loathe	-11.058
▁logging	-11.058
▁london	-11.058
▁lord	-11.058
▁louder	-11.058
▁lowered	-11.058
▁lowering	-11.058
▁lucrative	-11.058
▁lurking	-11.058
▁mae	-11.058
▁magnetic	-11.058
▁maharshi	-11.058
▁maintains	-11.058
▁mall	-11.058
▁manifestation	-11.058
▁marijuana	-11.058
▁mastering	-11.058
▁masturbated	-11.058
▁masturbation	-11.058
▁mate	-11.058
▁matured	-11.058
▁meat	-11.058
▁melted	-11.058
▁merely	-11.058
▁meridian	-11.058
▁metabolism	-11.058
▁micro	-11.058
▁midst	-11.058
▁mindedness	-11.058
▁mini	-11.058
▁misfortune	-11.058
▁mistaken	-11.058
▁moon	-11.058
▁moreso	-11.058
▁motif	-11.058
▁mouthful	-11.058
▁mra	-11.058
▁mrv	-11.058
▁multi	-11.058
▁mumbai	-11.058
▁naive	-11.058
▁narrative	-11.058
▁nasal	-11.058
▁nasty	-11.058
▁nazi	-11.058
▁nealy	-11.058
▁needy	-11.058
▁neglecting	-11.058
▁neighbour	-11.058
▁nepal	-11.058
▁nephew	-11.058
▁neuralgia	-11.058
▁neuropathy	-11.058
▁neurotransmitter	-11.058
▁newbie	-11.058
▁newspaper	-11.058
▁niece	-11.058
▁nihilist	-11.058
▁nit	-11.058
▁nonchalantly	-11.058
▁norepinephrine	-11.058
▁norm	-11.058
▁nostril	-11.058
▁nothingness	-11.058
▁novelty	-11.058
▁ny	-11.058
▁objective	-11.058
▁objectively	-11.058
▁obligated	-11.058
▁obligation	-11.058
▁obtain	-11.058
▁oldest	-11.058
▁onset	-11.058
▁orb	-11.058
▁ordeal	-11.058
▁organised	-11.058
▁organize	-11.058
▁orientation	-11.058
▁oriented	-11.058
▁outdoor	-11.058
▁outta	-11.058
▁overloaded	-11.058
▁overpower	-11.058
▁overview	-11.058
▁overwork	-11.058
▁owned	-11.058
▁ownership	-11.058
▁painkiller	-11.058
▁pandora	-11.058
▁parking	-11.058
▁participated	-11.058
▁pat	-11.058
▁payed	-11.058
▁peppermint	-11.058
▁performing	-11.058
▁periodically	-11.058
▁perk	-11.058
▁persevere	-11.058
▁pharma	-11.058
▁photographer	-11.058
▁photoshoots	-11.058
▁physique	-11.058
▁pillow	-11.058
▁pipe	-11.058
▁pissing	-11.058
▁pitch	-11.058
▁pituitary	-11.058
▁pivot	-11.058
▁pivoting	-11.058
▁plane	-11.058
▁planting	-11.058
▁platonic	-11.058
▁pleased	-11.058
▁poem	-11.058
▁poet	-11.058
▁politician	-11.058
▁politics	-11.058
▁poof	-11.058
▁popping	-11.058
▁portrait	-11.058
▁positively	-11.058
▁postgraduate	-11.058
▁pouring	-11.058
▁precise	-11.058
▁prepares	-11.058
▁prescribe	-11.058
▁prevention	-11.058
▁principal	-11.058
▁prioritise	-11.058
▁prioritize	-11.058
▁programmer	-11.058
▁projected	-11.058
▁promo	-11.058
▁promote	-11.058
▁protected	-11.058
▁proven	-11.058
▁provided	-11.058
▁province	-11.058
▁pry	-11.058
▁punishing	-11.058
▁questionable	-11.058
▁rabbit	-11.058
▁raffle	-11.058
▁raining	-11.058
▁rapport	-11.058
▁rat	-11.058
▁razor	-11.058
▁reactive	-11.058
▁reacts	-11.058
▁reader	-11.058
▁reap	-11.058
▁recall	-11.058
▁receives	-11.058
▁recession	-11.058
▁recurrent	-11.058
▁redundant	-11.058
▁referring	-11.058
▁refresh	-11.058
▁regain	-11.058
▁registered	-11.058
▁regretted	-11.058
▁reject	-11.058
▁relies	-11.058
▁repair	-11.058
▁repairing	-11.058
▁repetitive	-11.058
▁replaceable	-11.058
▁replacing	-11.058
▁replay	-11.058
▁replicate	-11.058
▁reported	-11.058
▁representative	-11.058
▁requesting	-11.058
▁residential	-11.058
▁resigning	-11.058
▁resist	-11.058
▁resolving	-11.058
▁resonate	-11.058
▁resonated	-11.058
▁responded	-11.058
▁responds	-11.058
▁restless	-11.058
▁restlessness	-11.058
▁retard	-11.058
▁reveals	-11.058
▁revenue	-11.058
▁revolve	-11.058
▁rewire	-11.058
▁rewriting	-11.058
▁ridiculous	-11.058
▁rightfully	-11.058
▁rip	-11.058
▁ripped	-11.058
▁roadblock	-11.058
▁rob	-11.058
▁roomie	-11.058
▁route	-11.058
▁ruining	-11.058
▁sample	-11.058
▁saturday	-11.058
▁savior	-11.058
▁scam	-11.058
▁scheduling	-11.058
▁schizophrenia	-11.058
▁scolded	-11.058
▁secondly	-11.058
▁sedated	-11.058
▁seminar	-11.058
▁sensed	-11.058
▁serenity	-11.058
▁seroquel	-11.058
▁served	-11.058
▁shaky	-11.058
▁sheep	-11.058
▁shifting	-11.058
▁ship	-11.058
▁shirt	-11.058
▁shock	-11.058
▁shortness	-11.058
▁shotgun	-11.058
▁shout	-11.058
▁showered	-11.058
▁showering	-11.058
▁sided	-11.058
▁singh	-11.058
▁sinking	-11.058
▁skillset	-11.058
▁skydiving	-11.058
▁skyrocketed	-11.058
▁slamming	-11.058
▁sluggish	-11.058
▁smiled	-11.058
▁smoked	-11.058
▁smoothly	-11.058
▁smth	-11.058
▁sob	-11.058
▁sobriety	-11.058
▁software	-11.058
▁soil	-11.058
▁sorted	-11.058
▁spaced	-11.058
▁spanish	-11.058
▁spectacle	-11.058
▁spectrum	-11.058
▁spike	-11.058
▁spiraled	-11.058
▁spoon	-11.058
▁squeeze	-11.058
▁staircase	-11.058
▁standalone	-11.058
▁stanford	-11.058
▁startup	-11.058
▁starved	-11.058
▁stephen	-11.058
▁stepmother	-11.058
▁stimulated	-11.058
▁stoicism	-11.058
▁stole	-11.058
▁stored	-11.058
▁streak	-11.058
▁strike	-11.058
▁string	-11.058
▁strive	-11.058
▁stroll	-11.058
▁strongest	-11.058
▁submission	-11.058
▁submit	-11.058
▁successfully	-11.058
▁suicidewatch	-11.058
▁suitable	-11.058
▁suitcase	-11.058
▁supply	-11.058
▁suppression	-11.058
▁surround	-11.058
▁surviving	-11.058
▁sustained	-11.058
▁sweaty	-11.058
▁swore	-11.058
▁sympathetic	-11.058
▁sympathy	-11.058
▁tab	-11.058
▁tackle	-11.058
▁tangible	-11.058
▁tasting	-11.058
▁temp	-11.058
▁temptation	-11.058
▁tending	-11.058
▁terminal	-11.058
▁terrifying	-11.058
▁testosterone	-11.058
▁texas	-11.058
▁thanking	-11.058
▁thanksgiving	-11.058
▁theanine	-11.058
▁thelma	-11.058
▁therapeutic	-11.058
▁thereafter	-11.058
▁thoughs	-11.058
▁threshold	-11.058
▁tht	-11.058
▁tick	-11.058
▁tier	-11.058
▁tightly	-11.058
▁tingling	-11.058
▁tiniest	-11.058
▁tipping	-11.058
▁toddler	-11.058
▁tolerate	-11.058
▁tomato	-11.058
▁toothache	-11.058
▁toronto	-11.058
▁torrent	-11.058
▁torture	-11.058
▁toxicity	-11.058
▁traditional	-11.058
▁tragic	-11.058
▁transitioning	-11.058
▁transmitter	-11.058
▁transport	-11.058
▁trashed	-11.058
▁traveling	-11.058
▁treacherous	-11.058
▁tremendously	-11.058
▁trending	-11.058
▁trigeminal	-11.058
▁troubling	-11.058
▁trough	-11.058
▁trustworthy	-11.058
▁truthfully	-11.058
▁tumbling	-11.058
▁tumblr	-11.058
▁tune	-11.058
▁turmeric	-11.058
▁twist	-11.058
▁typo	-11.058
▁uc	-11.058
▁uh	-11.058
▁um	-11.058
▁umm	-11.058
▁unattractive	-11.058
▁unbearably	-11.058
▁unconscious	-11.058
▁unconsciously	-11.058
▁understandable	-11.058
▁undiagnosed	-11.058
▁uneasy	-11.058
▁unintelligent	-11.058
▁uninterrupted	-11.058
▁unlike	-11.058
▁unlock	-11.058
▁unlucky	-11.058
▁unnoticed	-11.058
▁unpacking	-11.058
▁unreasonable	-11.058
▁unsuccessful	-11.058
▁unsuccessfully	-11.058
▁untill	-11.058
▁unusual	-11.058
▁unwell	-11.058
▁unwind	-11.058
▁unwise	-11.058
▁updated	-11.058
▁upper	-11.058
▁varied	-11.058
▁varying	-11.058
▁veg	-11.058
▁verge	-11.058
▁verification	-11.058
▁versa	-11.058
▁versus	-11.058
▁vibrant	-11.058
▁village	-11.058
▁villain	-11.058
▁viral	-11.058
▁virtually	-11.058
▁viscous	-11.058
▁visiting	-11.058
▁visitor	-11.058
▁visualize	-11.058
▁visually	-11.058
▁vocabulary	-11.058
▁volleyball	-11.058
▁volume	-11.058
▁volunteering	-11.058
▁vomiting	-11.058
▁vote	-11.058
▁walmart	-11.058
▁wan	-11.058
▁warehouse	-11.058
▁weapon	-11.058
▁weighs	-11.058
▁weirdly	-11.058
▁whatnot	-11.058
▁whim	-11.058
▁whine	-11.058
▁widow	-11.058
▁wiggle	-11.058
▁witnessed	-11.058
▁woken	-11.058
▁wooden	-11.058
▁woozy	-11.058
▁worn	-11.058
▁worsened	-11.058
▁wreck	-11.058
▁writting	-11.058
▁xr	-11.058
▁ya	-11.058
▁yale	-11.058
▁yard	-11.058
▁yogi	-11.058
▁youngest	-11.058
▁youre	-11.058
▁abdomen	-11.4634
▁abilify	-11.4634
▁abject	-11.4634
▁abnormality	-11.4634
▁abolishing	-11.4634
▁aborigine	-11.4634
▁aborted	-11.4634
▁abrasion	-11.4634
▁abscess	-11.4634
▁absorbing	-11.4634
▁abstract	-11.4634
▁abusing	-11.4634
▁ac	-11.4634
▁accelerated	-11.4634
▁accompany	-11.4634
▁accordance	-11.4634
▁accountant	-11.4634
▁accounting	-11.4634
▁accurate	-11.4634
▁acidic	-11.4634
▁acquaintance	-11.4634
▁acquire	-11.4634
▁acronym	-11.4634
▁actionable	-11.4634
▁activation	-11.4634
▁activist	-11.4634
▁actualize	-11.4634
▁adaptable	-11.4634
▁adapting	-11.4634
▁adaptive	-11.4634
▁addictive	-11.4634
▁addressing	-11.4634
▁adjusted	-11.4634
▁adjusting	-11.4634
▁admins	-11.4634
▁admirable	-11.4634
▁admiration	-11.4634
▁admire	-11.4634
▁admired	-11.4634
▁adolescent	-11.4634
▁adoptive	-11.4634
▁adorable	-11.4634
▁adoration	-11.4634
▁adore	-11.4634
▁adrenalin	-11.4634
▁adsense	-11.4634
▁advanced	-11.4634
▁advantageous	-11.4634
▁advise	-11.4634
▁advocating	-11.4634
▁aesthetic	-11.4634
▁af	-11.4634
▁afar	-11.4634
▁afect	-11.4634
▁affable	-11.4634
▁affair	-11.4634
▁agonizing	-11.4634
▁aide	-11.4634
▁aiding	-11.4634
▁aimed	-11.4634
▁alabama	-11.4634
▁alarmingly	-11.4634
▁alaska	-11.4634
▁alcoholism	-11.4634
▁alcolism	-11.4634
▁aliveness	-11.4634
▁aliviate	-11.4634
▁alkaline	-11.4634
▁alllll	-11.4634
▁alopecia	-11.4634
▁aloud	-11.4634
▁alprazolam	-11.4634
▁alrealdy	-11.4634
▁alteration	-11.4634
▁alternate	-11.4634
▁alveolus	-11.4634
▁alzheimer	-11.4634
▁amaal	-11.4634
▁amazings	-11.4634
▁ambiance	-11.4634
▁ambiguity	-11.4634
▁ambulance	-11.4634
▁amends	-11.4634
▁amid	-11.4634
▁ammount	-11.4634
▁amorphous	-11.4634
▁amphetamine	-11.4634
▁analogously	-11.4634
▁analysis	-11.4634
▁analyze	-11.4634
▁anchor	-11.4634
▁andew	-11.4634
▁androgenetic	-11.4634
▁anew	-11.4634
▁angelic	-11.4634
▁angle	-11.4634
▁angrier	-11.4634
▁anime	-11.4634
▁ankle	-11.4634
▁anonymity	-11.4634
▁ant	-11.4634
▁anthropoligist	-11.4634
▁antibody	-11.4634
▁antidote	-11.4634
▁antinatalist	-11.4634
▁antipsychotic	-11.4634
▁antisocial	-11.4634
▁anxiousness	-11.4634
▁apathetic	-11.4634
▁aphatic	-11.4634
▁appalled	-11.4634
▁appreciating	-11.4634
▁approve	-11.4634
▁approves	-11.4634
▁aptitude	-11.4634
▁arbitrary	-11.4634
▁ard	-11.4634
▁argued	-11.4634
▁argues	-11.4634
▁arnold	-11.4634
▁aromatherapy	-11.4634
▁arrange	-11.4634
▁arranged	-11.4634
▁arrest	-11.4634
▁arrived	-11.4634
▁arrogant	-11.4634
▁artery	-11.4634
▁articulate	-11.4634
▁artistic	-11.4634
▁ascending	-11.4634
▁ascensionmeditation	-11.4634
▁asd	-11.4634
▁asf	-11.4634
▁asfff	-11.4634
▁ash	-11.4634
▁asian	-11.4634
▁asperger	-11.4634
▁assist	-11.4634
▁assisted	-11.4634
▁asthma	-11.4634
▁astonishing	-11.4634
▁astral	-11.4634
▁aswell	-11.4634
▁atmospheric	-11.4634
▁attach	-11.4634
▁attained	-11.4634
▁attracted	-11.4634
▁audition	-11.4634
▁australian	-11.4634
▁automated	-11.4634
▁availability	-11.4634
▁awarded	-11.4634
▁aways	-11.4634
▁awe	-11.4634
▁aztec	-11.4634
▁backspaced	-11.4634
▁backyard	-11.4634
▁badass	-11.4634
▁bail	-11.4634
▁bait	-11.4634
▁bake	-11.4634
▁balcony	-11.4634
▁balding	-11.4634
▁baldness	-11.4634
▁bar	-11.4634
▁barbiee	-11.4634
▁barefoot	-11.4634
▁barricade	-11.4634
▁basket	-11.4634
▁bath	-11.4634
▁bathing	-11.4634
▁batting	-11.4634
▁battlefield	-11.4634
▁bawl	-11.4634
▁bbq	-11.4634
▁beachside	-11.4634
▁beacuse	-11.4634
▁bearable	-11.4634
▁bearing	-11.4634
▁beaten	-11.4634
▁bee	-11.4634
▁beed	-11.4634
▁beep	-11.4634
▁befor	-11.4634
▁beforehand	-11.4634
▁befriend	-11.4634
▁beggining	-11.4634
▁behavioural	-11.4634
▁beingness	-11.4634
▁belated	-11.4634
▁bemindfulonline	-11.4634
▁bender	-11.4634
▁beneath	-11.4634
▁beneficial	-11.4634
▁bestfriend	-11.4634
▁bestselling	-11.4634
▁betray	-11.4634
▁bettering	-11.4634
▁bfa	-11.4634
▁bich	-11.4634
▁biggies	-11.4634
▁bin	-11.4634
▁binary	-11.4634
▁binging	-11.4634
▁biography	-11.4634
▁biologically	-11.4634
▁biting	-11.4634
▁bitterness	-11.4634
▁blacked	-11.4634
▁blanchard	-11.4634
▁bleak	-11.4634
▁blemish	-11.4634
▁blend	-11.4634
▁blip	-11.4634
▁bloated	-11.4634
▁blocker	-11.4634
▁blogger	-11.4634
▁blogging	-11.4634
▁blowing	-11.4634
▁blur	-11.4634
▁blurred	-11.4634
▁bold	-11.4634
▁bombed	-11.4634
▁bombing	-11.4634
▁boo	-11.4634
▁boops	-11.4634
▁boosted	-11.4634
▁boosting	-11.4634
▁boot	-11.4634
▁booth	-11.4634
▁bossa	-11.4634
▁bottled	-11.4634
▁bowl	-11.4634
▁bragging	-11.4634
▁brat	-11.4634
▁breakthrough	-11.4634
▁breast	-11.4634
▁breathed	-11.4634
▁brew	-11.4634
▁bricker	-11.4634
▁brighten	-11.4634
▁britain	-11.4634
▁british	-11.4634
▁bronson	-11.4634
▁bros	-11.4634
▁browse	-11.4634
▁bruise	-11.4634
▁bruised	-11.4634
▁brutal	-11.4634
▁budda	-11.4634
▁buffett	-11.4634
▁buggy	-11.4634
▁bulimia	-11.4634
▁bull	-11.4634
▁bumping	-11.4634
▁bungee	-11.4634
▁burdening	-11.4634
▁burg	-11.4634
▁buried	-11.4634
▁buttered	-11.4634
▁bye	-11.4634
▁cafe	-11.4634
▁cafeteria	-11.4634
▁cafine	-11.4634
▁cal	-11.4634
▁cannabis	-11.4634
▁canucknaround	-11.4634
▁capstone	-11.4634
▁captaindepression	-11.4634
▁carbongrit	-11.4634
▁cardio	-11.4634
▁careerwise	-11.4634
▁carol	-11.4634
▁cart	-11.4634
▁carve	-11.4634
▁cascade	-11.4634
▁casting	-11.4634
▁casually	-11.4634
▁catastrophe	-11.4634
▁cavity	-11.4634
▁cbc	-11.4634
▁ccna	-11.4634
▁cec	-11.4634
▁celebrity	-11.4634
▁celexa	-11.4634
▁cellphone	-11.4634
▁cemetery	-11.4634
▁centered	-11.4634
▁centering	-11.4634
▁centralised	-11.4634
▁cert	-11.4634
▁certify	-11.4634
▁cf	-11.4634
▁challeged	-11.4634
▁challeges	-11.4634
▁charismatic	-11.4634
▁charitable	-11.4634
▁charles	-11.4634
▁charming	-11.4634
▁chated	-11.4634
▁chatter	-11.4634
▁cheaper	-11.4634
▁cheapskate	-11.4634
▁checkout	-11.4634
▁cheered	-11.4634
▁cheerful	-11.4634
▁cheerleader	-11.4634
▁chef	-11.4634
▁cherry	-11.4634
▁chester	-11.4634
▁chevrolet	-11.4634
▁chewed	-11.4634
▁chillllll	-11.4634
▁chipping	-11.4634
▁chirping	-11.4634
▁chooses	-11.4634
▁christianity	-11.4634
▁chromebook	-11.4634
▁chuckle	-11.4634
▁ci	-11.4634
▁ciggarettes	-11.4634
▁cinema	-11.4634
▁circulating	-11.4634
▁civil	-11.4634
▁civilization	-11.4634
▁claiming	-11.4634
▁clairvoyance	-11.4634
▁clamp	-11.4634
▁clapping	-11.4634
▁clarify	-11.4634
▁clash	-11.4634
▁classical	-11.4634
▁classify	-11.4634
▁classroom	-11.4634
▁cleared	-11.4634
▁clearer	-11.4634
▁cleft	-11.4634
▁clenched	-11.4634
▁clever	-11.4634
▁clicked	-11.4634
▁climax	-11.4634
▁clingy	-11.4634
▁clipped	-11.4634
▁cloak	-11.4634
▁clonazepam	-11.4634
▁closure	-11.4634
▁clout	-11.4634
▁clown	-11.4634
▁clueless	-11.4634
▁cocky	-11.4634
▁coco	-11.4634
▁coding	-11.4634
▁codo	-11.4634
▁coffin	-11.4634
▁coinbase	-11.4634
▁coincidence	-11.4634
▁collect	-11.4634
▁collins	-11.4634
▁colon	-11.4634
▁combating	-11.4634
▁comedy	-11.4634
▁comic	-11.4634
▁commends	-11.4634
▁commerce	-11.4634
▁commiserating	-11.4634
▁commiting	-11.4634
▁comorbid	-11.4634
▁comparing	-11.4634
▁compatible	-11.4634
▁compensation	-11.4634
▁compiled	-11.4634
▁complained	-11.4634
▁component	-11.4634
▁compromise	-11.4634
▁conceptualization	-11.4634
▁concerta	-11.4634
▁concrete	-11.4634
▁concussion	-11.4634
▁conduct	-11.4634
▁confidential	-11.4634
▁conflicting	-11.4634
▁conform	-11.4634
▁congratulation	-11.4634
▁congressional	-11.4634
▁conservative	-11.4634
▁considerable	-11.4634
▁considers	-11.4634
▁consists	-11.4634
▁consitent	-11.4634
▁console	-11.4634
▁consolidate	-11.4634
▁constructively	-11.4634
▁consultant	-11.4634
▁consumed	-11.4634
▁consumerism	-11.4634
▁contacted	-11.4634
▁contained	-11.4634
▁contemplating	-11.4634
▁contemptible	-11.4634
▁continously	-11.4634
▁continued	-11.4634
▁continuously	-11.4634
▁contradictory	-11.4634
▁contributed	-11.4634
▁contributing	-11.4634
▁controllable	-11.4634
▁controller	-11.4634
▁convenience	-11.4634
▁convenient	-11.4634
▁conventional	-11.4634
▁conveyer	-11.4634
▁conviced	-11.4634
▁convincingly	-11.4634
▁cooky	-11.4634
▁cooping	-11.4634
▁corneal	-11.4634
▁correlate	-11.4634
▁corrupted	-11.4634
▁cortex	-11.4634
▁costly	-11.4634
▁couldnt	-11.4634
▁countdown	-11.4634
▁coverage	-11.4634
▁cow	-11.4634
▁cpa	-11.4634
▁cramped	-11.4634
▁craves	-11.4634
▁crawled	-11.4634
▁crawlies	-11.4634
▁craze	-11.4634
▁creatives	-11.4634
▁creek	-11.4634
▁criterion	-11.4634
▁critically	-11.4634
▁criticizes	-11.4634
▁critter	-11.4634
▁crossing	-11.4634
▁crown	-11.4634
▁cruz	-11.4634
▁crystal	-11.4634
▁cuddling	-11.4634
▁culmination	-11.4634
▁cumming	-11.4634
▁cupboard	-11.4634
▁cuppa	-11.4634
▁curating	-11.4634
▁curve	-11.4634
▁curving	-11.4634
▁custody	-11.4634
▁cutler	-11.4634
▁cylinder	-11.4634
▁cymbalta	-11.4634
▁da	-11.4634
▁dan	-11.4634
▁dancing	-11.4634
▁dangerously	-11.4634
▁dared	-11.4634
▁darn	-11.4634
▁daydream	-11.4634
▁deadlift	-11.4634
▁deault	-11.4634
▁debated	-11.4634
▁decency	-11.4634
▁deception	-11.4634
▁deceptive	-11.4634
▁declined	-11.4634
▁declutter	-11.4634
▁decoration	-11.4634
▁deductable	-11.4634
▁deed	-11.4634
▁deem	-11.4634
▁deemed	-11.4634
▁deems	-11.4634
▁default	-11.4634
▁defaulted	-11.4634
▁defeat	-11.4634
▁defination	-11.4634
▁definite	-11.4634
▁deformed	-11.4634
▁degrading	-11.4634
▁delaying	-11.4634
▁delegate	-11.4634
▁delicious	-11.4634
▁delight	-11.4634
▁delirious	-11.4634
▁delusional	-11.4634
▁demanding	-11.4634
▁democracy	-11.4634
▁dense	-11.4634
▁densest	-11.4634
▁dental	-11.4634
▁depersnalization	-11.4634
▁depersonalization	-11.4634
▁deplete	-11.4634
▁deprivation	-11.4634
▁deprived	-11.4634
▁dermatologist	-11.4634
▁describing	-11.4634
▁designated	-11.4634
▁desktop	-11.4634
▁destined	-11.4634
▁destiny	-11.4634
▁destroys	-11.4634
▁detailing	-11.4634
▁deter	-11.4634
▁deteriorated	-11.4634
▁deteriorating	-11.4634
▁detract	-11.4634
▁detriment	-11.4634
▁devalues	-11.4634
▁devastate	-11.4634
▁devastated	-11.4634
▁developemental	-11.4634
▁developer	-11.4634
▁developmental	-11.4634
▁devine	-11.4634
▁diafram	-11.4634
▁diametrically	-11.4634
▁dicided	-11.4634
▁dictator	-11.4634
▁differ	-11.4634
▁dilation	-11.4634
▁dilution	-11.4634
▁dilutional	-11.4634
▁dimattina	-11.4634
▁diminish	-11.4634
▁dint	-11.4634
▁directed	-11.4634
▁disappears	-11.4634
▁disappointement	-11.4634
▁disapproved	-11.4634
▁disaster	-11.4634
▁disclosure	-11.4634
▁disconnect	-11.4634
▁discouragement	-11.4634
▁discussed	-11.4634
▁disfunctional	-11.4634
▁disgusted	-11.4634
▁disingenuous	-11.4634
▁dismiss	-11.4634
▁disordered	-11.4634
▁disowned	-11.4634
▁disproportionate	-11.4634
▁disregard	-11.4634
▁disregarded	-11.4634
▁disrespecting	-11.4634
▁dissatisfaction	-11.4634
▁dissociating	-11.4634
▁distinct	-11.4634
▁distinction	-11.4634
▁distortion	-11.4634
▁distracting	-11.4634
▁distraught	-11.4634
▁distressing	-11.4634
▁disturb	-11.4634
▁ditch	-11.4634
▁divide	-11.4634
▁divisional	-11.4634
▁dizzyness	-11.4634
▁doable	-11.4634
▁documantaries	-11.4634
▁document	-11.4634
▁documenting	-11.4634
▁doer	-11.4634
▁doll	-11.4634
▁dominant	-11.4634
▁donating	-11.4634
▁donation	-11.4634
▁dong	-11.4634
▁doom	-11.4634
▁doordash	-11.4634
▁doosie	-11.4634
▁dopa	-11.4634
▁dope	-11.4634
▁dosage	-11.4634
▁downfall	-11.4634
▁downplays	-11.4634
▁downsize	-11.4634
▁downward	-11.4634
▁downwards	-11.4634
▁dramatically	-11.4634
▁dreading	-11.4634
▁dreamed	-11.4634
▁dreamt	-11.4634
▁drivign	-11.4634
▁drool	-11.4634
▁dropping	-11.4634
▁drowsy	-11.4634
▁drugged	-11.4634
▁drum	-11.4634
▁dt	-11.4634
▁duck	-11.4634
▁dug	-11.4634
▁dumping	-11.4634
▁dynamic	-11.4634
▁dysfunction	-11.4634
▁earthquake	-11.4634
▁eased	-11.4634
▁eastern	-11.4634
▁ebb	-11.4634
▁edgy	-11.4634
▁educate	-11.4634
▁efficiently	-11.4634
▁egotistical	-11.4634
▁eight	-11.4634
▁eith	-11.4634
▁ekg	-11.4634
▁elated	-11.4634
▁elation	-11.4634
▁electric	-11.4634
▁electrical	-11.4634
▁electrocute	-11.4634
▁electrode	-11.4634
▁electronics	-11.4634
▁eliminating	-11.4634
▁elixir	-11.4634
▁elope	-11.4634
▁elsewhere	-11.4634
▁emailing	-11.4634
▁emancipate	-11.4634
▁embarassed	-11.4634
▁embarrass	-11.4634
▁emerged	-11.4634
▁emo	-11.4634
▁emotionless	-11.4634
▁empathize	-11.4634
▁emphaising	-11.4634
▁emphasize	-11.4634
▁emphasized	-11.4634
▁employing	-11.4634
▁enabled	-11.4634
▁encephalitis	-11.4634
▁encountered	-11.4634
▁encourages	-11.4634
▁endeavoured	-11.4634
▁endometriosis	-11.4634
▁enhances	-11.4634
▁enlighten	-11.4634
▁enlivened	-11.4634
▁enourmous	-11.4634
▁enriching	-11.4634
▁enroll	-11.4634
▁ensures	-11.4634
▁entourage	-11.4634
▁enveloped	-11.4634
▁envied	-11.4634
▁environmental	-11.4634
▁epidemic	-11.4634
▁equality	-11.4634
▁equate	-11.4634
▁equipped	-11.4634
▁eradicated	-11.4634
▁eric	-11.4634
▁escalate	-11.4634
▁escaped	-11.4634
▁escaping	-11.4634
▁est	-11.4634
▁establish	-11.4634
▁estate	-11.4634
▁ethical	-11.4634
▁ethnicity	-11.4634
▁euphemism	-11.4634
▁europe	-11.4634
▁euthanasia	-11.4634
▁euthanized	-11.4634
▁evangelism	-11.4634
▁everyon	-11.4634
▁everythings	-11.4634
▁evicted	-11.4634
▁evolves	-11.4634
▁excelling	-11.4634
▁excercises	-11.4634
▁excersises	-11.4634
▁excessively	-11.4634
▁exclusive	-11.4634
▁exclusively	-11.4634
▁excruciating	-11.4634
▁exhaust	-11.4634
▁existance	-11.4634
▁exited	-11.4634
▁expanded	-11.4634
▁expands	-11.4634
▁expansion	-11.4634
▁explosion	-11.4634
▁expose	-11.4634
▁exposing	-11.4634
▁expressive	-11.4634
▁extend	-11.4634
▁extensive	-11.4634
▁extensively	-11.4634
▁extinct	-11.4634
▁extolled	-11.4634
▁extort	-11.4634
▁extract	-11.4634
▁extraoedinary	-11.4634
▁extremly	-11.4634
▁extroverted	-11.4634
▁eyebrow	-11.4634
▁eyed	-11.4634
▁facade	-11.4634
▁facilitate	-11.4634
▁facility	-11.4634
▁failling	-11.4634
▁fairness	-11.4634
▁faithful	-11.4634
▁falcon	-11.4634
▁falsely	-11.4634
▁fam	-11.4634
▁fantasized	-11.4634
▁farm	-11.4634
▁fase	-11.4634
▁fatal	-11.4634
▁fatigued	-11.4634
▁fb	-11.4634
▁fck	-11.4634
▁fcking	-11.4634
▁fearless	-11.4634
▁feasible	-11.4634
▁feeding	-11.4634
▁feild	-11.4634
▁felix	-11.4634
▁fella	-11.4634
▁fellowship	-11.4634
▁femboy	-11.4634
▁ferriss	-11.4634
▁festival	-11.4634
▁feverish	-11.4634
▁fidget	-11.4634
▁fiercely	-11.4634
▁fifth	-11.4634
▁figment	-11.4634
▁fin	-11.4634
▁fir	-11.4634
▁fireplace	-11.4634
▁firmly	-11.4634
▁fishing	-11.4634
▁fitful	-11.4634
▁fittest	-11.4634
▁fk	-11.4634
▁flair	-11.4634
▁flammable	-11.4634
▁flea	-11.4634
▁fleeing	-11.4634
▁flexible	-11.4634
▁flinching	-11.4634
▁flipping	-11.4634
▁flooded	-11.4634
▁floss	-11.4634
▁fluff	-11.4634
▁fluid	-11.4634
▁flushed	-11.4634
▁flutter	-11.4634
▁fml	-11.4634
▁folded	-11.4634
▁fond	-11.4634
▁fool	-11.4634
▁ford	-11.4634
▁foreign	-11.4634
▁format	-11.4634
▁formation	-11.4634
▁formative	-11.4634
▁formed	-11.4634
▁formidable	-11.4634
▁forming	-11.4634
▁forsee	-11.4634
▁foul	-11.4634
▁fpv	-11.4634
▁fractured	-11.4634
▁frail	-11.4634
▁freaked	-11.4634
▁freeing	-11.4634
▁freestyle	-11.4634
▁freeze	-11.4634
▁fremont	-11.4634
▁fridaymorning	-11.4634
▁fridaymotivation	-11.4634
▁fridaythoughts	-11.4634
▁friendzoned	-11.4634
▁frightened	-11.4634
▁frisky	-11.4634
▁frizz	-11.4634
▁frontline	-11.4634
▁fruitless	-11.4634
▁fulfills	-11.4634
▁fulfilment	-11.4634
▁functionally	-11.4634
▁funnest	-11.4634
▁funniest	-11.4634
▁fuq	-11.4634
▁fur	-11.4634
▁furious	-11.4634
▁furloughed	-11.4634
▁furry	-11.4634
▁fwd	-11.4634
▁g	-11.4634
▁gabriel	-11.4634
▁gage	-11.4634
▁gale	-11.4634
▁gallbladder	-11.4634
▁garage	-11.4634
▁gardening	-11.4634
▁garmin	-11.4634
▁gaslight	-11.4634
▁gastroenterologist	-11.4634
▁gateway	-11.4634
▁gatewaylocation	-11.4634
▁gene	-11.4634
▁generalized	-11.4634
▁generic	-11.4634
▁gently	-11.4634
▁genuity	-11.4634
▁geographic	-11.4634
▁getaway	-11.4634
▁getsmartebooks	-11.4634
▁ghosting	-11.4634
▁gifted	-11.4634
▁giggle	-11.4634
▁gimpy	-11.4634
▁ginseng	-11.4634
▁givebooks	-11.4634
▁gladness	-11.4634
▁glandular	-11.4634
▁gleaned	-11.4634
▁glimmer	-11.4634
▁gloomy	-11.4634
▁glory	-11.4634
▁glow	-11.4634
▁glowing	-11.4634
▁glued	-11.4634
▁goodnight	-11.4634
▁goodwill	-11.4634
▁gotteb	-11.4634
▁gps	-11.4634
▁graced	-11.4634
▁grain	-11.4634
▁granddaughter	-11.4634
▁grandiose	-11.4634
▁granphater	-11.4634
▁gravely	-11.4634
▁graying	-11.4634
▁greg	-11.4634
▁greyhound	-11.4634
▁grim	-11.4634
▁grinded	-11.4634
▁groin	-11.4634
▁groom	-11.4634
▁grouched	-11.4634
▁groundbreaking	-11.4634
▁grp	-11.4634
▁grueling	-11.4634
▁grunt	-11.4634
▁guaranteed	-11.4634
▁guardianship	-11.4634
▁guessed	-11.4634
▁guest	-11.4634
▁guidedmeditation	-11.4634
▁guilted	-11.4634
▁guru	-11.4634
▁gymnastics	-11.4634
▁gynaecologist	-11.4634
▁habbit	-11.4634
▁hack	-11.4634
▁hacked	-11.4634
▁hahah	-11.4634
▁hahaha	-11.4634
▁hahahahahah	-11.4634
▁hahhaa	-11.4634
▁halfway	-11.4634
▁halt	-11.4634
▁halted	-11.4634
▁handgun	-11.4634
▁handled	-11.4634
▁hanger	-11.4634
▁hannah	-11.4634
▁happend	-11.4634
▁happg	-11.4634
▁happinessnowchannel	-11.4634
▁harbored	-11.4634
▁harpreet	-11.4634
▁harvard	-11.4634
▁haryana	-11.4634
▁hasnt	-11.4634
▁haunting	-11.4634
▁haw	-11.4634
▁haze	-11.4634
▁headline	-11.4634
▁healthiest	-11.4634
▁heartbeat	-11.4634
▁heated	-11.4634
▁heatlh	-11.4634
▁heed	-11.4634
▁helpline	-11.4634
▁hereunder	-11.4634
▁hernia	-11.4634
▁hero	-11.4634
▁heroin	-11.4634
▁heuristic	-11.4634
▁heyejehowh	-11.4634
▁hh	-11.4634
▁hiatal	-11.4634
▁highbrow	-11.4634
▁highlight	-11.4634
▁hightail	-11.4634
▁highway	-11.4634
▁hike	-11.4634
▁hilding	-11.4634
▁hind	-11.4634
▁hindsight	-11.4634
▁hiring	-11.4634
▁hobble	-11.4634
▁hobies	-11.4634
▁holistic	-11.4634
▁homeschool	-11.4634
▁honey	-11.4634
▁honorary	-11.4634
▁hood	-11.4634
▁hopeful	-11.4634
▁horde	-11.4634
▁horrendous	-11.4634
▁hostile	-11.4634
▁hotel	-11.4634
▁hourglass	-11.4634
▁housing	-11.4634
▁howtobehappy	-11.4634
▁howtomeditate	-11.4634
▁htp	-11.4634
▁huberman	-11.4634
▁hugely	-11.4634
▁huhu	-11.4634
▁humility	-11.4634
▁hunger	-11.4634
▁hungover	-11.4634
▁hunting	-11.4634
▁hurricane	-11.4634
▁hussle	-11.4634
▁hustle	-11.4634
▁hustlin	-11.4634
▁hyperventilating	-11.4634
▁hypocritical	-11.4634
▁ibs	-11.4634
▁ic	-11.4634
▁identifying	-11.4634
▁idgaf	-11.4634
▁idiotic	-11.4634
▁iii	-11.4634
▁illumination	-11.4634
▁illusionary	-11.4634
▁illustrate	-11.4634
▁imagery	-11.4634
▁imaginary	-11.4634
▁imaginative	-11.4634
▁imbalance	-11.4634
▁imessage	-11.4634
▁immensely	-11.4634
▁immersed	-11.4634
▁immunity	-11.4634
▁imo	-11.4634
▁impartial	-11.4634
▁implant	-11.4634
▁implying	-11.4634
▁imposed	-11.4634
▁impression	-11.4634
▁impulse	-11.4634
▁inattention	-11.4634
▁incarnation	-11.4634
▁inch	-11.4634
▁incident	-11.4634
▁incompetent	-11.4634
▁inconsiderate	-11.4634
▁incontinent	-11.4634
▁incorporate	-11.4634
▁increasing	-11.4634
▁independence	-11.4634
▁indicator	-11.4634
▁indirectly	-11.4634
▁induce	-11.4634
▁infatuated	-11.4634
▁infinitesilence	-11.4634
▁inflation	-11.4634
▁influencers	-11.4634
▁influential	-11.4634
▁infused	-11.4634
▁inhabilitating	-11.4634
▁inherent	-11.4634
▁inhibit	-11.4634
▁initiative	-11.4634
▁inlove	-11.4634
▁innate	-11.4634
▁innocent	-11.4634
▁innovation	-11.4634
▁insignificant	-11.4634
▁insist	-11.4634
▁insomniac	-11.4634
▁inspirational	-11.4634
▁inspired	-11.4634
▁instantaneous	-11.4634
▁instigator	-11.4634
▁instilling	-11.4634
▁institution	-11.4634
▁instruction	-11.4634
▁instructs	-11.4634
▁integrate	-11.4634
▁integrated	-11.4634
▁intel	-11.4634
▁intends	-11.4634
▁interconnectivity	-11.4634
▁interdependence	-11.4634
▁interrupt	-11.4634
▁interst	-11.4634
▁introduces	-11.4634
▁introduction	-11.4634
▁invades	-11.4634
▁invalidated	-11.4634
▁invasive	-11.4634
▁inventing	-11.4634
▁investigating	-11.4634
▁invisibility	-11.4634
▁invisible	-11.4634
▁inwards	-11.4634
▁ireland	-11.4634
▁ironically	-11.4634
▁irrelevant	-11.4634
▁irresponsibility	-11.4634
▁irritability	-11.4634
▁ishayas	-11.4634
▁ishtarhowell	-11.4634
▁isolate	-11.4634
▁isolating	-11.4634
▁issued	-11.4634
▁italy	-11.4634
▁iteration	-11.4634
▁itll	-11.4634
▁iu	-11.4634
▁ivf	-11.4634
▁jacked	-11.4634
▁jail	-11.4634
▁jakepreddy	-11.4634
▁jar	-11.4634
▁jazzed	-11.4634
▁je	-11.4634
▁jelly	-11.4634
▁jelous	-11.4634
▁jenkins	-11.4634
▁jerk	-11.4634
▁jerking	-11.4634
▁jewish	-11.4634
▁jiggle	-11.4634
▁jittery	-11.4634
▁jkz	-11.4634
▁joking	-11.4634
▁joleneobrien	-11.4634
▁joyfully	-11.4634
▁judaism	-11.4634
▁juggle	-11.4634
▁jumbled	-11.4634
▁jumbo	-11.4634
▁justice	-11.4634
▁justifiably	-11.4634
▁ka	-11.4634
▁kawasaki	-11.4634
▁kennel	-11.4634
▁keystone	-11.4634
▁kinder	-11.4634
▁knee	-11.4634
▁knock	-11.4634
▁knowhow	-11.4634
▁korean	-11.4634
▁labour	-11.4634
▁lasagna	-11.4634
▁lastyear	-11.4634
▁latter	-11.4634
▁latuda	-11.4634
▁laughably	-11.4634
▁laughted	-11.4634
▁launch	-11.4634
▁launching	-11.4634
▁lavish	-11.4634
▁lawn	-11.4634
▁lawson	-11.4634
▁laziness	-11.4634
▁leaking	-11.4634
▁lean	-11.4634
▁leap	-11.4634
▁learnd	-11.4634
▁learner	-11.4634
▁lease	-11.4634
▁leash	-11.4634
▁lectured	-11.4634
▁leftover	-11.4634
▁legacy	-11.4634
▁leisure	-11.4634
▁lend	-11.4634
▁lender	-11.4634
▁lengthy	-11.4634
▁lesons	-11.4634
▁lethargic	-11.4634
▁liar	-11.4634
▁liberal	-11.4634
▁liberation	-11.4634
▁library	-11.4634
▁licence	-11.4634
▁licking	-11.4634
▁lifted	-11.4634
▁lighty	-11.4634
▁lingers	-11.4634
▁linkedin	-11.4634
▁linking	-11.4634
▁liquid	-11.4634
▁literary	-11.4634
▁literature	-11.4634
▁litterally	-11.4634
▁litteraly	-11.4634
▁liverpool	-11.4634
▁loaded	-11.4634
▁loath	-11.4634
▁loathed	-11.4634
▁logo	-11.4634
▁loner	-11.4634
▁looknat	-11.4634
▁loom	-11.4634
▁loooooot	-11.4634
▁loses	-11.4634
▁losserrrrrrr	-11.4634
▁lotta	-11.4634
▁lsd	-11.4634
▁lullaby	-11.4634
▁lupien	-11.4634
▁luxurious	-11.4634
▁lymphoma	-11.4634
▁lyrical	-11.4634
▁madness	-11.4634
▁magnitude	-11.4634
▁maia	-11.4634
▁maid	-11.4634
▁maintained	-11.4634
▁malfunction	-11.4634
▁malibu	-11.4634
▁manchester	-11.4634
▁mandatory	-11.4634
▁maneuver	-11.4634
▁mania	-11.4634
▁manifested	-11.4634
▁manifesting	-11.4634
▁manipualtive	-11.4634
▁manipulating	-11.4634
▁manipulation	-11.4634
▁mannequin	-11.4634
▁mannerism	-11.4634
▁mansion	-11.4634
▁manufacturing	-11.4634
▁marred	-11.4634
▁marrying	-11.4634
▁martin	-11.4634
▁marvelous	-11.4634
▁masculinity	-11.4634
▁masking	-11.4634
▁mass	-11.4634
▁masterclass	-11.4634
▁masterful	-11.4634
▁matched	-11.4634
▁mater	-11.4634
▁mathematically	-11.4634
▁mathernal	-11.4634
▁matted	-11.4634
▁mattered	-11.4634
▁maturely	-11.4634
▁maturing	-11.4634
▁max	-11.4634
▁mayan	-11.4634
▁mayo	-11.4634
▁mba	-11.4634
▁mckeown	-11.4634
▁meagrely	-11.4634
▁mealplan	-11.4634
▁measurement	-11.4634
▁measuring	-11.4634
▁mechanical	-11.4634
▁medal	-11.4634
▁mediation	-11.4634
▁medicated	-11.4634
▁meditated	-11.4634
▁meditationteacher	-11.4634
▁medulla	-11.4634
▁meilin	-11.4634
▁mek	-11.4634
▁melbourne	-11.4634
▁mellow	-11.4634
▁melt	-11.4634
▁meltdown	-11.4634
▁memorized	-11.4634
▁mend	-11.4634
▁mendes	-11.4634
▁mending	-11.4634
▁mentioning	-11.4634
▁meowing	-11.4634
▁merciful	-11.4634
▁mercurial	-11.4634
▁mere	-11.4634
▁merit	-11.4634
▁mesopotamia	-11.4634
▁mexican	-11.4634
▁mexico	-11.4634
▁michaeljames	-11.4634
▁michigan	-11.4634
▁microphone	-11.4634
▁microwave	-11.4634
▁midday	-11.4634
▁milder	-11.4634
▁milestone	-11.4634
▁mill	-11.4634
▁milla	-11.4634
▁millennials	-11.4634
▁millionaire	-11.4634
▁mindfully	-11.4634
▁mineral	-11.4634
▁minority	-11.4634
▁misbehaves	-11.4634
▁mitigates	-11.4634
▁mixture	-11.4634
▁moan	-11.4634
▁moaning	-11.4634
▁modeling	-11.4634
▁molecular	-11.4634
▁molecule	-11.4634
▁momentary	-11.4634
▁mommy	-11.4634
▁monastic	-11.4634
▁monitor	-11.4634
▁monk	-11.4634
▁monkey	-11.4634
▁monumental	-11.4634
▁moody	-11.4634
▁mope	-11.4634
▁morale	-11.4634
▁morbid	-11.4634
▁moron	-11.4634
▁morose	-11.4634
▁mortgage	-11.4634
▁motivates	-11.4634
▁motivator	-11.4634
▁mount	-11.4634
▁mouthguards	-11.4634
▁movember	-11.4634
▁mph	-11.4634
▁mtv	-11.4634
▁multifaceted	-11.4634
▁mumbo	-11.4634
▁mundane	-11.4634
▁murdered	-11.4634
▁muted	-11.4634
▁mutually	-11.4634
▁muvespace	-11.4634
▁mystical	-11.4634
▁mythology	-11.4634
▁nagging	-11.4634
▁naked	-11.4634
▁namely	-11.4634
▁nanci	-11.4634
▁narcisisstic	-11.4634
▁narcissism	-11.4634
▁nasa	-11.4634
▁nation	-11.4634
▁navigate	-11.4634
▁nearing	-11.4634
▁neat	-11.4634
▁necklace	-11.4634
▁needes	-11.4634
▁needle	-11.4634
▁neice	-11.4634
▁neighborhood	-11.4634
▁net	-11.4634
▁nevertheless	-11.4634
▁nexplanon	-11.4634
▁nicely	-11.4634
▁nicodimattina	-11.4634
▁nicotine	-11.4634
▁nighttime	-11.4634
▁nightwish	-11.4634
▁nitpicks	-11.4634
▁nj	-11.4634
▁nod	-11.4634
▁noel	-11.4634
▁nofap	-11.4634
▁noida	-11.4634
▁nomination	-11.4634
▁nonsense	-11.4634
▁nonsensical	-11.4634
▁nonstop	-11.4634
▁noregrets	-11.4634
▁nosedive	-11.4634
▁nothin	-11.4634
▁noticeable	-11.4634
▁noticeably	-11.4634
▁noting	-11.4634
▁nour	-11.4634
▁nova	-11.4634
▁nurtureshock	-11.4634
▁nutella	-11.4634
▁obedient	-11.4634
▁observant	-11.4634
▁observation	-11.4634
▁observing	-11.4634
▁obstetric	-11.4634
▁obstetrics	-11.4634
▁ocassionally	-11.4634
▁occurring	-11.4634
▁occurs	-11.4634
▁oct	-11.4634
▁oe	-11.4634
▁ofcourse	-11.4634
▁offed	-11.4634
▁offense	-11.4634
▁offensive	-11.4634
▁offload	-11.4634
▁offsite	-11.4634
▁oit	-11.4634
▁olympic	-11.4634
▁olympics	-11.4634
▁oncoming	-11.4634
▁onlinesuccesgroup	-11.4634
▁operates	-11.4634
▁operation	-11.4634
▁oppinion	-11.4634
▁oppose	-11.4634
▁oppressed	-11.4634
▁optimal	-11.4634
▁optional	-11.4634
▁orchestrate	-11.4634
▁ordered	-11.4634
▁originating	-11.4634
▁orleans	-11.4634
▁orthogonal	-11.4634
▁otherway	-11.4634
▁ought	-11.4634
▁ourworld	-11.4634
▁outa	-11.4634
▁outcast	-11.4634
▁outfit	-11.4634
▁outgoing	-11.4634
▁outing	-11.4634
▁outsider	-11.4634
▁outwards	-11.4634
▁ovary	-11.4634
▁overate	-11.4634
▁overdosed	-11.4634
▁overdoses	-11.4634
▁overdosing	-11.4634
▁overdrive	-11.4634
▁overeat	-11.4634
▁overeating	-11.4634
▁overflowing	-11.4634
▁overhead	-11.4634
▁overly	-11.4634
▁overpaying	-11.4634
▁overtime	-11.4634
▁overwhelmingly	-11.4634
▁overworked	-11.4634
▁owes	-11.4634
▁owning	-11.4634
▁paddle	-11.4634
▁painless	-11.4634
▁painter	-11.4634
▁pairing	-11.4634
▁paltry	-11.4634
▁pam	-11.4634
▁papa	-11.4634
▁paragraph	-11.4634
▁paralized	-11.4634
▁paralyzed	-11.4634
▁parental	-11.4634
▁parenting	-11.4634
▁partially	-11.4634
▁password	-11.4634
▁paste	-11.4634
▁pastry	-11.4634
▁pathology	-11.4634
▁pausing	-11.4634
▁payback	-11.4634
▁payer	-11.4634
▁peaceandlove	-11.4634
▁peacefully	-11.4634
▁pearl	-11.4634
▁peek	-11.4634
▁peice	-11.4634
▁pepper	-11.4634
▁perceivable	-11.4634
▁perceive	-11.4634
▁percent	-11.4634
▁persecuted	-11.4634
▁persistent	-11.4634
▁personnally	-11.4634
▁persuasive	-11.4634
▁pessimistic	-11.4634
▁petal	-11.4634
▁petition	-11.4634
▁phaternal	-11.4634
▁phenomenon	-11.4634
▁philippine	-11.4634
▁philipwade	-11.4634
▁photography	-11.4634
▁physician	-11.4634
▁pianist	-11.4634
▁picnic	-11.4634
▁pie	-11.4634
▁piggyback	-11.4634
▁piling	-11.4634
▁pincher	-11.4634
▁pink	-11.4634
▁pitched	-11.4634
▁piteous	-11.4634
▁piti	-11.4634
▁pitying	-11.4634
▁pizza	-11.4634
▁placed	-11.4634
▁planner	-11.4634
▁plea	-11.4634
▁pleaded	-11.4634
▁plot	-11.4634
▁plum	-11.4634
▁plunged	-11.4634
▁pogrom	-11.4634
▁pointing	-11.4634
▁pointlessness	-11.4634
▁poison	-11.4634
▁poking	-11.4634
▁poly	-11.4634
▁pond	-11.4634
▁pony	-11.4634
▁poorer	-11.4634
▁poorest	-11.4634
▁popularly	-11.4634
▁population	-11.4634
▁portion	-11.4634
▁portray	-11.4634
▁posponing	-11.4634
▁possession	-11.4634
▁poster	-11.4634
▁posttraumatic	-11.4634
▁posture	-11.4634
▁pot	-11.4634
▁potato	-11.4634
▁pouch	-11.4634
▁pr	-11.4634
▁praise	-11.4634
▁pranayama	-11.4634
▁prayed	-11.4634
▁preaching	-11.4634
▁precaution	-11.4634
▁precursor	-11.4634
▁predator	-11.4634
▁predestined	-11.4634
▁predicament	-11.4634
▁predict	-11.4634
▁predictably	-11.4634
▁predicting	-11.4634
▁prejudice	-11.4634
▁preoccupied	-11.4634
▁prerequisite	-11.4634
▁prescriber	-11.4634
▁preservation	-11.4634
▁president	-11.4634
▁pressured	-11.4634
▁prestige	-11.4634
▁prevents	-11.4634
▁prey	-11.4634
▁pricing	-11.4634
▁pride	-11.4634
▁primed	-11.4634
▁priming	-11.4634
▁print	-11.4634
▁printables	-11.4634
▁printed	-11.4634
▁problematic	-11.4634
▁proceed	-11.4634
▁prodded	-11.4634
▁producing	-11.4634
▁prof	-11.4634
▁progressed	-11.4634
▁projection	-11.4634
▁prolongs	-11.4634
▁prominent	-11.4634
▁promoting	-11.4634
▁prone	-11.4634
▁proof	-11.4634
▁prospect	-11.4634
▁prostitute	-11.4634
▁protein	-11.4634
▁protocol	-11.4634
▁proved	-11.4634
▁provoke	-11.4634
▁provoking	-11.4634
▁prude	-11.4634
▁pshyical	-11.4634
▁psychic	-11.4634
▁psychopathic	-11.4634
▁publish	-11.4634
▁pup	-11.4634
▁pursued	-11.4634
▁q	-11.4634
▁qhat	-11.4634
▁qualify	-11.4634
▁queen	-11.4634
▁quicker	-11.4634
▁racism	-11.4634
▁racking	-11.4634
▁raisedbynarcissists	-11.4634
▁rajasthan	-11.4634
▁rank	-11.4634
▁ranting	-11.4634
▁rapid	-11.4634
▁rapper	-11.4634
▁rationalize	-11.4634
▁reacted	-11.4634
▁readily	-11.4634
▁realm	-11.4634
▁realy	-11.4634
▁reasonably	-11.4634
▁reassurance	-11.4634
▁rebirth	-11.4634
▁receptor	-11.4634
▁reciprocate	-11.4634
▁recognition	-11.4634
▁recommending	-11.4634
▁reconciling	-11.4634
▁recruitment	-11.4634
▁recurring	-11.4634
▁redditors	-11.4634
▁redraw	-11.4634
▁redundancy	-11.4634
▁refer	-11.4634
▁referencing	-11.4634
▁referred	-11.4634
▁refinance	-11.4634
▁refreshing	-11.4634
▁refusal	-11.4634
▁region	-11.4634
▁regretting	-11.4634
▁regulate	-11.4634
▁rehabilitated	-11.4634
▁reinforcing	-11.4634
▁reinterpretation	-11.4634
▁relashionship	-11.4634
▁relates	-11.4634
▁relation	-11.4634
▁releaseyouranxietymonster	-11.4634
▁relieved	-11.4634
▁relish	-11.4634
▁relive	-11.4634
▁relocating	-11.4634
▁remained	-11.4634
▁remark	-11.4634
▁remarkable	-11.4634
▁remission	-11.4634
▁remodel	-11.4634
▁remorse	-11.4634
▁remorseful	-11.4634
▁removal	-11.4634
▁render	-11.4634
▁rendition	-11.4634
▁renowned	-11.4634
▁rented	-11.4634
▁reopened	-11.4634
▁rep	-11.4634
▁repayment	-11.4634
▁repetitiveness	-11.4634
▁replaying	-11.4634
▁repop	-11.4634
▁repost	-11.4634
▁represented	-11.4634
▁reprogram	-11.4634
▁repurpose	-11.4634
▁reputable	-11.4634
▁reschedule	-11.4634
▁resent	-11.4634
▁resented	-11.4634
▁reside	-11.4634
▁resigned	-11.4634
▁resignedwithoutajob	-11.4634
▁resonates	-11.4634
▁respected	-11.4634
▁respective	-11.4634
▁restarted	-11.4634
▁restructure	-11.4634
▁retake	-11.4634
▁retention	-11.4634
▁rethink	-11.4634
▁retirement	-11.4634
▁reunion	-11.4634
▁reveal	-11.4634
▁revelation	-11.4634
▁revenge	-11.4634
▁revising	-11.4634
▁revolutionary	-11.4634
▁revolved	-11.4634
▁rhis	-11.4634
▁ridden	-11.4634
▁riddled	-11.4634
▁rider	-11.4634
▁rigid	-11.4634
▁rigorous	-11.4634
▁ring	-11.4634
▁risked	-11.4634
▁risking	-11.4634
▁risky	-11.4634
▁ritalin	-11.4634
▁riveter	-11.4634
▁rlly	-11.4634
▁rmd	-11.4634
▁roast	-11.4634
▁robbed	-11.4634
▁robbing	-11.4634
▁robbins	-11.4634
▁robin	-11.4634
▁rocket	-11.4634
▁rocking	-11.4634
▁romance	-11.4634
▁rooted	-11.4634
▁rose	-11.4634
▁rosie	-11.4634
▁rotates	-11.4634
▁rub	-11.4634
▁rudeness	-11.4634
▁rug	-11.4634
▁rumination	-11.4634
▁rural	-11.4634
▁russian	-11.4634
▁rx	-11.4634
▁sabotaged	-11.4634
▁sabotaging	-11.4634
▁sack	-11.4634
▁sacrificing	-11.4634
▁saddest	-11.4634
▁safeguard	-11.4634
▁sailing	-11.4634
▁salesman	-11.4634
▁sally	-11.4634
▁salt	-11.4634
▁sam	-11.4634
▁sanctuary	-11.4634
▁sand	-11.4634
▁sandwhich	-11.4634
▁santa	-11.4634
▁santani	-11.4634
▁sarcastic	-11.4634
▁satan	-11.4634
▁saturated	-11.4634
▁savouring	-11.4634
▁scammed	-11.4634
▁scapegoat	-11.4634
▁scarce	-11.4634
▁schizophrenic	-11.4634
▁scholar	-11.4634
▁schooler	-11.4634
▁schwarzenegger	-11.4634
▁scientifically	-11.4634
▁scored	-11.4634
▁scratched	-11.4634
▁screened	-11.4634
▁screwing	-11.4634
▁scrutinise	-11.4634
▁scrutiny	-11.4634
▁se	-11.4634
▁seance	-11.4634
▁secreted	-11.4634
▁secretion	-11.4634
▁secretly	-11.4634
▁seeping	-11.4634
▁seize	-11.4634
▁selfrealization	-11.4634
▁sended	-11.4634
▁sensitivity	-11.4634
▁sensory	-11.4634
▁sentimental	-11.4634
▁separating	-11.4634
▁sept	-11.4634
▁setup	-11.4634
▁sever	-11.4634
▁sew	-11.4634
▁sexy	-11.4634
▁sf	-11.4634
▁shabby	-11.4634
▁shamble	-11.4634
▁shatters	-11.4634
▁shave	-11.4634
▁shaving	-11.4634
▁shaw	-11.4634
▁shedding	-11.4634
▁shelter	-11.4634
▁shifted	-11.4634
▁shittless	-11.4634
▁shitton	-11.4634
▁shivering	-11.4634
▁shocking	-11.4634
▁shouted	-11.4634
▁shove	-11.4634
▁shoved	-11.4634
▁showbiz	-11.4634
▁showcase	-11.4634
▁shrinking	-11.4634
▁shrooms	-11.4634
▁shrug	-11.4634
▁shutdown	-11.4634
▁si	-11.4634
▁sidebar	-11.4634
▁sideline	-11.4634
▁sigh	-11.4634
▁sikh	-11.4634
▁simplicity	-11.4634
▁simplified	-11.4634
▁simulation	-11.4634
▁sincero	-11.4634
▁sjsu	-11.4634
▁skeleton	-11.4634
▁sketchbook	-11.4634
▁sketched	-11.4634
▁skipped	-11.4634
▁skyball	-11.4634
▁skype	-11.4634
▁sl	-11.4634
▁slammed	-11.4634
▁slapped	-11.4634
▁sleepover	-11.4634
▁sleeve	-11.4634
▁slice	-11.4634
▁slit	-11.4634
▁slo	-11.4634
▁slob	-11.4634
▁slothish	-11.4634
▁slowed	-11.4634
▁slower	-11.4634
▁slows	-11.4634
▁slut	-11.4634
▁smam	-11.4634
▁smartphone	-11.4634
▁smelled	-11.4634
▁smidgen	-11.4634
▁smirking	-11.4634
▁snapping	-11.4634
▁sniffle	-11.4634
▁snowing	-11.4634
▁snowstorm	-11.4634
▁snri	-11.4634
▁socializing	-11.4634
▁societal	-11.4634
▁sociopath	-11.4634
▁solar	-11.4634
▁solidity	-11.4634
▁solitary	-11.4634
▁solitude	-11.4634
▁somone	-11.4634
▁somtimes	-11.4634
▁sonia	-11.4634
▁sooooo	-11.4634
▁soriano	-11.4634
▁soulful	-11.4634
▁soulless	-11.4634
▁sounding	-11.4634
▁soundproofing	-11.4634
▁sp	-11.4634
▁spacey	-11.4634
▁spacier	-11.4634
▁spanked	-11.4634
▁sparked	-11.4634
▁spazzing	-11.4634
▁speculate	-11.4634
▁spewing	-11.4634
▁spiralling	-11.4634
▁splint	-11.4634
▁spoiling	-11.4634
▁sponsor	-11.4634
▁spontaneity	-11.4634
▁spontaneously	-11.4634
▁sporadic	-11.4634
▁spouse	-11.4634
▁spout	-11.4634
▁spreader	-11.4634
▁sriramana	-11.4634
▁stability	-11.4634
▁stabilized	-11.4634
▁stabilizer	-11.4634
▁stack	-11.4634
▁staff	-11.4634
▁stain	-11.4634
▁stalker	-11.4634
▁stall	-11.4634
▁stance	-11.4634
▁standyby	-11.4634
▁starred	-11.4634
▁startet	-11.4634
▁statesman	-11.4634
▁stating	-11.4634
▁steam	-11.4634
▁steered	-11.4634
▁steering	-11.4634
▁stemming	-11.4634
▁stepfather	-11.4634
▁stereotypical	-11.4634
▁sternberg	-11.4634
▁sterssing	-11.4634
▁steve	-11.4634
▁sticky	-11.4634
▁stimulation	-11.4634
▁stolen	-11.4634
▁stomp	-11.4634
▁stopppef	-11.4634
▁straighten	-11.4634
▁straightforward	-11.4634
▁stray	-11.4634
▁stressfully	-11.4634
▁stricly	-11.4634
▁stroking	-11.4634
▁struck	-11.4634
▁struggledto	-11.4634
▁stubborn	-11.4634
▁stuffed	-11.4634
▁stunted	-11.4634
▁stuttered	-11.4634
▁submissive	-11.4634
▁subscriber	-11.4634
▁subscription	-11.4634
▁subsequent	-11.4634
▁succeeds	-11.4634
▁succes	-11.4634
▁sucker	-11.4634
▁sucky	-11.4634
▁suggestible	-11.4634
▁suggests	-11.4634
▁suicidality	-11.4634
▁sulpiride	-11.4634
▁sumedh	-11.4634
▁summarize	-11.4634
▁sunflower	-11.4634
▁sunrise	-11.4634
▁supercharge	-11.4634
▁superficial	-11.4634
▁superior	-11.4634
▁supervisor	-11.4634
▁supportively	-11.4634
▁suppressed	-11.4634
▁supreme	-11.4634
▁sur	-11.4634
▁surefire	-11.4634
▁surly	-11.4634
▁surprising	-11.4634
▁surrender	-11.4634
▁swallowing	-11.4634
▁sway	-11.4634
▁swearing	-11.4634
▁swell	-11.4634
▁symtoms	-11.4634
▁synchronicity	-11.4634
▁synonymous	-11.4634
▁taco	-11.4634
▁tacoma	-11.4634
▁tad	-11.4634
▁taichi	-11.4634
▁tailspin	-11.4634
▁taker	-11.4634
▁talentless	-11.4634
▁taxing	-11.4634
▁ted	-11.4634
▁teddy	-11.4634
▁teething	-11.4634
▁telegram	-11.4634
▁telltale	-11.4634
▁temple	-11.4634
▁temporal	-11.4634
▁tenet	-11.4634
▁tent	-11.4634
▁terrorist	-11.4634
▁testis	-11.4634
▁tf	-11.4634
▁thay	-11.4634
▁thermometer	-11.4634
▁theyve	-11.4634
▁thiamine	-11.4634
▁thick	-11.4634
▁thin	-11.4634
▁thingy	-11.4634
▁thinning	-11.4634
▁thirsty	-11.4634
▁thorough	-11.4634
▁thoughtful	-11.4634
▁thrash	-11.4634
▁throbbing	-11.4634
▁thrust	-11.4634
▁thunderstorm	-11.4634
▁thursday	-11.4634
▁tibet	-11.4634
▁ticket	-11.4634
▁tidy	-11.4634
▁tim	-11.4634
▁timeframe	-11.4634
▁tina	-11.4634
▁tinder	-11.4634
▁tireless	-11.4634
▁titled	-11.4634
▁tizzy	-11.4634
▁tm	-11.4634
▁toiled	-11.4634
▁toiling	-11.4634
▁toned	-11.4634
▁tony	-11.4634
▁torn	-11.4634
▁tougher	-11.4634
▁tought	-11.4634
▁tour	-11.4634
▁touring	-11.4634
▁tower	-11.4634
▁tranquillity	-11.4634
▁transcendent	-11.4634
▁transferable	-11.4634
▁transferred	-11.4634
▁transformative	-11.4634
▁transformed	-11.4634
▁translates	-11.4634
▁translating	-11.4634
▁transmit	-11.4634
▁transphobic	-11.4634
▁trapping	-11.4634
▁travail	-11.4634
▁treadmill	-11.4634
▁trendy	-11.4634
▁triangle	-11.4634
▁triathlete	-11.4634
▁tribe	-11.4634
▁tribulation	-11.4634
▁trillion	-11.4634
▁triumphant	-11.4634
▁trivial	-11.4634
▁tropical	-11.4634
▁troubled	-11.4634
▁truely	-11.4634
▁truer	-11.4634
▁truthful	-11.4634
▁tryptophan	-11.4634
▁tub	-11.4634
▁tumor	-11.4634
▁tumour	-11.4634
▁tweak	-11.4634
▁twisting	-11.4634
▁tycoon	-11.4634
▁ugliness	-11.4634
▁ukraine	-11.4634
▁unappealing	-11.4634
▁unappreciated	-11.4634
▁unattainable	-11.4634
▁uncaring	-11.4634
▁uncontrolled	-11.4634
▁uncoordinated	-11.4634
▁uncover	-11.4634
▁uncreadible	-11.4634
▁undecided	-11.4634
▁underestimate	-11.4634
▁undergoing	-11.4634
▁underperformed	-11.4634
▁undisputed	-11.4634
▁undivided	-11.4634
▁undo	-11.4634
▁undoing	-11.4634
▁uneasiness	-11.4634
▁unenthusiastic	-11.4634
▁unfair	-11.4634
▁unfairly	-11.4634
▁unfamiliar	-11.4634
▁unfollowed	-11.4634
▁unfriended	-11.4634
▁unhappiness	-11.4634
▁uninspired	-11.4634
▁unis	-11.4634
▁unity	-11.4634
▁universal	-11.4634
▁unmatched	-11.4634
▁unorganised	-11.4634
▁unprepared	-11.4634
▁unquantifiable	-11.4634
▁unravel	-11.4634
▁unreal	-11.4634
▁unrelated	-11.4634
▁unreleased	-11.4634
▁unreliable	-11.4634
▁unsatisfied	-11.4634
▁unseen	-11.4634
▁unsupervised	-11.4634
▁untangle	-11.4634
▁untrained	-11.4634
▁unworthy	-11.4634
▁upbringing	-11.4634
▁uplifted	-11.4634
▁uploaded	-11.4634
▁upped	-11.4634
▁upperside	-11.4634
▁upscale	-11.4634
▁upstairs	-11.4634
▁upvotes	-11.4634
▁urged	-11.4634
▁usa	-11.4634
▁uselessness	-11.4634
▁utc	-11.4634
▁utilizing	-11.4634
▁utm	-11.4634
▁vacant	-11.4634
▁vaccinated	-11.4634
▁vain	-11.4634
▁valium	-11.4634
▁vancouver	-11.4634
▁vanquished	-11.4634
▁vaping	-11.4634
▁variating	-11.4634
▁varies	-11.4634
▁vaso	-11.4634
▁vegan	-11.4634
▁vegetable	-11.4634
▁vegus	-11.4634
▁vein	-11.4634
▁venezuela	-11.4634
▁venlafaxin	-11.4634
▁ventilator	-11.4634
▁verve	-11.4634
▁vicious	-11.4634
▁vigorus	-11.4634
▁vigour	-11.4634
▁violate	-11.4634
▁virgin	-11.4634
▁virginity	-11.4634
▁visibly	-11.4634
▁visualise	-11.4634
▁vocalise	-11.4634
▁voiced	-11.4634
▁voiceless	-11.4634
▁voicemail	-11.4634
▁volatility	-11.4634
▁waited	-11.4634
▁wander	-11.4634
▁wandsworth	-11.4634
▁wannabe	-11.4634
▁warmer	-11.4634
▁warming	-11.4634
▁warn	-11.4634
▁warnock	-11.4634
▁warrant	-11.4634
▁watering	-11.4634
▁wavy	-11.4634
▁wazoo	-11.4634
▁weakling	-11.4634
▁webpage	-11.4634
▁wednesday	-11.4634
▁weighing	-11.4634
▁weighted	-11.4634
▁weirder	-11.4634
▁welcoming	-11.4634
▁western	-11.4634
▁wfh	-11.4634
▁whereas	-11.4634
▁wheter	-11.4634
▁whimper	-11.4634
▁whisper	-11.4634
▁whta	-11.4634
▁wider	-11.4634
▁widespread	-11.4634
▁wig	-11.4634
▁wikipedia	-11.4634
▁wilson	-11.4634
▁wince	-11.4634
▁wiriter	-11.4634
▁wishful	-11.4634
▁wit	-11.4634
▁withdraw	-11.4634
▁withdrawn	-11.4634
▁witness	-11.4634
▁woe	-11.4634
▁wonderland	-11.4634
▁wonna	-11.4634
▁wood	-11.4634
▁wore	-11.4634
▁workaholic	-11.4634
▁workaholism	-11.4634
▁worldly	-11.4634
▁worldwide	-11.4634
▁worm	-11.4634
▁worsening	-11.4634
▁worsens	-11.4634
▁worship	-11.4634
▁worthiness	-11.4634
▁wouldve	-11.4634
▁wrecked	-11.4634
▁wrinkle	-11.4634
▁writes	-11.4634
▁wven	-11.4634
▁xan	-11.4634
▁xy	-11.4634
▁yay	-11.4634
▁yearns	-11.4634
▁yee	-11.4634
▁yk	-11.4634
▁youtuber	-11.4634
▁zealand	-11.4634
▁zen	-11.4634
▁aaoa	-12.1566
▁aarrrrggghhh	-12.1566
▁aau	-12.1566
▁ab	-12.1566
▁abdomin	-12.1566
▁aboslutey	-12.1566
▁abotu	-12.1566
▁abrupt	-12.1566
▁accelerate	-12.1566
▁accidental	-12.1566
▁acclimated	-12.1566
▁accompanied	-12.1566
▁accompanying	-12.1566
▁accomplice	-12.1566
▁accumulated	-12.1566
▁accusation	-12.1566
▁accuse	-12.1566
▁accusing	-12.1566
▁accustomed	-12.1566
▁acknowledged	-12.1566
▁acquired	-12.1566
▁acrid	-12.1566
▁activated	-12.1566
▁adage	-12.1566
▁adam	-12.1566
▁adaptability	-12.1566
▁adaptation	-12.1566
▁adaptogen	-12.1566
▁adept	-12.1566
▁adequately	-12.1566
▁adhering	-12.1566
▁admin	-12.1566
▁admitting	-12.1566
▁adoptdontshop	-12.1566
▁adversely	-12.1566
▁advert	-12.1566
▁advertise	-12.1566
▁advertisement	-12.1566
▁advising	-12.1566
▁advisory	-12.1566
▁aerobic	-12.1566
▁affiliate	-12.1566
▁affiliation	-12.1566
▁afflicted	-12.1566
▁affords	-12.1566
▁affraid	-12.1566
▁afghanistan	-12.1566
▁afloat	-12.1566
▁africa	-12.1566
▁afterlife	-12.1566
▁afterschool	-12.1566
▁afterward	-12.1566
▁aggressively	-12.1566
▁aggrieved	-12.1566
▁agitation	-12.1566
▁agrees	-12.1566
▁agressive	-12.1566
▁aha	-12.1566
▁aiming	-12.1566
▁aimless	-12.1566
▁aimlessly	-12.1566
▁aimlessness	-12.1566
▁aircraft	-12.1566
▁airline	-12.1566
▁airplane	-12.1566
▁akhiles	-12.1566
▁akhilesarmyofawesome	-12.1566
▁akin	-12.1566
▁aknowledged	-12.1566
▁albania	-12.1566
▁alchemist	-12.1566
▁alchemy	-12.1566
▁alchohol	-12.1566
▁alci	-12.1566
▁alexa	-12.1566
▁algebra	-12.1566
▁algorithm	-12.1566
▁alien	-12.1566
▁alienating	-12.1566
▁alienation	-12.1566
▁aligns	-12.1566
▁allergic	-12.1566
▁allocated	-12.1566
▁allotted	-12.1566
▁allowance	-12.1566
▁allways	-12.1566
▁alphonse	-12.1566
▁altetness	-12.1566
▁alto	-12.1566
▁altough	-12.1566
▁amaalzaza	-12.1566
▁amenity	-12.1566
▁amidst	-12.1566
▁aminobutyric	-12.1566
▁ammal	-12.1566
▁amounting	-12.1566
▁ample	-12.1566
▁amusement	-12.1566
▁analyse	-12.1566
▁analytical	-12.1566
▁analyzed	-12.1566
▁anata	-12.1566
▁anatomy	-12.1566
▁ancien	-12.1566
▁andrea	-12.1566
▁andrew	-12.1566
▁anecdote	-12.1566
▁aneurism	-12.1566
▁ang	-12.1566
▁angsty	-12.1566
▁anhedonic	-12.1566
▁animalistic	-12.1566
▁animated	-12.1566
▁announcement	-12.1566
▁annoys	-12.1566
▁annual	-12.1566
▁antacid	-12.1566
▁anthropology	-12.1566
▁anticipate	-12.1566
▁anticipation	-12.1566
▁antioxidant	-12.1566
▁antonia	-12.1566
▁antything	-12.1566
▁anuthing	-12.1566
▁anwser	-12.1566
▁anwsers	-12.1566
▁anxiolytic	-12.1566
▁anyday	-12.1566
▁anywho	-12.1566
▁apocalyptic	-12.1566
▁apolitical	-12.1566
▁apologised	-12.1566
▁appaling	-12.1566
▁apparel	-12.1566
▁appart	-12.1566
▁appartement	-12.1566
▁appeal	-12.1566
▁appearence	-12.1566
▁appearing	-12.1566
▁apperenrly	-12.1566
▁appliance	-12.1566
▁apppreactied	-12.1566
▁appreciates	-12.1566
▁appreicated	-12.1566
▁approaching	-12.1566
▁appropriate	-12.1566
▁appropriately	-12.1566
▁arabic	-12.1566
▁arby	-12.1566
▁arguably	-12.1566
▁arhan	-12.1566
▁arizona	-12.1566
▁armchair	-12.1566
▁armed	-12.1566
▁armenia	-12.1566
▁aroma	-12.1566
▁aromatic	-12.1566
▁arrangement	-12.1566
▁arrgh	-12.1566
▁arriving	-12.1566
▁artistry	-12.1566
▁ashed	-12.1566
▁asocially	-12.1566
▁ass	-12.1566
▁assaulted	-12.1566
▁assert	-12.1566
▁assertiveness	-12.1566
▁asskisser	-12.1566
▁assortment	-12.1566
▁assumed	-12.1566
▁astonishment	-12.1566
▁astrology	-12.1566
▁astronomical	-12.1566
▁aswel	-12.1566
▁atlanta	-12.1566
▁atom	-12.1566
▁atpeace	-12.1566
▁atrittion	-12.1566
▁attaching	-12.1566
▁attacking	-12.1566
▁attracting	-12.1566
▁attuned	-12.1566
▁audacity	-12.1566
▁audience	-12.1566
▁aunti	-12.1566
▁austin	-12.1566
▁austria	-12.1566
▁authenticity	-12.1566
▁authorattn	-12.1566
▁authority	-12.1566
▁autocad	-12.1566
▁automotive	-12.1566
▁autopsy	-12.1566
▁avalanche	-12.1566
▁avatar	-12.1566
▁avenue	-12.1566
▁aversion	-12.1566
▁avoidance	-12.1566
▁avoids	-12.1566
▁avoir	-12.1566
▁await	-12.1566
▁awaited	-12.1566
▁awkwardly	-12.1566
▁awnser	-12.1566
▁awry	-12.1566
▁aww	-12.1566
▁awww	-12.1566
▁axiety	-12.1566
▁ayurvedic	-12.1566
▁baboon	-12.1566
▁backbone	-12.1566
▁backlag	-12.1566
▁backsliding	-12.1566
▁backstories	-12.1566
▁bacteria	-12.1566
▁badge	-12.1566
▁badminton	-12.1566
▁badmouth	-12.1566
▁baffled	-12.1566
▁baffling	-12.1566
▁baggier	-12.1566
▁bailed	-12.1566
▁baldy	-12.1566
▁balles	-12.1566
▁bam	-12.1566
▁ban	-12.1566
▁banger	-12.1566
▁bangin	-12.1566
▁bangladesh	-12.1566
▁bankrupt	-12.1566
▁banter	-12.1566
▁barren	-12.1566
▁bashed	-12.1566
▁basicly	-12.1566
▁batch	-12.1566
▁bathe	-12.1566
▁battery	-12.1566
▁bcak	-12.1566
▁beabadoobee	-12.1566
▁bearly	-12.1566
▁beast	-12.1566
▁beautifully	-12.1566
▁beckons	-12.1566
▁bedding	-12.1566
▁beem	-12.1566
▁beforelife	-12.1566
▁befriending	-12.1566
▁beggar	-12.1566
▁begs	-12.1566
▁behalf	-12.1566
▁behaved	-12.1566
▁behaves	-12.1566
▁behavoir	-12.1566
▁beholder	-12.1566
▁beige	-12.1566
▁belching	-12.1566
▁beleicve	-12.1566
▁beleive	-12.1566
▁belittle	-12.1566
▁belittling	-12.1566
▁belive	-12.1566
▁bella	-12.1566
▁belligerently	-12.1566
▁bellow	-12.1566
▁belonging	-12.1566
▁belongs	-12.1566
▁benadryl	-12.1566
▁bench	-12.1566
▁benchmark	-12.1566
▁beneficially	-12.1566
▁bengaluru	-12.1566
▁bentley	-12.1566
▁benzo	-12.1566
▁beside	-12.1566
▁bestfriends	-12.1566
▁besties	-12.1566
▁bestseller	-12.1566
▁betraying	-12.1566
▁beverage	-12.1566
▁bff	-12.1566
▁bhe	-12.1566
▁biafra	-12.1566
▁biased	-12.1566
▁bigoted	-12.1566
▁billie	-12.1566
▁binged	-12.1566
▁biostatistics	-12.1566
▁bisexual	-12.1566
▁bitterly	-12.1566
▁blackpillers	-12.1566
▁bland	-12.1566
▁blankly	-12.1566
▁blast	-12.1566
▁blasted	-12.1566
▁blasting	-12.1566
▁blatantly	-12.1566
▁blesses	-12.1566
▁blindsided	-12.1566
▁blink	-12.1566
▁blinking	-12.1566
▁blissfully	-12.1566
▁blm	-12.1566
▁blod	-12.1566
▁bloodstream	-12.1566
▁blossom	-12.1566
▁blundell	-12.1566
▁blunt	-12.1566
▁bnot	-12.1566
▁boarding	-12.1566
▁bodywork	-12.1566
▁boeing	-12.1566
▁bogus	-12.1566
▁bohoo	-12.1566
▁boiling	-12.1566
▁bombard	-12.1566
▁bomber	-12.1566
▁bona	-12.1566
▁bonded	-12.1566
▁bonjour	-12.1566
▁bookcase	-12.1566
▁bookshelf	-12.1566
▁boomer	-12.1566
▁booster	-12.1566
▁bootstrap	-12.1566
▁booze	-12.1566
▁boris	-12.1566
▁borough	-12.1566
▁borrowed	-12.1566
▁botched	-12.1566
▁botswana	-12.1566
▁bottling	-12.1566
▁bounce	-12.1566
▁bound	-12.1566
▁bow	-12.1566
▁bpm	-12.1566
▁brace	-12.1566
▁bracket	-12.1566
▁braid	-12.1566
▁brainfog	-12.1566
▁brainpower	-12.1566
▁branding	-12.1566
▁brandish	-12.1566
▁brave	-12.1566
▁breadth	-12.1566
▁breakneck	-12.1566
▁breakout	-12.1566
▁breathtaking	-12.1566
▁bribe	-12.1566
▁bride	-12.1566
▁bridging	-12.1566
▁brightening	-12.1566
▁britney	-12.1566
▁broadcast	-12.1566
▁broader	-12.1566
▁broccoli	-12.1566
▁brokenness	-12.1566
▁brotherelisoriano	-12.1566
▁brow	-12.1566
▁brunt	-12.1566
▁bud	-12.1566
▁budding	-12.1566
▁buddy	-12.1566
▁budge	-12.1566
▁buisiness	-12.1566
▁buisness	-12.1566
▁bulking	-12.1566
▁bulldog	-12.1566
▁bulletproof	-12.1566
▁bummer	-12.1566
▁bundled	-12.1566
▁bungalow	-12.1566
▁burkina	-12.1566
▁burping	-12.1566
▁burshed	-12.1566
▁burundi	-12.1566
▁bury	-12.1566
▁busier	-12.1566
▁bussy	-12.1566
▁bust	-12.1566
▁bustedandblack	-12.1566
▁butter	-12.1566
▁buttock	-12.1566
▁bystander	-12.1566
▁ca	-12.1566
▁cab	-12.1566
▁cabinet	-12.1566
▁cable	-12.1566
▁cacophony	-12.1566
▁cagegory	-12.1566
▁calculated	-12.1566
▁calf	-12.1566
▁california	-12.1566
▁calorie	-12.1566
▁cam	-12.1566
▁camel	-12.1566
▁camp	-12.1566
▁campground	-12.1566
▁camping	-12.1566
▁cancelling	-12.1566
▁candid	-12.1566
▁candor	-12.1566
▁canoe	-12.1566
▁canopy	-12.1566
▁capsule	-12.1566
▁captioned	-12.1566
▁capturing	-12.1566
▁caracterized	-12.1566
▁caravan	-12.1566
▁cardiac	-12.1566
▁carefree	-12.1566
▁caregiving	-12.1566
▁careless	-12.1566
▁carer	-12.1566
▁carl	-12.1566
▁carnegie	-12.1566
▁carnivorous	-12.1566
▁carpet	-12.1566
▁carreer	-12.1566
▁cashier	-12.1566
▁casino	-12.1566
▁caster	-12.1566
▁castle	-12.1566
▁catacholamines	-12.1566
▁catalyst	-12.1566
▁catastrophize	-12.1566
▁catecholamine	-12.1566
▁cater	-12.1566
▁caterpillar	-12.1566
▁catharsis	-12.1566
▁catherine	-12.1566
▁caving	-12.1566
▁ccertain	-12.1566
▁ceased	-12.1566
▁cedar	-12.1566
▁cegep	-12.1566
▁celeb	-12.1566
▁central	-12.1566
▁cerebral	-12.1566
▁cerified	-12.1566
▁certainty	-12.1566
▁cfts	-12.1566
▁chad	-12.1566
▁chalked	-12.1566
▁chamber	-12.1566
▁champion	-12.1566
▁channeling	-12.1566
▁channelise	-12.1566
▁chanting	-12.1566
▁chaotic	-12.1566
▁characterize	-12.1566
▁charactestic	-12.1566
▁charged	-12.1566
▁charging	-12.1566
▁chartered	-12.1566
▁chased	-12.1566
▁chattanooga	-12.1566
▁chattering	-12.1566
▁cheery	-12.1566
▁chegg	-12.1566
▁chemo	-12.1566
▁chennai	-12.1566
▁cherished	-12.1566
▁cherokee	-12.1566
▁chewing	-12.1566
▁chez	-12.1566
▁chickened	-12.1566
▁childless	-12.1566
▁chime	-12.1566
▁chinese	-12.1566
▁chocolate	-12.1566
▁choking	-12.1566
▁cholesterol	-12.1566
▁chooser	-12.1566
▁chop	-12.1566
▁chopstick	-12.1566
▁chord	-12.1566
▁christ	-12.1566
▁chromebooks	-12.1566
▁chtbl	-12.1566
▁chuckled	-12.1566
▁cinnamon	-12.1566
▁circuitry	-12.1566
▁citalopram	-12.1566
▁citified	-12.1566
▁civic	-12.1566
▁claivoyance	-12.1566
▁clambering	-12.1566
▁clamped	-12.1566
▁clarifying	-12.1566
▁clay	-12.1566
▁clayton	-12.1566
▁cleanning	-12.1566
▁cleanse	-12.1566
▁clinging	-12.1566
▁clique	-12.1566
▁clocking	-12.1566
▁clonazapam	-12.1566
▁clone	-12.1566
▁closely	-12.1566
▁closet	-12.1566
▁closing	-12.1566
▁cloth	-12.1566
▁clouding	-12.1566
▁cloudy	-12.1566
▁cm	-12.1566
▁cmo	-12.1566
▁cna	-12.1566
▁cnn	-12.1566
▁coaster	-12.1566
▁coaxing	-12.1566
▁coconut	-12.1566
▁coelho	-12.1566
▁coerce	-12.1566
▁coeval	-12.1566
▁coexist	-12.1566
▁coexistence	-12.1566
▁cog	-12.1566
▁coherent	-12.1566
▁coin	-12.1566
▁coivd	-12.1566
▁colder	-12.1566
▁cole	-12.1566
▁collaborating	-12.1566
▁collaboration	-12.1566
▁collantes	-12.1566
▁collapsed	-12.1566
▁collateral	-12.1566
▁collecting	-12.1566
▁collobaration	-12.1566
▁colombo	-12.1566
▁colour	-12.1566
▁colouring	-12.1566
▁column	-12.1566
▁combined	-12.1566
▁combustion	-12.1566
▁comeback	-12.1566
▁comedian	-12.1566
▁comeing	-12.1566
▁comfortability	-12.1566
▁comforted	-12.1566
▁comfy	-12.1566
▁comma	-12.1566
▁commence	-12.1566
▁commiserate	-12.1566
▁commission	-12.1566
▁commissioned	-12.1566
▁commonality	-12.1566
▁commonly	-12.1566
▁commonplace	-12.1566
▁communicated	-12.1566
▁communicating	-12.1566
▁communism	-12.1566
▁commuter	-12.1566
▁comoros	-12.1566
▁companionship	-12.1566
▁competency	-12.1566
▁competent	-12.1566
▁competes	-12.1566
▁competing	-12.1566
▁compliance	-12.1566
▁complicate	-12.1566
▁complicating	-12.1566
▁complied	-12.1566
▁compose	-12.1566
▁composition	-12.1566
▁compounding	-12.1566
▁comprehend	-12.1566
▁comprehensive	-12.1566
▁compulsion	-12.1566
▁concert	-12.1566
▁conclude	-12.1566
▁concluding	-12.1566
▁concur	-12.1566
▁condemn	-12.1566
▁condemned	-12.1566
▁condescending	-12.1566
▁cone	-12.1566
▁confessed	-12.1566
▁confidencecoach	-12.1566
▁confidently	-12.1566
▁confined	-12.1566
▁confines	-12.1566
▁conflicted	-12.1566
▁conformity	-12.1566
▁confrontation	-12.1566
▁confronted	-12.1566
▁confuzzle	-12.1566
▁congestion	-12.1566
▁congo	-12.1566
▁congratulate	-12.1566
▁congratulated	-12.1566
▁conjunction	-12.1566
▁consedring	-12.1566
▁consequently	-12.1566
▁consisentcy	-12.1566
▁consisting	-12.1566
▁conspiring	-12.1566
▁constally	-12.1566
▁constipation	-12.1566
▁construct	-12.1566
▁constructing	-12.1566
▁constructive	-12.1566
▁consult	-12.1566
▁consultation	-12.1566
▁consumes	-12.1566
▁contain	-12.1566
▁container	-12.1566
▁contaminated	-12.1566
▁contaminating	-12.1566
▁contemporary	-12.1566
▁contempt	-12.1566
▁continent	-12.1566
▁contradicted	-12.1566
▁contradiction	-12.1566
▁contradicts	-12.1566
▁contrast	-12.1566
▁controversy	-12.1566
▁conventionally	-12.1566
▁conversate	-12.1566
▁converse	-12.1566
▁converstation	-12.1566
▁converted	-12.1566
▁converting	-12.1566
▁convey	-12.1566
▁convict	-12.1566
▁conviction	-12.1566
▁convo	-12.1566
▁convos	-12.1566
▁cookoo	-12.1566
▁coolcatwon	-12.1566
▁cooler	-12.1566
▁coolio	-12.1566
▁coolness	-12.1566
▁cooped	-12.1566
▁cooperate	-12.1566
▁cooperative	-12.1566
▁coordination	-12.1566
▁coordinator	-12.1566
▁copd	-12.1566
▁coped	-12.1566
▁copious	-12.1566
▁cord	-12.1566
▁corey	-12.1566
▁corp	-12.1566
▁corrected	-12.1566
▁correlated	-12.1566
▁correlative	-12.1566
▁costa	-12.1566
▁costing	-12.1566
▁councilor	-12.1566
▁countenance	-12.1566
▁countryside	-12.1566
▁county	-12.1566
▁courted	-12.1566
▁courteous	-12.1566
▁covering	-12.1566
▁coveted	-12.1566
▁covey	-12.1566
▁cpstd	-12.1566
▁cptsd	-12.1566
▁crab	-12.1566
▁cracking	-12.1566
▁cram	-12.1566
▁cramed	-12.1566
▁cramp	-12.1566
▁crankier	-12.1566
▁crasher	-12.1566
▁crawl	-12.1566
▁creatively	-12.1566
▁creeped	-12.1566
▁crematorium	-12.1566
▁crf	-12.1566
▁crier	-12.1566
▁cringey	-12.1566
▁crinkled	-12.1566
▁criticise	-12.1566
▁criticize	-12.1566
▁critiquing	-12.1566
▁crocodile	-12.1566
▁crowed	-12.1566
▁crumbled	-12.1566
▁crystallizes	-12.1566
▁csep	-12.1566
▁csikszentmihalyi	-12.1566
▁cth	-12.1566
▁ctrl	-12.1566
▁cu	-12.1566
▁culminated	-12.1566
▁cult	-12.1566
▁cultivated	-12.1566
▁cultural	-12.1566
▁cumbersome	-12.1566
▁curcumin	-12.1566
▁curly	-12.1566
▁curse	-12.1566
▁cushion	-12.1566
▁customized	-12.1566
▁cutlivate	-12.1566
▁cutted	-12.1566
▁cv	-12.1566
▁cw	-12.1566
▁cya	-12.1566
▁cyberstalk	-12.1566
▁cyberstalker	-12.1566
▁czechia	-12.1566
▁daan	-12.1566
▁daddy	-12.1566
▁dae	-12.1566
▁dale	-12.1566
▁dalio	-12.1566
▁dalliance	-12.1566
▁damped	-12.1566
▁dang	-12.1566
▁dangle	-12.1566
▁dar	-12.1566
▁darker	-12.1566
▁darkly	-12.1566
▁darren	-12.1566
▁darwinian	-12.1566
▁daryl	-12.1566
▁dashed	-12.1566
▁daugther	-12.1566
▁daw	-12.1566
▁dawn	-12.1566
▁dawned	-12.1566
▁daybreaker	-12.1566
▁daydreaming	-12.1566
▁daze	-12.1566
▁dbt	-12.1566
▁dcim	-12.1566
▁deaf	-12.1566
▁dealer	-12.1566
▁dearest	-12.1566
▁deathbed	-12.1566
▁dec	-12.1566
▁deceit	-12.1566
▁decipher	-12.1566
▁decisive	-12.1566
▁declaration	-12.1566
▁declared	-12.1566
▁declining	-12.1566
▁decorated	-12.1566
▁decorative	-12.1566
▁decreasing	-12.1566
▁dedicating	-12.1566
▁deepen	-12.1566
▁defeating	-12.1566
▁defending	-12.1566
▁defiantly	-12.1566
▁defines	-12.1566
▁definetely	-12.1566
▁definetly	-12.1566
▁deflated	-12.1566
▁defragged	-12.1566
▁defy	-12.1566
▁degeneracy	-12.1566
▁degenerate	-12.1566
▁dehydrated	-12.1566
▁deity	-12.1566
▁deliberation	-12.1566
▁delicate	-12.1566
▁delisabranchnealy	-12.1566
▁delta	-12.1566
▁deluding	-12.1566
▁deluxe	-12.1566
▁demean	-12.1566
▁demonstrate	-12.1566
▁demonstrated	-12.1566
▁demotivated	-12.1566
▁dengue	-12.1566
▁deniability	-12.1566
▁denmark	-12.1566
▁denton	-12.1566
▁departing	-12.1566
▁dependable	-12.1566
▁dependant	-12.1566
▁depended	-12.1566
▁depends	-12.1566
▁deploying	-12.1566
▁deposit	-12.1566
▁deposited	-12.1566
▁depressingly	-12.1566
▁derby	-12.1566
▁deression	-12.1566
▁derive	-12.1566
▁desensitized	-12.1566
▁desi	-12.1566
▁designation	-12.1566
▁designing	-12.1566
▁desmotivated	-12.1566
▁despaired	-12.1566
▁despressed	-12.1566
▁destructed	-12.1566
▁detach	-12.1566
▁detachment	-12.1566
▁detect	-12.1566
▁detector	-12.1566
▁detects	-12.1566
▁detestable	-12.1566
▁dev	-12.1566
▁develops	-12.1566
▁deviation	-12.1566
▁devides	-12.1566
▁devistating	-12.1566
▁devoted	-12.1566
▁devoting	-12.1566
▁devouring	-12.1566
▁diagnostic	-12.1566
▁dialed	-12.1566
▁dialogue	-12.1566
▁diameter	-12.1566
▁diaper	-12.1566
▁diaphragm	-12.1566
▁diazepam	-12.1566
▁dictated	-12.1566
▁differnet	-12.1566
▁differs	-12.1566
▁dildo	-12.1566
▁diligence	-12.1566
▁dime	-12.1566
▁diminishes	-12.1566
▁dining	-12.1566
▁dipping	-12.1566
▁directing	-12.1566
▁directionless	-12.1566
▁disagreed	-12.1566
▁disappoints	-12.1566
▁disapproving	-12.1566
▁disassembling	-12.1566
▁disassociation	-12.1566
▁discard	-12.1566
▁discharged	-12.1566
▁disciple	-12.1566
▁disclosed	-12.1566
▁discontentment	-12.1566
▁discontinued	-12.1566
▁discontinuing	-12.1566
▁discounting	-12.1566
▁discovering	-12.1566
▁discovery	-12.1566
▁disdain	-12.1566
▁diseased	-12.1566
▁disgust	-12.1566
▁dishonest	-12.1566
▁dishonesty	-12.1566
▁dishwasher	-12.1566
▁disinterest	-12.1566
▁disinterested	-12.1566
▁disliking	-12.1566
▁dismissed	-12.1566
▁disorganized	-12.1566
▁dispair	-12.1566
▁dispel	-12.1566
▁dispelled	-12.1566
▁dispellingmyths	-12.1566
▁displacement	-12.1566
▁display	-12.1566
▁displayed	-12.1566
▁displeasure	-12.1566
▁disposition	-12.1566
▁disregarding	-12.1566
▁disrespect	-12.1566
▁disrupted	-12.1566
▁disrupting	-12.1566
▁disruption	-12.1566
▁dissapoint	-12.1566
▁dissapointment	-12.1566
▁dissappear	-12.1566
▁disserve	-12.1566
▁dissociated	-12.1566
▁dissociation	-12.1566
▁disstress	-12.1566
▁distilled	-12.1566
▁distributed	-12.1566
▁distribution	-12.1566
▁divert	-12.1566
▁divided	-12.1566
▁divorce	-12.1566
▁dming	-12.1566
▁dnd	-12.1566
▁doctoral	-12.1566
▁documentation	-12.1566
▁doggy	-12.1566
▁dollop	-12.1566
▁dom	-12.1566
▁domesticity	-12.1566
▁dominate	-12.1566
▁dominated	-12.1566
▁donald	-12.1566
▁donkey	-12.1566
▁dorky	-12.1566
▁doubting	-12.1566
▁douchebag	-12.1566
▁douchebags	-12.1566
▁dough	-12.1566
▁downloaded	-12.1566
▁downplay	-12.1566
▁downplayed	-12.1566
▁downright	-12.1566
▁downshift	-12.1566
▁downvotes	-12.1566
▁downvoting	-12.1566
▁dozing	-12.1566
▁drazizgazipura	-12.1566
▁dredge	-12.1566
▁drenched	-12.1566
▁dried	-12.1566
▁drier	-12.1566
▁drifted	-12.1566
▁drifting	-12.1566
▁drip	-12.1566
▁drowned	-12.1566
▁drunken	-12.1566
▁drunkenness	-12.1566
▁dryer	-12.1566
▁duathlon	-12.1566
▁ducking	-12.1566
▁duh	-12.1566
▁duhigg	-12.1566
▁dulled	-12.1566
▁dullness	-12.1566
▁dumbed	-12.1566
▁dumbells	-12.1566
▁dumber	-12.1566
▁dumbest	-12.1566
▁dumbfounded	-12.1566
▁dummy	-12.1566
▁dump	-12.1566
▁dumpster	-12.1566
▁duy	-12.1566
▁dysphoric	-12.1566
▁dysthimia	-12.1566
▁dysthymia	-12.1566
▁eachothers	-12.1566
▁earbuds	-12.1566
▁earliest	-12.1566
▁earlyaccess	-12.1566
▁earphone	-12.1566
▁earring	-12.1566
▁earthy	-12.1566
▁eas	-12.1566
▁easterlin	-12.1566
▁eater	-12.1566
▁eather	-12.1566
▁ebony	-12.1566
▁ebtey	-12.1566
▁echo	-12.1566
▁ecosystem	-12.1566
▁ee	-12.1566
▁effecting	-12.1566
▁effed	-12.1566
▁effervescent	-12.1566
▁egg	-12.1566
▁eggshell	-12.1566
▁egocentric	-12.1566
▁eheh	-12.1566
▁eighth	-12.1566
▁eilish	-12.1566
▁elbert	-12.1566
▁election	-12.1566
▁electrician	-12.1566
▁electrocuted	-12.1566
▁electron	-12.1566
▁electrotechnic	-12.1566
▁elemental	-12.1566
▁elephant	-12.1566
▁elicit	-12.1566
▁elles	-12.1566
▁elliott	-12.1566
▁embarassing	-12.1566
▁embark	-12.1566
▁embarrassingly	-12.1566
▁embryo	-12.1566
▁emdr	-12.1566
▁eminem	-12.1566
▁emit	-12.1566
▁emitting	-12.1566
▁emojis	-12.1566
▁emotionality	-12.1566
▁empahisise	-12.1566
▁empathised	-12.1566
▁empower	-12.1566
▁empowering	-12.1566
▁en	-12.1566
▁endgame	-12.1566
▁endocrine	-12.1566
▁endogenously	-12.1566
▁endrant	-12.1566
▁endures	-12.1566
▁enduring	-12.1566
▁energized	-12.1566
▁eng	-12.1566
▁engagement	-12.1566
▁engulfed	-12.1566
▁enhancement	-12.1566
▁enormous	-12.1566
▁enormously	-12.1566
▁enquiry	-12.1566
▁entertained	-12.1566
▁entertaining	-12.1566
▁entertainment	-12.1566
▁enthrall	-12.1566
▁enthusiastic	-12.1566
▁entitled	-12.1566
▁entitlement	-12.1566
▁entrance	-12.1566
▁entrapped	-12.1566
▁entreprener	-12.1566
▁entrusted	-12.1566
▁enunciating	-12.1566
▁envelope	-12.1566
▁envisioned	-12.1566
▁enyone	-12.1566
▁epa	-12.1566
▁equates	-12.1566
▁equation	-12.1566
▁equivalent	-12.1566
▁erect	-12.1566
▁ergo	-12.1566
▁ericfreeman	-12.1566
▁erm	-12.1566
▁erupted	-12.1566
▁escalated	-12.1566
▁escapist	-12.1566
▁escort	-12.1566
▁esophagus	-12.1566
▁espn	-12.1566
▁estimating	-12.1566
▁estranged	-12.1566
▁estrogen	-12.1566
▁eswatini	-12.1566
▁et	-12.1566
▁eternity	-12.1566
▁ethiopia	-12.1566
▁eu	-12.1566
▁evade	-12.1566
▁evaluating	-12.1566
▁evangelist	-12.1566
▁evaporate	-12.1566
▁evasive	-12.1566
▁eventho	-12.1566
▁eventhough	-12.1566
▁everyonegoatyy	-12.1566
▁everyonesgoatyyy	-12.1566
▁everythi	-12.1566
▁everyting	-12.1566
▁eveyday	-12.1566
▁eveyrhting	-12.1566
▁eveything	-12.1566
▁evict	-12.1566
▁evoking	-12.1566
▁evolutionaly	-12.1566
▁exacerbate	-12.1566
▁exacerbating	-12.1566
▁exacting	-12.1566
▁examination	-12.1566
▁examine	-12.1566
▁exceed	-12.1566
▁exceedingly	-12.1566
▁exceeds	-12.1566
▁exceptional	-12.1566
▁excercising	-12.1566
▁excitation	-12.1566
▁exclaimed	-12.1566
▁excluded	-12.1566
▁excusing	-12.1566
▁exemplifying	-12.1566
▁existant	-12.1566
▁expendable	-12.1566
▁experimental	-12.1566
▁expertise	-12.1566
▁expiration	-12.1566
▁expired	-12.1566
▁expires	-12.1566
▁exploded	-12.1566
▁exploding	-12.1566
▁exploited	-12.1566
▁expound	-12.1566
▁expoused	-12.1566
▁exquisite	-12.1566
▁externalize	-12.1566
▁externally	-12.1566
▁extinguish	-12.1566
▁extracurriculars	-12.1566
▁extrovert	-12.1566
▁eyeing	-12.1566
▁facetime	-12.1566
▁facetimed	-12.1566
▁facilitates	-12.1566
▁facilitating	-12.1566
▁factual	-12.1566
▁faded	-12.1566
▁fainter	-12.1566
▁faked	-12.1566
▁falre	-12.1566
▁familiarized	-12.1566
▁famously	-12.1566
▁fanaticism	-12.1566
▁fanboy	-12.1566
▁fantastical	-12.1566
▁fap	-12.1566
▁fare	-12.1566
▁farewell	-12.1566
▁farmer	-12.1566
▁farthest	-12.1566
▁fascinating	-12.1566
▁fashion	-12.1566
▁faso	-12.1566
▁fastest	-12.1566
▁fastidiously	-12.1566
▁fatherhood	-12.1566
▁fatherless	-12.1566
▁fathom	-12.1566
▁fatty	-12.1566
▁fauna	-12.1566
▁fav	-12.1566
▁favoured	-12.1566
▁fawk	-12.1566
▁faze	-12.1566
▁feared	-12.1566
▁feather	-12.1566
▁federal	-12.1566
▁feellucky	-12.1566
▁felipe	-12.1566
▁felon	-12.1566
▁feminism	-12.1566
▁femoral	-12.1566
▁fertility	-12.1566
▁festive	-12.1566
▁fetish	-12.1566
▁fetus	-12.1566
▁fetzima	-12.1566
▁fibromyalga	-12.1566
▁fictional	-12.1566
▁fide	-12.1566
▁fidgety	-12.1566
▁fiend	-12.1566
▁fierce	-12.1566
▁fiery	-12.1566
▁fifteen	-12.1566
▁figths	-12.1566
▁fiji	-12.1566
▁filed	-12.1566
▁finalised	-12.1566
▁financcial	-12.1566
▁financed	-12.1566
▁financials	-12.1566
▁findinghappiness	-12.1566
▁finest	-12.1566
▁finland	-12.1566
▁firearm	-12.1566
▁firefighter	-12.1566
▁firstborn	-12.1566
▁fitbit	-12.1566
▁fixated	-12.1566
▁fixation	-12.1566
▁flailing	-12.1566
▁flashing	-12.1566
▁flatlining	-12.1566
▁flattened	-12.1566
▁flatulence	-12.1566
▁flaunting	-12.1566
▁flavor	-12.1566
▁fled	-12.1566
▁fledged	-12.1566
▁flew	-12.1566
▁flex	-12.1566
▁flexibility	-12.1566
▁flimsy	-12.1566
▁flippantly	-12.1566
▁flirty	-12.1566
▁floated	-12.1566
▁flooding	-12.1566
▁floof	-12.1566
▁floored	-12.1566
▁flora	-12.1566
▁flossing	-12.1566
▁fluctuates	-12.1566
▁fluoxetine	-12.1566
▁fluting	-12.1566
▁flyer	-12.1566
▁flying	-12.1566
▁fmp	-12.1566
▁fogged	-12.1566
▁fondest	-12.1566
▁font	-12.1566
▁fooling	-12.1566
▁foolish	-12.1566
▁footing	-12.1566
▁forcefully	-12.1566
▁forcibly	-12.1566
▁foreheaded	-12.1566
▁foreigner	-12.1566
▁foresight	-12.1566
▁forgein	-12.1566
▁forging	-12.1566
▁forgiven	-12.1566
▁formally	-12.1566
▁formulate	-12.1566
▁forsaken	-12.1566
▁fourth	-12.1566
▁foward	-12.1566
▁fr	-12.1566
▁fraction	-12.1566
▁fracture	-12.1566
▁fragmentation	-12.1566
▁frantic	-12.1566
▁fraternal	-12.1566
▁fraud	-12.1566
▁fraught	-12.1566
▁frayed	-12.1566
▁freacking	-12.1566
▁freelance	-12.1566
▁freelancer	-12.1566
▁freeman	-12.1566
▁freeness	-12.1566
▁freezing	-12.1566
▁freindly	-12.1566
▁freinds	-12.1566
▁freshens	-12.1566
▁fricken	-12.1566
▁fridayfeeling	-12.1566
▁friendless	-12.1566
▁friggin	-12.1566
▁fringe	-12.1566
▁frontend	-12.1566
▁fronting	-12.1566
▁frosting	-12.1566
▁frusterated	-12.1566
▁fsh	-12.1566
▁fuckign	-12.1566
▁ful	-12.1566
▁fulfil	-12.1566
▁fuller	-12.1566
▁fundamentalist	-12.1566
▁fuqn	-12.1566
▁furniture	-12.1566
▁fuse	-12.1566
▁fusion	-12.1566
▁fuvking	-12.1566
▁fyi	-12.1566
▁gabapentin	-12.1566
▁gabrielshaw	-12.1566
▁gacha	-12.1566
▁gag	-12.1566
▁gainful	-12.1566
▁gal	-12.1566
▁gallon	-12.1566
▁gallstone	-12.1566
▁gambia	-12.1566
▁gamble	-12.1566
▁gamechanger	-12.1566
▁gamma	-12.1566
▁gangmembers	-12.1566
▁garcia	-12.1566
▁gaslighting	-12.1566
▁gasping	-12.1566
▁gatekeeper	-12.1566
▁gatherer	-12.1566
▁gauge	-12.1566
▁gawjus	-12.1566
▁gaze	-12.1566
▁gazipura	-12.1566
▁ge	-12.1566
▁geared	-12.1566
▁gearing	-12.1566
▁generated	-12.1566
▁generosity	-12.1566
▁genius	-12.1566
▁genuinenly	-12.1566
▁george	-12.1566
▁georgia	-12.1566
▁gerd	-12.1566
▁gi	-12.1566
▁giddy	-12.1566
▁gigantic	-12.1566
▁giggled	-12.1566
▁giggling	-12.1566
▁gimmick	-12.1566
▁ginanoeld	-12.1566
▁girly	-12.1566
▁gliding	-12.1566
▁globally	-12.1566
▁globe	-12.1566
▁globus	-12.1566
▁glock	-12.1566
▁gloom	-12.1566
▁glorified	-12.1566
▁glove	-12.1566
▁glucocorticoid	-12.1566
▁glue	-12.1566
▁gnaw	-12.1566
▁goddamb	-12.1566
▁goddess	-12.1566
▁goer	-12.1566
▁gogetfunding	-12.1566
▁goin	-12.1566
▁goldfish	-12.1566
▁gonit	-12.1566
▁goofy	-12.1566
▁googled	-12.1566
▁goose	-12.1566
▁gorgeous	-12.1566
▁governed	-12.1566
▁grabbing	-12.1566
▁gracefully	-12.1566
▁gracious	-12.1566
▁gram	-12.1566
▁grammatical	-12.1566
▁grandchild	-12.1566
▁grandkids	-12.1566
▁gras	-12.1566
▁grasped	-12.1566
▁gratefulness	-12.1566
▁graveled	-12.1566
▁gravitate	-12.1566
▁gravitating	-12.1566
▁grazed	-12.1566
▁greenspace	-12.1566
▁greenspaces	-12.1566
▁greet	-12.1566
▁greeted	-12.1566
▁greets	-12.1566
▁grieved	-12.1566
▁grin	-12.1566
▁grindr	-12.1566
▁grouchy	-12.1566
▁grounding	-12.1566
▁groupon	-12.1566
▁growl	-12.1566
▁gruesome	-12.1566
▁guarantee	-12.1566
▁guarded	-12.1566
▁gueee	-12.1566
▁guinea	-12.1566
▁gulp	-12.1566
▁gunsmithing	-12.1566
▁gurgling	-12.1566
▁gush	-12.1566
▁gymnast	-12.1566
▁habitat	-12.1566
▁hahahah	-12.1566
▁haiti	-12.1566
▁halloween	-12.1566
▁halo	-12.1566
▁halp	-12.1566
▁hammering	-12.1566
▁handicapped	-12.1566
▁handing	-12.1566
▁handsome	-12.1566
▁handwritten	-12.1566
▁handy	-12.1566
▁hanh	-12.1566
▁happybucketlife	-12.1566
▁hapy	-12.1566
▁harassed	-12.1566
▁harassing	-12.1566
▁hardwork	-12.1566
▁hardy	-12.1566
▁harley	-12.1566
▁harmonising	-12.1566
▁harmonized	-12.1566
▁harpreetsandhu	-12.1566
▁harr	-12.1566
▁harris	-12.1566
▁hart	-12.1566
▁hartford	-12.1566
▁harvey	-12.1566
▁hassle	-12.1566
▁hastily	-12.1566
▁hateful	-12.1566
▁havnt	-12.1566
▁havoc	-12.1566
▁havve	-12.1566
▁hawk	-12.1566
▁hazy	-12.1566
▁header	-12.1566
▁healthline	-12.1566
▁heartache	-12.1566
▁heartburn	-12.1566
▁hearted	-12.1566
▁heartless	-12.1566
▁heater	-12.1566
▁heavier	-12.1566
▁hebrew	-12.1566
▁hedonic	-12.1566
▁heel	-12.1566
▁hehn	-12.1566
▁heightened	-12.1566
▁heinous	-12.1566
▁helmet	-12.1566
▁helplessness	-12.1566
▁helpp	-12.1566
▁herd	-12.1566
▁hereafter	-12.1566
▁hesitant	-12.1566
▁hesitate	-12.1566
▁hesitating	-12.1566
▁hesitation	-12.1566
▁hever	-12.1566
▁hfa	-12.1566
▁hiatus	-12.1566
▁hid	-12.1566
▁highlighting	-12.1566
▁hii	-12.1566
▁himan	-12.1566
▁hinder	-12.1566
▁hindering	-12.1566
▁hindi	-12.1566
▁hindu	-12.1566
▁hippocampus	-12.1566
▁hmmm	-12.1566
▁hoarding	-12.1566
▁hoax	-12.1566
▁holiness	-12.1566
▁holistically	-12.1566
▁hollowed	-12.1566
▁hollowness	-12.1566
▁homemade	-12.1566
▁homemaker	-12.1566
▁homescreen	-12.1566
▁homophobia	-12.1566
▁honed	-12.1566
▁hong	-12.1566
▁hooked	-12.1566
▁hookup	-12.1566
▁hop	-12.1566
▁hopelessness	-12.1566
▁hopping	-12.1566
▁horrific	-12.1566
▁horticulture	-12.1566
▁hospitalisation	-12.1566
▁hospitalization	-12.1566
▁hostel	-12.1566
▁hotline	-12.1566
▁hotlines	-12.1566
▁hounslow	-12.1566
▁housemate	-12.1566
▁housewife	-12.1566
▁housework	-12.1566
▁http	-12.1566
▁hubbard	-12.1566
▁hulu	-12.1566
▁humanely	-12.1566
▁humanism	-12.1566
▁humanness	-12.1566
▁humbled	-12.1566
▁humbly	-12.1566
▁humid	-12.1566
▁humiliated	-12.1566
▁humilliations	-12.1566
▁humming	-12.1566
▁humored	-12.1566
▁hunch	-12.1566
▁hunched	-12.1566
▁hungrier	-12.1566
▁hunter	-12.1566
▁hurdle	-12.1566
▁hurried	-12.1566
▁hurtful	-12.1566
▁husk	-12.1566
▁hut	-12.1566
▁hydroxyzine	-12.1566
▁hype	-12.1566
▁hyperawareness	-12.1566
▁hypersensitive	-12.1566
▁hypomanic	-12.1566
▁hypothalamic	-12.1566
▁hypothalamus	-12.1566
▁hypothermia	-12.1566
▁hysterectomy	-12.1566
▁hysterically	-12.1566
▁ibuprophen	-12.1566
▁icahn	-12.1566
▁icecream	-12.1566
▁iceland	-12.1566
▁icing	-12.1566
▁icon	-12.1566
▁idek	-12.1566
▁identified	-12.1566
▁identifies	-12.1566
▁idiocy	-12.1566
▁idol	-12.1566
▁idolise	-12.1566
▁ignite	-12.1566
▁illegal	-12.1566
▁illegally	-12.1566
▁illinois	-12.1566
▁illogical	-12.1566
▁illustrated	-12.1566
▁illustrates	-12.1566
▁illustrator	-12.1566
▁illustrious	-12.1566
▁ilness	-12.1566
▁ilnesses	-12.1566
▁ima	-12.1566
▁imaginings	-12.1566
▁imalive	-12.1566
▁immature	-12.1566
▁immaturity	-12.1566
▁immet	-12.1566
▁immoral	-12.1566
▁immunocompromised	-12.1566
▁imnotevenstressedanymore	-12.1566
▁impactful	-12.1566
▁impasse	-12.1566
▁impeccable	-12.1566
▁imperative	-12.1566
▁imperfect	-12.1566
▁implement	-12.1566
▁implementing	-12.1566
▁implied	-12.1566
▁imply	-12.1566
▁imposition	-12.1566
▁impossibility	-12.1566
▁improbable	-12.1566
▁impulsively	-12.1566
▁inadequate	-12.1566
▁inadvertently	-12.1566
▁inaliating	-12.1566
▁inanimate	-12.1566
▁inaya	-12.1566
▁inayaconnect	-12.1566
▁inbetween	-12.1566
▁incapacitates	-12.1566
▁incel	-12.1566
▁incels	-12.1566
▁inclined	-12.1566
▁inclusively	-12.1566
▁incompetence	-12.1566
▁inconcenience	-12.1566
▁inconsistent	-12.1566
▁inconvenience	-12.1566
▁incorrect	-12.1566
▁incorrectly	-12.1566
▁incrementally	-12.1566
▁incroyables	-12.1566
▁indebted	-12.1566
▁indecision	-12.1566
▁indecisive	-12.1566
▁independently	-12.1566
▁indgenous	-12.1566
▁indie	-12.1566
▁indifference	-12.1566
▁indifferent	-12.1566
▁indo	-12.1566
▁indomitable	-12.1566
▁indulgent	-12.1566
▁inept	-12.1566
▁inertia	-12.1566
▁inevitability	-12.1566
▁inexpensive	-12.1566
▁inexplicably	-12.1566
▁infancy	-12.1566
▁infinitely	-12.1566
▁inflammatory	-12.1566
▁inflated	-12.1566
▁inflexible	-12.1566
▁inform	-12.1566
▁informative	-12.1566
▁infuriate	-12.1566
▁inhabit	-12.1566
▁inhabiting	-12.1566
▁inhibited	-12.1566
▁inhuman	-12.1566
▁inhumane	-12.1566
▁inimitable	-12.1566
▁initiated	-12.1566
▁inject	-12.1566
▁injured	-12.1566
▁innitially	-12.1566
▁innocence	-12.1566
▁innocently	-12.1566
▁inquisitive	-12.1566
▁insensitive	-12.1566
▁inseparable	-12.1566
▁inserted	-12.1566
▁insider	-12.1566
▁insightful	-12.1566
▁insisted	-12.1566
▁insistent	-12.1566
▁insists	-12.1566
▁inspected	-12.1566
▁instantaneously	-12.1566
▁instinctive	-12.1566
▁institute	-12.1566
▁institutionalised	-12.1566
▁instructional	-12.1566
▁insulted	-12.1566
▁intact	-12.1566
▁intending	-12.1566
▁intension	-12.1566
▁intently	-12.1566
▁intercourse	-12.1566
▁interesed	-12.1566
▁intermittent	-12.1566
▁intern	-12.1566
▁internalised	-12.1566
▁internalized	-12.1566
▁internalizes	-12.1566
▁intersex	-12.1566
▁interval	-12.1566
▁interverence	-12.1566
▁interviewed	-12.1566
▁interviewing	-12.1566
▁introductory	-12.1566
▁introversion	-12.1566
▁inundated	-12.1566
▁invading	-12.1566
▁invalid	-12.1566
▁invalidating	-12.1566
▁invariably	-12.1566
▁investigate	-12.1566
▁inviting	-12.1566
▁involving	-12.1566
▁iop	-12.1566
▁iran	-12.1566
▁iraq	-12.1566
▁irb	-12.1566
▁irishman	-12.1566
▁irregularly	-12.1566
▁irrespective	-12.1566
▁irresponsible	-12.1566
▁irreversible	-12.1566
▁irritant	-12.1566
▁irs	-12.1566
▁ishaan	-12.1566
▁isoleted	-12.1566
▁itchy	-12.1566
▁jab	-12.1566
▁jack	-12.1566
▁jackbox	-12.1566
▁jacket	-12.1566
▁jackpot	-12.1566
▁jackshit	-12.1566
▁jacobson	-12.1566
▁jamaican	-12.1566
▁jana	-12.1566
▁japan	-12.1566
▁jeaousy	-12.1566
▁jee	-12.1566
▁jello	-12.1566
▁jen	-12.1566
▁jeopardizing	-12.1566
▁jet	-12.1566
▁jj	-12.1566
▁joe	-12.1566
▁joked	-12.1566
▁jon	-12.1566
▁jonathan	-12.1566
▁journalism	-12.1566
▁journalist	-12.1566
▁journalling	-12.1566
▁joyful	-12.1566
▁joyless	-12.1566
▁joyously	-12.1566
▁judt	-12.1566
▁jumb	-12.1566
▁jumpy	-12.1566
▁jung	-12.1566
▁junkie	-12.1566
▁juno	-12.1566
▁juvenile	-12.1566
▁k	-12.1566
▁kava	-12.1566
▁kent	-12.1566
▁kenya	-12.1566
▁kg	-12.1566
▁kharrazinaturalhealth	-12.1566
▁kicker	-12.1566
▁kidnapped	-12.1566
▁kife	-12.1566
▁kindergarden	-12.1566
▁kinesiologist	-12.1566
▁kinky	-12.1566
▁kist	-12.1566
▁knit	-12.1566
▁knkw	-12.1566
▁kno	-12.1566
▁knot	-12.1566
▁knowledgeable	-12.1566
▁kong	-12.1566
▁korn	-12.1566
▁krier	-12.1566
▁ksm	-12.1566
▁kumusha	-12.1566
▁kumushafoundation	-12.1566
▁kylehilding	-12.1566
▁lachesism	-12.1566
▁lad	-12.1566
▁ladder	-12.1566
▁lall	-12.1566
▁lament	-12.1566
▁lamenting	-12.1566
▁lamp	-12.1566
▁landlady	-12.1566
▁landscaping	-12.1566
▁lanka	-12.1566
▁lapdog	-12.1566
▁lashed	-12.1566
▁lashing	-12.1566
▁lastnight	-12.1566
▁latch	-12.1566
▁lathargic	-12.1566
▁lather	-12.1566
▁latley	-12.1566
▁laughable	-12.1566
▁laundromat	-12.1566
▁laurie	-12.1566
▁layed	-12.1566
▁lazier	-12.1566
▁lbl	-12.1566
▁lcd	-12.1566
▁leafing	-12.1566
▁leak	-12.1566
▁leaked	-12.1566
▁leapfrog	-12.1566
▁leech	-12.1566
▁leeds	-12.1566
▁legal	-12.1566
▁legality	-12.1566
▁legally	-12.1566
▁legend	-12.1566
▁legitimately	-12.1566
▁lemmy	-12.1566
▁lemon	-12.1566
▁lending	-12.1566
▁leone	-12.1566
▁lesotho	-12.1566
▁lesser	-12.1566
▁leukemia	-12.1566
▁lgbt	-12.1566
▁liability	-12.1566
▁liberated	-12.1566
▁liberating	-12.1566
▁liberia	-12.1566
▁licensing	-12.1566
▁lifecoach	-12.1566
▁lifeless	-12.1566
▁lifelessly	-12.1566
▁lightbulb	-12.1566
▁lighter	-12.1566
▁lightning	-12.1566
▁liife	-12.1566
▁likwise	-12.1566
▁lil	-12.1566
▁limbo	-12.1566
▁lingo	-12.1566
▁lining	-12.1566
▁lionelwilson	-12.1566
▁liqour	-12.1566
▁liquor	-12.1566
▁lisabergstrom	-12.1566
▁lite	-12.1566
▁liter	-12.1566
▁liver	-12.1566
▁livingbetterandlonger	-12.1566
▁livinginthemoment	-12.1566
▁llama	-12.1566
▁lmfao	-12.1566
▁lne	-12.1566
▁lobster	-12.1566
▁located	-12.1566
▁locus	-12.1566
▁loiter	-12.1566
▁lokmkng	-12.1566
▁lollipop	-12.1566
▁lone	-12.1566
▁lonervibes	-12.1566
▁longed	-12.1566
▁longing	-12.1566
▁lookkng	-12.1566
▁lookout	-12.1566
▁loophole	-12.1566
▁looping	-12.1566
▁lottery	-12.1566
▁loudness	-12.1566
▁lovable	-12.1566
▁loveliness	-12.1566
▁lube	-12.1566
▁lump	-12.1566
▁lutherclayton	-12.1566
▁luxembourg	-12.1566
▁lyon	-12.1566
▁macho	-12.1566
▁madagascar	-12.1566
▁maddening	-12.1566
▁magazine	-12.1566
▁magical	-12.1566
▁maharishi	-12.1566
▁mail	-12.1566
▁mailed	-12.1566
▁maintining	-12.1566
▁majorly	-12.1566
▁makefun	-12.1566
▁maker	-12.1566
▁malady	-12.1566
▁malawi	-12.1566
▁maldives	-12.1566
▁malfunctioning	-12.1566
▁mali	-12.1566
▁manchild	-12.1566
▁manhattan	-12.1566
▁maniac	-12.1566
▁mankind	-12.1566
▁manly	-12.1566
▁manson	-12.1566
▁manu	-12.1566
▁manual	-12.1566
▁manualized	-12.1566
▁manyyy	-12.1566
▁marchwicki	-12.1566
▁marginal	-12.1566
▁maried	-12.1566
▁mariljuana	-12.1566
▁marked	-12.1566
▁marketer	-12.1566
▁marketplace	-12.1566
▁marx	-12.1566
▁masculine	-12.1566
▁masked	-12.1566
▁maskless	-12.1566
▁massager	-12.1566
▁massively	-12.1566
▁masturbating	-12.1566
▁materialise	-12.1566
▁materialistic	-12.1566
▁maternal	-12.1566
▁maternity	-12.1566
▁mathematical	-12.1566
▁matthew	-12.1566
▁mattmark	-12.1566
▁mattress	-12.1566
▁mauritania	-12.1566
▁maximise	-12.1566
▁maximize	-12.1566
▁maximum	-12.1566
▁mayor	-12.1566
▁mcauliffe	-12.1566
▁mcconaughey	-12.1566
▁mcdonalds	-12.1566
▁mci	-12.1566
▁mcu	-12.1566
▁mdma	-12.1566
▁meaninglessly	-12.1566
▁meaninglessness	-12.1566
▁measured	-12.1566
▁mechanic	-12.1566
▁mechatronics	-12.1566
▁mediocre	-12.1566
▁mediocrity	-12.1566
▁medular	-12.1566
▁melancholic	-12.1566
▁melancholy	-12.1566
▁melatonin	-12.1566
▁memorize	-12.1566
▁memoryh	-12.1566
▁meniscus	-12.1566
▁menopause	-12.1566
▁menstrual	-12.1566
▁mentallity	-12.1566
▁mentaly	-12.1566
▁mercilessly	-12.1566
▁mercy	-12.1566
▁merge	-12.1566
▁merry	-12.1566
▁meta	-12.1566
▁metaphor	-12.1566
▁meteor	-12.1566
▁methodology	-12.1566
▁metric	-12.1566
▁mf	-12.1566
▁mia	-12.1566
▁michelle	-12.1566
▁micromanaged	-12.1566
▁mics	-12.1566
▁middling	-12.1566
▁midwest	-12.1566
▁migrain	-12.1566
▁mihaly	-12.1566
▁mil	-12.1566
▁mildly	-12.1566
▁miller	-12.1566
▁millionth	-12.1566
▁mimar	-12.1566
▁mindspace	-12.1566
▁minecraft	-12.1566
▁minimize	-12.1566
▁minimized	-12.1566
▁ministry	-12.1566
▁ministryofpoetry	-12.1566
▁mint	-12.1566
▁minty	-12.1566
▁minus	-12.1566
▁mirasol	-12.1566
▁misanthrope	-12.1566
▁miscarried	-12.1566
▁misclicked	-12.1566
▁miserably	-12.1566
▁misfit	-12.1566
▁misgendered	-12.1566
▁misguided	-12.1566
▁misinterpreting	-12.1566
▁misogynist	-12.1566
▁misogynistic	-12.1566
▁misremembered	-12.1566
▁missery	-12.1566
▁missionary	-12.1566
▁mistakenly	-12.1566
▁mistreated	-12.1566
▁misunderstanding	-12.1566
▁mitt	-12.1566
▁mitty	-12.1566
▁mixer	-12.1566
▁mixing	-12.1566
▁mo	-12.1566
▁mob	-12.1566
▁mod	-12.1566
▁modest	-12.1566
▁modesty	-12.1566
▁modt	-12.1566
▁module	-12.1566
▁molested	-12.1566
▁molesting	-12.1566
▁momentarily	-12.1566
▁mon	-12.1566
▁monitoring	-12.1566
▁monogamous	-12.1566
▁monogamy	-12.1566
▁mooded	-12.1566
▁moonlight	-12.1566
▁moonshine	-12.1566
▁moonshot	-12.1566
▁morbidly	-12.1566
▁morgan	-12.1566
▁mormon	-12.1566
▁morphed	-12.1566
▁morsel	-12.1566
▁mortal	-12.1566
▁mosque	-12.1566
▁mostlyyy	-12.1566
▁motel	-12.1566
▁motivating	-12.1566
▁moto	-12.1566
▁motor	-12.1566
▁motorhead	-12.1566
▁mourns	-12.1566
▁mover	-12.1566
▁mozambique	-12.1566
▁mrsknowhow	-12.1566
▁msde	-12.1566
▁msu	-12.1566
▁mt	-12.1566
▁muffled	-12.1566
▁mug	-12.1566
▁mullet	-12.1566
▁multimillionaires	-12.1566
▁multitasking	-12.1566
▁multivitamin	-12.1566
▁mumbling	-12.1566
▁muruganar	-12.1566
▁mush	-12.1566
▁mushroom	-12.1566
▁musical	-12.1566
▁musing	-12.1566
▁muslim	-12.1566
▁muster	-12.1566
▁mustered	-12.1566
▁mutism	-12.1566
▁muttered	-12.1566
▁mxf	-12.1566
▁myanmar	-12.1566
▁myriad	-12.1566
▁mystery	-12.1566
▁mystic	-12.1566
▁nada	-12.1566
▁nadis	-12.1566
▁nag	-12.1566
▁nah	-12.1566
▁nailed	-12.1566
▁nameless	-12.1566
▁namibia	-12.1566
▁napkin	-12.1566
▁narly	-12.1566
▁narrcisim	-12.1566
▁narrcists	-12.1566
▁narrowest	-12.1566
▁narrowing	-12.1566
▁narsassistic	-12.1566
▁nat	-12.1566
▁nationalist	-12.1566
▁naturallyecstatic	-12.1566
▁naw	-12.1566
▁nearest	-12.1566
▁nebours	-12.1566
▁nectar	-12.1566
▁neediness	-12.1566
▁neet	-12.1566
▁negating	-12.1566
▁neglectful	-12.1566
▁negotiation	-12.1566
▁neighborly	-12.1566
▁nepotism	-12.1566
▁nest	-12.1566
▁neuroscientist	-12.1566
▁neurotic	-12.1566
▁newborn	-12.1566
▁newey	-12.1566
▁newfound	-12.1566
▁newly	-12.1566
▁newsflash	-12.1566
▁nft	-12.1566
▁ng	-12.1566
▁ngo	-12.1566
▁nhat	-12.1566
▁nicer	-12.1566
▁nick	-12.1566
▁niger	-12.1566
▁nigh	-12.1566
▁nighter	-12.1566
▁nighti	-12.1566
▁nihilism	-12.1566
▁nix	-12.1566
▁nocturnal	-12.1566
▁nomadland	-12.1566
▁nonjudgmental	-12.1566
▁noodle	-12.1566
▁noon	-12.1566
▁nooooooo	-12.1566
▁nootralize	-12.1566
▁nora	-12.1566
▁noradrenaline	-12.1566
▁north	-12.1566
▁norway	-12.1566
▁nostalgic	-12.1566
▁notch	-12.1566
▁notifies	-12.1566
▁notoriously	-12.1566
▁nottingham	-12.1566
▁nourishing	-12.1566
▁nov	-12.1566
▁ntohing	-12.1566
▁nude	-12.1566
▁nuh	-12.1566
▁nuisance	-12.1566
▁num	-12.1566
▁nutrient	-12.1566
▁nutritional	-12.1566
▁nutritionally	-12.1566
▁nutshell	-12.1566
▁nyquil	-12.1566
▁obesity	-12.1566
▁objected	-12.1566
▁obligatory	-12.1566
▁obliges	-12.1566
▁oblivious	-12.1566
▁obscenely	-12.1566
▁obscure	-12.1566
▁observer	-12.1566
▁obsolete	-12.1566
▁obtaining	-12.1566
▁obv	-12.1566
▁occupation	-12.1566
▁occupy	-12.1566
▁occurence	-12.1566
▁oddity	-12.1566
▁ode	-12.1566
▁offchance	-12.1566
▁offence	-12.1566
▁offender	-12.1566
▁ofmy	-12.1566
▁ohhh	-12.1566
▁ohhhh	-12.1566
▁oily	-12.1566
▁okey	-12.1566
▁om	-12.1566
▁omg	-12.1566
▁onedollarhappiness	-12.1566
▁oooooonnne	-12.1566
▁oozing	-12.1566
▁openly	-12.1566
▁operating	-12.1566
▁operator	-12.1566
▁opiate	-12.1566
▁opted	-12.1566
▁optimist	-12.1566
▁optimize	-12.1566
▁opting	-12.1566
▁opts	-12.1566
▁organ	-12.1566
▁organically	-12.1566
▁organisation	-12.1566
▁organise	-12.1566
▁organiser	-12.1566
▁organizational	-12.1566
▁organizing	-12.1566
▁orientated	-12.1566
▁ormond	-12.1566
▁oscar	-12.1566
▁ouchy	-12.1566
▁outbreak	-12.1566
▁outburst	-12.1566
▁outdoors	-12.1566
▁outer	-12.1566
▁outline	-12.1566
▁outraged	-12.1566
▁outsmart	-12.1566
▁outweighs	-12.1566
▁oven	-12.1566
▁overachievement	-12.1566
▁overachiever	-12.1566
▁overanalyze	-12.1566
▁overclock	-12.1566
▁overcomefear	-12.1566
▁overcomes	-12.1566
▁overconsumption	-12.1566
▁overdose	-12.1566
▁overdrafted	-12.1566
▁overdramatic	-12.1566
▁overflood	-12.1566
▁overflooding	-12.1566
▁overhwelmed	-12.1566
▁overplan	-12.1566
▁overpromise	-12.1566
▁overrated	-12.1566
▁overshadowed	-12.1566
▁overstimulated	-12.1566
▁overstretch	-12.1566
▁overthinks	-12.1566
▁overthought	-12.1566
▁overtook	-12.1566
▁overwatch	-12.1566
▁overweigh	-12.1566
▁overworker	-12.1566
▁overworking	-12.1566
▁owi	-12.1566
▁owl	-12.1566
▁owns	-12.1566
▁ox	-12.1566
▁oxytocin	-12.1566
▁oy	-12.1566
▁pained	-12.1566
▁painfully	-12.1566
▁paintbrush	-12.1566
▁painted	-12.1566
▁pair	-12.1566
▁paired	-12.1566
▁pakistani	-12.1566
▁pal	-12.1566
▁palestinian	-12.1566
▁palete	-12.1566
▁palette	-12.1566
▁paliperidone	-12.1566
▁palo	-12.1566
▁palsy	-12.1566
▁pang	-12.1566
▁panick	-12.1566
▁pansexual	-12.1566
▁pant	-12.1566
▁paperwork	-12.1566
▁paradox	-12.1566
▁paradoxically	-12.1566
▁paralyzing	-12.1566
▁paranormal	-12.1566
▁paraphrasing	-12.1566
▁parked	-12.1566
▁partial	-12.1566
▁partnered	-12.1566
▁passionately	-12.1566
▁passionflower	-12.1566
▁passively	-12.1566
▁pasta	-12.1566
▁patched	-12.1566
▁patronizing	-12.1566
▁paulo	-12.1566
▁paving	-12.1566
▁payout	-12.1566
▁pdf	-12.1566
▁peachy	-12.1566
▁pearces	-12.1566
▁pedal	-12.1566
▁pedo	-12.1566
▁pedos	-12.1566
▁pee	-12.1566
▁pen	-12.1566
▁pencil	-12.1566
▁pensez	-12.1566
▁pensum	-12.1566
▁pepe	-12.1566
▁perceives	-12.1566
▁perceiving	-12.1566
▁perfecting	-12.1566
▁performed	-12.1566
▁performer	-12.1566
▁perpetual	-12.1566
▁perpetually	-12.1566
▁perpetuating	-12.1566
▁personalize	-12.1566
▁personhood	-12.1566
▁pesky	-12.1566
▁pessimism	-12.1566
▁pessimist	-12.1566
▁pest	-12.1566
▁peterwarnock	-12.1566
▁petrified	-12.1566
▁pfts	-12.1566
▁pharmaceutical	-12.1566
▁phenomenal	-12.1566
▁philadelphia	-12.1566
▁philosopher	-12.1566
▁phoenix	-12.1566
▁phoniness	-12.1566
▁phoning	-12.1566
▁phony	-12.1566
▁phosphatidylserine	-12.1566
▁php	-12.1566
▁phsyical	-12.1566
▁physicaly	-12.1566
▁physiologist	-12.1566
▁physiotherapist	-12.1566
▁pierced	-12.1566
▁piled	-12.1566
▁pilot	-12.1566
▁pimp	-12.1566
▁pinched	-12.1566
▁pine	-12.1566
▁pinterest	-12.1566
▁pitching	-12.1566
▁pitfall	-12.1566
▁pittance	-12.1566
▁pivoted	-12.1566
▁pjs	-12.1566
▁placebo	-12.1566
▁placement	-12.1566
▁placing	-12.1566
▁plagiarized	-12.1566
▁plain	-12.1566
▁plasma	-12.1566
▁plato	-12.1566
▁platoon	-12.1566
▁plausible	-12.1566
▁pleading	-12.1566
▁pleaser	-12.1566
▁plumber	-12.1566
▁plumits	-12.1566
▁plushie	-12.1566
▁pmdd	-12.1566
▁pneumonia	-12.1566
▁podcasters	-12.1566
▁poetic	-12.1566
▁pointings	-12.1566
▁poisonous	-12.1566
▁polite	-12.1566
▁polka	-12.1566
▁ponders	-12.1566
▁pooh	-12.1566
▁poop	-12.1566
▁popsugar	-12.1566
▁poptartfriday	-12.1566
▁pornhub	-12.1566
▁pornography	-12.1566
▁portrayed	-12.1566
▁portrays	-12.1566
▁portsmouth	-12.1566
▁pose	-12.1566
▁posing	-12.1566
▁positing	-12.1566
▁postponing	-12.1566
▁potent	-12.1566
▁poured	-12.1566
▁powdered	-12.1566
▁powered	-12.1566
▁powfu	-12.1566
▁practicality	-12.1566
▁practically	-12.1566
▁pradesh	-12.1566
▁preached	-12.1566
▁preacher	-12.1566
▁precarious	-12.1566
▁preceded	-12.1566
▁predental	-12.1566
▁predictable	-12.1566
▁prediction	-12.1566
▁preemptively	-12.1566
▁preface	-12.1566
▁preferably	-12.1566
▁prefers	-12.1566
▁preffered	-12.1566
▁preform	-12.1566
▁premed	-12.1566
▁prep	-12.1566
▁preparedness	-12.1566
▁prequisites	-12.1566
▁presently	-12.1566
▁preserve	-12.1566
▁preserving	-12.1566
▁pressing	-12.1566
▁pression	-12.1566
▁pressuring	-12.1566
▁pressurized	-12.1566
▁presume	-12.1566
▁pretents	-12.1566
▁prettiest	-12.1566
▁prevailed	-12.1566
▁prevalent	-12.1566
▁prevented	-12.1566
▁princess	-12.1566
▁prioritising	-12.1566
▁prioritizes	-12.1566
▁prob	-12.1566
▁probable	-12.1566
▁probation	-12.1566
▁probed	-12.1566
▁procastinating	-12.1566
▁proccess	-12.1566
▁proceeded	-12.1566
▁proceeds	-12.1566
▁processed	-12.1566
▁proclaim	-12.1566
▁proclaimed	-12.1566
▁procrastinator	-12.1566
▁prodding	-12.1566
▁prodigy	-12.1566
▁producer	-12.1566
▁profusely	-12.1566
▁programmed	-12.1566
▁prompting	-12.1566
▁pronoun	-12.1566
▁propel	-12.1566
▁propose	-12.1566
▁proposing	-12.1566
▁propped	-12.1566
▁prosper	-12.1566
▁prosperity	-12.1566
▁prosthetics	-12.1566
▁protective	-12.1566
▁protest	-12.1566
▁prototype	-12.1566
▁proudest	-12.1566
▁prudent	-12.1566
▁psats	-12.1566
▁pssd	-12.1566
▁psychedelics	-12.1566
▁psychopath	-12.1566
▁psychosis	-12.1566
▁psychotherapy	-12.1566
▁psyvh	-12.1566
▁pt	-12.1566
▁pua	-12.1566
▁puas	-12.1566
▁puddle	-12.1566
▁puffy	-12.1566
▁puke	-12.1566
▁puking	-12.1566
▁pulsifer	-12.1566
▁pummel	-12.1566
▁pump	-12.1566
▁punching	-12.1566
▁punchline	-12.1566
▁punter	-12.1566
▁purely	-12.1566
▁purgatory	-12.1566
▁purged	-12.1566
▁purifying	-12.1566
▁purposefully	-12.1566
▁purposeless	-12.1566
▁purposelessness	-12.1566
▁purposlesness	-12.1566
▁putrid	-12.1566
▁pyramid	-12.1566
▁pyschopath	-12.1566
▁pysiotherapist	-12.1566
▁quad	-12.1566
▁quadmester	-12.1566
▁quantifiable	-12.1566
▁quarantined	-12.1566
▁quarrel	-12.1566
▁que	-12.1566
▁quelques	-12.1566
▁query	-12.1566
▁questioned	-12.1566
▁quin	-12.1566
▁quiplash	-12.1566
▁quitted	-12.1566
▁racial	-12.1566
▁radar	-12.1566
▁radiant	-12.1566
▁radiates	-12.1566
▁radiation	-12.1566
▁radicalize	-12.1566
▁radiohead	-12.1566
▁raft	-12.1566
▁raging	-12.1566
▁rail	-12.1566
▁rainfall	-12.1566
▁ram	-12.1566
▁ramp	-12.1566
▁ranch	-12.1566
▁randomised	-12.1566
▁randomized	-12.1566
▁randomness	-12.1566
▁ranked	-12.1566
▁rap	-12.1566
▁rape	-12.1566
▁raping	-12.1566
▁ratio	-12.1566
▁reachable	-12.1566
▁reactionary	-12.1566
▁realigned	-12.1566
▁realll	-12.1566
▁realtionships	-12.1566
▁realtor	-12.1566
▁reappear	-12.1566
▁rearrange	-12.1566
▁rebutted	-12.1566
▁recalling	-12.1566
▁recapture	-12.1566
▁receiver	-12.1566
▁recess	-12.1566
▁recharge	-12.1566
▁recieved	-12.1566
▁reckon	-12.1566
▁recognizably	-12.1566
▁recognizes	-12.1566
▁rectified	-12.1566
▁recycled	-12.1566
▁redeem	-12.1566
▁redefine	-12.1566
▁rediculous	-12.1566
▁redirect	-12.1566
▁redo	-12.1566
▁reduced	-12.1566
▁reef	-12.1566
▁reevaluating	-12.1566
▁referenced	-12.1566
▁referral	-12.1566
▁refined	-12.1566
▁refining	-12.1566
▁reflux	-12.1566
▁reframe	-12.1566
▁reframing	-12.1566
▁regenerate	-12.1566
▁regressed	-12.1566
▁regressing	-12.1566
▁regression	-12.1566
▁regulation	-12.1566
▁rehabilitation	-12.1566
▁rehearse	-12.1566
▁reign	-12.1566
▁reinforce	-12.1566
▁reinforces	-12.1566
▁reiterate	-12.1566
▁rejecter	-12.1566
▁rejecting	-12.1566
▁rejoined	-12.1566
▁rejuvenate	-12.1566
▁relatable	-12.1566
▁relaxer	-12.1566
▁relaying	-12.1566
▁relentlessly	-12.1566
▁relied	-12.1566
▁relinquish	-12.1566
▁remainder	-12.1566
▁remaining	-12.1566
▁remarry	-12.1566
▁remdies	-12.1566
▁remedy	-12.1566
▁remembers	-12.1566
▁reminisce	-12.1566
▁remitter	-12.1566
▁remotely	-12.1566
▁removing	-12.1566
▁rendering	-12.1566
▁renew	-12.1566
▁renewal	-12.1566
▁renovation	-12.1566
▁rental	-12.1566
▁renting	-12.1566
▁repaid	-12.1566
▁repetition	-12.1566
▁replicated	-12.1566
▁replying	-12.1566
▁reporting	-12.1566
▁represents	-12.1566
▁repression	-12.1566
▁reprieve	-12.1566
▁reproduction	-12.1566
▁republic	-12.1566
▁repulsive	-12.1566
▁repurposed	-12.1566
▁reputation	-12.1566
▁rescue	-12.1566
▁researched	-12.1566
▁reselling	-12.1566
▁resemble	-12.1566
▁resentful	-12.1566
▁resents	-12.1566
▁reserve	-12.1566
▁resetting	-12.1566
▁reshape	-12.1566
▁reshaping	-12.1566
▁resident	-12.1566
▁residing	-12.1566
▁resiliency	-12.1566
▁reskilling	-12.1566
▁resonova	-12.1566
▁respectful	-12.1566
▁respidone	-12.1566
▁respiratory	-12.1566
▁respondent	-12.1566
▁restoring	-12.1566
▁restrain	-12.1566
▁restraint	-12.1566
▁restricted	-12.1566
▁restrictive	-12.1566
▁restylene	-12.1566
▁resulted	-12.1566
▁resurface	-12.1566
▁resurfacing	-12.1566
▁rethinking	-12.1566
▁retiree	-12.1566
▁retiring	-12.1566
▁retort	-12.1566
▁retrain	-12.1566
▁retreat	-12.1566
▁revealed	-12.1566
▁reveled	-12.1566
▁reversed	-12.1566
▁reversing	-12.1566
▁reverts	-12.1566
▁revised	-12.1566
▁revisited	-12.1566
▁revive	-12.1566
▁revolution	-12.1566
▁revolves	-12.1566
▁revolving	-12.1566
▁rewarded	-12.1566
▁rewatch	-12.1566
▁rexulti	-12.1566
▁rf	-12.1566
▁rhe	-12.1566
▁rhetorical	-12.1566
▁rhyming	-12.1566
▁rica	-12.1566
▁richer	-12.1566
▁ridiculously	-12.1566
▁rigged	-12.1566
▁righteous	-12.1566
▁righteousness	-12.1566
▁rinse	-12.1566
▁roach	-12.1566
▁roap	-12.1566
▁robot	-12.1566
▁rodeo	-12.1566
▁roleplaying	-12.1566
▁roller	-12.1566
▁rolling	-12.1566
▁romanian	-12.1566
▁rooftop	-12.1566
▁roomate	-12.1566
▁roomates	-12.1566
▁roomy	-12.1566
▁rosies	-12.1566
▁rotted	-12.1566
▁roughly	-12.1566
▁routinely	-12.1566
▁rowan	-12.1566
▁royally	-12.1566
▁ruaridh	-12.1566
▁rubbish	-12.1566
▁rugby	-12.1566
▁ruminate	-12.1566
▁ruminating	-12.1566
▁runaway	-12.1566
▁runner	-12.1566
▁rustling	-12.1566
▁rwanda	-12.1566
▁rythme	-12.1566
▁sa	-12.1566
▁saddens	-12.1566
▁sadder	-12.1566
▁sadhu	-12.1566
▁saffron	-12.1566
▁sailboat	-12.1566
▁salute	-12.1566
▁salvation	-12.1566
▁san	-12.1566
▁sandhu	-12.1566
▁sank	-12.1566
▁sanskrit	-12.1566
▁santayana	-12.1566
▁santos	-12.1566
▁sappy	-12.1566
▁sas	-12.1566
▁satisficing	-12.1566
▁savor	-12.1566
▁savory	-12.1566
▁savransky	-12.1566
▁sb	-12.1566
▁sbout	-12.1566
▁scab	-12.1566
▁scalp	-12.1566
▁scammer	-12.1566
▁scanning	-12.1566
▁scarborough	-12.1566
▁scarcity	-12.1566
▁scariest	-12.1566
▁scarificed	-12.1566
▁scaring	-12.1566
▁scarred	-12.1566
▁scarring	-12.1566
▁scent	-12.1566
▁scented	-12.1566
▁schoolbook	-12.1566
▁schooling	-12.1566
▁schoonmaker	-12.1566
▁schopenhauer	-12.1566
▁schreiber	-12.1566
▁sci	-12.1566
▁scoffing	-12.1566
▁scoring	-12.1566
▁scorsese	-12.1566
▁scrabbling	-12.1566
▁scrambled	-12.1566
▁scrap	-12.1566
▁scrape	-12.1566
▁scraping	-12.1566
▁scrawny	-12.1566
▁screenshots	-12.1566
▁scripted	-12.1566
▁scriptural	-12.1566
▁scripture	-12.1566
▁scroll	-12.1566
▁sculpt	-12.1566
▁sculpting	-12.1566
▁sculpture	-12.1566
▁scumbags	-12.1566
▁seabed	-12.1566
▁sean	-12.1566
▁seasoning	-12.1566
▁sec	-12.1566
▁secondarily	-12.1566
▁secondary	-12.1566
▁sector	-12.1566
▁secured	-12.1566
▁sedating	-12.1566
▁seeked	-12.1566
▁seeming	-12.1566
▁seeps	-12.1566
▁segment	-12.1566
▁segragate	-12.1566
▁selected	-12.1566
▁selective	-12.1566
▁selectively	-12.1566
▁selen	-12.1566
▁selfharm	-12.1566
