▁like	-4.42185
<s>	0
</s>	0
<unk>	0
▁feel	-4.4324
▁wa	-4.48199
▁time	-4.70999
▁life	-4.72717
▁get	-4.80032
▁know	-4.8239
▁want	-4.89964
▁thing	-4.96339
▁day	-5.05526
▁people	-5.09737
▁even	-5.15929
▁year	-5.16983
▁one	-5.24171
▁really	-5.25317
▁make	-5.27219
▁work	-5.28942
▁help	-5.30584
▁ha	-5.32478
▁stress	-5.35678
▁think	-5.39225
▁would	-5.41046
▁go	-5.52871
▁going	-5.52871
▁much	-5.584
▁something	-5.59132
▁way	-5.60909
▁friend	-5.62872
▁feeling	-5.65968
▁never	-5.67234
▁always	-5.73645
▁love	-5.73985
▁take	-5.74156
▁thought	-5.74841
▁need	-5.7553
▁everything	-5.77452
▁u	-5.78516
▁also	-5.79952
▁keep	-5.81777
▁good	-5.83636
▁back	-5.85148
▁depression	-5.8649
▁still	-5.8649
▁job	-5.87655
▁every	-5.88834
▁right	-5.91234
▁anxiety	-5.9579
▁better	-5.9579
▁anyone	-5.96427
▁anything	-5.97284
▁new	-5.97715
▁could	-5.98148
▁week	-6.01456
▁lot	-6.04877
▁happy	-6.05109
▁someone	-6.05575
▁say	-6.05809
▁bad	-6.07701
▁happiness	-6.10852
▁hard	-6.10852
▁month	-6.11346
▁see	-6.11594
▁school	-6.12592
▁moment	-6.14362
▁well	-6.14873
▁try	-6.1513
▁family	-6.15645
▁come	-6.15904
▁find	-6.16163
▁everyone	-6.16946
▁trying	-6.16946
▁since	-6.17208
▁got	-6.17734
▁today	-6.20408
▁anymore	-6.21772
▁nothing	-6.21772
▁start	-6.226
▁first	-6.25409
▁mind	-6.25981
▁live	-6.26555
▁many	-6.27133
▁amp	-6.27424
▁person	-6.28007
▁give	-6.29777
▁self	-6.30674
▁mental	-6.31882
▁hate	-6.34969
▁end	-6.35283
▁sleep	-6.35914
▁long	-6.36548
▁point	-6.36548
▁else	-6.36867
▁ever	-6.36867
▁stressed	-6.37831
▁best	-6.38154
▁last	-6.39129
▁getting	-6.39457
▁around	-6.39785
▁pain	-6.40114
▁health	-6.40445
▁started	-6.40777
▁change	-6.41443
▁made	-6.41443
▁world	-6.41778
▁depressed	-6.43812
▁talk	-6.44845
▁past	-6.4554
▁problem	-6.47297
▁sometimes	-6.47297
▁let	-6.49086
▁doe	-6.49448
▁care	-6.49811
▁stop	-6.49811
▁home	-6.50175
▁tell	-6.50175
▁felt	-6.52017
▁fucking	-6.52763
▁used	-6.53515
▁thinking	-6.54653
▁away	-6.55036
▁hope	-6.5658
▁look	-6.5658
▁please	-6.5658
▁im	-6.57754
▁hour	-6.59742
▁parent	-6.60145
▁told	-6.60955
▁without	-6.60955
▁experience	-6.63424
▁maybe	-6.63841
▁different	-6.65105
▁might	-6.65956
▁cry	-6.66814
▁others	-6.66814
▁said	-6.67246
▁though	-6.6768
▁tired	-6.6768
▁ago	-6.69878
▁part	-6.70323
▁little	-6.71671
▁wish	-6.72581
▁reason	-6.73038
▁body	-6.73498
▁put	-6.73498
▁place	-6.74424
▁shit	-6.7489
▁two	-6.75359
▁working	-6.75359
▁done	-6.75829
▁worse	-6.75829
▁able	-6.76302
▁emotion	-6.77734
▁situation	-6.77734
▁living	-6.78216
▁enough	-6.79676
▁alone	-6.80167
▁head	-6.80167
▁sad	-6.80167
▁actually	-6.80661
▁remember	-6.80661
▁focus	-6.81157
▁listen	-6.81656
▁dont	-6.82157
▁wanted	-6.83167
▁making	-6.83676
▁high	-6.84188
▁taking	-6.84188
▁wrong	-6.84188
▁etc	-6.84702
▁guy	-6.84702
▁mom	-6.84702
▁may	-6.85219
▁idea	-6.85738
▁looking	-6.86785
▁tried	-6.86785
▁hurt	-6.87313
▁anxious	-6.88377
▁money	-6.89452
▁night	-6.89452
▁constantly	-6.91087
▁relationship	-6.91638
▁great	-6.92192
▁another	-6.92749
▁already	-6.93309
▁video	-6.93309
▁mean	-6.95009
▁college	-6.96159
▁lost	-6.96159
▁goal	-6.96738
▁issue	-6.97321
▁success	-6.97321
▁question	-6.97908
▁therapy	-6.97908
▁heart	-6.99091
▁kind	-6.99091
▁step	-6.99091
▁energy	-6.99688
▁die	-7.00289
▁important	-7.00289
▁mother	-7.00289
▁everyday	-7.00893
▁post	-7.00893
▁understand	-7.00893
▁cause	-7.02113
▁future	-7.02113
▁minute	-7.02113
▁found	-7.02728
▁study	-7.03347
▁went	-7.03347
▁learn	-7.0397
▁sure	-7.0397
▁normal	-7.04597
▁positive	-7.04597
▁advice	-7.05863
▁class	-7.05863
▁almost	-7.06502
▁matter	-7.06502
▁music	-7.07145
▁next	-7.07145
▁leave	-7.07793
▁social	-7.07793
▁recently	-7.08444
▁brain	-7.091
▁often	-7.091
▁least	-7.0976
▁happen	-7.10424
▁old	-7.10424
▁stuff	-7.10424
▁yet	-7.10424
▁left	-7.11093
▁use	-7.11093
▁whole	-7.12444
▁le	-7.13127
▁lt	-7.13127
▁move	-7.13814
▁human	-7.14506
▁become	-7.15203
▁due	-7.15203
▁share	-7.15905
▁talking	-7.15905
▁covid	-7.16612
▁support	-7.16612
▁ask	-7.17324
▁daily	-7.1804
▁deal	-7.18762
▁fear	-7.18762
▁meditation	-7.20222
▁scared	-7.20222
▁course	-7.2096
▁drey	-7.2096
▁free	-7.21704
▁house	-7.22453
▁finally	-7.23968
▁bed	-7.24734
▁bit	-7.24734
▁present	-7.24734
▁call	-7.25507
▁enjoy	-7.25507
▁real	-7.26285
▁writing	-7.26285
▁dream	-7.27069
▁control	-7.2786
▁inside	-7.2786
▁pretty	-7.2786
▁seems	-7.2786
▁state	-7.2786
▁seem	-7.28656
▁believe	-7.2946
▁difficult	-7.30269
▁either	-7.30269
▁together	-7.30269
▁read	-7.31086
▁break	-7.31909
▁close	-7.31909
▁second	-7.31909
▁full	-7.32739
▁guess	-7.32739
▁saying	-7.32739
▁happened	-7.33575
▁ok	-7.33575
▁took	-7.33575
▁gonna	-7.34419
▁level	-7.34419
▁dad	-7.3527
▁cannot	-7.36129
▁thank	-7.36129
▁couple	-7.36995
▁kid	-7.36995
▁probably	-7.36995
▁suffering	-7.36995
▁completely	-7.37868
▁needed	-7.38749
▁outside	-7.38749
▁eye	-7.40535
▁face	-7.40535
▁medication	-7.4144
▁motivation	-7.4144
▁fuck	-7.42353
▁hi	-7.42353
▁sense	-7.42353
▁currently	-7.43275
▁deep	-7.43275
▁doctor	-7.43275
▁especially	-7.43275
▁pandemic	-7.43275
▁rather	-7.43275
▁book	-7.44205
▁stay	-7.44205
▁stressful	-7.44205
▁honestly	-7.45144
▁later	-7.45144
▁push	-7.45144
▁symptom	-7.45144
▁wanna	-7.45144
▁word	-7.45144
▁god	-7.46092
▁small	-7.46092
▁big	-7.47049
▁grade	-7.47049
▁peace	-7.47049
▁forward	-7.48015
▁morning	-7.48015
▁online	-7.48015
▁story	-7.48015
▁usually	-7.4899
▁wake	-7.4899
▁habit	-7.49976
▁interview	-7.49976
▁plan	-7.49976
▁sorry	-7.49976
▁age	-7.50971
▁attack	-7.50971
▁starting	-7.50971
▁suicide	-7.50971
▁cant	-7.51976
▁happens	-7.51976
▁low	-7.51976
▁memory	-7.51976
▁car	-7.52991
▁open	-7.52991
▁successful	-7.52991
▁reading	-7.54017
▁behind	-7.55053
▁emotional	-7.55053
▁gone	-7.55053
▁hand	-7.55053
▁therapist	-7.55053
▁worry	-7.55053
▁came	-7.561
▁fact	-7.561
▁rest	-7.561
▁student	-7.561
▁tip	-7.561
▁top	-7.561
▁turn	-7.561
▁write	-7.561
▁handle	-7.57158
▁hey	-7.57158
▁possible	-7.57158
▁sound	-7.57158
▁basically	-7.58228
▁child	-7.58228
▁eat	-7.58228
▁literally	-7.58228
▁learning	-7.59309
▁negative	-7.59309
▁set	-7.59309
▁worked	-7.59309
▁worst	-7.59309
▁calm	-7.60402
▁far	-7.60402
▁group	-7.60402
▁whatever	-7.60402
▁choice	-7.61507
▁coming	-7.61507
▁truly	-7.61507
▁exercise	-7.62624
▁panic	-7.62624
▁pay	-7.62624
▁show	-7.62624
▁struggling	-7.62624
▁along	-7.63754
▁fine	-7.63754
▁phone	-7.63754
▁suicidal	-7.63754
▁supposed	-7.63754
▁thanks	-7.63754
▁thats	-7.63754
▁whenever	-7.63754
▁easy	-7.64897
▁happening	-7.64897
▁instead	-7.64897
▁room	-7.64897
▁soon	-7.64897
▁telling	-7.64897
▁constant	-7.66053
▁decided	-7.66053
▁lately	-7.66053
▁light	-7.66053
▁spent	-7.66053
▁university	-7.66053
▁short	-7.67223
▁super	-7.67223
▁awareness	-7.68406
▁create	-7.68406
▁man	-7.68406
▁meet	-7.68406
▁must	-7.68406
▁pressure	-7.68406
▁test	-7.68406
▁true	-7.68406
▁universe	-7.68406
▁fun	-7.69604
▁girl	-7.69604
▁healthy	-7.69604
▁kill	-7.69604
▁learned	-7.69604
▁personal	-7.69604
▁proud	-7.69604
▁worried	-7.69604
▁asked	-7.70816
▁hit	-7.70816
▁nice	-7.70816
▁sick	-7.70816
▁angry	-7.72043
▁check	-7.72043
▁drive	-7.72043
▁okay	-7.72043
▁aware	-7.73285
▁brother	-7.73285
▁game	-7.73285
▁loved	-7.73285
▁mindset	-7.73285
▁realize	-7.73285
▁research	-7.73285
▁sit	-7.73285
▁teacher	-7.73285
▁amount	-7.74543
▁helped	-7.74543
▁lived	-7.74543
▁physical	-7.74543
▁single	-7.74543
▁stuck	-7.74543
▁career	-7.75817
▁result	-7.75817
▁sadness	-7.75817
▁bring	-7.77107
▁called	-7.77107
▁disorder	-7.77107
▁effect	-7.77107
▁mistake	-7.77107
▁side	-7.77107
▁survey	-7.77107
▁answer	-7.78414
▁towards	-7.78414
▁within	-7.78414
▁food	-7.79739
▁joy	-7.79739
▁knew	-7.79739
▁seeing	-7.79739
▁asking	-7.81081
▁healing	-7.81081
▁process	-7.81081
▁spend	-7.81081
▁treatment	-7.81081
▁based	-7.82442
▁boyfriend	-7.82442
▁death	-7.82442
▁diagnosed	-7.82442
▁exam	-7.82442
▁example	-7.82442
▁giving	-7.82442
▁hear	-7.82442
▁hold	-7.82442
▁lead	-7.82442
▁nobody	-7.82442
▁reach	-7.82442
▁whether	-7.82442
▁alive	-7.83821
▁extremely	-7.83821
▁finding	-7.83821
▁hello	-7.83821
▁name	-7.83821
▁reality	-7.83821
▁soul	-7.83821
▁taken	-7.83821
▁wanting	-7.83821
▁anyway	-7.8522
▁early	-7.8522
▁failure	-7.8522
▁forget	-7.8522
▁longer	-7.8522
▁meant	-7.8522
▁space	-7.8522
▁activity	-7.86638
▁follow	-7.86638
▁given	-7.86638
▁moving	-7.86638
▁three	-7.86638
▁company	-7.88077
▁drug	-7.88077
▁half	-7.88077
▁however	-7.88077
▁link	-7.88077
▁lonely	-7.88077
▁med	-7.88077
▁medium	-7.88077
▁miss	-7.88077
▁path	-7.88077
▁practice	-7.88077
▁struggle	-7.88077
▁youtube	-7.88077
▁kept	-7.89537
▁notice	-7.89537
▁project	-7.89537
▁severe	-7.89537
▁stupid	-7.89537
▁waiting	-7.89537
▁yes	-7.89537
▁afraid	-7.91018
▁attention	-7.91018
▁wife	-7.91018
▁worth	-7.91018
▁empty	-7.92522
▁individual	-7.92522
▁interested	-7.92522
▁quite	-7.92522
▁stopped	-7.92522
▁watch	-7.92522
▁action	-7.94049
▁breathe	-7.94049
▁continue	-7.94049
▁experienced	-7.94049
▁idk	-7.94049
▁information	-7.94049
▁purpose	-7.94049
▁seen	-7.94049
▁simple	-7.94049
▁suffer	-7.94049
▁walk	-7.94049
▁became	-7.95599
▁broke	-7.95599
▁figure	-7.95599
▁form	-7.95599
▁impact	-7.95599
▁journey	-7.95599
▁knowing	-7.95599
▁play	-7.95599
▁reddit	-7.95599
▁technique	-7.95599
▁article	-7.97174
▁certain	-7.97174
▁changed	-7.97174
▁country	-7.97174
▁entire	-7.97174
▁power	-7.97174
▁run	-7.97174
▁type	-7.97174
▁dealing	-7.98774
▁event	-7.98774
▁expectation	-7.98774
▁improve	-7.98774
▁mood	-7.98774
▁sort	-7.98774
▁weird	-7.98774
▁woman	-7.98774
▁accept	-8.004
▁business	-8.004
▁episode	-8.004
▁fight	-8.004
▁hair	-8.004
▁passion	-8.004
▁sister	-8.004
▁sleeping	-8.004
▁achieve	-8.02053
▁allow	-8.02053
▁breath	-8.02053
▁cut	-8.02053
▁focusing	-8.02053
▁girlfriend	-8.02053
▁grateful	-8.02053
▁met	-8.02053
▁period	-8.02053
▁condition	-8.03734
▁cope	-8.03734
▁fail	-8.03734
▁fill	-8.03734
▁losing	-8.03734
▁smile	-8.03734
▁young	-8.03734
▁barely	-8.05443
▁complete	-8.05443
▁decision	-8.05443
▁eating	-8.05443
▁simply	-8.05443
▁understanding	-8.05443
▁using	-8.05443
▁wait	-8.05443
▁account	-8.07183
▁beautiful	-8.07183
▁chest	-8.07183
▁gratitude	-8.07183
▁hell	-8.07183
▁listening	-8.07183
▁mentally	-8.07183
▁message	-8.07183
▁pushing	-8.07183
▁suck	-8.07183
▁adult	-8.08953
▁amazing	-8.08953
▁comment	-8.08953
▁dying	-8.08953
▁exactly	-8.08953
▁helping	-8.08953
▁late	-8.08953
▁major	-8.08953
▁term	-8.08953
▁watching	-8.08953
▁wondering	-8.08953
▁absolutely	-8.10754
▁apart	-8.10754
▁assignment	-8.10754
▁belief	-8.10754
▁eventually	-8.10754
▁explain	-8.10754
▁heard	-8.10754
▁huge	-8.10754
▁kinda	-8.10754
▁miserable	-8.10754
▁movie	-8.10754
▁quit	-8.10754
▁studying	-8.10754
▁act	-8.12589
▁greater	-8.12589
▁lack	-8.12589
▁saw	-8.12589
▁trust	-8.12589
▁appreciated	-8.14459
▁comfortable	-8.14459
▁fall	-8.14459
▁four	-8.14459
▁numb	-8.14459
▁related	-8.14459
▁release	-8.14459
▁similar	-8.14459
▁sitting	-8.14459
▁truth	-8.14459
▁across	-8.16363
▁anger	-8.16363
▁conversation	-8.16363
▁desire	-8.16363
▁driving	-8.16363
▁gotten	-8.16363
▁known	-8.16363
▁nature	-8.16363
▁pas	-8.16363
▁physically	-8.16363
▁putting	-8.16363
▁somehow	-8.16363
▁turned	-8.16363
▁choose	-8.18305
▁easier	-8.18305
▁fast	-8.18305
▁father	-8.18305
▁headache	-8.18305
▁horrible	-8.18305
▁hospital	-8.18305
▁realized	-8.18305
▁trauma	-8.18305
▁useless	-8.18305
▁alcohol	-8.20285
▁contact	-8.20285
▁failed	-8.20285
▁general	-8.20285
▁lose	-8.20285
▁missing	-8.20285
▁podcasts	-8.20285
▁relief	-8.20285
▁society	-8.20285
▁stand	-8.20285
▁straight	-8.20285
▁tension	-8.20285
▁appreciate	-8.22306
▁born	-8.22306
▁emotionally	-8.22306
▁happier	-8.22306
▁hobby	-8.22306
▁honest	-8.22306
▁list	-8.22306
▁participant	-8.22306
▁several	-8.22306
▁speak	-8.22306
▁terrible	-8.22306
▁upset	-8.22306
▁busy	-8.24368
▁causing	-8.24368
▁current	-8.24368
▁cycle	-8.24368
▁dog	-8.24368
▁fix	-8.24368
▁lie	-8.24368
▁member	-8.24368
▁mess	-8.24368
▁mine	-8.24368
▁opportunity	-8.24368
▁playing	-8.24368
▁ready	-8.24368
▁reduce	-8.24368
▁strong	-8.24368
▁whats	-8.24368
▁anybody	-8.26473
▁app	-8.26473
▁birthday	-8.26473
▁circumstance	-8.26473
▁deserve	-8.26473
▁force	-8.26473
▁order	-8.26473
▁overwhelmed	-8.26473
▁sharing	-8.26473
▁skill	-8.26473
▁water	-8.26473
▁balance	-8.28624
▁dead	-8.28624
▁degree	-8.28624
▁hoping	-8.28624
▁method	-8.28624
▁moved	-8.28624
▁multiple	-8.28624
▁questionnaire	-8.28624
▁relaxing	-8.28624
▁serious	-8.28624
▁session	-8.28624
▁stressing	-8.28624
▁tool	-8.28624
▁visit	-8.28624
▁worrying	-8.28624
▁awful	-8.30822
▁breakdown	-8.30822
▁comfort	-8.30822
▁cost	-8.30822
▁eligible	-8.30822
▁ex	-8.30822
▁finish	-8.30822
▁ive	-8.30822
▁killing	-8.30822
▁manage	-8.30822
▁management	-8.30822
▁noticed	-8.30822
▁overcome	-8.30822
▁relate	-8.30822
▁sign	-8.30822
▁slowly	-8.30822
▁talked	-8.30822
▁build	-8.33069
▁caused	-8.33069
▁front	-8.33069
▁grow	-8.33069
▁growing	-8.33069
▁illness	-8.33069
▁interesting	-8.33069
▁mad	-8.33069
▁number	-8.33069
▁option	-8.33069
▁son	-8.33069
▁begin	-8.35368
▁crazy	-8.35368
▁detail	-8.35368
▁expect	-8.35368
▁final	-8.35368
▁harder	-8.35368
▁oh	-8.35368
▁perspective	-8.35368
▁poor	-8.35368
▁response	-8.35368
▁shitty	-8.35368
▁somewhere	-8.35368
▁system	-8.35368
▁yesterday	-8.35368
▁ability	-8.37721
▁challenge	-8.37721
▁cold	-8.37721
▁coping	-8.37721
▁depressive	-8.37721
▁despite	-8.37721
▁drink	-8.37721
▁easily	-8.37721
▁ended	-8.37721
▁falling	-8.37721
▁fault	-8.37721
▁following	-8.37721
▁growth	-8.37721
▁internet	-8.37721
▁manager	-8.37721
▁mostly	-8.37721
▁opinion	-8.37721
▁perfect	-8.37721
▁supplement	-8.37721
▁task	-8.37721
▁tomorrow	-8.37721
▁uni	-8.37721
▁weak	-8.37721
▁allowed	-8.40131
▁becoming	-8.40131
▁broken	-8.40131
▁bullshit	-8.40131
▁burden	-8.40131
▁computer	-8.40131
▁died	-8.40131
▁knowledge	-8.40131
▁loser	-8.40131
▁main	-8.40131
▁receive	-8.40131
▁screen	-8.40131
▁tv	-8.40131
▁uncomfortable	-8.40131
▁walking	-8.40131
▁weekend	-8.40131
▁although	-8.426
▁area	-8.426
▁attempt	-8.426
▁avoid	-8.426
▁beat	-8.426
▁benefit	-8.426
▁brings	-8.426
▁buy	-8.426
▁drinking	-8.426
▁effort	-8.426
▁faith	-8.426
▁gave	-8.426
▁google	-8.426
▁impossible	-8.426
▁including	-8.426
▁keeping	-8.426
▁lazy	-8.426
▁line	-8.426
▁office	-8.426
▁progress	-8.426
▁relieve	-8.426
▁safe	-8.426
▁special	-8.426
▁spiritual	-8.426
▁tend	-8.426
▁text	-8.426
▁vent	-8.426
▁weight	-8.426
▁affect	-8.45132
▁blood	-8.45132
▁brief	-8.45132
▁dark	-8.45132
▁mention	-8.45132
▁pleasure	-8.45132
▁relax	-8.45132
▁semester	-8.45132
▁source	-8.45132
▁stomach	-8.45132
▁strength	-8.45132
▁struggled	-8.45132
▁toxic	-8.45132
▁wonder	-8.45132
▁breathing	-8.47729
▁chronic	-8.47729
▁community	-8.47729
▁exist	-8.47729
▁experiencing	-8.47729
▁failing	-8.47729
▁helpful	-8.47729
▁nearly	-8.47729
▁passed	-8.47729
▁paying	-8.47729
▁personality	-8.47729
▁shift	-8.47729
▁solution	-8.47729
▁sun	-8.47729
▁totally	-8.47729
▁waking	-8.47729
▁waste	-8.47729
▁wave	-8.47729
▁abuse	-8.50396
▁antidepressant	-8.50396
▁breaking	-8.50396
▁city	-8.50396
▁difference	-8.50396
▁exhausted	-8.50396
▁fighting	-8.50396
▁focused	-8.50396
▁fully	-8.50396
▁gift	-8.50396
▁goosebump	-8.50396
▁hopefully	-8.50396
▁key	-8.50396
▁meditate	-8.50396
▁none	-8.50396
▁obviously	-8.50396
▁partner	-8.50396
▁piece	-8.50396
▁quote	-8.50396
▁regret	-8.50396
▁schedule	-8.50396
▁seriously	-8.50396
▁smart	-8.50396
▁track	-8.50396
▁yeah	-8.50396
▁add	-8.53136
▁anywhere	-8.53136
▁chill	-8.53136
▁defining	-8.53136
▁escape	-8.53136
▁field	-8.53136
▁forced	-8.53136
▁hurting	-8.53136
▁looked	-8.53136
▁program	-8.53136
▁psychiatrist	-8.53136
▁quick	-8.53136
▁r	-8.53136
▁random	-8.53136
▁rant	-8.53136
▁seemed	-8.53136
▁specific	-8.53136
▁suddenly	-8.53136
▁yoga	-8.53136
▁baby	-8.55953
▁chance	-8.55953
▁clean	-8.55953
▁content	-8.55953
▁education	-8.55953
▁environment	-8.55953
▁guilty	-8.55953
▁higher	-8.55953
▁husband	-8.55953
▁meaning	-8.55953
▁middle	-8.55953
▁non	-8.55953
▁older	-8.55953
▁paid	-8.55953
▁platform	-8.55953
▁rate	-8.55953
▁reaction	-8.55953
▁role	-8.55953
▁skin	-8.55953
▁topic	-8.55953
▁value	-8.55953
▁view	-8.55953
▁afford	-8.58852
▁anyways	-8.58852
▁brought	-8.58852
▁case	-8.58852
▁common	-8.58852
▁confidence	-8.58852
▁film	-8.58852
▁immediately	-8.58852
▁laugh	-8.58852
▁painful	-8.58852
▁professional	-8.58852
▁quickly	-8.58852
▁throughout	-8.58852
▁ups	-8.58852
▁apple	-8.61837
▁clear	-8.61837
▁concentrate	-8.61837
▁date	-8.61837
▁email	-8.61837
▁excuse	-8.61837
▁homework	-8.61837
▁letting	-8.61837
▁otherwise	-8.61837
▁routine	-8.61837
▁spotify	-8.61837
▁subject	-8.61837
▁training	-8.61837
▁voice	-8.61837
▁apartment	-8.64914
▁art	-8.64914
▁bill	-8.64914
▁creating	-8.64914
▁dealt	-8.64914
▁develop	-8.64914
▁direction	-8.64914
▁earth	-8.64914
▁embrace	-8.64914
▁except	-8.64914
▁grandma	-8.64914
▁held	-8.64914
▁ill	-8.64914
▁increase	-8.64914
▁insomnia	-8.64914
▁interest	-8.64914
▁loss	-8.64914
▁mum	-8.64914
▁natural	-8.64914
▁quality	-8.64914
▁responsibility	-8.64914
▁running	-8.64914
▁selfish	-8.64914
▁six	-8.64914
▁strategy	-8.64914
▁unable	-8.64914
▁win	-8.64914
▁actual	-8.68089
▁beginning	-8.68089
▁building	-8.68089
▁card	-8.68089
▁created	-8.68089
▁door	-8.68089
▁financial	-8.68089
▁five	-8.68089
▁harm	-8.68089
▁incredibly	-8.68089
▁insecurity	-8.68089
▁joke	-8.68089
▁leaving	-8.68089
▁lol	-8.68089
▁medical	-8.68089
▁meeting	-8.68089
▁men	-8.68089
▁onto	-8.68089
▁rule	-8.68089
▁sex	-8.68089
▁suggestion	-8.68089
▁summer	-8.68089
▁tear	-8.68089
▁treat	-8.68089
▁trouble	-8.68089
▁unless	-8.68089
▁air	-8.71368
▁badly	-8.71368
▁caught	-8.71368
▁changing	-8.71368
▁crap	-8.71368
▁cried	-8.71368
▁damn	-8.71368
▁darkness	-8.71368
▁dr	-8.71368
▁drop	-8.71368
▁e	-8.71368
▁earlier	-8.71368
▁existence	-8.71368
▁explains	-8.71368
▁feedback	-8.71368
▁fresh	-8.71368
▁fucked	-8.71368
▁genuinely	-8.71368
▁greatly	-8.71368
▁lay	-8.71368
▁loneliness	-8.71368
▁powerful	-8.71368
▁psychology	-8.71368
▁trigger	-8.71368
▁began	-8.74758
▁biggest	-8.74758
▁boundary	-8.74758
▁deeper	-8.74758
▁didnt	-8.74758
▁dropped	-8.74758
▁ending	-8.74758
▁extra	-8.74758
▁function	-8.74758
▁heal	-8.74758
▁holding	-8.74758
▁male	-8.74758
▁naturally	-8.74758
▁normally	-8.74758
▁offer	-8.74758
▁public	-8.74758
▁screaming	-8.74758
▁shut	-8.74758
▁spending	-8.74758
▁stage	-8.74758
▁staying	-8.74758
▁team	-8.74758
▁wear	-8.74758
▁worthless	-8.74758
▁animal	-8.78267
▁b	-8.78267
▁bother	-8.78267
▁cancer	-8.78267
▁coffee	-8.78267
▁com	-8.78267
▁consider	-8.78267
▁excited	-8.78267
▁ground	-8.78267
▁inner	-8.78267
▁join	-8.78267
▁liked	-8.78267
▁managed	-8.78267
▁motivated	-8.78267
▁nightmare	-8.78267
▁ocd	-8.78267
▁overwhelming	-8.78267
▁position	-8.78267
▁posting	-8.78267
▁pretending	-8.78267
▁reply	-8.78267
▁speaking	-8.78267
▁tough	-8.78267
▁train	-8.78267
▁travel	-8.78267
▁younger	-8.78267
▁bathroom	-8.81904
▁battle	-8.81904
▁blame	-8.81904
▁cared	-8.81904
▁christmas	-8.81904
▁coach	-8.81904
▁connect	-8.81904
▁dating	-8.81904
▁factor	-8.81904
▁female	-8.81904
▁fit	-8.81904
▁mobile	-8.81904
▁news	-8.81904
▁overall	-8.81904
▁respond	-8.81904
▁rich	-8.81904
▁scary	-8.81904
▁seek	-8.81904
▁sent	-8.81904
▁separately	-8.81904
▁somewhat	-8.81904
▁song	-8.81904
▁throw	-8.81904
▁till	-8.81904
▁twice	-8.81904
▁appointment	-8.85678
▁available	-8.85678
▁beyond	-8.85678
▁bos	-8.85678
▁concept	-8.85678
▁confused	-8.85678
▁cool	-8.85678
▁deeply	-8.85678
▁distress	-8.85678
▁dumb	-8.85678
▁effective	-8.85678
▁everytime	-8.85678
▁filled	-8.85678
▁forever	-8.85678
▁gf	-8.85678
▁guide	-8.85678
▁invited	-8.85678
▁january	-8.85678
▁loving	-8.85678
▁master	-8.85678
▁offering	-8.85678
▁particularly	-8.85678
▁picture	-8.85678
▁pill	-8.85678
▁psychological	-8.85678
▁regularly	-8.85678
▁send	-8.85678
▁series	-8.85678
▁store	-8.85678
▁stranger	-8.85678
▁teach	-8.85678
▁trained	-8.85678
▁unhappy	-8.85678
▁various	-8.85678
▁vision	-8.85678
▁wasted	-8.85678
▁wellbeing	-8.85678
▁alot	-8.896
▁apply	-8.896
▁catch	-8.896
▁chat	-8.896
▁closer	-8.896
▁everywhere	-8.896
▁exact	-8.896
▁fatigue	-8.896
▁frustration	-8.896
▁hated	-8.896
▁intention	-8.896
▁isolation	-8.896
▁luck	-8.896
▁math	-8.896
▁page	-8.896
▁patience	-8.896
▁podcast	-8.896
▁principle	-8.896
▁pushed	-8.896
▁relaxation	-8.896
▁rush	-8.896
▁seeking	-8.896
▁shown	-8.896
▁suffered	-8.896
▁surface	-8.896
▁tonight	-8.896
▁wealth	-8.896
▁willing	-8.896
▁york	-8.896
▁accomplish	-8.93682
▁aspect	-8.93682
▁bought	-8.93682
▁childhood	-8.93682
▁click	-8.93682
▁considered	-8.93682
▁credit	-8.93682
▁decade	-8.93682
▁decide	-8.93682
▁definitely	-8.93682
▁divine	-8.93682
▁english	-8.93682
▁extreme	-8.93682
▁feature	-8.93682
▁figured	-8.93682
▁heavy	-8.93682
▁hole	-8.93682
▁hopeless	-8.93682
▁imagine	-8.93682
▁improvement	-8.93682
▁involved	-8.93682
▁limit	-8.93682
▁loud	-8.93682
▁lucky	-8.93682
▁mindfulness	-8.93682
▁note	-8.93682
▁pre	-8.93682
▁productive	-8.93682
▁properly	-8.93682
▁realised	-8.93682
▁refuse	-8.93682
▁service	-8.93682
▁slow	-8.93682
▁smoking	-8.93682
▁spirit	-8.93682
▁sport	-8.93682
▁subconscious	-8.93682
▁tho	-8.93682
▁touch	-8.93682
▁trash	-8.93682
▁unfortunately	-8.93682
▁accident	-8.97938
▁acting	-8.97938
▁addiction	-8.97938
▁among	-8.97938
▁annoying	-8.97938
▁applied	-8.97938
▁asleep	-8.97938
▁attitude	-8.97938
▁blue	-8.97938
▁bottom	-8.97938
▁bright	-8.97938
▁certainly	-8.97938
▁clinician	-8.97938
▁creative	-8.97938
▁doubt	-8.97938
▁express	-8.97938
▁external	-8.97938
▁frustrated	-8.97938
▁hang	-8.97938
▁holiday	-8.97938
▁hug	-8.97938
▁intense	-8.97938
▁killed	-8.97938
▁latest	-8.97938
▁lockdown	-8.97938
▁material	-8.97938
▁mechanism	-8.97938
▁misery	-8.97938
▁paper	-8.97938
▁passionate	-8.97938
▁possibly	-8.97938
▁realise	-8.97938
▁recognize	-8.97938
▁rent	-8.97938
▁resource	-8.97938
▁ruined	-8.97938
▁sensation	-8.97938
▁sexual	-8.97938
▁stick	-8.97938
▁stressor	-8.97938
▁supportive	-8.97938
▁syndrome	-8.97938
▁title	-8.97938
▁valid	-8.97938
▁wall	-8.97938
▁wont	-8.97938
▁worker	-8.97938
▁xanax	-8.97938
▁abusive	-9.02384
▁accepting	-9.02384
▁addition	-9.02384
▁apparently	-9.02384
▁arm	-9.02384
▁author	-9.02384
▁basic	-9.02384
▁blog	-9.02384
▁bunch	-9.02384
▁calling	-9.02384
▁character	-9.02384
▁compare	-9.02384
▁considering	-9.02384
▁courage	-9.02384
▁decent	-9.02384
▁disappointed	-9.02384
▁dollar	-9.02384
▁ego	-9.02384
▁evening	-9.02384
▁everybody	-9.02384
▁exhausting	-9.02384
▁facing	-9.02384
▁floor	-9.02384
▁friendship	-9.02384
▁hitting	-9.02384
▁ignore	-9.02384
▁jump	-9.02384
▁leg	-9.02384
▁lesson	-9.02384
▁married	-9.02384
▁novel	-9.02384
▁participate	-9.02384
▁per	-9.02384
▁provide	-9.02384
▁psychologist	-9.02384
▁react	-9.02384
▁repeat	-9.02384
▁secret	-9.02384
▁sibling	-9.02384
▁sky	-9.02384
▁sudden	-9.02384
▁teeth	-9.02384
▁ugly	-9.02384
▁zone	-9.02384
▁agree	-9.07036
▁allows	-9.07036
▁aside	-9.07036
▁becomes	-9.07036
▁bringing	-9.07036
▁celebrate	-9.07036
▁channel	-9.07036
▁closed	-9.07036
▁clothes	-9.07036
▁columbia	-9.07036
▁compassion	-9.07036
▁compensated	-9.07036
▁coronavirus	-9.07036
▁edit	-9.07036
▁fake	-9.07036
▁finished	-9.07036
▁fog	-9.07036
▁foot	-9.07036
▁forgot	-9.07036
▁generally	-9.07036
▁greatest	-9.07036
▁happinessnow	-9.07036
▁influence	-9.07036
▁journal	-9.07036
▁judge	-9.07036
▁judging	-9.07036
▁leading	-9.07036
▁led	-9.07036
▁missed	-9.07036
▁near	-9.07036
▁noise	-9.07036
▁opposite	-9.07036
▁overthinking	-9.07036
▁p	-9.07036
▁pop	-9.07036
▁realizing	-9.07036
▁rid	-9.07036
▁road	-9.07036
▁science	-9.07036
▁shoulder	-9.07036
▁showing	-9.07036
▁significant	-9.07036
▁solve	-9.07036
▁succeed	-9.07036
▁uk	-9.07036
▁ultimately	-9.07036
▁useful	-9.07036
▁absolute	-9.11915
▁access	-9.11915
▁achieving	-9.11915
▁anti	-9.11915
▁approach	-9.11915
▁attractive	-9.11915
▁burnt	-9.11915
▁client	-9.11915
▁connected	-9.11915
▁connection	-9.11915
▁conscious	-9.11915
▁daughter	-9.11915
▁development	-9.11915
▁discus	-9.11915
▁ease	-9.11915
▁edge	-9.11915
▁enjoying	-9.11915
▁existing	-9.11915
▁favorite	-9.11915
▁followed	-9.11915
▁graduated	-9.11915
▁hide	-9.11915
▁history	-9.11915
▁industry	-9.11915
▁innovative	-9.11915
▁internal	-9.11915
▁judgement	-9.11915
▁kindness	-9.11915
▁mainly	-9.11915
▁mg	-9.11915
▁nowhere	-9.11915
▁planning	-9.11915
▁plus	-9.11915
▁popular	-9.11915
▁previous	-9.11915
▁pursue	-9.11915
▁raise	-9.11915
▁recent	-9.11915
▁recommend	-9.11915
▁relaxed	-9.11915
▁rn	-9.11915
▁shape	-9.11915
▁shared	-9.11915
▁soothing	-9.11915
▁specially	-9.11915
▁table	-9.11915
▁telehealth	-9.11915
▁tl	-9.11915
▁usual	-9.11915
▁utilize	-9.11915
▁vulnerable	-9.11915
▁wow	-9.11915
▁yorkers	-9.11915
▁zoom	-9.11915
▁accepted	-9.17044
▁acknowledge	-9.17044
▁adhd	-9.17044
▁alternative	-9.17044
▁annoyed	-9.17044
▁argument	-9.17044
▁bank	-9.17044
▁behaviour	-9.17044
▁besides	-9.17044
▁blocked	-9.17044
▁checked	-9.17044
▁consequence	-9.17044
▁customer	-9.17044
▁diet	-9.17044
▁distance	-9.17044
▁essay	-9.17044
▁esteem	-9.17044
▁fell	-9.17044
▁funny	-9.17044
▁green	-9.17044
▁likely	-9.17044
▁loan	-9.17044
▁local	-9.17044
▁maintain	-9.17044
▁mask	-9.17044
▁mid	-9.17044
▁nervous	-9.17044
▁ourself	-9.17044
▁painting	-9.17044
▁particular	-9.17044
▁performance	-9.17044
▁pray	-9.17044
▁presence	-9.17044
▁private	-9.17044
▁produce	-9.17044
▁prove	-9.17044
▁pull	-9.17044
▁quiet	-9.17044
▁realization	-9.17044
▁regular	-9.17044
▁return	-9.17044
▁root	-9.17044
▁scare	-9.17044
▁shake	-9.17044
▁shower	-9.17044
▁stronger	-9.17044
▁sweet	-9.17044
▁thus	-9.17044
▁turning	-9.17044
▁version	-9.17044
▁welcome	-9.17044
▁zero	-9.17044
▁added	-9.22451
▁ahead	-9.22451
▁allowing	-9.22451
▁application	-9.22451
▁bc	-9.22451
▁boring	-9.22451
▁center	-9.22451
▁chose	-9.22451
▁church	-9.22451
▁conditioned	-9.22451
▁contribute	-9.22451
▁convince	-9.22451
▁cover	-9.22451
▁curious	-9.22451
▁cutting	-9.22451
▁data	-9.22451
▁debt	-9.22451
▁define	-9.22451
▁diary	-9.22451
▁disease	-9.22451
▁distant	-9.22451
▁doesnt	-9.22451
▁dramatic	-9.22451
▁driven	-9.22451
▁financially	-9.22451
▁folk	-9.22451
▁grab	-9.22451
▁grew	-9.22451
▁hardly	-9.22451
▁imposter	-9.22451
▁income	-9.22451
▁lift	-9.22451
▁load	-9.22451
▁meal	-9.22451
▁medicine	-9.22451
▁meditating	-9.22451
▁mindful	-9.22451
▁passing	-9.22451
▁piano	-9.22451
▁planet	-9.22451
▁prepared	-9.22451
▁prevent	-9.22451
▁prior	-9.22451
▁ptsd	-9.22451
▁respect	-9.22451
▁rise	-9.22451
▁roof	-9.22451
▁smoke	-9.22451
▁sober	-9.22451
▁sometime	-9.22451
▁specifically	-9.22451
▁spirituality	-9.22451
▁subreddit	-9.22451
▁teaching	-9.22451
▁teenager	-9.22451
▁third	-9.22451
▁trip	-9.22451
▁vacation	-9.22451
▁venting	-9.22451
▁ward	-9.22451
▁white	-9.22451
▁wrote	-9.22451
▁achievement	-9.28166
▁advance	-9.28166
▁affection	-9.28166
▁alice	-9.28166
▁attached	-9.28166
▁average	-9.28166
▁background	-9.28166
▁bipolar	-9.28166
▁bitch	-9.28166
▁built	-9.28166
▁caring	-9.28166
▁chi	-9.28166
▁clue	-9.28166
▁commit	-9.28166
▁compared	-9.28166
▁conclusion	-9.28166
▁crisis	-9.28166
▁differently	-9.28166
▁drawing	-9.28166
▁drunk	-9.28166
▁ear	-9.28166
▁empathy	-9.28166
▁explaining	-9.28166
▁extended	-9.28166
▁graduate	-9.28166
▁grown	-9.28166
▁hanging	-9.28166
▁hearing	-9.28166
▁highschool	-9.28166
▁identity	-9.28166
▁inspiration	-9.28166
▁instant	-9.28166
▁journaling	-9.28166
▁leaf	-9.28166
▁lying	-9.28166
▁managing	-9.28166
▁massive	-9.28166
▁monday	-9.28166
▁neither	-9.28166
▁nurse	-9.28166
▁outcome	-9.28166
▁party	-9.28166
▁pattern	-9.28166
▁perform	-9.28166
▁pet	-9.28166
▁philosophy	-9.28166
▁pick	-9.28166
▁planned	-9.28166
▁porn	-9.28166
▁posted	-9.28166
▁product	-9.28166
▁pure	-9.28166
▁reaching	-9.28166
▁retail	-9.28166
▁rising	-9.28166
▁roommate	-9.28166
▁roosh	-9.28166
▁save	-9.28166
▁senior	-9.28166
▁slept	-9.28166
▁smiling	-9.28166
▁spoken	-9.28166
▁taught	-9.28166
▁thousand	-9.28166
▁trans	-9.28166
▁treated	-9.28166
▁unhealthy	-9.28166
▁war	-9.28166
▁wisdom	-9.28166
▁withdrawal	-9.28166
▁yelling	-9.28166
▁abused	-9.34229
▁appetite	-9.34229
▁authentic	-9.34229
▁basis	-9.34229
▁blessing	-9.34229
▁boy	-9.34229
▁calendar	-9.34229
▁calming	-9.34229
▁capable	-9.34229
▁challenging	-9.34229
▁chemical	-9.34229
▁combination	-9.34229
▁context	-9.34229
▁countless	-9.34229
▁craft	-9.34229
▁cuz	-9.34229
▁difficulty	-9.34229
▁disappear	-9.34229
▁disappointment	-9.34229
▁drag	-9.34229
▁draw	-9.34229
▁employee	-9.34229
▁emptiness	-9.34229
▁euphoria	-9.34229
▁fire	-9.34229
▁grief	-9.34229
▁guilt	-9.34229
▁healthier	-9.34229
▁increased	-9.34229
▁insane	-9.34229
▁jaw	-9.34229
▁jumping	-9.34229
▁large	-9.34229
▁lasted	-9.34229
▁march	-9.34229
▁mentioned	-9.34229
▁messed	-9.34229
▁min	-9.34229
▁motivate	-9.34229
▁mri	-9.34229
▁muscle	-9.34229
▁participation	-9.34229
▁perhaps	-9.34229
▁plant	-9.34229
▁pm	-9.34229
▁quitting	-9.34229
▁radical	-9.34229
▁reached	-9.34229
▁resolve	-9.34229
▁review	-9.34229
▁rock	-9.34229
▁rude	-9.34229
▁saved	-9.34229
▁saving	-9.34229
▁season	-9.34229
▁setting	-9.34229
▁severely	-9.34229
▁spot	-9.34229
▁spring	-9.34229
▁stable	-9.34229
▁tbh	-9.34229
▁terrified	-9.34229
▁tight	-9.34229
▁trick	-9.34229
▁urge	-9.34229
▁wise	-9.34229
▁woke	-9.34229
▁x	-9.34229
▁youth	-9.34229
▁abundance	-9.40683
▁achieved	-9.40683
▁affecting	-9.40683
▁anonymous	-9.40683
▁applying	-9.40683
▁asshole	-9.40683
▁atleast	-9.40683
▁aura	-9.40683
▁autism	-9.40683
▁beloved	-9.40683
▁bf	-9.40683
▁bigger	-9.40683
▁blind	-9.40683
▁block	-9.40683
▁bored	-9.40683
▁bottle	-9.40683
▁brand	-9.40683
▁clearly	-9.40683
▁complain	-9.40683
▁completed	-9.40683
▁confident	-9.40683
▁consume	-9.40683
▁cure	-9.40683
▁deadline	-9.40683
▁december	-9.40683
▁discover	-9.40683
▁embracing	-9.40683
▁expected	-9.40683
▁finger	-9.40683
▁freaking	-9.40683
▁gas	-9.40683
▁gentle	-9.40683
▁gotta	-9.40683
▁guidance	-9.40683
▁gym	-9.40683
▁hiding	-9.40683
▁hormone	-9.40683
▁hung	-9.40683
▁info	-9.40683
▁instagram	-9.40683
▁insurance	-9.40683
▁interaction	-9.40683
▁lovely	-9.40683
▁majority	-9.40683
▁marriage	-9.40683
▁minor	-9.40683
▁necessary	-9.40683
▁neck	-9.40683
▁negativity	-9.40683
▁nerve	-9.40683
▁noticing	-9.40683
▁obvious	-9.40683
▁pathetic	-9.40683
▁payment	-9.40683
▁perception	-9.40683
▁police	-9.40683
▁political	-9.40683
▁potential	-9.40683
▁practicing	-9.40683
▁prana	-9.40683
▁prescribed	-9.40683
▁quarantine	-9.40683
▁ran	-9.40683
▁rare	-9.40683
▁recovered	-9.40683
▁ride	-9.40683
▁satisfaction	-9.40683
▁shaking	-9.40683
▁site	-9.40683
▁smell	-9.40683
▁socially	-9.40683
▁spare	-9.40683
▁spoke	-9.40683
▁supported	-9.40683
▁surrounded	-9.40683
▁taste	-9.40683
▁tendency	-9.40683
▁ton	-9.40683
▁town	-9.40683
▁tracking	-9.40683
▁tunnel	-9.40683
▁uncle	-9.40683
▁understands	-9.40683
▁vitamin	-9.40683
▁website	-9.40683
▁weed	-9.40683
▁accomplishment	-9.47582
▁addict	-9.47582
▁admit	-9.47582
▁affirmation	-9.47582
▁anytime	-9.47582
▁artist	-9.47582
▁attend	-9.47582
▁behavior	-9.47582
▁believed	-9.47582
▁chaos	-9.47582
▁club	-9.47582
▁commitment	-9.47582
▁concerned	-9.47582
▁count	-9.47582
▁damaged	-9.47582
▁delete	-9.47582
▁depressing	-9.47582
▁describe	-9.47582
▁designed	-9.47582
▁developing	-9.47582
▁disgusting	-9.47582
▁drowning	-9.47582
▁entrepreneur	-9.47582
▁essentially	-9.47582
▁f	-9.47582
▁forth	-9.47582
▁fortunate	-9.47582
▁fulfilling	-9.47582
▁gaming	-9.47582
▁gathering	-9.47582
▁graduating	-9.47582
▁gun	-9.47582
▁happiest	-9.47582
▁ignored	-9.47582
▁immune	-9.47582
▁improved	-9.47582
▁include	-9.47582
▁infinite	-9.47582
▁jesus	-9.47582
▁john	-9.47582
▁joined	-9.47582
▁language	-9.47582
▁law	-9.47582
▁laying	-9.47582
▁license	-9.47582
▁loop	-9.47582
▁magic	-9.47582
▁map	-9.47582
▁melody	-9.47582
▁michael	-9.47582
▁mile	-9.47582
▁minded	-9.47582
▁movement	-9.47582
▁mud	-9.47582
▁occasionally	-9.47582
▁pause	-9.47582
▁peaceful	-9.47582
▁personally	-9.47582
▁played	-9.47582
▁psych	-9.47582
▁raised	-9.47582
▁received	-9.47582
▁recovering	-9.47582
▁released	-9.47582
▁reward	-9.47582
▁risk	-9.47582
▁score	-9.47582
▁scream	-9.47582
▁section	-9.47582
▁sensitive	-9.47582
▁shame	-9.47582
▁slip	-9.47582
▁somebody	-9.47582
▁standard	-9.47582
▁sub	-9.47582
▁sunshine	-9.47582
▁supervisor	-9.47582
▁swear	-9.47582
▁ten	-9.47582
▁tiny	-9.47582
▁understood	-9.47582
▁unique	-9.47582
▁violent	-9.47582
▁walked	-9.47582
▁weakness	-9.47582
▁wearing	-9.47582
▁worthy	-9.47582
▁acceptance	-9.54993
▁ache	-9.54993
▁affected	-9.54993
▁alarm	-9.54993
▁april	-9.54993
▁assumption	-9.54993
▁awkward	-9.54993
▁bag	-9.54993
▁ball	-9.54993
▁bear	-9.54993
▁beauty	-9.54993
▁bothering	-9.54993
▁buying	-9.54993
▁c	-9.54993
▁capacity	-9.54993
▁co	-9.54993
▁complaining	-9.54993
▁continues	-9.54993
▁convinced	-9.54993
▁core	-9.54993
▁correct	-9.54993
▁counselor	-9.54993
▁creation	-9.54993
▁culture	-9.54993
▁dinner	-9.54993
▁directly	-9.54993
▁director	-9.54993
▁distract	-9.54993
▁dull	-9.54993
▁ecstasy	-9.54993
▁editing	-9.54993
▁endless	-9.54993
▁enemy	-9.54993
▁flow	-9.54993
▁forum	-9.54993
▁freedom	-9.54993
▁frequently	-9.54993
▁gain	-9.54993
▁helpless	-9.54993
▁highest	-9.54993
▁homeless	-9.54993
▁imagining	-9.54993
▁injury	-9.54993
▁insight	-9.54993
▁inspire	-9.54993
▁isnt	-9.54993
▁judged	-9.54993
▁mild	-9.54993
▁monster	-9.54993
▁mouth	-9.54993
▁neurologist	-9.54993
▁ocean	-9.54993
▁organization	-9.54993
▁organized	-9.54993
▁phase	-9.54993
▁plate	-9.54993
▁pleasing	-9.54993
▁pretend	-9.54993
▁productivity	-9.54993
▁professor	-9.54993
▁profile	-9.54993
▁recover	-9.54993
▁regarding	-9.54993
▁remind	-9.54993
▁report	-9.54993
▁rough	-9.54993
▁sale	-9.54993
▁searching	-9.54993
▁shining	-9.54993
▁shot	-9.54993
▁silence	-9.54993
▁silent	-9.54993
▁speed	-9.54993
▁stayed	-9.54993
▁suggested	-9.54993
▁survive	-9.54993
▁swept	-9.54993
▁tested	-9.54993
▁throwing	-9.54993
▁total	-9.54993
▁trial	-9.54993
▁tutorial	-9.54993
▁typing	-9.54993
▁unmotivated	-9.54993
▁virus	-9.54993
▁voluntary	-9.54993
▁warm	-9.54993
▁weather	-9.54993
▁wheel	-9.54993
▁window	-9.54993
▁wonderful	-9.54993
▁yell	-9.54993
▁abby	-9.62997
▁accomplished	-9.62997
▁active	-9.62997
▁afterwards	-9.62997
▁agreed	-9.62997
▁apps	-9.62997
▁awesome	-9.62997
▁bite	-9.62997
▁black	-9.62997
▁bothered	-9.62997
▁bpd	-9.62997
▁burn	-9.62997
▁chase	-9.62997
▁cheap	-9.62997
▁claim	-9.62997
▁cleaning	-9.62997
▁communicate	-9.62997
▁concentration	-9.62997
▁connecting	-9.62997
▁consistent	-9.62997
▁continuing	-9.62997
▁damage	-9.62997
▁dedication	-9.62997
▁desperate	-9.62997
▁desperately	-9.62997
▁destroyed	-9.62997
▁developed	-9.62997
▁dick	-9.62997
▁discovered	-9.62997
▁dose	-9.62997
▁drained	-9.62997
▁effectively	-9.62997
▁evil	-9.62997
▁exercising	-9.62997
▁expert	-9.62997
▁finance	-9.62997
▁fixed	-9.62997
▁fkn	-9.62997
▁fold	-9.62997
▁frustrating	-9.62997
▁functioning	-9.62997
▁fundraiser	-9.62997
▁gained	-9.62997
▁garbage	-9.62997
▁gate	-9.62997
▁glad	-9.62997
▁gmail	-9.62997
▁government	-9.62997
▁grandmother	-9.62997
▁hardest	-9.62997
▁hardship	-9.62997
▁highly	-9.62997
▁hoped	-9.62997
▁identify	-9.62997
▁ignoring	-9.62997
▁importance	-9.62997
▁independent	-9.62997
▁inevitable	-9.62997
▁insanely	-9.62997
▁instantly	-9.62997
▁invite	-9.62997
▁jealous	-9.62997
▁jeremy	-9.62997
▁kick	-9.62997
▁knife	-9.62997
▁l	-9.62997
▁laptop	-9.62997
▁laughing	-9.62997
▁letter	-9.62997
▁lo	-9.62997
▁mana	-9.62997
▁mark	-9.62997
▁mentor	-9.62997
▁minimum	-9.62997
▁mix	-9.62997
▁mode	-9.62997
▁necessarily	-9.62997
▁nowadays	-9.62997
▁numbness	-9.62997
▁opened	-9.62997
▁permission	-9.62997
▁pile	-9.62997
▁plenty	-9.62997
▁racing	-9.62997
▁rarely	-9.62997
▁recipe	-9.62997
▁religious	-9.62997
▁remove	-9.62997
▁replace	-9.62997
▁restriction	-9.62997
▁returning	-9.62997
▁sat	-9.62997
▁screwed	-9.62997
▁selling	-9.62997
▁shine	-9.62997
▁slightly	-9.62997
▁solely	-9.62997
▁specialist	-9.62997
▁stopping	-9.62997
▁surely	-9.62997
▁surgery	-9.62997
▁talent	-9.62997
▁temporary	-9.62997
▁tiring	-9.62997
▁tldr	-9.62997
▁touched	-9.62997
▁trapped	-9.62997
▁unknown	-9.62997
▁vice	-9.62997
▁victory	-9.62997
▁vulnerability	-9.62997
▁wind	-9.62997
▁winter	-9.62997
▁wishing	-9.62997
▁accountable	-9.71698
▁advantage	-9.71698
▁ambitious	-9.71698
▁argue	-9.71698
▁avoiding	-9.71698
▁awake	-9.71698
▁awhile	-9.71698
▁beating	-9.71698
▁bike	-9.71698
▁bird	-9.71698
▁blaming	-9.71698
▁bridge	-9.71698
▁bullied	-9.71698
▁burst	-9.71698
▁bus	-9.71698
▁charge	-9.71698
▁chosen	-9.71698
▁cigarette	-9.71698
▁cloud	-9.71698
▁color	-9.71698
▁communication	-9.71698
▁consideration	-9.71698
▁coward	-9.71698
▁coworker	-9.71698
▁creator	-9.71698
▁critical	-9.71698
▁criticism	-9.71698
▁crowd	-9.71698
▁cured	-9.71698
▁dear	-9.71698
▁department	-9.71698
▁detached	-9.71698
▁diagnosis	-9.71698
▁discussion	-9.71698
▁distracted	-9.71698
▁dorm	-9.71698
▁drama	-9.71698
▁earning	-9.71698
▁encouraged	-9.71698
▁engage	-9.71698
▁essential	-9.71698
▁everyones	-9.71698
▁exhale	-9.71698
▁expecting	-9.71698
▁exploring	-9.71698
▁fair	-9.71698
▁fairly	-9.71698
▁false	-9.71698
▁feed	-9.71698
▁fi	-9.71698
▁finishing	-9.71698
▁flip	-9.71698
▁hating	-9.71698
▁hot	-9.71698
▁ideal	-9.71698
▁idiot	-9.71698
▁ielts	-9.71698
▁improving	-9.71698
▁inspiring	-9.71698
▁irl	-9.71698
▁item	-9.71698
▁lasting	-9.71698
▁launched	-9.71698
▁lexapro	-9.71698
▁limiting	-9.71698
▁lung	-9.71698
▁manipulate	-9.71698
▁market	-9.71698
▁measure	-9.71698
▁negatively	-9.71698
▁november	-9.71698
▁offered	-9.71698
▁patient	-9.71698
▁perfectly	-9.71698
▁perseverance	-9.71698
▁photo	-9.71698
▁pillar	-9.71698
▁possibility	-9.71698
▁price	-9.71698
▁psychotic	-9.71698
▁qi	-9.71698
▁rapture	-9.71698
▁recognise	-9.71698
▁record	-9.71698
▁reflect	-9.71698
▁regardless	-9.71698
▁reminds	-9.71698
▁request	-9.71698
▁require	-9.71698
▁row	-9.71698
▁ruin	-9.71698
▁rushing	-9.71698
▁sadly	-9.71698
▁scale	-9.71698
▁schoolwork	-9.71698
▁shorter	-9.71698
▁smarter	-9.71698
▁snap	-9.71698
▁snapped	-9.71698
▁statement	-9.71698
▁stepped	-9.71698
▁streaming	-9.71698
▁street	-9.71698
▁stroke	-9.71698
▁strongly	-9.71698
▁stutter	-9.71698
▁suggest	-9.71698
▁surprise	-9.71698
▁teen	-9.71698
▁throat	-9.71698
▁toll	-9.71698
▁toward	-9.71698
▁traumatic	-9.71698
▁triggered	-9.71698
▁ugh	-9.71698
▁user	-9.71698
▁via	-9.71698
▁victim	-9.71698
▁volunteer	-9.71698
▁wasting	-9.71698
▁writer	-9.71698
▁abrupt	-9.81229
▁according	-9.81229
▁accountability	-9.81229
▁ad	-9.81229
▁adrenaline	-9.81229
▁aim	-9.81229
▁album	-9.81229
▁alright	-9.81229
▁answered	-9.81229
▁august	-9.81229
▁autistic	-9.81229
▁bald	-9.81229
▁beg	-9.81229
▁betty	-9.81229
▁board	-9.81229
▁boost	-9.81229
▁burning	-9.81229
▁caffeine	-9.81229
▁cake	-9.81229
▁carry	-9.81229
▁cat	-9.81229
▁cell	-9.81229
▁ceo	-9.81229
▁challenged	-9.81229
▁charity	-9.81229
▁chore	-9.81229
▁cicely	-9.81229
▁colleague	-9.81229
▁consuming	-9.81229
▁controlled	-9.81229
▁corner	-9.81229
▁crippling	-9.81229
▁cup	-9.81229
▁demon	-9.81229
▁despair	-9.81229
▁destination	-9.81229
▁diabetes	-9.81229
▁distraction	-9.81229
▁divorced	-9.81229
▁dm	-9.81229
▁draining	-9.81229
▁dread	-9.81229
▁driver	-9.81229
▁eliminate	-9.81229
▁embarrassed	-9.81229
▁energetic	-9.81229
▁engaged	-9.81229
▁engineering	-9.81229
▁enjoyment	-9.81229
▁excess	-9.81229
▁excitement	-9.81229
▁expressing	-9.81229
▁extent	-9.81229
▁faking	-9.81229
▁fat	-9.81229
▁favour	-9.81229
▁fired	-9.81229
▁flat	-9.81229
▁foundation	-9.81229
▁freak	-9.81229
▁friendly	-9.81229
▁fund	-9.81229
▁gender	-9.81229
▁gpa	-9.81229
▁grandpa	-9.81229
▁guided	-9.81229
▁harmful	-9.81229
▁havent	-9.81229
▁healthcare	-9.81229
▁humanity	-9.81229
▁hungry	-9.81229
▁ideation	-9.81229
▁illusion	-9.81229
▁impacted	-9.81229
▁initially	-9.81229
▁interact	-9.81229
▁isolated	-9.81229
▁j	-9.81229
▁junk	-9.81229
▁lifestyle	-9.81229
▁lightheadedness	-9.81229
▁linear	-9.81229
▁linked	-9.81229
▁longevity	-9.81229
▁lunch	-9.81229
▁maintaining	-9.81229
▁marketing	-9.81229
▁modern	-9.81229
▁nausea	-9.81229
▁nauseous	-9.81229
▁neglect	-9.81229
▁observe	-9.81229
▁october	-9.81229
▁opening	-9.81229
▁optimistic	-9.81229
▁orange	-9.81229
▁originally	-9.81229
▁paint	-9.81229
▁pass	-9.81229
▁picking	-9.81229
▁pit	-9.81229
▁pointless	-9.81229
▁ppl	-9.81229
▁pregnancy	-9.81229
▁prepare	-9.81229
▁promotion	-9.81229
▁provides	-9.81229
▁punch	-9.81229
▁receiving	-9.81229
▁recognizing	-9.81229
▁red	-9.81229
▁resilience	-9.81229
▁screamed	-9.81229
▁screw	-9.81229
▁seasonal	-9.81229
▁seed	-9.81229
▁sell	-9.81229
▁sentence	-9.81229
▁server	-9.81229
▁shooting	-9.81229
▁solving	-9.81229
▁spark	-9.81229
▁speaker	-9.81229
▁spiral	-9.81229
▁spotlight	-9.81229
▁sticking	-9.81229
▁storm	-9.81229
▁sunday	-9.81229
▁sunny	-9.81229
▁suppose	-9.81229
▁surprised	-9.81229
▁tends	-9.81229
▁thankful	-9.81229
▁therefore	-9.81229
▁tw	-9.81229
▁unit	-9.81229
▁upon	-9.81229
▁vibe	-9.81229
▁visited	-9.81229
▁whose	-9.81229
▁wide	-9.81229
▁wound	-9.81229
▁www	-9.81229
▁adding	-9.91765
▁adulthood	-9.91765
▁ambition	-9.91765
▁anhedonia	-9.91765
▁answering	-9.91765
▁apologize	-9.91765
▁approval	-9.91765
▁approved	-9.91765
▁ashamed	-9.91765
▁asks	-9.91765
▁associate	-9.91765
▁assume	-9.91765
▁ate	-9.91765
▁attain	-9.91765
▁attempted	-9.91765
▁attraction	-9.91765
▁bedroom	-9.91765
▁begged	-9.91765
▁belong	-9.91765
▁bhagavan	-9.91765
▁birth	-9.91765
▁bliss	-9.91765
▁bloom	-9.91765
▁buck	-9.91765
▁bucket	-9.91765
▁bum	-9.91765
▁cage	-9.91765
▁catastrophic	-9.91765
▁chapter	-9.91765
▁chasing	-9.91765
▁checking	-9.91765
▁clarity	-9.91765
▁clip	-9.91765
▁coaching	-9.91765
▁cognitive	-9.91765
▁complex	-9.91765
▁complicated	-9.91765
▁conducting	-9.91765
▁confront	-9.91765
▁cook	-9.91765
▁cortisol	-9.91765
▁counseling	-9.91765
▁court	-9.91765
▁creativity	-9.91765
▁crush	-9.91765
▁dedicated	-9.91765
▁delay	-9.91765
▁delivered	-9.91765
▁depend	-9.91765
▁depth	-9.91765
▁determine	-9.91765
▁dirty	-9.91765
▁discord	-9.91765
▁drain	-9.91765
▁dry	-9.91765
▁entered	-9.91765
▁entirely	-9.91765
▁evidence	-9.91765
▁examining	-9.91765
▁explanation	-9.91765
▁explode	-9.91765
▁facebook	-9.91765
▁faced	-9.91765
▁fallen	-9.91765
▁famous	-9.91765
▁fantastic	-9.91765
▁filling	-9.91765
▁flash	-9.91765
▁follows	-9.91765
▁forgotten	-9.91765
▁freshman	-9.91765
▁friday	-9.91765
▁grad	-9.91765
▁greatness	-9.91765
▁grounded	-9.91765
▁gut	-9.91765
▁h	-9.91765
▁harming	-9.91765
▁hence	-9.91765
▁hundred	-9.91765
▁ignorant	-9.91765
▁immediate	-9.91765
▁incredible	-9.91765
▁insecure	-9.91765
▁intervention	-9.91765
▁intrusive	-9.91765
▁july	-9.91765
▁kicked	-9.91765
▁knocked	-9.91765
▁lb	-9.91765
▁lifetime	-9.91765
▁limited	-9.91765
▁lined	-9.91765
▁locked	-9.91765
▁lyme	-9.91765
▁meaningful	-9.91765
▁minimal	-9.91765
▁mixed	-9.91765
▁model	-9.91765
▁narcissistic	-9.91765
▁nephesch	-9.91765
▁numerous	-9.91765
▁ob	-9.91765
▁obsessing	-9.91765
▁obsessive	-9.91765
▁occurred	-9.91765
▁odd	-9.91765
▁oil	-9.91765
▁opposed	-9.91765
▁optimism	-9.91765
▁owner	-9.91765
▁paranoid	-9.91765
▁peer	-9.91765
▁persistence	-9.91765
▁physiological	-9.91765
▁picked	-9.91765
▁press	-9.91765
▁probability	-9.91765
▁progression	-9.91765
▁psyche	-9.91765
▁race	-9.91765
▁randomly	-9.91765
▁rash	-9.91765
▁realisation	-9.91765
▁realistically	-9.91765
▁reminded	-9.91765
▁removed	-9.91765
▁replaced	-9.91765
▁replied	-9.91765
▁restaurant	-9.91765
▁ringing	-9.91765
▁ruah	-9.91765
▁scan	-9.91765
▁scrolling	-9.91765
▁sea	-9.91765
▁search	-9.91765
▁sending	-9.91765
▁sharp	-9.91765
▁shell	-9.91765
▁shop	-9.91765
▁shy	-9.91765
▁silly	-9.91765
▁smallest	-9.91765
▁socialize	-9.91765
▁sooner	-9.91765
▁sore	-9.91765
▁sri	-9.91765
▁status	-9.91765
▁strict	-9.91765
▁swim	-9.91765
▁switch	-9.91765
▁teenage	-9.91765
▁thread	-9.91765
▁threw	-9.91765
▁toilet	-9.91765
▁trait	-9.91765
▁triggering	-9.91765
▁twitch	-9.91765
▁twitter	-9.91765
▁typically	-9.91765
▁unemployed	-9.91765
▁ungrateful	-9.91765
▁unnecessary	-9.91765
▁update	-9.91765
▁visual	-9.91765
▁vital	-9.91765
▁warmth	-9.91765
▁whilst	-9.91765
▁winner	-9.91765
▁wished	-9.91765
▁workload	-9.91765
▁abuser	-10.0354
▁actively	-10.0354
▁addicted	-10.0354
▁adopt	-10.0354
▁agony	-10.0354
▁alleviate	-10.0354
▁amsterdam	-10.0354
▁appear	-10.0354
▁appreciation	-10.0354
▁arguing	-10.0354
▁arise	-10.0354
▁arrive	-10.0354
▁ascension	-10.0354
▁assuming	-10.0354
▁aunt	-10.0354
▁automatically	-10.0354
▁autopilot	-10.0354
▁backwards	-10.0354
▁band	-10.0354
▁begun	-10.0354
▁bell	-10.0354
▁blamed	-10.0354
▁blocking	-10.0354
▁breakfast	-10.0354
▁breathwork	-10.0354
▁btw	-10.0354
▁bully	-10.0354
▁burned	-10.0354
▁canada	-10.0354
▁cancelled	-10.0354
▁candle	-10.0354
▁cbt	-10.0354
▁cheat	-10.0354
▁cheating	-10.0354
▁circle	-10.0354
▁clench	-10.0354
▁climbing	-10.0354
▁clinical	-10.0354
▁clock	-10.0354
▁collection	-10.0354
▁commute	-10.0354
▁compassionate	-10.0354
▁compound	-10.0354
▁concern	-10.0354
▁conference	-10.0354
▁conflict	-10.0354
▁consciousness	-10.0354
▁consistency	-10.0354
▁consistently	-10.0354
▁corona	-10.0354
▁counting	-10.0354
▁coworkers	-10.0354
▁creates	-10.0354
▁cross	-10.0354
▁davis	-10.0354
▁definition	-10.0354
▁depressant	-10.0354
▁deserves	-10.0354
▁devastating	-10.0354
▁diagnose	-10.0354
▁dig	-10.0354
▁digital	-10.0354
▁diploma	-10.0354
▁dopamine	-10.0354
▁download	-10.0354
▁drown	-10.0354
▁dude	-10.0354
▁endure	-10.0354
▁enjoyed	-10.0354
▁enrolled	-10.0354
▁entering	-10.0354
▁envy	-10.0354
▁error	-10.0354
▁ether	-10.0354
▁ethic	-10.0354
▁excellent	-10.0354
▁exciting	-10.0354
▁exhaustion	-10.0354
▁expensive	-10.0354
▁explore	-10.0354
▁fade	-10.0354
▁faridabad	-10.0354
▁farther	-10.0354
▁faster	-10.0354
▁favourite	-10.0354
▁fleeting	-10.0354
▁forgive	-10.0354
▁formula	-10.0354
▁freely	-10.0354
▁fuel	-10.0354
▁fulfilled	-10.0354
▁fulfillment	-10.0354
▁gaining	-10.0354
▁garden	-10.0354
▁gay	-10.0354
▁genuine	-10.0354
▁global	-10.0354
▁gp	-10.0354
▁graduation	-10.0354
▁gravity	-10.0354
▁greener	-10.0354
▁grey	-10.0354
▁hamster	-10.0354
▁headed	-10.0354
▁helper	-10.0354
▁hidden	-10.0354
▁hill	-10.0354
▁hollow	-10.0354
▁holy	-10.0354
▁hoo	-10.0354
▁hygiene	-10.0354
▁ignorance	-10.0354
▁imagination	-10.0354
▁inhale	-10.0354
▁instance	-10.0354
▁instructor	-10.0354
▁internship	-10.0354
▁irritable	-10.0354
▁irritated	-10.0354
▁ishtar	-10.0354
▁jolene	-10.0354
▁ketamine	-10.0354
▁landed	-10.0354
▁larger	-10.0354
▁league	-10.0354
▁lecture	-10.0354
▁lisa	-10.0354
▁logical	-10.0354
▁loose	-10.0354
▁lowest	-10.0354
▁manifest	-10.0354
▁marine	-10.0354
▁meanwhile	-10.0354
▁migraine	-10.0354
▁mirror	-10.0354
▁motion	-10.0354
▁motivational	-10.0354
▁motorcycle	-10.0354
▁mountain	-10.0354
▁named	-10.0354
▁national	-10.0354
▁neighbor	-10.0354
▁nervousness	-10.0354
▁netflix	-10.0354
▁noisy	-10.0354
▁obsession	-10.0354
▁obstacle	-10.0354
▁outlook	-10.0354
▁overnight	-10.0354
▁panicking	-10.0354
▁paranoia	-10.0354
▁petty	-10.0354
▁playlist	-10.0354
▁positivity	-10.0354
▁practiced	-10.0354
▁practise	-10.0354
▁prefer	-10.0354
▁prescription	-10.0354
▁production	-10.0354
▁promos	-10.0354
▁pursuing	-10.0354
▁raising	-10.0354
▁rambling	-10.0354
▁range	-10.0354
▁reducing	-10.0354
▁relapse	-10.0354
▁relative	-10.0354
▁remain	-10.0354
▁remembered	-10.0354
▁remembering	-10.0354
▁repeated	-10.0354
▁resistance	-10.0354
▁restilen	-10.0354
▁rnb	-10.0354
▁rope	-10.0354
▁sake	-10.0354
▁scene	-10.0354
▁scientist	-10.0354
▁secure	-10.0354
▁security	-10.0354
▁sergio	-10.0354
▁sh	-10.0354
▁showed	-10.0354
▁significantly	-10.0354
▁size	-10.0354
▁slot	-10.0354
▁sobbing	-10.0354
▁soft	-10.0354
▁solo	-10.0354
▁south	-10.0354
▁staring	-10.0354
▁strange	-10.0354
▁studied	-10.0354
▁style	-10.0354
▁sugar	-10.0354
▁sunlight	-10.0354
▁suspect	-10.0354
▁sweat	-10.0354
▁swimming	-10.0354
▁swing	-10.0354
▁tearing	-10.0354
▁tense	-10.0354
▁thankfully	-10.0354
▁traffic	-10.0354
▁trainer	-10.0354
▁trajectory	-10.0354
▁translation	-10.0354
▁tutor	-10.0354
▁ultimate	-10.0354
▁unbearable	-10.0354
▁uncertainty	-10.0354
▁unexpected	-10.0354
▁unsure	-10.0354
▁v	-10.0354
▁vayu	-10.0354
▁virtual	-10.0354
▁web	-10.0354
▁wedding	-10.0354
▁weekly	-10.0354
▁wendy	-10.0354
▁wherever	-10.0354
▁wondered	-10.0354
▁workout	-10.0354
▁workplace	-10.0354
▁yelled	-10.0354
▁abundant	-10.169
▁acid	-10.169
▁affordable	-10.169
▁alcoholic	-10.169
▁american	-10.169
▁apologized	-10.169
▁appearance	-10.169
▁associated	-10.169
▁attending	-10.169
▁australia	-10.169
▁award	-10.169
▁banned	-10.169
▁battling	-10.169
▁beer	-10.169
▁believer	-10.169
▁bitter	-10.169
▁blanket	-10.169
▁blow	-10.169
▁blown	-10.169
▁blurry	-10.169
▁bout	-10.169
▁box	-10.169
▁branch	-10.169
▁brink	-10.169
▁cancel	-10.169
▁capital	-10.169
▁careful	-10.169
▁caretaker	-10.169
▁chair	-10.169
▁clinic	-10.169
▁closest	-10.169
▁clothing	-10.169
▁code	-10.169
▁committed	-10.169
▁competition	-10.169
▁completing	-10.169
▁conditioning	-10.169
▁confusion	-10.169
▁controlling	-10.169
▁cooking	-10.169
▁counter	-10.169
▁cousin	-10.169
▁crash	-10.169
▁cruel	-10.169
▁crushing	-10.169
▁dance	-10.169
▁danger	-10.169
▁de	-10.169
▁decides	-10.169
▁decrease	-10.169
▁deepest	-10.169
▁demand	-10.169
▁dentist	-10.169
▁deny	-10.169
▁dependent	-10.169
▁destroying	-10.169
▁destructive	-10.169
▁detailed	-10.169
▁determined	-10.169
▁device	-10.169
▁direct	-10.169
▁disagree	-10.169
▁double	-10.169
▁downstairs	-10.169
▁drift	-10.169
▁drove	-10.169
▁dust	-10.169
▁dysphoria	-10.169
▁eaten	-10.169
▁ect	-10.169
▁educational	-10.169
▁effexor	-10.169
▁embarrassing	-10.169
▁engaging	-10.169
▁enjoyable	-10.169
▁equal	-10.169
▁evaluate	-10.169
▁evolving	-10.169
▁explained	-10.169
▁exposed	-10.169
▁february	-10.169
▁fiction	-10.169
▁firm	-10.169
▁fitness	-10.169
▁flight	-10.169
▁fought	-10.169
▁frequent	-10.169
▁fulfill	-10.169
▁functional	-10.169
▁fundamental	-10.169
▁gather	-10.169
▁goodbye	-10.169
▁grace	-10.169
▁grenade	-10.169
▁grocery	-10.169
▁gross	-10.169
▁guard	-10.169
▁hall	-10.169
▁hallucination	-10.169
▁happily	-10.169
▁harmed	-10.169
▁heartbreak	-10.169
▁heartbroken	-10.169
▁heat	-10.169
▁hire	-10.169
▁horribly	-10.169
▁hunt	-10.169
▁id	-10.169
▁ignores	-10.169
▁imagined	-10.169
▁impacting	-10.169
▁inability	-10.169
▁india	-10.169
▁induced	-10.169
▁inflicted	-10.169
▁informed	-10.169
▁intelligent	-10.169
▁intensely	-10.169
▁interacting	-10.169
▁internally	-10.169
▁introverted	-10.169
▁jazz	-10.169
▁jealousy	-10.169
▁juice	-10.169
▁kiss	-10.169
▁kitchen	-10.169
▁laid	-10.169
▁leader	-10.169
▁length	-10.169
▁lip	-10.169
▁location	-10.169
▁lock	-10.169
▁longest	-10.169
▁mailto	-10.169
▁manageable	-10.169
▁manic	-10.169
▁mantra	-10.169
▁massage	-10.169
▁messing	-10.169
▁messy	-10.169
▁million	-10.169
▁mission	-10.169
▁mr	-10.169
▁neglected	-10.169
▁neutral	-10.169
▁notification	-10.169
▁occasion	-10.169
▁original	-10.169
▁outlet	-10.169
▁overwhelm	-10.169
▁packing	-10.169
▁participating	-10.169
▁patch	-10.169
▁paul	-10.169
▁perfection	-10.169
▁perfectionist	-10.169
▁personalized	-10.169
▁pic	-10.169
▁pissed	-10.169
▁plastic	-10.169
▁pocket	-10.169
▁pound	-10.169
▁precious	-10.169
▁previously	-10.169
▁primary	-10.169
▁priority	-10.169
▁pro	-10.169
▁procrastinating	-10.169
▁procrastination	-10.169
▁promise	-10.169
▁proper	-10.169
▁protect	-10.169
▁providing	-10.169
▁pulling	-10.169
▁pursuit	-10.169
▁qualified	-10.169
▁quest	-10.169
▁questioning	-10.169
▁radio	-10.169
▁rain	-10.169
▁rajinder	-10.169
▁recommendation	-10.169
▁register	-10.169
▁rejected	-10.169
▁relatively	-10.169
▁reliable	-10.169
▁religion	-10.169
▁rely	-10.169
▁remote	-10.169
▁repeatedly	-10.169
▁requirement	-10.169
▁researcher	-10.169
▁researching	-10.169
▁reset	-10.169
▁responsible	-10.169
▁resulting	-10.169
▁ritual	-10.169
▁river	-10.169
▁rotten	-10.169
▁route	-10.169
▁rut	-10.169
▁sacred	-10.169
▁satisfy	-10.169
▁scenario	-10.169
▁semi	-10.169
▁settle	-10.169
▁seven	-10.169
▁shallow	-10.169
▁shes	-10.169
▁shoe	-10.169
▁shoot	-10.169
▁shopping	-10.169
▁shortly	-10.169
▁snack	-10.169
▁snow	-10.169
▁socialising	-10.169
▁software	-10.169
▁sold	-10.169
▁somethings	-10.169
▁sophomore	-10.169
▁sought	-10.169
▁spiraling	-10.169
▁spread	-10.169
▁stare	-10.169
▁stem	-10.169
▁succeeded	-10.169
▁sucked	-10.169
▁sucking	-10.169
▁suit	-10.169
▁surroundings	-10.169
▁sweating	-10.169
▁tap	-10.169
▁tea	-10.169
▁theory	-10.169
▁thrive	-10.169
▁timing	-10.169
▁tiredness	-10.169
▁tongue	-10.169
▁toy	-10.169
▁trap	-10.169
▁tree	-10.169
▁troll	-10.169
▁tuesday	-10.169
▁twenty	-10.169
▁twin	-10.169
▁unlearning	-10.169
▁valuable	-10.169
▁visualization	-10.169
▁watched	-10.169
▁whatsoever	-10.169
▁whoever	-10.169
▁willingly	-10.169
▁willpower	-10.169
▁winning	-10.169
▁written	-10.169
▁yellow	-10.169
▁zoloft	-10.169
▁abandoned	-10.3231
▁activate	-10.3231
▁address	-10.3231
▁adopted	-10.3231
▁adrenal	-10.3231
▁agency	-10.3231
▁aligning	-10.3231
▁analysing	-10.3231
▁anniversary	-10.3231
▁announced	-10.3231
▁apologise	-10.3231
▁arises	-10.3231
▁aspiration	-10.3231
▁assessment	-10.3231
▁assure	-10.3231
▁auditory	-10.3231
▁automation	-10.3231
▁backed	-10.3231
▁beginner	-10.3231
▁betrayed	-10.3231
▁blah	-10.3231
▁blank	-10.3231
▁bless	-10.3231
▁blessed	-10.3231
▁blockage	-10.3231
▁brighter	-10.3231
▁brilliant	-10.3231
▁brush	-10.3231
▁brushing	-10.3231
▁budget	-10.3231
▁bug	-10.3231
▁bulletin	-10.3231
▁bullying	-10.3231
▁bummed	-10.3231
▁calmed	-10.3231
▁campus	-10.3231
▁cbd	-10.3231
▁celebration	-10.3231
▁characteristic	-10.3231
▁chatbot	-10.3231
▁chatting	-10.3231
▁cheer	-10.3231
▁chicken	-10.3231
▁christian	-10.3231
▁clearing	-10.3231
▁climate	-10.3231
▁committee	-10.3231
▁comparison	-10.3231
▁competitive	-10.3231
▁contacting	-10.3231
▁contentment	-10.3231
▁covered	-10.3231
▁coz	-10.3231
▁crumbling	-10.3231
▁ct	-10.3231
▁cuddle	-10.3231
▁cute	-10.3231
▁dalai	-10.3231
▁dampens	-10.3231
▁dangerous	-10.3231
▁deciding	-10.3231
▁dedicate	-10.3231
▁defensive	-10.3231
▁deficiency	-10.3231
▁delhi	-10.3231
▁described	-10.3231
▁deserved	-10.3231
▁design	-10.3231
▁desk	-10.3231
▁desperation	-10.3231
▁devere	-10.3231
▁diaphram	-10.3231
▁digging	-10.3231
▁discipline	-10.3231
▁discussing	-10.3231
▁dish	-10.3231
▁dislike	-10.3231
▁dissatisfied	-10.3231
▁dozen	-10.3231
▁dysfunctional	-10.3231
▁easter	-10.3231
▁elementary	-10.3231
▁endeavor	-10.3231
▁enhance	-10.3231
▁ensure	-10.3231
▁epilepsy	-10.3231
▁esc	-10.3231
▁evolution	-10.3231
▁evolve	-10.3231
▁evolved	-10.3231
▁expects	-10.3231
▁explores	-10.3231
▁facet	-10.3231
▁fantasy	-10.3231
▁fearful	-10.3231
▁fellow	-10.3231
▁file	-10.3231
▁firstly	-10.3231
▁fish	-10.3231
▁follower	-10.3231
▁forcing	-10.3231
▁forest	-10.3231
▁forgetting	-10.3231
▁former	-10.3231
▁fortune	-10.3231
▁founder	-10.3231
▁fragile	-10.3231
▁fred	-10.3231
▁gap	-10.3231
▁generation	-10.3231
▁giant	-10.3231
▁glass	-10.3231
▁gradually	-10.3231
▁grasp	-10.3231
▁grass	-10.3231
▁grieving	-10.3231
▁gt	-10.3231
▁haha	-10.3231
▁handling	-10.3231
▁hatred	-10.3231
▁heck	-10.3231
▁hopeful	-10.3231
▁horizon	-10.3231
▁hughes	-10.3231
▁humour	-10.3231
▁image	-10.3231
▁immense	-10.3231
▁increasingly	-10.3231
▁inferior	-10.3231
▁intensity	-10.3231
▁intent	-10.3231
▁invest	-10.3231
▁involve	-10.3231
▁involves	-10.3231
▁iq	-10.3231
▁june	-10.3231
▁justified	-10.3231
▁karma	-10.3231
▁kicking	-10.3231
▁kingdom	-10.3231
▁km	-10.3231
▁lab	-10.3231
▁lama	-10.3231
▁laughed	-10.3231
▁laughter	-10.3231
▁learnt	-10.3231
▁legit	-10.3231
▁listened	-10.3231
▁literal	-10.3231
▁lmk	-10.3231
▁log	-10.3231
▁loosing	-10.3231
▁lover	-10.3231
▁machine	-10.3231
▁magically	-10.3231
▁magnesium	-10.3231
▁manner	-10.3231
▁mariana	-10.3231
▁mastery	-10.3231
▁meaningless	-10.3231
▁meantime	-10.3231
▁messaged	-10.3231
▁midnight	-10.3231
▁military	-10.3231
▁minuscule	-10.3231
▁monetary	-10.3231
▁moon	-10.3231
▁moreover	-10.3231
▁narcissist	-10.3231
▁narrow	-10.3231
▁neuro	-10.3231
▁nigel	-10.3231
▁noone	-10.3231
▁normalcy	-10.3231
▁novelty	-10.3231
▁nut	-10.3231
▁obese	-10.3231
▁objective	-10.3231
▁obsessed	-10.3231
▁officer	-10.3231
▁oneself	-10.3231
▁ongoing	-10.3231
▁ounce	-10.3231
▁overseas	-10.3231
▁owe	-10.3231
▁paced	-10.3231
▁packed	-10.3231
▁passenger	-10.3231
▁pathway	-10.3231
▁pc	-10.3231
▁permanent	-10.3231
▁permanently	-10.3231
▁philip	-10.3231
▁phrase	-10.3231
▁pity	-10.3231
▁plane	-10.3231
▁poetry	-10.3231
▁pointed	-10.3231
▁pounding	-10.3231
▁prayer	-10.3231
▁praying	-10.3231
▁pregnant	-10.3231
▁pretended	-10.3231
▁processing	-10.3231
▁procrastinate	-10.3231
▁professionally	-10.3231
▁progressing	-10.3231
▁progressively	-10.3231
▁projecting	-10.3231
▁prolonged	-10.3231
▁promoted	-10.3231
▁proven	-10.3231
▁psychiatric	-10.3231
▁punishment	-10.3231
▁purchase	-10.3231
▁puzzle	-10.3231
▁qualification	-10.3231
▁quiz	-10.3231
▁ramana	-10.3231
▁rapidly	-10.3231
▁realign	-10.3231
▁realistic	-10.3231
▁reasonable	-10.3231
▁recognized	-10.3231
▁recording	-10.3231
▁recovery	-10.3231
▁regard	-10.3231
▁rejection	-10.3231
▁relearning	-10.3231
▁reminder	-10.3231
▁repressed	-10.3231
▁requires	-10.3231
▁reserving	-10.3231
▁resolution	-10.3231
▁resting	-10.3231
▁retarded	-10.3231
▁rewire	-10.3231
▁rhythm	-10.3231
▁robert	-10.3231
▁roll	-10.3231
▁rupee	-10.3231
▁samadhi	-10.3231
▁satisfied	-10.3231
▁scattered	-10.3231
▁scenery	-10.3231
▁selfishness	-10.3231
▁sends	-10.3231
▁separate	-10.3231
▁serve	-10.3231
▁shall	-10.3231
▁sheet	-10.3231
▁shocked	-10.3231
▁signing	-10.3231
▁slightest	-10.3231
▁slipping	-10.3231
▁sole	-10.3231
▁solid	-10.3231
▁specie	-10.3231
▁split	-10.3231
▁ssri	-10.3231
▁stated	-10.3231
▁static	-10.3231
▁steal	-10.3231
▁stiff	-10.3231
▁stoic	-10.3231
▁stone	-10.3231
▁stood	-10.3231
▁structure	-10.3231
▁subconsciously	-10.3231
▁subscribe	-10.3231
▁substance	-10.3231
▁succeeding	-10.3231
▁suitable	-10.3231
▁supporting	-10.3231
▁surrounding	-10.3231
▁swallow	-10.3231
▁tablet	-10.3231
▁tangible	-10.3231
▁target	-10.3231
▁technology	-10.3231
▁temporarily	-10.3231
▁tennis	-10.3231
▁terminal	-10.3231
▁terribly	-10.3231
▁therapeutic	-10.3231
▁thesis	-10.3231
▁thinker	-10.3231
▁threat	-10.3231
▁thru	-10.3231
▁tie	-10.3231
▁timeline	-10.3231
▁toe	-10.3231
▁transform	-10.3231
▁trendy	-10.3231
▁truck	-10.3231
▁trusted	-10.3231
▁tuition	-10.3231
▁underneath	-10.3231
▁unreasonable	-10.3231
▁unstable	-10.3231
▁upcoming	-10.3231
▁uplifting	-10.3231
▁upside	-10.3231
▁usu	-10.3231
▁utter	-10.3231
▁viewing	-10.3231
▁villain	-10.3231
▁vivid	-10.3231
▁vocal	-10.3231
▁wage	-10.3231
▁wallow	-10.3231
▁warning	-10.3231
▁wasnt	-10.3231
▁widow	-10.3231
▁wild	-10.3231
▁wolf	-10.3231
▁worn	-10.3231
▁wrapped	-10.3231
▁yr	-10.3231
▁abilify	-10.5054
▁abyss	-10.5054
▁academic	-10.5054
▁academically	-10.5054
▁accidentally	-10.5054
▁accordingly	-10.5054
▁aching	-10.5054
▁acted	-10.5054
▁activism	-10.5054
▁adderall	-10.5054
▁addressed	-10.5054
▁admission	-10.5054
▁adventure	-10.5054
▁afternoon	-10.5054
▁aggressive	-10.5054
▁agreeing	-10.5054
▁agreement	-10.5054
▁aid	-10.5054
▁aka	-10.5054
▁aligned	-10.5054
▁alignment	-10.5054
▁ally	-10.5054
▁alt	-10.5054
▁amazon	-10.5054
▁angel	-10.5054
▁arising	-10.5054
▁army	-10.5054
▁ashwaganda	-10.5054
▁assault	-10.5054
▁assistance	-10.5054
▁athlete	-10.5054
▁attacked	-10.5054
▁attainable	-10.5054
▁attempting	-10.5054
▁audio	-10.5054
▁auric	-10.5054
▁avoided	-10.5054
▁awakening	-10.5054
▁baggage	-10.5054
▁balanced	-10.5054
▁bang	-10.5054
▁barley	-10.5054
▁barrier	-10.5054
▁base	-10.5054
▁beam	-10.5054
▁begging	-10.5054
▁belly	-10.5054
▁beneath	-10.5054
▁biological	-10.5054
▁bloody	-10.5054
▁bombarded	-10.5054
▁bond	-10.5054
▁bone	-10.5054
▁bro	-10.5054
▁bubbly	-10.5054
▁burnout	-10.5054
▁buzzing	-10.5054
▁calmer	-10.5054
▁calmly	-10.5054
▁candy	-10.5054
▁capability	-10.5054
▁cardiologist	-10.5054
▁carrot	-10.5054
▁carrying	-10.5054
▁cartoon	-10.5054
▁centre	-10.5054
▁chain	-10.5054
▁chart	-10.5054
▁cheated	-10.5054
▁citizen	-10.5054
▁cocktail	-10.5054
▁collected	-10.5054
▁comforting	-10.5054
▁comparing	-10.5054
▁concrete	-10.5054
▁confide	-10.5054
▁consumption	-10.5054
▁contribution	-10.5054
▁convert	-10.5054
▁convincing	-10.5054
▁corporate	-10.5054
▁correctly	-10.5054
▁counselling	-10.5054
▁crack	-10.5054
▁crappy	-10.5054
▁crashing	-10.5054
▁craving	-10.5054
▁crimsonpill	-10.5054
▁curl	-10.5054
▁cuss	-10.5054
▁daisy	-10.5054
▁dare	-10.5054
▁decreased	-10.5054
▁defense	-10.5054
▁delayed	-10.5054
▁delisa	-10.5054
▁denied	-10.5054
▁denying	-10.5054
▁depending	-10.5054
▁depleted	-10.5054
▁desired	-10.5054
▁determination	-10.5054
▁determines	-10.5054
▁disability	-10.5054
▁disabled	-10.5054
▁disappoint	-10.5054
▁disciplined	-10.5054
▁documentary	-10.5054
▁downhill	-10.5054
▁drank	-10.5054
▁drastically	-10.5054
▁dress	-10.5054
▁dwell	-10.5054
▁dwelling	-10.5054
▁ebook	-10.5054
▁ed	-10.5054
▁editor	-10.5054
▁elevate	-10.5054
▁em	-10.5054
▁emergency	-10.5054
▁employed	-10.5054
▁employment	-10.5054
▁enable	-10.5054
▁encompassing	-10.5054
▁encounter	-10.5054
▁encouragement	-10.5054
▁engineer	-10.5054
▁ent	-10.5054
▁entrepreneurship	-10.5054
▁er	-10.5054
▁essence	-10.5054
▁eternal	-10.5054
▁exaggerating	-10.5054
▁excessive	-10.5054
▁exchange	-10.5054
▁existed	-10.5054
▁existential	-10.5054
▁exists	-10.5054
▁exit	-10.5054
▁expand	-10.5054
▁expression	-10.5054
▁facial	-10.5054
▁faint	-10.5054
▁fame	-10.5054
▁familiar	-10.5054
▁fancy	-10.5054
▁fewer	-10.5054
▁fixing	-10.5054
▁flashback	-10.5054
▁florence	-10.5054
▁flower	-10.5054
▁fluent	-10.5054
▁fly	-10.5054
▁fool	-10.5054
▁foster	-10.5054
▁frankly	-10.5054
▁fruit	-10.5054
▁funeral	-10.5054
▁gallbladder	-10.5054
▁ged	-10.5054
▁goddamn	-10.5054
▁golden	-10.5054
▁grand	-10.5054
▁grandfather	-10.5054
▁grinding	-10.5054
▁grows	-10.5054
▁guitar	-10.5054
▁han	-10.5054
▁harsh	-10.5054
▁hater	-10.5054
▁headspace	-10.5054
▁hint	-10.5054
▁honesty	-10.5054
▁honour	-10.5054
▁horse	-10.5054
▁hyper	-10.5054
▁icu	-10.5054
▁ig	-10.5054
▁ik	-10.5054
▁importantly	-10.5054
▁impressed	-10.5054
▁included	-10.5054
▁increasing	-10.5054
▁indeed	-10.5054
▁inevitably	-10.5054
▁infected	-10.5054
▁ingredient	-10.5054
▁initial	-10.5054
▁initiate	-10.5054
▁instinct	-10.5054
▁intake	-10.5054
▁intellectual	-10.5054
▁intelligence	-10.5054
▁interfere	-10.5054
▁interpretation	-10.5054
▁intro	-10.5054
▁introduce	-10.5054
▁introvert	-10.5054
▁iphone	-10.5054
▁iron	-10.5054
▁irrational	-10.5054
▁ish	-10.5054
▁island	-10.5054
▁james	-10.5054
▁julie	-10.5054
▁jumped	-10.5054
▁junior	-10.5054
▁justify	-10.5054
▁king	-10.5054
▁kyle	-10.5054
▁lane	-10.5054
▁largely	-10.5054
▁layer	-10.5054
▁lessen	-10.5054
▁lied	-10.5054
▁lightheaded	-10.5054
▁lingering	-10.5054
▁listed	-10.5054
▁listens	-10.5054
▁loathing	-10.5054
▁logic	-10.5054
▁logically	-10.5054
▁lower	-10.5054
▁luckily	-10.5054
▁luxury	-10.5054
▁marathon	-10.5054
▁measurable	-10.5054
▁meme	-10.5054
▁midterm	-10.5054
▁millionaire	-10.5054
▁mindless	-10.5054
▁miracle	-10.5054
▁mobilize	-10.5054
▁monthly	-10.5054
▁moral	-10.5054
▁mutual	-10.5054
▁network	-10.5054
▁norma	-10.5054
▁nose	-10.5054
▁nursing	-10.5054
▁nutrition	-10.5054
▁nyc	-10.5054
▁occasional	-10.5054
▁occurrence	-10.5054
▁ofc	-10.5054
▁official	-10.5054
▁op	-10.5054
▁ops	-10.5054
▁ordinary	-10.5054
▁output	-10.5054
▁outward	-10.5054
▁overcoming	-10.5054
▁overlooked	-10.5054
▁overreacting	-10.5054
▁overthink	-10.5054
▁pace	-10.5054
▁pakistan	-10.5054
▁palpitation	-10.5054
▁pan	-10.5054
▁panicked	-10.5054
▁partly	-10.5054
▁penny	-10.5054
▁percent	-10.5054
▁persevere	-10.5054
▁pipe	-10.5054
▁piss	-10.5054
▁poisoned	-10.5054
▁poll	-10.5054
▁positively	-10.5054
▁posse	-10.5054
▁postgraduate	-10.5054
▁preparation	-10.5054
▁preparing	-10.5054
▁prison	-10.5054
▁profit	-10.5054
▁profound	-10.5054
▁prompt	-10.5054
▁property	-10.5054
▁provided	-10.5054
▁provider	-10.5054
▁psychologically	-10.5054
▁pulled	-10.5054
▁pumped	-10.5054
▁punish	-10.5054
▁quietly	-10.5054
▁quits	-10.5054
▁racist	-10.5054
▁rage	-10.5054
▁raped	-10.5054
▁ray	-10.5054
▁reactive	-10.5054
▁reasoning	-10.5054
▁reassure	-10.5054
▁reduction	-10.5054
▁reference	-10.5054
▁reflection	-10.5054
▁relapsed	-10.5054
▁relating	-10.5054
▁relevant	-10.5054
▁reliever	-10.5054
▁relieving	-10.5054
▁relying	-10.5054
▁repeating	-10.5054
▁replacement	-10.5054
▁required	-10.5054
▁resentment	-10.5054
▁resilient	-10.5054
▁resistant	-10.5054
▁resolved	-10.5054
▁resort	-10.5054
▁restless	-10.5054
▁retired	-10.5054
▁reverse	-10.5054
▁ridiculous	-10.5054
▁rollercoaster	-10.5054
▁romantic	-10.5054
▁rot	-10.5054
▁round	-10.5054
▁ruled	-10.5054
▁safety	-10.5054
▁satisfying	-10.5054
▁scratch	-10.5054
▁searched	-10.5054
▁seemingly	-10.5054
▁sens	-10.5054
▁separated	-10.5054
▁september	-10.5054
▁setback	-10.5054
▁signed	-10.5054
▁sin	-10.5054
▁skipping	-10.5054
▁socialise	-10.5054
▁soldier	-10.5054
▁soreness	-10.5054
▁sorrow	-10.5054
▁sounded	-10.5054
▁speech	-10.5054
▁standing	-10.5054
▁star	-10.5054
▁station	-10.5054
▁stepmom	-10.5054
▁stepping	-10.5054
▁stereotype	-10.5054
▁stigma	-10.5054
▁stillness	-10.5054
▁strain	-10.5054
▁stream	-10.5054
▁stretch	-10.5054
▁stretching	-10.5054
▁submit	-10.5054
▁submitted	-10.5054
▁suffocating	-10.5054
▁surround	-10.5054
▁survival	-10.5054
▁sustainable	-10.5054
▁tai	-10.5054
▁takeaway	-10.5054
▁temp	-10.5054
▁tending	-10.5054
▁texture	-10.5054
▁thanking	-10.5054
▁thrown	-10.5054
▁tied	-10.5054
▁toast	-10.5054
▁tone	-10.5054
▁tracker	-10.5054
▁transformation	-10.5054
▁trend	-10.5054
▁twelve	-10.5054
▁unconscious	-10.5054
▁unemployment	-10.5054
▁unfortunate	-10.5054
▁unloved	-10.5054
▁unpaid	-10.5054
▁unrealistic	-10.5054
▁unwanted	-10.5054
▁upbeat	-10.5054
▁upper	-10.5054
▁upsetting	-10.5054
▁us	-10.5054
▁vaccine	-10.5054
▁variety	-10.5054
▁verbally	-10.5054
▁viscous	-10.5054
▁void	-10.5054
▁volunteering	-10.5054
▁wade	-10.5054
▁waited	-10.5054
▁wash	-10.5054
▁webinar	-10.5054
▁welcomed	-10.5054
▁wholesome	-10.5054
▁wrist	-10.5054
▁wwii	-10.5054
▁yo	-10.5054
▁absence	-10.7286
▁absent	-10.7286
▁acceptable	-10.7286
▁accessible	-10.7286
▁accolade	-10.7286
▁accomplishing	-10.7286
▁accused	-10.7286
▁acknowledging	-10.7286
▁acoustic	-10.7286
▁acquire	-10.7286
▁actor	-10.7286
▁adapt	-10.7286
▁adequate	-10.7286
▁adversity	-10.7286
▁advertising	-10.7286
▁affective	-10.7286
▁aforementioned	-10.7286
▁aged	-10.7286
▁ah	-10.7286
▁alarming	-10.7286
▁alienated	-10.7286
▁align	-10.7286
▁altogether	-10.7286
▁amazingly	-10.7286
▁ambiguity	-10.7286
▁analyze	-10.7286
▁ancient	-10.7286
▁angst	-10.7286
▁anorexia	-10.7286
▁ap	-10.7286
▁apathetic	-10.7286
▁apparent	-10.7286
▁apt	-10.7286
▁arrives	-10.7286
▁asap	-10.7286
▁ashwagandha	-10.7286
▁atlas	-10.7286
▁atm	-10.7286
▁ba	-10.7286
▁backup	-10.7286
▁badass	-10.7286
▁bahadurgarh	-10.7286
▁balancing	-10.7286
▁basketball	-10.7286
▁bead	-10.7286
▁bearable	-10.7286
▁believing	-10.7286
▁belt	-10.7286
▁berate	-10.7286
▁bi	-10.7286
▁bias	-10.7286
▁biting	-10.7286
▁bleed	-10.7286
▁blonded	-10.7286
▁boat	-10.7286
▁bob	-10.7286
▁boil	-10.7286
▁bold	-10.7286
▁bonus	-10.7286
▁borderline	-10.7286
▁bouncing	-10.7286
▁bowel	-10.7286
▁brazil	-10.7286
▁brazilian	-10.7286
▁breakup	-10.7286
▁brick	-10.7286
▁briefly	-10.7286
▁brien	-10.7286
▁bubble	-10.7286
▁bump	-10.7286
▁butterfly	-10.7286
▁calculus	-10.7286
▁canadian	-10.7286
▁capture	-10.7286
▁cardiovascular	-10.7286
▁carlos	-10.7286
▁carolyn	-10.7286
▁cash	-10.7286
▁catching	-10.7286
▁category	-10.7286
▁cease	-10.7286
▁censored	-10.7286
▁centerforfearlessresearch	-10.7286
▁certificate	-10.7286
▁certification	-10.7286
▁charm	-10.7286
▁cherish	-10.7286
▁chiropractor	-10.7286
▁circuit	-10.7286
▁clarify	-10.7286
▁classic	-10.7286
▁classmate	-10.7286
▁clinically	-10.7286
▁cluster	-10.7286
▁comedy	-10.7286
▁comfortably	-10.7286
▁committing	-10.7286
▁compliment	-10.7286
▁concentrating	-10.7286
▁concerning	-10.7286
▁confirm	-10.7286
▁confusing	-10.7286
▁conquer	-10.7286
▁conscience	-10.7286
▁consciously	-10.7286
▁construction	-10.7286
▁consumed	-10.7286
▁contacted	-10.7286
▁contemplated	-10.7286
▁contract	-10.7286
▁contributes	-10.7286
▁contributing	-10.7286
▁controling	-10.7286
▁cop	-10.7286
▁copy	-10.7286
▁cornerstone	-10.7286
▁couch	-10.7286
▁craves	-10.7286
▁creep	-10.7286
▁criminal	-10.7286
▁criticized	-10.7286
▁crushed	-10.7286
▁crutch	-10.7286
▁cube	-10.7286
▁cunt	-10.7286
▁curiosity	-10.7286
▁cycling	-10.7286
▁dancing	-10.7286
▁deaf	-10.7286
▁debilitating	-10.7286
▁defeat	-10.7286
▁defeated	-10.7286
▁defend	-10.7286
▁defined	-10.7286
▁deleted	-10.7286
▁deliberately	-10.7286
▁delusion	-10.7286
▁dementia	-10.7286
▁denial	-10.7286
▁depletion	-10.7286
▁describes	-10.7286
▁despise	-10.7286
▁dessert	-10.7286
▁deteriorating	-10.7286
▁devise	-10.7286
▁diamond	-10.7286
▁dictate	-10.7286
▁ding	-10.7286
▁disappointing	-10.7286
▁disconnected	-10.7286
▁disguise	-10.7286
▁disregarded	-10.7286
▁dissertation	-10.7286
▁distressed	-10.7286
▁disturbing	-10.7286
▁division	-10.7286
▁dizziness	-10.7286
▁dizzy	-10.7286
▁dj	-10.7286
▁downfall	-10.7286
▁dragging	-10.7286
▁drastic	-10.7286
▁drill	-10.7286
▁dropping	-10.7286
▁earn	-10.7286
▁earned	-10.7286
▁easiest	-10.7286
▁economics	-10.7286
▁economy	-10.7286
▁edited	-10.7286
▁edition	-10.7286
▁edu	-10.7286
▁effected	-10.7286
▁efficient	-10.7286
▁elsewhere	-10.7286
▁emailed	-10.7286
▁embarrassment	-10.7286
▁empathetic	-10.7286
▁endorphin	-10.7286
▁endured	-10.7286
▁enjoys	-10.7286
▁enlightenment	-10.7286
▁enter	-10.7286
▁enters	-10.7286
▁envious	-10.7286
▁epiphany	-10.7286
▁escapism	-10.7286
▁established	-10.7286
▁eudaimonia	-10.7286
▁euphoric	-10.7286
▁evoke	-10.7286
▁excel	-10.7286
▁excluding	-10.7286
▁executive	-10.7286
▁exempt	-10.7286
▁existencial	-10.7286
▁exiting	-10.7286
▁expressed	-10.7286
▁extends	-10.7286
▁extensive	-10.7286
▁exurbs	-10.7286
▁facade	-10.7286
▁failiure	-10.7286
▁fails	-10.7286
▁fan	-10.7286
▁fantasize	-10.7286
▁fasting	-10.7286
▁fate	-10.7286
▁feminine	-10.7286
▁fiance	-10.7286
▁flare	-10.7286
▁flaw	-10.7286
▁flawed	-10.7286
▁flipped	-10.7286
▁folder	-10.7286
▁fomo	-10.7286
▁frozen	-10.7286
▁ft	-10.7286
▁fuckin	-10.7286
▁fundraising	-10.7286
▁futile	-10.7286
▁gathered	-10.7286
▁generous	-10.7286
▁ghost	-10.7286
▁ghosted	-10.7286
▁gland	-10.7286
▁gold	-10.7286
▁gradual	-10.7286
▁grammar	-10.7286
▁grant	-10.7286
▁gratification	-10.7286
▁greed	-10.7286
▁greedy	-10.7286
▁grieve	-10.7286
▁grind	-10.7286
▁grudge	-10.7286
▁handbook	-10.7286
▁handful	-10.7286
▁handled	-10.7286
▁hardcore	-10.7286
▁hardworking	-10.7286
▁hat	-10.7286
▁haunt	-10.7286
▁heading	-10.7286
▁heave	-10.7286
▁height	-10.7286
▁helicopter	-10.7286
▁hella	-10.7286
▁highlight	-10.7286
▁hilarious	-10.7286
▁hiv	-10.7286
▁hmm	-10.7286
▁ho	-10.7286
▁hometown	-10.7286
▁honor	-10.7286
▁hormonal	-10.7286
▁hospitalized	-10.7286
▁howard	-10.7286
▁howell	-10.7286
▁hr	-10.7286
▁humor	-10.7286
▁hw	-10.7286
▁hypocrite	-10.7286
▁immunity	-10.7286
▁imperfection	-10.7286
▁incapable	-10.7286
▁independence	-10.7286
▁inducing	-10.7286
▁indulge	-10.7286
▁infant	-10.7286
▁infection	-10.7286
▁infront	-10.7286
▁infusion	-10.7286
▁ingrained	-10.7286
▁inherently	-10.7286
▁input	-10.7286
▁insanity	-10.7286
▁intend	-10.7286
▁interactive	-10.7286
▁international	-10.7286
▁intimacy	-10.7286
▁intuitive	-10.7286
▁invested	-10.7286
▁investing	-10.7286
▁investment	-10.7286
▁ironic	-10.7286
▁irritating	-10.7286
▁iv	-10.7286
▁ivy	-10.7286
▁japanese	-10.7286
▁jar	-10.7286
▁jayne	-10.7286
▁jim	-10.7286
▁joining	-10.7286
▁joyfully	-10.7286
▁jp	-10.7286
▁judgment	-10.7286
▁judgmental	-10.7286
▁junky	-10.7286
▁ka	-10.7286
▁keen	-10.7286
▁kickboxing	-10.7286
▁kidney	-10.7286
▁kilometer	-10.7286
▁land	-10.7286
▁lap	-10.7286
▁lash	-10.7286
▁laundry	-10.7286
▁lawyer	-10.7286
▁lecturing	-10.7286
▁liar	-10.7286
▁libido	-10.7286
▁lifestories	-10.7286
▁lighting	-10.7286
▁liking	-10.7286
▁lillie	-10.7286
▁lily	-10.7286
▁limitless	-10.7286
▁listing	-10.7286
▁lmao	-10.7286
▁locking	-10.7286
▁lois	-10.7286
▁london	-10.7286
▁lucrative	-10.7286
▁mabye	-10.7286
▁makeup	-10.7286
▁manipulated	-10.7286
▁manipulative	-10.7286
▁marble	-10.7286
▁marijuana	-10.7286
▁marry	-10.7286
▁massaging	-10.7286
▁mastermind	-10.7286
▁mate	-10.7286
▁mature	-10.7286
▁meat	-10.7286
▁medically	-10.7286
▁messaging	-10.7286
▁mft	-10.7286
▁milk	-10.7286
▁mindlessly	-10.7286
▁minimalism	-10.7286
▁misinterpret	-10.7286
▁modeling	-10.7286
▁moderate	-10.7286
▁momentary	-10.7286
▁mortgage	-10.7286
▁motivator	-10.7286
▁mount	-10.7286
▁mra	-10.7286
▁mrv	-10.7286
▁msc	-10.7286
▁multi	-10.7286
▁n	-10.7286
▁nail	-10.7286
▁nde	-10.7286
▁nearing	-10.7286
▁needing	-10.7286
▁neurological	-10.7286
▁niche	-10.7286
▁nico	-10.7286
▁nit	-10.7286
▁nobel	-10.7286
▁noble	-10.7286
▁nootropics	-10.7286
▁nope	-10.7286
▁normalize	-10.7286
▁numbing	-10.7286
▁object	-10.7286
▁objectively	-10.7286
▁offense	-10.7286
▁oldest	-10.7286
▁onset	-10.7286
▁organize	-10.7286
▁origin	-10.7286
▁ought	-10.7286
▁outdoor	-10.7286
▁overbearing	-10.7286
▁overweight	-10.7286
▁oxygen	-10.7286
▁pack	-10.7286
▁pant	-10.7286
▁papaw	-10.7286
▁paralysis	-10.7286
▁park	-10.7286
▁partnership	-10.7286
▁peek	-10.7286
▁penis	-10.7286
▁perfectionism	-10.7286
▁persona	-10.7286
▁pete	-10.7286
▁phd	-10.7286
▁phobia	-10.7286
▁photographer	-10.7286
▁physic	-10.7286
▁physique	-10.7286
▁picky	-10.7286
▁pillow	-10.7286
▁pitch	-10.7286
▁pivot	-10.7286
▁plague	-10.7286
▁pleaded	-10.7286
▁plodding	-10.7286
▁plp	-10.7286
▁pls	-10.7286
▁po	-10.7286
▁poisoning	-10.7286
▁policy	-10.7286
▁politely	-10.7286
▁poorly	-10.7286
▁popularity	-10.7286
▁potentially	-10.7286
▁powerhouse	-10.7286
▁practical	-10.7286
▁preference	-10.7286
▁presented	-10.7286
▁preventing	-10.7286
▁principal	-10.7286
▁prioritised	-10.7286
▁privacy	-10.7286
▁privately	-10.7286
▁privilege	-10.7286
▁privileged	-10.7286
▁prize	-10.7286
▁profoundly	-10.7286
▁programme	-10.7286
▁programming	-10.7286
▁promising	-10.7286
▁protecting	-10.7286
▁proudly	-10.7286
▁province	-10.7286
▁punished	-10.7286
▁punishing	-10.7286
▁puppy	-10.7286
▁quo	-10.7286
▁rainbow	-10.7286
▁raisedbynarcissists	-10.7286
▁rational	-10.7286
▁rationally	-10.7286
▁reacting	-10.7286
▁reacts	-10.7286
▁reader	-10.7286
▁reconnect	-10.7286
▁recorded	-10.7286
▁reduces	-10.7286
▁reflecting	-10.7286
▁refused	-10.7286
▁regaining	-10.7286
▁region	-10.7286
▁regretting	-10.7286
▁reinvent	-10.7286
▁releasing	-10.7286
▁relentless	-10.7286
▁relive	-10.7286
▁repair	-10.7286
▁repressing	-10.7286
▁requested	-10.7286
▁reserve	-10.7286
▁reside	-10.7286
▁residential	-10.7286
▁resisting	-10.7286
▁responding	-10.7286
▁rested	-10.7286
▁restroom	-10.7286
▁resume	-10.7286
▁returned	-10.7286
▁rewiring	-10.7286
▁rewriting	-10.7286
▁riding	-10.7286
▁rupert	-10.7286
▁sample	-10.7286
▁sane	-10.7286
▁sanity	-10.7286
▁sapphire	-10.7286
▁schizophrenia	-10.7286
▁scholarship	-10.7286
▁schollarship	-10.7286
▁screwing	-10.7286
▁script	-10.7286
▁seizure	-10.7286
▁semblance	-10.7286
▁seminar	-10.7286
▁sensed	-10.7286
▁serenity	-10.7286
▁sertraline	-10.7286
▁settled	-10.7286
▁settling	-10.7286
▁shaky	-10.7286
▁shamble	-10.7286
▁shed	-10.7286
▁shortened	-10.7286
▁shortness	-10.7286
▁shout	-10.7286
▁sided	-10.7286
▁simultaneously	-10.7286
▁sincerely	-10.7286
▁sincero	-10.7286
▁sing	-10.7286
▁sink	-10.7286
▁ski	-10.7286
▁skillset	-10.7286
▁skinny	-10.7286
▁skip	-10.7286
▁skull	-10.7286
▁skydiving	-10.7286
▁slap	-10.7286
▁somtimes	-10.7286
▁sooo	-10.7286
▁specialized	-10.7286
▁spike	-10.7286
▁spiritually	-10.7286
▁spouse	-10.7286
▁spreadsheet	-10.7286
▁squeeze	-10.7286
▁stab	-10.7286
▁stability	-10.7286
▁stalking	-10.7286
▁stall	-10.7286
▁starving	-10.7286
▁strained	-10.7286
▁strand	-10.7286
▁straw	-10.7286
▁string	-10.7286
▁striving	-10.7286
▁stroll	-10.7286
▁stubborn	-10.7286
▁studio	-10.7286
▁stuttering	-10.7286
▁subjective	-10.7286
▁submission	-10.7286
▁subsided	-10.7286
▁successfully	-10.7286
▁suffice	-10.7286
▁sum	-10.7286
▁summary	-10.7286
▁suspicious	-10.7286
▁swarm	-10.7286
▁synthesis	-10.7286
▁tall	-10.7286
▁tax	-10.7286
▁technical	-10.7286
▁tedious	-10.7286
▁terrifying	-10.7286
▁testing	-10.7286
▁texted	-10.7286
▁texting	-10.7286
▁thereby	-10.7286
▁thiamine	-10.7286
▁thigh	-10.7286
▁thirty	-10.7286
▁thrash	-10.7286
▁threatening	-10.7286
▁throwaway	-10.7286
▁tidy	-10.7286
▁timer	-10.7286
▁tolerance	-10.7286
▁tomato	-10.7286
▁torment	-10.7286
▁torrent	-10.7286
▁torture	-10.7286
▁totaled	-10.7286
▁trade	-10.7286
▁tradition	-10.7286
▁transitioning	-10.7286
▁translate	-10.7286
▁transportation	-10.7286
▁tremendous	-10.7286
▁trump	-10.7286
▁tune	-10.7286
▁turkey	-10.7286
▁typical	-10.7286
▁uh	-10.7286
▁uncertain	-10.7286
▁unconditional	-10.7286
▁uncover	-10.7286
▁underlying	-10.7286
▁unexpectedly	-10.7286
▁unfair	-10.7286
▁unlike	-10.7286
▁unlikely	-10.7286
▁unlock	-10.7286
▁unlovable	-10.7286
▁unplanned	-10.7286
▁unprecedented	-10.7286
▁unresolved	-10.7286
▁unwind	-10.7286
▁ur	-10.7286
▁urgent	-10.7286
▁utility	-10.7286
▁valentine	-10.7286
▁validation	-10.7286
▁versa	-10.7286
▁versus	-10.7286
▁vessel	-10.7286
▁vibrant	-10.7286
▁violation	-10.7286
▁virginity	-10.7286
▁visiting	-10.7286
▁vomit	-10.7286
▁vomiting	-10.7286
▁w	-10.7286
▁wallet	-10.7286
▁warren	-10.7286
▁washing	-10.7286
▁wealthy	-10.7286
▁wellness	-10.7286
▁wich	-10.7286
▁wiki	-10.7286
▁wine	-10.7286
▁wit	-10.7286
▁woozy	-10.7286
▁wore	-10.7286
▁writes	-10.7286
▁xx	-10.7286
▁ya	-10.7286
▁yale	-10.7286
▁yay	-10.7286
▁yea	-10.7286
▁abandon	-11.0163
▁abandonment	-11.0163
▁abiding	-11.0163
▁abnormal	-11.0163
▁abortion	-11.0163
▁absorb	-11.0163
▁abstract	-11.0163
▁absurd	-11.0163
▁abusing	-11.0163
▁accountant	-11.0163
▁accumulate	-11.0163
▁accurately	-11.0163
▁accustomed	-11.0163
▁achievable	-11.0163
▁acquaintance	-11.0163
▁acute	-11.0163
▁adamant	-11.0163
▁adapting	-11.0163
▁adaptive	-11.0163
▁addictive	-11.0163
▁additionally	-11.0163
▁adequately	-11.0163
▁adhere	-11.0163
▁adjust	-11.0163
▁admitted	-11.0163
▁admittedly	-11.0163
▁adolescent	-11.0163
▁adorable	-11.0163
▁advise	-11.0163
▁advocate	-11.0163
▁afterward	-11.0163
▁agent	-11.0163
▁agitated	-11.0163
▁ai	-11.0163
▁aide	-11.0163
▁alongside	-11.0163
▁alpha	-11.0163
▁ambulance	-11.0163
▁america	-11.0163
▁amplified	-11.0163
▁analogy	-11.0163
▁android	-11.0163
▁anguished	-11.0163
▁animating	-11.0163
▁animation	-11.0163
▁anonymously	-11.0163
▁ant	-11.0163
▁antisocial	-11.0163
▁anxiousness	-11.0163
▁apathy	-11.0163
▁apology	-11.0163
▁appears	-11.0163
▁appreciative	-11.0163
▁apprenticeship	-11.0163
▁approximately	-11.0163
▁arent	-11.0163
▁argues	-11.0163
▁arthritis	-11.0163
▁artwork	-11.0163
▁asexual	-11.0163
▁asian	-11.0163
▁aspergers	-11.0163
▁aspire	-11.0163
▁assigned	-11.0163
▁assisted	-11.0163
▁astonishing	-11.0163
▁attachment	-11.0163
▁attract	-11.0163
▁attribute	-11.0163
▁audition	-11.0163
▁autumn	-11.0163
▁awaits	-11.0163
▁axis	-11.0163
▁aziz	-11.0163
▁babe	-11.0163
▁backstory	-11.0163
▁balcony	-11.0163
▁banging	-11.0163
▁bare	-11.0163
▁barefoot	-11.0163
▁baseline	-11.0163
▁basement	-11.0163
▁bat	-11.0163
▁bath	-11.0163
▁battlefield	-11.0163
▁bay	-11.0163
▁beach	-11.0163
▁beatles	-11.0163
▁bedtime	-11.0163
▁behave	-11.0163
▁behold	-11.0163
▁belonged	-11.0163
▁beneficial	-11.0163
▁benefited	-11.0163
▁beta	-11.0163
▁bible	-11.0163
▁billie	-11.0163
▁binge	-11.0163
▁bio	-11.0163
▁bleach	-11.0163
▁bleeding	-11.0163
▁blew	-11.0163
▁blooming	-11.0163
▁blowing	-11.0163
▁blueberry	-11.0163
▁boiled	-11.0163
▁bombing	-11.0163
▁boo	-11.0163
▁booked	-11.0163
▁boot	-11.0163
▁border	-11.0163
▁boxing	-11.0163
▁brake	-11.0163
▁bread	-11.0163
▁breeze	-11.0163
▁browsing	-11.0163
▁brunch	-11.0163
▁brutal	-11.0163
▁buddha	-11.0163
▁buddhist	-11.0163
▁burger	-11.0163
▁bustling	-11.0163
▁byproduct	-11.0163
▁cabin	-11.0163
▁calmness	-11.0163
▁camera	-11.0163
▁canceled	-11.0163
▁candidate	-11.0163
▁cannabis	-11.0163
▁capitalism	-11.0163
▁caregiver	-11.0163
▁carried	-11.0163
▁carter	-11.0163
▁casual	-11.0163
▁cave	-11.0163
▁ceiling	-11.0163
▁celebrating	-11.0163
▁cent	-11.0163
▁charming	-11.0163
▁chatter	-11.0163
▁cheaper	-11.0163
▁cheerleader	-11.0163
▁chemistry	-11.0163
▁chew	-11.0163
▁childish	-11.0163
▁chillls	-11.0163
▁chin	-11.0163
▁china	-11.0163
▁chip	-11.0163
▁choking	-11.0163
▁chooses	-11.0163
▁choosing	-11.0163
▁chuckle	-11.0163
▁cinematic	-11.0163
▁civil	-11.0163
▁cleaned	-11.0163
▁cleaner	-11.0163
▁cleared	-11.0163
▁clenched	-11.0163
▁climb	-11.0163
▁closing	-11.0163
▁clueless	-11.0163
▁clumsy	-11.0163
▁cocoon	-11.0163
▁cognitively	-11.0163
▁coin	-11.0163
▁coincidence	-11.0163
▁collapse	-11.0163
▁collect	-11.0163
▁collective	-11.0163
▁colorful	-11.0163
▁colouring	-11.0163
▁column	-11.0163
▁combat	-11.0163
▁combine	-11.0163
▁combining	-11.0163
▁comedian	-11.0163
▁comfy	-11.0163
▁compelled	-11.0163
▁compete	-11.0163
▁complaint	-11.0163
▁component	-11.0163
▁compromise	-11.0163
▁compulsive	-11.0163
▁conduct	-11.0163
▁confined	-11.0163
▁consent	-11.0163
▁consist	-11.0163
▁constraint	-11.0163
▁consultation	-11.0163
▁container	-11.0163
▁contend	-11.0163
▁continually	-11.0163
▁continuous	-11.0163
▁continuously	-11.0163
▁conventionally	-11.0163
▁conversion	-11.0163
▁convincingly	-11.0163
▁coordinator	-11.0163
▁correlation	-11.0163
▁cosmic	-11.0163
▁counsellor	-11.0163
▁counteract	-11.0163
▁county	-11.0163
▁covidya	-11.0163
▁cow	-11.0163
▁cpa	-11.0163
▁cracked	-11.0163
▁crackhead	-11.0163
▁cramming	-11.0163
▁crave	-11.0163
▁craze	-11.0163
▁creature	-11.0163
▁creepy	-11.0163
▁crime	-11.0163
▁criticised	-11.0163
▁crowded	-11.0163
▁crown	-11.0163
▁crucial	-11.0163
▁cultivating	-11.0163
▁cutest	-11.0163
▁cwru	-11.0163
▁daddy	-11.0163
▁damaging	-11.0163
▁damned	-11.0163
▁darkest	-11.0163
▁daydream	-11.0163
▁deadbeat	-11.0163
▁debate	-11.0163
▁decline	-11.0163
▁defence	-11.0163
▁definite	-11.0163
▁deliberate	-11.0163
▁deliver	-11.0163
▁delivering	-11.0163
▁derive	-11.0163
▁describing	-11.0163
▁deserving	-11.0163
▁destined	-11.0163
▁destiny	-11.0163
▁destress	-11.0163
▁detox	-11.0163
▁developmental	-11.0163
▁devil	-11.0163
▁devoid	-11.0163
▁devotion	-11.0163
▁diarrhea	-11.0163
▁dieing	-11.0163
▁digestion	-11.0163
▁digestive	-11.0163
▁dilemma	-11.0163
▁dimension	-11.0163
▁diminished	-11.0163
▁dirt	-11.0163
▁disagreement	-11.0163
▁disappeared	-11.0163
▁disengagement	-11.0163
▁disney	-11.0163
▁disrupt	-11.0163
▁dissonance	-11.0163
▁distanced	-11.0163
▁distancing	-11.0163
▁distribution	-11.0163
▁dna	-11.0163
▁doc	-11.0163
▁doll	-11.0163
▁donate	-11.0163
▁donating	-11.0163
▁doom	-11.0163
▁doomed	-11.0163
▁dos	-11.0163
▁dosage	-11.0163
▁downward	-11.0163
▁dragon	-11.0163
▁dreaming	-11.0163
▁drone	-11.0163
▁dual	-11.0163
▁dug	-11.0163
▁duh	-11.0163
▁dumping	-11.0163
▁dunno	-11.0163
▁duty	-11.0163
▁dynamic	-11.0163
▁earpiece	-11.0163
▁earthquake	-11.0163
▁eased	-11.0163
▁economic	-11.0163
▁ecstatic	-11.0163
▁edgy	-11.0163
▁efficiently	-11.0163
▁effortless	-11.0163
▁effortlessly	-11.0163
▁eg	-11.0163
▁eight	-11.0163
▁eilish	-11.0163
▁eli	-11.0163
▁elon	-11.0163
▁emotionless	-11.0163
▁empower	-11.0163
▁empowered	-11.0163
▁empowerment	-11.0163
▁enables	-11.0163
▁encourage	-11.0163
▁encourages	-11.0163
▁encouraging	-11.0163
▁endeavour	-11.0163
▁ensuring	-11.0163
▁enthusiasm	-11.0163
▁entirety	-11.0163
▁entrepreneurial	-11.0163
▁equally	-11.0163
▁errand	-11.0163
▁escaped	-11.0163
▁escaping	-11.0163
▁eternally	-11.0163
▁eventual	-11.0163
▁everlasting	-11.0163
▁evolutionary	-11.0163
▁evolves	-11.0163
▁exhibition	-11.0163
▁existent	-11.0163
▁expense	-11.0163
▁explicit	-11.0163
▁exploding	-11.0163
▁exponentially	-11.0163
▁exposing	-11.0163
▁exposure	-11.0163
▁extraordinary	-11.0163
▁fantasizing	-11.0163
▁fearlessness	-11.0163
▁featured	-11.0163
▁feb	-11.0163
▁fed	-11.0163
▁fee	-11.0163
▁feeding	-11.0163
▁felon	-11.0163
▁fever	-11.0163
▁fifth	-11.0163
▁figment	-11.0163
▁figuring	-11.0163
▁fist	-11.0163
▁fittest	-11.0163
▁fixating	-11.0163
▁flag	-11.0163
▁flair	-11.0163
▁fling	-11.0163
▁float	-11.0163
▁flood	-11.0163
▁flourish	-11.0163
▁flowing	-11.0163
▁fluctuated	-11.0163
▁flunked	-11.0163
▁foggy	-11.0163
▁folded	-11.0163
▁forehead	-11.0163
▁foreign	-11.0163
▁forgets	-11.0163
▁forgiveness	-11.0163
▁formed	-11.0163
▁fourteen	-11.0163
▁frame	-11.0163
▁framed	-11.0163
▁framework	-11.0163
▁fraud	-11.0163
▁freaked	-11.0163
▁french	-11.0163
▁fried	-11.0163
▁frightening	-11.0163
▁ftm	-11.0163
▁fucken	-11.0163
▁fuhg	-11.0163
▁fulfils	-11.0163
▁fundamentally	-11.0163
▁funniest	-11.0163
▁gang	-11.0163
▁garage	-11.0163
▁gardening	-11.0163
▁gatekeeper	-11.0163
▁gateway	-11.0163
▁generalized	-11.0163
▁generate	-11.0163
▁genetic	-11.0163
▁genetics	-11.0163
▁genius	-11.0163
▁genre	-11.0163
▁geographic	-11.0163
▁gesture	-11.0163
▁giggle	-11.0163
▁glance	-11.0163
▁gosh	-11.0163
▁gossip	-11.0163
▁grammy	-11.0163
▁grandparent	-11.0163
▁granted	-11.0163
▁graph	-11.0163
▁gratefulness	-11.0163
▁grueling	-11.0163
▁guessed	-11.0163
▁guideline	-11.0163
▁gutted	-11.0163
▁halfway	-11.0163
▁hallway	-11.0163
▁ham	-11.0163
▁handed	-11.0163
▁harassment	-11.0163
▁harbor	-11.0163
▁harmony	-11.0163
▁healer	-11.0163
▁healthiest	-11.0163
▁heartbeat	-11.0163
▁heated	-11.0163
▁heath	-11.0163
▁heaven	-11.0163
▁heavenly	-11.0163
▁hectic	-11.0163
▁heroin	-11.0163
▁hesitate	-11.0163
▁hh	-11.0163
▁hid	-11.0163
▁highway	-11.0163
▁hike	-11.0163
▁himalaya	-11.0163
▁hired	-11.0163
▁hiring	-11.0163
▁hive	-11.0163
▁homophobic	-11.0163
▁horny	-11.0163
▁hosting	-11.0163
▁household	-11.0163
▁housemate	-11.0163
▁howtomeditate	-11.0163
▁humored	-11.0163
▁husk	-11.0163
▁hyperventilating	-11.0163
▁hypochondriac	-11.0163
▁ice	-11.0163
▁icon	-11.0163
▁idle	-11.0163
▁imaginary	-11.0163
▁inbox	-11.0163
▁inbreath	-11.0163
▁incident	-11.0163
▁incorporate	-11.0163
▁indicated	-11.0163
▁indication	-11.0163
▁indicator	-11.0163
▁indoors	-11.0163
▁ineffective	-11.0163
▁inflammation	-11.0163
▁injured	-11.0163
▁innovate	-11.0163
▁insidious	-11.0163
▁inspirational	-11.0163
▁inspired	-11.0163
▁instrument	-11.0163
▁instrumental	-11.0163
▁instrumentals	-11.0163
▁insufficient	-11.0163
▁insulting	-11.0163
▁integrity	-11.0163
▁intended	-11.0163
▁intentionally	-11.0163
▁intimate	-11.0163
▁intimidating	-11.0163
▁intuition	-11.0163
▁invalidated	-11.0163
▁inventory	-11.0163
▁involvement	-11.0163
▁inwards	-11.0163
▁io	-11.0163
▁iowa	-11.0163
▁ip	-11.0163
▁irb	-11.0163
▁itll	-11.0163
▁jeremyhughes	-11.0163
▁joe	-11.0163
▁joint	-11.0163
▁judgemental	-11.0163
▁jumbled	-11.0163
▁jus	-11.0163
▁k	-11.0163
▁kissed	-11.0163
▁klaus	-11.0163
▁knee	-11.0163
▁knock	-11.0163
▁la	-11.0163
▁label	-11.0163
▁labor	-11.0163
▁lacking	-11.0163
▁lake	-11.0163
▁largest	-11.0163
▁latter	-11.0163
▁launch	-11.0163
▁launching	-11.0163
▁lease	-11.0163
▁legitimate	-11.0163
▁leverage	-11.0163
▁levin	-11.0163
▁liberate	-11.0163
▁liege	-11.0163
▁lifelong	-11.0163
▁lifting	-11.0163
▁limitation	-11.0163
▁lingers	-11.0163
▁lionel	-11.0163
▁listener	-11.0163
▁lit	-11.0163
▁litterally	-11.0163
▁litteraly	-11.0163
▁livestream	-11.0163
▁loaded	-11.0163
▁loathe	-11.0163
▁logging	-11.0163
▁lord	-11.0163
▁lowered	-11.0163
▁lust	-11.0163
▁mae	-11.0163
▁magazine	-11.0163
▁magnitude	-11.0163
▁maharshi	-11.0163
▁maintains	-11.0163
▁manages	-11.0163
▁mandatory	-11.0163
▁manifestation	-11.0163
▁manifesting	-11.0163
▁manipulating	-11.0163
▁martin	-11.0163
▁masking	-11.0163
▁mass	-11.0163
▁mastering	-11.0163
▁masturbate	-11.0163
▁masturbation	-11.0163
▁mccartney	-11.0163
▁mechanical	-11.0163
▁mediation	-11.0163
▁medicated	-11.0163
▁meditated	-11.0163
▁mega	-11.0163
▁meh	-11.0163
▁mentality	-11.0163
▁mentioning	-11.0163
▁merely	-11.0163
▁meridian	-11.0163
▁microwave	-11.0163
▁midst	-11.0163
▁mindedness	-11.0163
▁mini	-11.0163
▁mod	-11.0163
▁moderator	-11.0163
▁molested	-11.0163
▁monitor	-11.0163
▁monumental	-11.0163
▁moreso	-11.0163
▁morphed	-11.0163
▁mumbai	-11.0163
▁musician	-11.0163
▁musk	-11.0163
▁namely	-11.0163
▁nap	-11.0163
▁napoleon	-11.0163
▁narcissism	-11.0163
▁narrative	-11.0163
▁nasal	-11.0163
▁nasty	-11.0163
▁native	-11.0163
▁nauseated	-11.0163
▁nealy	-11.0163
▁nearby	-11.0163
▁needy	-11.0163
▁neglecting	-11.0163
▁nephew	-11.0163
▁net	-11.0163
▁neurotransmitter	-11.0163
▁nevertheless	-11.0163
▁newhart	-11.0163
▁newspaper	-11.0163
▁nicely	-11.0163
▁nicotine	-11.0163
▁niece	-11.0163
▁nihilist	-11.0163
▁nonchalantly	-11.0163
▁nonetheless	-11.0163
▁norepinephrine	-11.0163
▁norm	-11.0163
▁nurture	-11.0163
▁ny	-11.0163
▁obligated	-11.0163
▁obligation	-11.0163
▁oblivion	-11.0163
▁obtain	-11.0163
▁occurs	-11.0163
▁orb	-11.0163
▁ordered	-11.0163
▁organised	-11.0163
▁orientation	-11.0163
▁oriented	-11.0163
▁outbreath	-11.0163
▁outcast	-11.0163
▁outright	-11.0163
▁overloaded	-11.0163
▁overpower	-11.0163
▁overrated	-11.0163
▁overwork	-11.0163
▁owning	-11.0163
▁painkiller	-11.0163
▁palm	-11.0163
▁pandora	-11.0163
▁paralyzed	-11.0163
▁partial	-11.0163
▁partially	-11.0163
▁participated	-11.0163
▁pat	-11.0163
▁payed	-11.0163
▁perceivable	-11.0163
▁perceived	-11.0163
▁performed	-11.0163
▁performing	-11.0163
▁periodically	-11.0163
▁perk	-11.0163
▁permit	-11.0163
▁ph	-11.0163
▁pitched	-11.0163
▁pituitary	-11.0163
▁pivoting	-11.0163
▁platonic	-11.0163
▁player	-11.0163
▁pleasant	-11.0163
▁pleased	-11.0163
▁plot	-11.0163
▁plum	-11.0163
▁poem	-11.0163
▁poison	-11.0163
▁polish	-11.0163
▁politician	-11.0163
▁pool	-11.0163
▁popping	-11.0163
▁posture	-11.0163
▁pouring	-11.0163
▁poverty	-11.0163
▁powerless	-11.0163
▁practically	-11.0163
▁precise	-11.0163
▁predator	-11.0163
▁predictable	-11.0163
▁predicting	-11.0163
▁prepares	-11.0163
▁prescribe	-11.0163
▁president	-11.0163
▁prestigious	-11.0163
▁prevents	-11.0163
▁pride	-11.0163
▁prioritise	-11.0163
▁prioritize	-11.0163
▁probable	-11.0163
▁proceed	-11.0163
▁programmer	-11.0163
▁promo	-11.0163
▁promote	-11.0163
▁promoting	-11.0163
▁proposal	-11.0163
▁protected	-11.0163
▁publicly	-11.0163
▁published	-11.0163
▁pursued	-11.0163
▁pussy	-11.0163
▁quickest	-11.0163
▁rabbit	-11.0163
▁raffle	-11.0163
▁rainy	-11.0163
▁rake	-11.0163
▁ramble	-11.0163
▁rat	-11.0163
▁razor	-11.0163
▁realignment	-11.0163
▁reassurance	-11.0163
▁recall	-11.0163
▁receives	-11.0163
▁recession	-11.0163
▁recommended	-11.0163
▁recurrent	-11.0163
▁recurring	-11.0163
▁refresh	-11.0163
▁registered	-11.0163
▁regulate	-11.0163
▁rehab	-11.0163
▁reject	-11.0163
▁relates	-11.0163
▁relation	-11.0163
▁relies	-11.0163
▁reluctant	-11.0163
▁remains	-11.0163
▁repetitiveness	-11.0163
▁replaceable	-11.0163
▁replay	-11.0163
▁replicate	-11.0163
▁reported	-11.0163
▁representative	-11.0163
▁requesting	-11.0163
▁resented	-11.0163
▁resolving	-11.0163
▁resonate	-11.0163
▁responded	-11.0163
▁responder	-11.0163
▁restlessness	-11.0163
▁retard	-11.0163
▁rethink	-11.0163
▁retire	-11.0163
▁reveals	-11.0163
▁reverts	-11.0163
▁revolve	-11.0163
▁rightfully	-11.0163
▁ring	-11.0163
▁ripped	-11.0163
▁rlly	-11.0163
▁rob	-11.0163
▁rocket	-11.0163
▁rocky	-11.0163
▁roleplaying	-11.0163
▁rolled	-11.0163
▁roomie	-11.0163
▁roughly	-11.0163
▁rushed	-11.0163
▁sack	-11.0163
▁sacrifice	-11.0163
▁sandwich	-11.0163
▁sarcastic	-11.0163
▁satan	-11.0163
▁savior	-11.0163
▁scratched	-11.0163
▁scrolled	-11.0163
▁seat	-11.0163
▁secondly	-11.0163
▁sedated	-11.0163
▁sensory	-11.0163
▁seroquel	-11.0163
▁serotonin	-11.0163
▁served	-11.0163
▁severity	-11.0163
▁sexually	-11.0163
▁shattered	-11.0163
▁sheep	-11.0163
▁ship	-11.0163
▁shivering	-11.0163
▁shock	-11.0163
▁shotgun	-11.0163
▁shouldnt	-11.0163
▁shove	-11.0163
▁showering	-11.0163
▁shuts	-11.0163
▁shutting	-11.0163
▁signal	-11.0163
▁simplest	-11.0163
▁singh	-11.0163
▁singing	-11.0163
▁sinking	-11.0163
▁sl	-11.0163
▁slammed	-11.0163
▁slave	-11.0163
▁sleepless	-11.0163
▁slide	-11.0163
▁slowed	-11.0163
▁sluggish	-11.0163
▁smaller	-11.0163
▁smooth	-11.0163
▁smth	-11.0163
▁socializing	-11.0163
▁soil	-11.0163
▁solace	-11.0163
▁solitary	-11.0163
▁solitude	-11.0163
▁someday	-11.0163
▁somone	-11.0163
▁sorta	-11.0163
▁sorted	-11.0163
▁sounding	-11.0163
▁spaced	-11.0163
▁spectacle	-11.0163
▁spectrum	-11.0163
▁spell	-11.0163
▁spiraled	-11.0163
▁spoon	-11.0163
▁square	-11.0163
▁stabbed	-11.0163
▁standalone	-11.0163
▁stating	-11.0163
▁stepfather	-11.0163
▁stephen	-11.0163
▁stiffness	-11.0163
▁stimulated	-11.0163
▁stock	-11.0163
▁stoicism	-11.0163
▁stole	-11.0163
▁stored	-11.0163
▁stray	-11.0163
▁streak	-11.0163
▁strike	-11.0163
▁strive	-11.0163
▁structured	-11.0163
▁subscriber	-11.0163
▁suffocated	-11.0163
▁suggests	-11.0163
▁sunrise	-11.0163
▁supervisory	-11.0163
▁supply	-11.0163
▁suppress	-11.0163
▁suppression	-11.0163
▁surgeon	-11.0163
▁surpass	-11.0163
▁surprisingly	-11.0163
▁survived	-11.0163
▁surviving	-11.0163
▁survivor	-11.0163
▁swearing	-11.0163
▁switched	-11.0163
▁switzerland	-11.0163
▁sympathetic	-11.0163
▁tab	-11.0163
▁tackle	-11.0163
▁tad	-11.0163
▁tasting	-11.0163
▁tech	-11.0163
▁technically	-11.0163
▁ted	-11.0163
▁television	-11.0163
▁temple	-11.0163
▁temptation	-11.0163
▁thanksgiving	-11.0163
▁theanine	-11.0163
▁thelma	-11.0163
▁thereafter	-11.0163
▁thick	-11.0163
▁threaten	-11.0163
▁threshold	-11.0163
▁tht	-11.0163
▁tick	-11.0163
▁ticket	-11.0163
▁tightly	-11.0163
▁tiktok	-11.0163
▁tinder	-11.0163
▁tingling	-11.0163
▁tiniest	-11.0163
▁tinnitus	-11.0163
▁tipping	-11.0163
▁tire	-11.0163
▁titled	-11.0163
▁toddler	-11.0163
▁tolerate	-11.0163
▁tom	-11.0163
▁toothache	-11.0163
▁toronto	-11.0163
▁torturous	-11.0163
▁tower	-11.0163
▁toxicity	-11.0163
▁trading	-11.0163
▁transness	-11.0163
▁transport	-11.0163
▁trashed	-11.0163
▁traumatized	-11.0163
▁traveling	-11.0163
▁travelling	-11.0163
▁treating	-11.0163
▁tremendously	-11.0163
▁tribe	-11.0163
▁triumph	-11.0163
▁trivial	-11.0163
▁trough	-11.0163
▁trustworthy	-11.0163
▁tumblr	-11.0163
▁tumour	-11.0163
▁twist	-11.0163
▁twitching	-11.0163
▁typo	-11.0163
▁ugliness	-11.0163
▁un	-11.0163
▁unaware	-11.0163
▁unbearably	-11.0163
▁unconditionally	-11.0163
▁unconsciously	-11.0163
▁underage	-11.0163
▁understandable	-11.0163
▁undiagnosed	-11.0163
▁undivided	-11.0163
▁undo	-11.0163
▁uneasiness	-11.0163
▁uneasy	-11.0163
▁unfulfilled	-11.0163
▁unintelligent	-11.0163
▁uninterrupted	-11.0163
▁united	-11.0163
▁unity	-11.0163
▁universal	-11.0163
▁unlucky	-11.0163
▁unnoticed	-11.0163
▁unpleasant	-11.0163
▁unpopular	-11.0163
▁unprepared	-11.0163
▁unproductive	-11.0163
▁unsuccessfully	-11.0163
▁unusual	-11.0163
▁unwell	-11.0163
▁urged	-11.0163
▁utterly	-11.0163
▁varying	-11.0163
▁veggie	-11.0163
▁vehicle	-11.0163
▁venture	-11.0163
▁verge	-11.0163
▁verification	-11.0163
▁verve	-11.0163
▁vibration	-11.0163
▁videogames	-11.0163
▁village	-11.0163
▁viral	-11.0163
▁virgin	-11.0163
▁visible	-11.0163
▁visitor	-11.0163
▁visualize	-11.0163
▁visually	-11.0163
▁volleyball	-11.0163
▁vote	-11.0163
▁walmart	-11.0163
▁wan	-11.0163
▁wander	-11.0163
▁warehouse	-11.0163
▁warmer	-11.0163
▁weapon	-11.0163
▁wednesday	-11.0163
▁weirdly	-11.0163
▁wether	-11.0163
▁whatnot	-11.0163
▁whereas	-11.0163
▁whisper	-11.0163
▁wiggle	-11.0163
▁wing	-11.0163
▁worldly	-11.0163
▁worldwide	-11.0163
▁wouldnt	-11.0163
▁wreck	-11.0163
▁wronged	-11.0163
▁xr	-11.0163
▁yall	-11.0163
▁yearns	-11.0163
▁yk	-11.0163
▁yogi	-11.0163
▁youre	-11.0163
▁zombie	-11.0163
▁abnormality	-11.4217
▁abolishing	-11.4217
▁aborted	-11.4217
▁abscess	-11.4217
▁ac	-11.4217
▁academy	-11.4217
▁accelerated	-11.4217
▁accepts	-11.4217
▁accompany	-11.4217
▁accordance	-11.4217
▁accounting	-11.4217
▁accurate	-11.4217
▁acidic	-11.4217
▁acknowledged	-11.4217
▁acquiring	-11.4217
▁acronym	-11.4217
▁actionable	-11.4217
▁activated	-11.4217
▁activation	-11.4217
▁activist	-11.4217
▁actualize	-11.4217
▁adaptable	-11.4217
▁additional	-11.4217
▁addressing	-11.4217
▁adhering	-11.4217
▁adjusted	-11.4217
▁admin	-11.4217
▁admins	-11.4217
▁admirable	-11.4217
▁admire	-11.4217
▁admitting	-11.4217
▁adrenalin	-11.4217
▁advocating	-11.4217
▁aesthetic	-11.4217
▁af	-11.4217
▁afar	-11.4217
▁afect	-11.4217
▁affair	-11.4217
▁african	-11.4217
▁afterthought	-11.4217
▁aggiemail	-11.4217
▁aggrieved	-11.4217
▁agonizing	-11.4217
▁agrees	-11.4217
▁aha	-11.4217
▁aiding	-11.4217
▁ailment	-11.4217
▁aimed	-11.4217
▁aimless	-11.4217
▁alabama	-11.4217
▁alarmingly	-11.4217
▁alcolism	-11.4217
▁alert	-11.4217
▁aliveness	-11.4217
▁aliviate	-11.4217
▁alkaline	-11.4217
▁alopecia	-11.4217
▁alprazolam	-11.4217
▁alrealdy	-11.4217
▁alteration	-11.4217
▁altough	-11.4217
▁altruism	-11.4217
▁alveolus	-11.4217
▁alzheimer	-11.4217
▁amaal	-11.4217
▁amazed	-11.4217
▁ambiance	-11.4217
▁ammount	-11.4217
▁amongst	-11.4217
▁analyzed	-11.4217
▁ancestor	-11.4217
▁anchor	-11.4217
▁andew	-11.4217
▁androgenetic	-11.4217
▁anemia	-11.4217
▁angelic	-11.4217
▁angle	-11.4217
▁angrier	-11.4217
▁anime	-11.4217
▁ankle	-11.4217
▁annoy	-11.4217
▁annoys	-11.4217
▁anonymity	-11.4217
▁anthropoligist	-11.4217
▁antidote	-11.4217
▁antinatalist	-11.4217
▁anyones	-11.4217
▁aphatic	-11.4217
▁appalled	-11.4217
▁appearence	-11.4217
▁applies	-11.4217
▁appreciating	-11.4217
▁approached	-11.4217
▁approve	-11.4217
▁appt	-11.4217
▁arbitrary	-11.4217
▁ard	-11.4217
▁argued	-11.4217
▁armed	-11.4217
▁arnold	-11.4217
▁aromatherapy	-11.4217
▁arrange	-11.4217
▁arranged	-11.4217
▁arrogant	-11.4217
▁artery	-11.4217
▁articulate	-11.4217
▁artistic	-11.4217
▁ascending	-11.4217
▁ascensionmeditation	-11.4217
▁asd	-11.4217
▁asf	-11.4217
▁asmi	-11.4217
▁asocially	-11.4217
▁asperger	-11.4217
▁ass	-11.4217
▁assist	-11.4217
▁asthma	-11.4217
▁aswell	-11.4217
▁atheist	-11.4217
▁athletic	-11.4217
▁atmosphere	-11.4217
▁atmospheric	-11.4217
▁atpeace	-11.4217
▁attach	-11.4217
▁attacking	-11.4217
▁attained	-11.4217
▁attended	-11.4217
▁audience	-11.4217
▁authorattn	-11.4217
▁auto	-11.4217
▁automatic	-11.4217
▁awaited	-11.4217
▁aways	-11.4217
▁awe	-11.4217
▁awry	-11.4217
▁awww	-11.4217
▁bachelor	-11.4217
▁backbone	-11.4217
▁backyard	-11.4217
▁bait	-11.4217
▁bake	-11.4217
▁balding	-11.4217
▁baldness	-11.4217
▁bar	-11.4217
▁barricade	-11.4217
▁basket	-11.4217
▁bathe	-11.4217
▁bathing	-11.4217
▁bawling	-11.4217
▁beaten	-11.4217
▁bee	-11.4217
▁beep	-11.4217
▁befor	-11.4217
▁befriend	-11.4217
▁behavioural	-11.4217
▁beige	-11.4217
▁beingness	-11.4217
▁belated	-11.4217
▁beleive	-11.4217
▁belgium	-11.4217
▁bench	-11.4217
▁benzo	-11.4217
▁berating	-11.4217
▁bestfriend	-11.4217
▁bestseller	-11.4217
▁betray	-11.4217
▁bfa	-11.4217
▁biafra	-11.4217
▁bich	-11.4217
▁biggies	-11.4217
▁billion	-11.4217
▁binging	-11.4217
▁biography	-11.4217
▁biologically	-11.4217
▁biology	-11.4217
▁biostatistics	-11.4217
▁blanchard	-11.4217
▁blemish	-11.4217
▁blesses	-11.4217
▁blm	-11.4217
▁blogger	-11.4217
▁blossom	-11.4217
▁blur	-11.4217
▁blurred	-11.4217
▁boiling	-11.4217
▁bombard	-11.4217
▁bookshelf	-11.4217
▁boom	-11.4217
▁boomer	-11.4217
▁boops	-11.4217
▁boosted	-11.4217
▁bore	-11.4217
▁boredom	-11.4217
▁boris	-11.4217
▁boss	-11.4217
▁bossa	-11.4217
▁bow	-11.4217
▁bragging	-11.4217
▁brat	-11.4217
▁brave	-11.4217
▁breast	-11.4217
▁breathed	-11.4217
▁brew	-11.4217
▁britain	-11.4217
▁british	-11.4217
▁broadly	-11.4217
▁bros	-11.4217
▁browse	-11.4217
▁bruise	-11.4217
▁bruised	-11.4217
▁brushed	-11.4217
▁buffet	-11.4217
▁buffett	-11.4217
▁bulimia	-11.4217
▁bulking	-11.4217
▁bull	-11.4217
▁bullet	-11.4217
▁bumpy	-11.4217
▁bungee	-11.4217
▁burdened	-11.4217
▁burdening	-11.4217
▁buried	-11.4217
▁butt	-11.4217
▁buttered	-11.4217
▁bystander	-11.4217
▁cafeteria	-11.4217
▁cafine	-11.4217
▁caller	-11.4217
▁calorie	-11.4217
▁cambodia	-11.4217
▁campaign	-11.4217
▁candid	-11.4217
▁canton	-11.4217
▁canucknaround	-11.4217
▁capstone	-11.4217
▁captain	-11.4217
▁caravan	-11.4217
▁carbongrit	-11.4217
▁cardio	-11.4217
▁carer	-11.4217
▁cascade	-11.4217
▁casting	-11.4217
▁casually	-11.4217
▁catastrophe	-11.4217
▁catastrophize	-11.4217
▁cater	-11.4217
▁cattle	-11.4217
▁cavity	-11.4217
▁ccna	-11.4217
▁cec	-11.4217
▁celebrated	-11.4217
▁celexa	-11.4217
▁cemetery	-11.4217
▁centered	-11.4217
▁centering	-11.4217
▁century	-11.4217
▁cert	-11.4217
▁certainty	-11.4217
▁certified	-11.4217
▁certify	-11.4217
▁chakra	-11.4217
▁chalked	-11.4217
▁challeged	-11.4217
▁challeges	-11.4217
▁chanting	-11.4217
▁chaotic	-11.4217
▁charitable	-11.4217
▁charles	-11.4217
▁chated	-11.4217
▁chatted	-11.4217
▁cheapskate	-11.4217
▁checkout	-11.4217
▁cheered	-11.4217
▁cheerful	-11.4217
▁cheesy	-11.4217
▁chef	-11.4217
▁chester	-11.4217
▁chevrolet	-11.4217
▁chillllll	-11.4217
▁chime	-11.4217
▁chipping	-11.4217
▁chirping	-11.4217
▁chocolate	-11.4217
▁chunk	-11.4217
▁ciggarettes	-11.4217
▁cinema	-11.4217
▁circuiting	-11.4217
▁circus	-11.4217
▁citizenship	-11.4217
▁claimed	-11.4217
▁claiming	-11.4217
▁clairvoyance	-11.4217
▁clamp	-11.4217
▁clapping	-11.4217
▁clash	-11.4217
▁classical	-11.4217
▁classify	-11.4217
▁classroom	-11.4217
▁claude	-11.4217
▁cleanse	-11.4217
▁cleft	-11.4217
▁clicked	-11.4217
▁cling	-11.4217
▁clinging	-11.4217
▁clocking	-11.4217
▁clonazapam	-11.4217
▁clonazepam	-11.4217
▁closet	-11.4217
▁cloth	-11.4217
▁clout	-11.4217
▁clown	-11.4217
▁clutter	-11.4217
▁cocky	-11.4217
▁coding	-11.4217
▁codo	-11.4217
▁coelho	-11.4217
▁coffin	-11.4217
▁coinbase	-11.4217
▁collapsed	-11.4217
▁collecting	-11.4217
▁collins	-11.4217
▁colon	-11.4217
▁combating	-11.4217
▁combustion	-11.4217
▁comfortability	-11.4217
▁commence	-11.4217
▁commends	-11.4217
▁commented	-11.4217
▁commenting	-11.4217
▁commerce	-11.4217
▁commission	-11.4217
▁commited	-11.4217
▁commiting	-11.4217
▁communicating	-11.4217
▁commuter	-11.4217
▁compatible	-11.4217
▁compensation	-11.4217
▁compiled	-11.4217
▁complained	-11.4217
▁compounding	-11.4217
▁compulsion	-11.4217
▁concussion	-11.4217
▁condemned	-11.4217
▁confidential	-11.4217
▁confines	-11.4217
▁confirming	-11.4217
▁conflicting	-11.4217
▁conform	-11.4217
▁conforming	-11.4217
▁confronting	-11.4217
▁congratulation	-11.4217
▁congressional	-11.4217
▁consedring	-11.4217
▁conservative	-11.4217
▁considerable	-11.4217
▁considers	-11.4217
▁consists	-11.4217
▁consitent	-11.4217
▁console	-11.4217
▁consolidate	-11.4217
▁consult	-11.4217
▁consumerism	-11.4217
▁contemptible	-11.4217
▁continously	-11.4217
▁continued	-11.4217
▁contradictory	-11.4217
▁contrary	-11.4217
▁controllable	-11.4217
▁controller	-11.4217
▁convenience	-11.4217
▁convenient	-11.4217
▁conventional	-11.4217
▁converted	-11.4217
▁conveyer	-11.4217
▁conviced	-11.4217
▁cooked	-11.4217
▁cooky	-11.4217
▁coordination	-11.4217
▁coped	-11.4217
▁copious	-11.4217
▁corp	-11.4217
▁corrected	-11.4217
▁corrupted	-11.4217
▁cortex	-11.4217
▁costly	-11.4217
▁countdown	-11.4217
▁coupled	-11.4217
▁courthouse	-11.4217
▁cozy	-11.4217
▁cramped	-11.4217
▁crew	-11.4217
▁criterion	-11.4217
▁critic	-11.4217
▁critically	-11.4217
▁criticizes	-11.4217
▁critter	-11.4217
▁crossing	-11.4217
▁crowed	-11.4217
▁crumble	-11.4217
▁crumbled	-11.4217
▁crybaby	-11.4217
▁crystal	-11.4217
▁crystallizes	-11.4217
▁cuddling	-11.4217
▁culmination	-11.4217
▁cultivate	-11.4217
▁cum	-11.4217
▁cursed	-11.4217
▁custody	-11.4217
▁cutler	-11.4217
▁cymbalta	-11.4217
▁cynical	-11.4217
▁dalio	-11.4217
▁damped	-11.4217
▁dangerously	-11.4217
▁dar	-11.4217
▁dared	-11.4217
▁darker	-11.4217
▁darkly	-11.4217
▁darn	-11.4217
▁dated	-11.4217
▁david	-11.4217
▁daybreaker	-11.4217
▁daycare	-11.4217
▁daytime	-11.4217
▁daze	-11.4217
▁dearly	-11.4217
▁deault	-11.4217
▁debating	-11.4217
▁deception	-11.4217
▁declined	-11.4217
▁declining	-11.4217
▁declutter	-11.4217
▁deed	-11.4217
▁deem	-11.4217
▁deemed	-11.4217
▁deems	-11.4217
▁default	-11.4217
▁defaulted	-11.4217
▁defending	-11.4217
▁defines	-11.4217
▁deflect	-11.4217
▁degrading	-11.4217
▁deity	-11.4217
▁delaying	-11.4217
▁delegate	-11.4217
▁delight	-11.4217
▁delirious	-11.4217
▁delta	-11.4217
▁demanding	-11.4217
▁demotivated	-11.4217
▁demotivation	-11.4217
▁dense	-11.4217
▁densest	-11.4217
▁deplete	-11.4217
▁deprivation	-11.4217
▁deprived	-11.4217
▁derby	-11.4217
▁dermatologist	-11.4217
▁desmotivated	-11.4217
▁despaired	-11.4217
▁destroy	-11.4217
▁destroys	-11.4217
▁destructed	-11.4217
▁destruction	-11.4217
▁detailing	-11.4217
▁detect	-11.4217
▁deteriorated	-11.4217
▁dev	-11.4217
▁devalues	-11.4217
▁devastate	-11.4217
▁devastated	-11.4217
▁devine	-11.4217
▁diafram	-11.4217
▁diametrically	-11.4217
▁dicided	-11.4217
▁dictator	-11.4217
▁dieting	-11.4217
▁differ	-11.4217
▁differs	-11.4217
▁dilation	-11.4217
▁dildo	-11.4217
▁dimattina	-11.4217
▁diminish	-11.4217
▁diminishing	-11.4217
▁dint	-11.4217
▁disappearing	-11.4217
▁disappears	-11.4217
▁disapproved	-11.4217
▁disassembling	-11.4217
▁disaster	-11.4217
▁disclaimer	-11.4217
▁discomfort	-11.4217
▁disconnect	-11.4217
▁discouragement	-11.4217
▁discussed	-11.4217
▁disfunctional	-11.4217
▁disgusted	-11.4217
▁disingenuous	-11.4217
▁dismiss	-11.4217
▁disordered	-11.4217
▁disowned	-11.4217
▁disposition	-11.4217
▁disproportionate	-11.4217
▁disregard	-11.4217
▁dissapointed	-11.4217
▁dissatisfaction	-11.4217
▁dissociate	-11.4217
▁distinct	-11.4217
▁distinction	-11.4217
▁distortion	-11.4217
▁distracting	-11.4217
▁distracts	-11.4217
▁disturb	-11.4217
▁divisional	-11.4217
▁divorce	-11.4217
▁documantaries	-11.4217
▁doer	-11.4217
▁dominate	-11.4217
▁dong	-11.4217
▁dopa	-11.4217
▁dope	-11.4217
▁dorky	-11.4217
▁dot	-11.4217
▁downsize	-11.4217
▁downvotes	-11.4217
▁downwards	-11.4217
▁dragged	-11.4217
▁drawn	-11.4217
▁dreading	-11.4217
▁dressed	-11.4217
▁drum	-11.4217
▁drunken	-11.4217
▁duly	-11.4217
▁dumbass	-11.4217
▁dumbed	-11.4217
▁dumber	-11.4217
▁dumbfounded	-11.4217
▁dump	-11.4217
▁dweck	-11.4217
▁dy	-11.4217
▁dysfunction	-11.4217
▁dysthimia	-11.4217
▁eachother	-11.4217
▁eager	-11.4217
▁earliest	-11.4217
▁eastern	-11.4217
▁eats	-11.4217
▁ebony	-11.4217
▁eeg	-11.4217
▁effecting	-11.4217
▁egotistical	-11.4217
▁eh	-11.4217
▁eighth	-11.4217
▁eith	-11.4217
▁ekg	-11.4217
▁elaborate	-11.4217
▁elation	-11.4217
▁elbow	-11.4217
▁elder	-11.4217
▁electric	-11.4217
▁electrical	-11.4217
▁electricity	-11.4217
▁electrotechnic	-11.4217
▁element	-11.4217
▁eliminating	-11.4217
▁elite	-11.4217
▁elope	-11.4217
▁embarassed	-11.4217
▁embarrass	-11.4217
▁embraced	-11.4217
▁emerged	-11.4217
▁emo	-11.4217
▁emotionality	-11.4217
▁emphaising	-11.4217
▁emphasize	-11.4217
▁emphasized	-11.4217
▁employer	-11.4217
▁employing	-11.4217
▁encephalitis	-11.4217
▁encountered	-11.4217
▁endeavoured	-11.4217
▁endgame	-11.4217
▁endometriosis	-11.4217
▁england	-11.4217
▁enhances	-11.4217
▁enhancing	-11.4217
▁enlivened	-11.4217
▁enourmous	-11.4217
▁enriching	-11.4217
▁enroll	-11.4217
▁ensures	-11.4217
▁entail	-11.4217
▁entertain	-11.4217
▁entity	-11.4217
▁entourage	-11.4217
▁entreprener	-11.4217
▁entry	-11.4217
▁envelope	-11.4217
▁enveloped	-11.4217
▁envied	-11.4217
▁equipped	-11.4217
▁eradicated	-11.4217
▁erect	-11.4217
▁erection	-11.4217
▁ergo	-11.4217
▁eric	-11.4217
▁escalate	-11.4217
▁escalated	-11.4217
▁escapist	-11.4217
▁escort	-11.4217
▁est	-11.4217
▁establish	-11.4217
▁estate	-11.4217
▁estranged	-11.4217
▁ethnicity	-11.4217
▁euphemism	-11.4217
▁europe	-11.4217
▁evaporate	-11.4217
▁eventhough	-11.4217
▁evicted	-11.4217
▁excelling	-11.4217
▁exceptionally	-11.4217
▁excercises	-11.4217
▁excessively	-11.4217
▁exclusively	-11.4217
▁excruciating	-11.4217
▁exhaust	-11.4217
▁exited	-11.4217
▁expanded	-11.4217
▁expanding	-11.4217
▁expansion	-11.4217
▁experiment	-11.4217
▁experimented	-11.4217
▁exploded	-11.4217
▁exploit	-11.4217
▁expose	-11.4217
▁expound	-11.4217
▁expressive	-11.4217
▁extend	-11.4217
▁extensively	-11.4217
▁externally	-11.4217
▁extinct	-11.4217
▁extinguish	-11.4217
▁extroverted	-11.4217
▁eyebrow	-11.4217
▁eyed	-11.4217
▁fabricated	-11.4217
▁facetimed	-11.4217
▁facilitate	-11.4217
▁factory	-11.4217
▁faded	-11.4217
▁fading	-11.4217
▁failling	-11.4217
▁fairness	-11.4217
▁falcon	-11.4217
▁falsely	-11.4217
▁fantasized	-11.4217
▁fase	-11.4217
▁fatal	-11.4217
▁fatigued	-11.4217
▁favor	-11.4217
▁fawk	-11.4217
▁faze	-11.4217
▁fb	-11.4217
▁feasible	-11.4217
▁feather	-11.4217
▁feellucky	-11.4217
▁felix	-11.4217
▁fella	-11.4217
▁fellowship	-11.4217
▁feminist	-11.4217
▁ferriss	-11.4217
▁festival	-11.4217
▁fifteen	-11.4217
▁filmmaker	-11.4217
▁finalised	-11.4217
▁fireplace	-11.4217
▁firmly	-11.4217
▁fitful	-11.4217
▁fixated	-11.4217
▁fk	-11.4217
▁flatmate	-11.4217
▁flatsharing	-11.4217
▁flavour	-11.4217
▁flinching	-11.4217
▁flipping	-11.4217
▁flooded	-11.4217
▁flooding	-11.4217
▁floss	-11.4217
▁flu	-11.4217
▁fluff	-11.4217
▁fluid	-11.4217
▁flushed	-11.4217
▁flutter	-11.4217
▁flying	-11.4217
▁fond	-11.4217
▁formal	-11.4217
▁format	-11.4217
▁formation	-11.4217
▁formatting	-11.4217
▁formidable	-11.4217
▁forming	-11.4217
▁forsee	-11.4217
▁fortunately	-11.4217
▁foul	-11.4217
▁fox	-11.4217
▁fpv	-11.4217
▁fractured	-11.4217
▁frail	-11.4217
▁frank	-11.4217
▁freelance	-11.4217
▁freestyle	-11.4217
▁freeze	-11.4217
▁freezing	-11.4217
▁freshens	-11.4217
▁fridaymorning	-11.4217
▁fridaymotivation	-11.4217
▁fridaythoughts	-11.4217
▁fridge	-11.4217
▁friendzoned	-11.4217
▁frightened	-11.4217
▁frizz	-11.4217
▁frizzle	-11.4217
▁frontline	-11.4217
▁fruitless	-11.4217
▁fulfilment	-11.4217
▁fuller	-11.4217
▁fullest	-11.4217
▁functionally	-11.4217
▁furious	-11.4217
▁furloughed	-11.4217
▁furry	-11.4217
▁fuvking	-11.4217
▁fwd	-11.4217
▁fyi	-11.4217
▁g	-11.4217
▁gabapentin	-11.4217
▁gabriel	-11.4217
▁gage	-11.4217
▁gale	-11.4217
▁gallstone	-11.4217
▁gambino	-11.4217
▁gamble	-11.4217
▁gambling	-11.4217
▁garmin	-11.4217
▁garyvee	-11.4217
▁gaslight	-11.4217
▁gatewaylocation	-11.4217
▁gauge	-11.4217
▁gaze	-11.4217
▁gear	-11.4217
▁gene	-11.4217
▁gently	-11.4217
▁george	-11.4217
▁germany	-11.4217
▁getsmartebooks	-11.4217
▁ghosting	-11.4217
▁giddy	-11.4217
▁gifted	-11.4217
▁gimmick	-11.4217
▁givebooks	-11.4217
▁gladness	-11.4217
▁glandular	-11.4217
▁gleaned	-11.4217
▁glimmer	-11.4217
▁globally	-11.4217
▁gloom	-11.4217
▁gloomy	-11.4217
▁glorified	-11.4217
▁glory	-11.4217
▁glow	-11.4217
▁glowing	-11.4217
▁googled	-11.4217
▁grabbing	-11.4217
▁graciously	-11.4217
▁grain	-11.4217
▁granddaughter	-11.4217
▁grandiose	-11.4217
▁granphater	-11.4217
▁gras	-11.4217
▁grazed	-11.4217
▁graziosi	-11.4217
▁greenspace	-11.4217
▁greenspaces	-11.4217
▁greet	-11.4217
▁greyhound	-11.4217
▁grinded	-11.4217
▁grit	-11.4217
▁groin	-11.4217
▁groom	-11.4217
▁groundbreaking	-11.4217
▁grp	-11.4217
▁grunt	-11.4217
▁guaranteed	-11.4217
▁guardian	-11.4217
▁guardianship	-11.4217
▁guest	-11.4217
▁guidedmeditation	-11.4217
▁guiding	-11.4217
▁guilted	-11.4217
▁gum	-11.4217
▁hack	-11.4217
▁hahaha	-11.4217
▁hahhaa	-11.4217
▁halloween	-11.4217
▁halted	-11.4217
▁handgun	-11.4217
▁hangout	-11.4217
▁hangover	-11.4217
▁happend	-11.4217
▁happg	-11.4217
▁harbored	-11.4217
▁harpreet	-11.4217
▁harshness	-11.4217
▁harvard	-11.4217
▁haryana	-11.4217
▁hasnt	-11.4217
▁hastily	-11.4217
▁haunted	-11.4217
▁haunting	-11.4217
▁haw	-11.4217
▁header	-11.4217
▁headline	-11.4217
▁healed	-11.4217
▁healthline	-11.4217
▁heatlh	-11.4217
▁heavily	-11.4217
▁heir	-11.4217
▁herbal	-11.4217
▁hereafter	-11.4217
▁hereunder	-11.4217
▁hernia	-11.4217
▁hero	-11.4217
▁hesitating	-11.4217
▁hever	-11.4217
▁hiatal	-11.4217
▁highbrow	-11.4217
▁highlighting	-11.4217
▁hilding	-11.4217
▁himan	-11.4217
▁hip	-11.4217
▁hmmm	-11.4217
▁hoax	-11.4217
▁hobble	-11.4217
▁holistic	-11.4217
▁homeschooling	-11.4217
▁homophobia	-11.4217
▁hood	-11.4217
▁hook	-11.4217
▁hooker	-11.4217
▁hop	-11.4217
▁hopelessness	-11.4217
▁horde	-11.4217
▁horrendous	-11.4217
▁horrific	-11.4217
▁hotline	-11.4217
▁howtobehappy	-11.4217
▁htp	-11.4217
▁huberman	-11.4217
▁hugely	-11.4217
▁huhu	-11.4217
▁hunched	-11.4217
▁hungover	-11.4217
▁hunting	-11.4217
▁hurricane	-11.4217
▁hussle	-11.4217
▁hydrogen	-11.4217
▁hypocritical	-11.4217
▁ibs	-11.4217
▁ic	-11.4217
▁icahn	-11.4217
▁icing	-11.4217
▁identified	-11.4217
▁idiocy	-11.4217
▁idiotic	-11.4217
▁illustrate	-11.4217
▁illustration	-11.4217
▁imagery	-11.4217
▁imaginative	-11.4217
▁imbalance	-11.4217
▁imessage	-11.4217
▁immigrated	-11.4217
▁imo	-11.4217
▁impactful	-11.4217
▁impartial	-11.4217
▁impatient	-11.4217
▁implemented	-11.4217
▁implementing	-11.4217
▁impress	-11.4217
▁impression	-11.4217
▁impressive	-11.4217
▁impulse	-11.4217
▁impulsively	-11.4217
▁inappropriate	-11.4217
▁inattention	-11.4217
▁incarnation	-11.4217
▁incontinent	-11.4217
▁inconvenience	-11.4217
▁incurable	-11.4217
▁indian	-11.4217
▁individually	-11.4217
▁indomitable	-11.4217
▁induce	-11.4217
▁inertia	-11.4217
▁inexplicably	-11.4217
▁infancy	-11.4217
▁infatuated	-11.4217
▁infinitesilence	-11.4217
▁inflatable	-11.4217
▁inflation	-11.4217
▁influenced	-11.4217
▁infused	-11.4217
▁inhabilitating	-11.4217
▁inhibit	-11.4217
▁inimitable	-11.4217
▁inject	-11.4217
▁inlove	-11.4217
▁innocent	-11.4217
▁inquiry	-11.4217
▁insensitive	-11.4217
▁insist	-11.4217
▁insists	-11.4217
▁instability	-11.4217
▁instantaneous	-11.4217
▁instigator	-11.4217
▁instilling	-11.4217
▁institution	-11.4217
▁institutionalised	-11.4217
▁instruction	-11.4217
▁insult	-11.4217
▁integrate	-11.4217
▁integrated	-11.4217
▁intel	-11.4217
▁intending	-11.4217
▁intends	-11.4217
▁intercourse	-11.4217
▁internalised	-11.4217
▁internalized	-11.4217
▁interrupt	-11.4217
▁interruption	-11.4217
▁intersection	-11.4217
▁intersex	-11.4217
▁interval	-11.4217
▁introduced	-11.4217
▁invades	-11.4217
▁inventing	-11.4217
▁investigating	-11.4217
▁invisible	-11.4217
▁invitation	-11.4217
▁involving	-11.4217
▁ironically	-11.4217
▁irrelevant	-11.4217
▁irreparable	-11.4217
▁irresponsibility	-11.4217
▁irritability	-11.4217
▁ishayas	-11.4217
▁ishtarhowell	-11.4217
▁israel	-11.4217
▁italy	-11.4217
▁iteration	-11.4217
▁ivf	-11.4217
▁jack	-11.4217
▁jacked	-11.4217
▁jail	-11.4217
▁jakepreddy	-11.4217
▁jan	-11.4217
▁jana	-11.4217
▁japan	-11.4217
▁je	-11.4217
▁jello	-11.4217
▁jelly	-11.4217
▁jelous	-11.4217
▁jen	-11.4217
▁jenkins	-11.4217
▁jiggle	-11.4217
▁jittery	-11.4217
▁jj	-11.4217
▁joked	-11.4217
▁joking	-11.4217
▁joleneobrien	-11.4217
▁joyful	-11.4217
▁joyous	-11.4217
▁juggle	-11.4217
▁jumb	-11.4217
▁jumbo	-11.4217
▁justice	-11.4217
▁keystone	-11.4217
▁killer	-11.4217
▁kinder	-11.4217
▁kindly	-11.4217
▁knocking	-11.4217
▁knowhow	-11.4217
▁korean	-11.4217
▁labour	-11.4217
▁lame	-11.4217
▁lamp	-11.4217
▁landlord	-11.4217
▁lasagna	-11.4217
▁lastly	-11.4217
▁latuda	-11.4217
▁laughably	-11.4217
▁laughted	-11.4217
▁lavish	-11.4217
▁lawn	-11.4217
▁lawson	-11.4217
▁leafing	-11.4217
▁leaked	-11.4217
▁leaking	-11.4217
▁leaning	-11.4217
▁leap	-11.4217
▁learner	-11.4217
▁leech	-11.4217
▁leftover	-11.4217
▁legal	-11.4217
▁legend	-11.4217
▁leisure	-11.4217
▁lend	-11.4217
▁lethal	-11.4217
▁lethargic	-11.4217
▁lgbtq	-11.4217
▁liberal	-11.4217
▁library	-11.4217
▁lighty	-11.4217
▁likelihood	-11.4217
▁likwise	-11.4217
▁limb	-11.4217
▁linking	-11.4217
▁lionsheartlifestyle	-11.4217
▁liquid	-11.4217
▁lisabergstrom	-11.4217
▁literary	-11.4217
▁liver	-11.4217
▁liverpool	-11.4217
▁livinginthemoment	-11.4217
▁loath	-11.4217
▁loathed	-11.4217
▁logo	-11.4217
▁loner	-11.4217
▁loom	-11.4217
▁loophole	-11.4217
▁loses	-11.4217
▁losserrrrrrr	-11.4217
▁lotta	-11.4217
▁lovable	-11.4217
▁lowering	-11.4217
▁lsd	-11.4217
▁lullaby	-11.4217
▁lupien	-11.4217
▁lurking	-11.4217
▁lymphoma	-11.4217
▁lyrical	-11.4217
▁madness	-11.4217
▁magnetic	-11.4217
▁maid	-11.4217
▁mail	-11.4217
▁managment	-11.4217
▁manga	-11.4217
▁mania	-11.4217
▁manifested	-11.4217
▁manipualtive	-11.4217
▁manipulation	-11.4217
▁mannequin	-11.4217
▁manufacturing	-11.4217
▁marketplace	-11.4217
▁marrying	-11.4217
▁marvelous	-11.4217
▁masculinity	-11.4217
▁masterful	-11.4217
▁masturbating	-11.4217
▁match	-11.4217
▁matched	-11.4217
▁mater	-11.4217
▁mathernal	-11.4217
▁matted	-11.4217
▁mattered	-11.4217
▁matthew	-11.4217
▁matured	-11.4217
▁maturely	-11.4217
▁max	-11.4217
▁maximum	-11.4217
▁mayo	-11.4217
▁mba	-11.4217
▁mcconaughey	-11.4217
▁mcdonalds	-11.4217
▁mci	-11.4217
▁mcu	-11.4217
▁mdd	-11.4217
▁meagrely	-11.4217
▁mealplan	-11.4217
▁measurement	-11.4217
▁measuring	-11.4217
▁mechatronics	-11.4217
▁medal	-11.4217
▁meditationteacher	-11.4217
▁medulla	-11.4217
▁meilin	-11.4217
▁mek	-11.4217
▁melatonin	-11.4217
▁melbourne	-11.4217
▁memorized	-11.4217
▁mendes	-11.4217
▁mending	-11.4217
▁meowing	-11.4217
▁merciful	-11.4217
▁mercilessly	-11.4217
▁mercurial	-11.4217
▁mercy	-11.4217
▁mere	-11.4217
▁merit	-11.4217
▁metal	-11.4217
▁meteor	-11.4217
▁meth	-11.4217
▁methodology	-11.4217
▁mexican	-11.4217
▁mexico	-11.4217
▁mf	-11.4217
▁michaeljames	-11.4217
▁mike	-11.4217
▁milder	-11.4217
▁mildly	-11.4217
▁milestone	-11.4217
▁mill	-11.4217
▁milla	-11.4217
▁millennials	-11.4217
▁minecraft	-11.4217
▁mineral	-11.4217
▁minimized	-11.4217
▁minority	-11.4217
▁minus	-11.4217
▁misbehaves	-11.4217
▁misfortune	-11.4217
▁misunderstanding	-11.4217
▁mitty	-11.4217
▁mixture	-11.4217
▁moan	-11.4217
▁modt	-11.4217
▁molecular	-11.4217
▁molecule	-11.4217
▁molesting	-11.4217
▁mommy	-11.4217
▁monastic	-11.4217
▁monk	-11.4217
▁moody	-11.4217
▁morale	-11.4217
▁morbid	-11.4217
▁morgan	-11.4217
▁moron	-11.4217
▁mortal	-11.4217
▁motor	-11.4217
▁mouthful	-11.4217
▁movember	-11.4217
▁mtv	-11.4217
▁mug	-11.4217
▁multimillionaires	-11.4217
▁mumbo	-11.4217
▁mundane	-11.4217
▁murdered	-11.4217
▁muted	-11.4217
▁muvespace	-11.4217
▁mxf	-11.4217
▁myriad	-11.4217
▁mystery	-11.4217
▁mystical	-11.4217
▁myth	-11.4217
▁nagging	-11.4217
▁naive	-11.4217
▁naked	-11.4217
▁nanci	-11.4217
▁narcisisstic	-11.4217
▁nat	-11.4217
▁navigate	-11.4217
▁nazi	-11.4217
▁nearest	-11.4217
▁necessity	-11.4217
▁necklace	-11.4217
▁needes	-11.4217
▁needle	-11.4217
▁neglectful	-11.4217
▁negotiation	-11.4217
▁neighborly	-11.4217
▁neighbour	-11.4217
▁netherlands	-11.4217
▁neuralgia	-11.4217
▁neuropathy	-11.4217
▁newbie	-11.4217
▁nicodimattina	-11.4217
▁nighttime	-11.4217
▁nightwish	-11.4217
▁nitpicks	-11.4217
▁nj	-11.4217
▁nod	-11.4217
▁noida	-11.4217
▁nomination	-11.4217
▁nonexistent	-11.4217
▁nonsensical	-11.4217
▁nonstop	-11.4217
▁nootropic	-11.4217
▁noregrets	-11.4217
▁nosedive	-11.4217
▁nothingness	-11.4217
▁noticeable	-11.4217
▁noticeably	-11.4217
▁noting	-11.4217
▁nova	-11.4217
▁obedient	-11.4217
▁obesity	-11.4217
▁observant	-11.4217
▁observing	-11.4217
▁obstetric	-11.4217
▁obstetrics	-11.4217
▁occupation	-11.4217
▁occur	-11.4217
▁oct	-11.4217
▁odds	-11.4217
▁ofcourse	-11.4217
▁offed	-11.4217
▁offended	-11.4217
▁offensive	-11.4217
▁officially	-11.4217
▁offload	-11.4217
▁ohhh	-11.4217
▁ohhhh	-11.4217
▁olympic	-11.4217
▁omg	-11.4217
▁oncoming	-11.4217
▁onlinesuccesgroup	-11.4217
▁openly	-11.4217
▁operates	-11.4217
▁operating	-11.4217
▁operation	-11.4217
▁operator	-11.4217
▁oppinion	-11.4217
▁oppose	-11.4217
▁oppressed	-11.4217
▁optimal	-11.4217
▁optimize	-11.4217
▁ordeal	-11.4217
▁ordering	-11.4217
▁organizing	-11.4217
▁orgasm	-11.4217
▁originating	-11.4217
▁orleans	-11.4217
▁orthogonal	-11.4217
▁ot	-11.4217
▁otherway	-11.4217
▁outburst	-11.4217
▁outer	-11.4217
▁outfit	-11.4217
▁outgoing	-11.4217
▁outsider	-11.4217
▁outstanding	-11.4217
▁outta	-11.4217
▁outwardly	-11.4217
▁outwards	-11.4217
▁ovary	-11.4217
▁oven	-11.4217
▁overate	-11.4217
▁overdosed	-11.4217
▁overdrive	-11.4217
▁overeating	-11.4217
▁overflowing	-11.4217
▁overhead	-11.4217
▁overhwelmed	-11.4217
▁overly	-11.4217
▁overthinks	-11.4217
▁overtime	-11.4217
▁overview	-11.4217
▁overwhelmingly	-11.4217
▁overworked	-11.4217
▁owes	-11.4217
▁owned	-11.4217
▁ownership	-11.4217
▁oy	-11.4217
▁paddle	-11.4217
▁painfully	-11.4217
▁painter	-11.4217
▁pairing	-11.4217
▁paltry	-11.4217
▁pam	-11.4217
▁paradoxically	-11.4217
▁paralized	-11.4217
▁paraphrasing	-11.4217
▁parenting	-11.4217
▁parking	-11.4217
▁passive	-11.4217
▁paste	-11.4217
▁pastry	-11.4217
▁pathology	-11.4217
▁patronizing	-11.4217
▁paulo	-11.4217
▁pausing	-11.4217
▁paving	-11.4217
▁payout	-11.4217
▁pcp	-11.4217
▁peaceandlove	-11.4217
▁peacefully	-11.4217
▁pearl	-11.4217
▁pepper	-11.4217
▁perceive	-11.4217
▁perceives	-11.4217
▁persecuted	-11.4217
▁persistent	-11.4217
▁pessimistic	-11.4217
▁petal	-11.4217
▁petition	-11.4217
▁pharma	-11.4217
▁phaternal	-11.4217
▁phenomenal	-11.4217
▁phenomenon	-11.4217
▁philippine	-11.4217
▁philipwade	-11.4217
▁philosopher	-11.4217
▁photography	-11.4217
▁physician	-11.4217
▁pianist	-11.4217
▁pie	-11.4217
▁piggyback	-11.4217
▁piling	-11.4217
▁pilot	-11.4217
▁pincher	-11.4217
▁pink	-11.4217
▁pissing	-11.4217
▁piteous	-11.4217
▁piti	-11.4217
▁pitying	-11.4217
▁plab	-11.4217
▁placing	-11.4217
▁planting	-11.4217
▁plasma	-11.4217
▁plea	-11.4217
▁plunged	-11.4217
▁poet	-11.4217
▁pointing	-11.4217
▁poisonous	-11.4217
▁poking	-11.4217
▁politics	-11.4217
▁pond	-11.4217
▁pony	-11.4217
▁poof	-11.4217
▁poorer	-11.4217
▁popsugar	-11.4217
▁portion	-11.4217
▁portray	-11.4217
▁portrayed	-11.4217
▁pose	-11.4217
▁possession	-11.4217
▁poster	-11.4217
▁pot	-11.4217
▁potato	-11.4217
▁potent	-11.4217
▁pouch	-11.4217
▁pr	-11.4217
▁practicality	-11.4217
▁prayed	-11.4217
▁preaching	-11.4217
▁precaution	-11.4217
▁precursor	-11.4217
▁predestined	-11.4217
▁predicament	-11.4217
▁predict	-11.4217
▁prejudice	-11.4217
▁prescriber	-11.4217
▁presentation	-11.4217
▁presently	-11.4217
▁pressing	-11.4217
▁pressured	-11.4217
▁pressuring	-11.4217
▁prestige	-11.4217
▁pretents	-11.4217
▁prevailed	-11.4217
▁prevalent	-11.4217
▁prevention	-11.4217
▁prey	-11.4217
▁pricing	-11.4217
▁prime	-11.4217
▁print	-11.4217
▁printed	-11.4217
▁problematic	-11.4217
▁procastinating	-11.4217
▁producer	-11.4217
▁producing	-11.4217
▁progressed	-11.4217
▁projected	-11.4217
▁projection	-11.4217
▁prolongs	-11.4217
▁prominent	-11.4217
▁pronoun	-11.4217
▁pronounce	-11.4217
▁propelled	-11.4217
▁prosperity	-11.4217
▁proved	-11.4217
▁provoke	-11.4217
▁prude	-11.4217
▁pry	-11.4217
▁pshyical	-11.4217
▁psychedelics	-11.4217
▁psychoanalysis	-11.4217
▁psychopath	-11.4217
▁psychopathic	-11.4217
▁psychosis	-11.4217
▁psychotherapy	-11.4217
▁puddle	-11.4217
▁pump	-11.4217
▁pyramid	-11.4217
▁q	-11.4217
▁queen	-11.4217
▁query	-11.4217
▁questionable	-11.4217
▁quicker	-11.4217
▁racism	-11.4217
▁radar	-11.4217
▁raging	-11.4217
▁rajasthan	-11.4217
▁randomised	-11.4217
▁randomized	-11.4217
▁rank	-11.4217
▁ranked	-11.4217
▁rapid	-11.4217
▁raping	-11.4217
▁rapist	-11.4217
▁rapper	-11.4217
▁rationalize	-11.4217
▁raver	-11.4217
▁reacted	-11.4217
▁reactionary	-11.4217
▁realigned	-11.4217
▁realy	-11.4217
▁reap	-11.4217
▁rearrange	-11.4217
▁rebutted	-11.4217
▁receptor	-11.4217
▁reciprocate	-11.4217
▁recommending	-11.4217
▁reconciling	-11.4217
▁rectified	-11.4217
▁redditors	-11.4217
▁redo	-11.4217
▁reduced	-11.4217
▁redundancy	-11.4217
▁redundant	-11.4217
▁reef	-11.4217
▁reel	-11.4217
▁refer	-11.4217
▁referencing	-11.4217
▁referred	-11.4217
▁referring	-11.4217
▁refinance	-11.4217
▁refined	-11.4217
▁refreshing	-11.4217
▁regain	-11.4217
▁regretted	-11.4217
▁reinforces	-11.4217
▁reinforcing	-11.4217
▁reinterpretation	-11.4217
▁rejoined	-11.4217
▁rejuvenate	-11.4217
▁relashionship	-11.4217
▁relatable	-11.4217
▁relearn	-11.4217
▁releaseyouranxietymonster	-11.4217
▁relied	-11.4217
▁relish	-11.4217
▁relocating	-11.4217
▁remained	-11.4217
▁remark	-11.4217
▁remarry	-11.4217
▁remedy	-11.4217
▁reminding	-11.4217
▁reminisce	-11.4217
▁remission	-11.4217
▁render	-11.4217
▁rendition	-11.4217
▁renovation	-11.4217
▁repayment	-11.4217
▁repetition	-11.4217
▁repetitive	-11.4217
▁replacing	-11.4217
▁replaying	-11.4217
▁repop	-11.4217
▁repost	-11.4217
▁represented	-11.4217
▁reprogram	-11.4217
▁reputable	-11.4217
▁reschedule	-11.4217
▁rescue	-11.4217
▁reshaping	-11.4217
▁resigned	-11.4217
▁resigning	-11.4217
▁resist	-11.4217
▁resonated	-11.4217
▁resonates	-11.4217
▁respective	-11.4217
▁responds	-11.4217
▁restful	-11.4217
▁restored	-11.4217
▁restrain	-11.4217
▁resulted	-11.4217
▁retention	-11.4217
▁retirement	-11.4217
▁retort	-11.4217
▁reveal	-11.4217
▁revenge	-11.4217
▁revenue	-11.4217
▁reviewed	-11.4217
▁revisited	-11.4217
▁revolution	-11.4217
▁revolutionary	-11.4217
▁revolved	-11.4217
▁revolves	-11.4217
▁rewarded	-11.4217
▁rewatch	-11.4217
▁rexulti	-11.4217
▁riddled	-11.4217
▁rider	-11.4217
▁rip	-11.4217
▁risked	-11.4217
▁risking	-11.4217
▁ritalin	-11.4217
▁riveter	-11.4217
▁rmd	-11.4217
▁robbing	-11.4217
▁robbins	-11.4217
▁rocking	-11.4217
▁roleplay	-11.4217
▁romance	-11.4217
▁romhack	-11.4217
▁roomates	-11.4217
▁rooted	-11.4217
▁rosie	-11.4217
▁rudeness	-11.4217
▁ruining	-11.4217
▁rural	-11.4217
▁russian	-11.4217
▁rx	-11.4217
▁sabotaging	-11.4217
▁sacrificing	-11.4217
▁saddest	-11.4217
▁safer	-11.4217
▁salary	-11.4217
▁salesman	-11.4217
▁salt	-11.4217
▁sam	-11.4217
▁san	-11.4217
▁sanctuary	-11.4217
▁sank	-11.4217
▁sansation	-11.4217
▁santayana	-11.4217
▁sas	-11.4217
▁satisficing	-11.4217
▁saturday	-11.4217
▁savouring	-11.4217
▁savransky	-11.4217
▁scam	-11.4217
▁scapegoat	-11.4217
▁scar	-11.4217
▁scent	-11.4217
▁scheduled	-11.4217
▁scheduling	-11.4217
▁scholar	-11.4217
▁schoolbook	-11.4217
▁schooler	-11.4217
▁schwarzenegger	-11.4217
▁scientific	-11.4217
▁scientifically	-11.4217
▁scolded	-11.4217
▁scored	-11.4217
▁scrawny	-11.4217
▁scrutinise	-11.4217
▁scumbags	-11.4217
▁secreted	-11.4217
▁secretion	-11.4217
▁secretly	-11.4217
▁sedating	-11.4217
▁seize	-11.4217
▁seldom	-11.4217
▁selfrealization	-11.4217
▁sended	-11.4217
▁senseless	-11.4217
▁sensitivity	-11.4217
▁sentimental	-11.4217
▁separating	-11.4217
▁separation	-11.4217
▁sept	-11.4217
▁servant	-11.4217
▁serving	-11.4217
▁settlement	-11.4217
▁sexist	-11.4217
▁sexuality	-11.4217
▁sexy	-11.4217
▁sf	-11.4217
▁shatters	-11.4217
▁shave	-11.4217
▁shaw	-11.4217
▁shedding	-11.4217
▁shelf	-11.4217
▁shelter	-11.4217
▁shifting	-11.4217
▁shittyasses	-11.4217
▁shocking	-11.4217
▁shortage	-11.4217
▁shouted	-11.4217
▁shouting	-11.4217
▁shoved	-11.4217
▁showbiz	-11.4217
▁showered	-11.4217
▁shrinking	-11.4217
▁shrug	-11.4217
▁shutdown	-11.4217
▁sidebar	-11.4217
▁sigh	-11.4217
▁sight	-11.4217
▁sikh	-11.4217
▁silently	-11.4217
▁simplicity	-11.4217
▁simplified	-11.4217
▁simulation	-11.4217
▁sinai	-11.4217
▁sincere	-11.4217
▁sits	-11.4217
▁sketchbook	-11.4217
▁skyball	-11.4217
▁skyrocketed	-11.4217
▁slamming	-11.4217
▁sleeper	-11.4217
▁sleepover	-11.4217
▁sleepwalking	-11.4217
▁slice	-11.4217
▁slipped	-11.4217
▁slit	-11.4217
▁slob	-11.4217
▁slothish	-11.4217
▁slower	-11.4217
▁slows	-11.4217
▁sludge	-11.4217
▁slut	-11.4217
▁smam	-11.4217
▁smartphone	-11.4217
▁smashed	-11.4217
▁smelled	-11.4217
▁smelling	-11.4217
▁smirking	-11.4217
▁smith	-11.4217
▁smoked	-11.4217
▁smoothly	-11.4217
▁snapchat	-11.4217
▁snappy	-11.4217
▁sneak	-11.4217
▁snowing	-11.4217
▁snowstorm	-11.4217
▁snri	-11.4217
▁sob	-11.4217
▁sobriety	-11.4217
▁soccer	-11.4217
▁sociable	-11.4217
▁sociopath	-11.4217
▁solar	-11.4217
▁solidity	-11.4217
▁somedays	-11.4217
▁somethin	-11.4217
▁sonething	-11.4217
▁sonia	-11.4217
▁soo	-11.4217
▁soriano	-11.4217
▁soulful	-11.4217
▁soundproofing	-11.4217
▁soviet	-11.4217
▁sp	-11.4217
▁spacey	-11.4217
▁spacier	-11.4217
▁sparked	-11.4217
▁spasm	-11.4217
▁spazzing	-11.4217
▁speculate	-11.4217
▁speeding	-11.4217
▁spends	-11.4217
▁spilling	-11.4217
▁spiralling	-11.4217
▁spoiling	-11.4217
▁sponsor	-11.4217
▁spontaneity	-11.4217
▁spontaneously	-11.4217
▁sporadic	-11.4217
▁spreader	-11.4217
▁sriramana	-11.4217
▁staff	-11.4217
▁stain	-11.4217
▁stair	-11.4217
▁staircase	-11.4217
▁stalker	-11.4217
▁stance	-11.4217
▁stanford	-11.4217
▁stared	-11.4217
▁statesman	-11.4217
▁stats	-11.4217
▁steady	-11.4217
▁steam	-11.4217
▁steered	-11.4217
▁steering	-11.4217
▁stemming	-11.4217
▁stepmother	-11.4217
▁stereotyped	-11.4217
▁stereotypical	-11.4217
▁sterssing	-11.4217
▁steve	-11.4217
▁sticky	-11.4217
▁stimulates	-11.4217
▁stimulating	-11.4217
▁stimulation	-11.4217
▁stint	-11.4217
▁stirring	-11.4217
▁stolen	-11.4217
▁stopppef	-11.4217
▁straighten	-11.4217
▁straightforward	-11.4217
▁strategic	-11.4217
▁stressfree	-11.4217
▁stressfully	-11.4217
▁stride	-11.4217
▁strongest	-11.4217
▁strssed	-11.4217
▁struck	-11.4217
▁stubbornness	-11.4217
▁stumbling	-11.4217
▁stunted	-11.4217
▁stupor	-11.4217
▁subscription	-11.4217
▁subsequent	-11.4217
▁subsequently	-11.4217
▁subsides	-11.4217
▁subtance	-11.4217
▁subtle	-11.4217
▁succeeds	-11.4217
▁succes	-11.4217
▁sucky	-11.4217
▁suffers	-11.4217
▁suggestible	-11.4217
▁suicidality	-11.4217
▁suicidewatch	-11.4217
▁suitcase	-11.4217
▁summarize	-11.4217
▁sunflower	-11.4217
▁superb	-11.4217
▁supercharge	-11.4217
▁superficial	-11.4217
▁superior	-11.4217
▁supermarket	-11.4217
▁superpower	-11.4217
▁suppressed	-11.4217
▁supreme	-11.4217
▁sur	-11.4217
▁surefire	-11.4217
▁surfing	-11.4217
▁surge	-11.4217
▁surrender	-11.4217
▁sustaining	-11.4217
▁sway	-11.4217
▁swaying	-11.4217
▁sweaty	-11.4217
▁sweep	-11.4217
▁swell	-11.4217
▁switching	-11.4217
▁swollen	-11.4217
▁swore	-11.4217
▁sympathy	-11.4217
▁synchronicity	-11.4217
▁synonymous	-11.4217
▁tacke	-11.4217
▁taco	-11.4217
▁tag	-11.4217
▁taichi	-11.4217
▁talented	-11.4217
▁talentless	-11.4217
▁tangibility	-11.4217
▁tasted	-11.4217
▁taxing	-11.4217
▁teddy	-11.4217
▁teething	-11.4217
▁telegram	-11.4217
▁telephone	-11.4217
▁telltale	-11.4217
▁temporal	-11.4217
▁tempting	-11.4217
▁tenet	-11.4217
▁tent	-11.4217
▁terrifies	-11.4217
▁terror	-11.4217
▁terrorist	-11.4217
▁testis	-11.4217
▁testosterone	-11.4217
▁tether	-11.4217
▁texas	-11.4217
▁thay	-11.4217
▁thc	-11.4217
▁therappy	-11.4217
▁thermometer	-11.4217
▁theyve	-11.4217
▁thin	-11.4217
▁thinning	-11.4217
▁thirsty	-11.4217
▁thlught	-11.4217
▁thoughs	-11.4217
▁thoughtctrl	-11.4217
▁thoughtful	-11.4217
▁thrilled	-11.4217
▁thrust	-11.4217
▁thug	-11.4217
▁thursday	-11.4217
▁thy	-11.4217
▁tia	-11.4217
▁tibet	-11.4217
▁tier	-11.4217
▁tiger	-11.4217
▁tim	-11.4217
▁timeframe	-11.4217
▁timely	-11.4217
▁tina	-11.4217
▁toiled	-11.4217
▁toiling	-11.4217
▁tolerates	-11.4217
▁tommorow	-11.4217
▁tony	-11.4217
▁torn	-11.4217
▁tortured	-11.4217
▁tossed	-11.4217
▁tote	-11.4217
▁tought	-11.4217
▁touring	-11.4217
▁tourist	-11.4217
▁trace	-11.4217
▁traced	-11.4217
▁tracing	-11.4217
▁traditional	-11.4217
▁tragedy	-11.4217
▁transcendence	-11.4217
▁transcendent	-11.4217
▁transecures	-11.4217
▁transfer	-11.4217
▁transferable	-11.4217
▁transformative	-11.4217
▁transformed	-11.4217
▁transition	-11.4217
▁translates	-11.4217
▁translating	-11.4217
▁trapping	-11.4217
▁travail	-11.4217
▁treacherous	-11.4217
▁treading	-11.4217
▁treadmill	-11.4217
▁trending	-11.4217
▁triangle	-11.4217
▁triathlete	-11.4217
▁tribulation	-11.4217
▁trigeminal	-11.4217
▁tripped	-11.4217
▁triumphant	-11.4217
▁troubling	-11.4217
▁truely	-11.4217
▁truthfully	-11.4217
▁tryptophan	-11.4217
▁tumbleweed	-11.4217
▁tummy	-11.4217
▁tweak	-11.4217
▁twisting	-11.4217
▁tycoon	-11.4217
▁tyson	-11.4217
▁ultramarathon	-11.4217
▁um	-11.4217
▁unachievable	-11.4217
▁unappreciative	-11.4217
▁unattainable	-11.4217
▁unattractive	-11.4217
▁unavoidable	-11.4217
▁unbelievably	-11.4217
▁uncaring	-11.4217
▁uncontrollable	-11.4217
▁uncoordinated	-11.4217
▁undecided	-11.4217
▁underdeveloped	-11.4217
▁underemployment	-11.4217
▁undergoing	-11.4217
▁underground	-11.4217
▁underperformed	-11.4217
▁underwent	-11.4217
▁undisputed	-11.4217
▁unequal	-11.4217
▁unfairly	-11.4217
▁unfamiliar	-11.4217
▁unfollowed	-11.4217
▁unfriended	-11.4217
▁unhappiness	-11.4217
▁unifying	-11.4217
▁unimaginable	-11.4217
▁uninspired	-11.4217
▁uninvited	-11.4217
▁unis	-11.4217
▁unlearn	-11.4217
▁unmatchable	-11.4217
▁unmatched	-11.4217
▁unreleased	-11.4217
▁unreliable	-11.4217
▁unrepresentative	-11.4217
▁unsuccessful	-11.4217
▁unsupervised	-11.4217
▁untrained	-11.4217
▁unwise	-11.4217
▁unworthy	-11.4217
▁updated	-11.4217
▁uplifted	-11.4217
▁uploaded	-11.4217
▁upped	-11.4217
▁upscale	-11.4217
▁upstairs	-11.4217
▁upturn	-11.4217
▁upvotes	-11.4217
▁usa	-11.4217
▁usb	-11.4217
▁uselessness	-11.4217
▁utc	-11.4217
▁utm	-11.4217
▁vacant	-11.4217
▁vacate	-11.4217
▁vaccinated	-11.4217
▁vain	-11.4217
▁validated	-11.4217
▁vancouver	-11.4217
▁vaping	-11.4217
▁variable	-11.4217
▁varied	-11.4217
▁vaso	-11.4217
▁vba	-11.4217
▁veg	-11.4217
▁vegan	-11.4217
▁vegus	-11.4217
▁vein	-11.4217
▁venlafaxin	-11.4217
▁verbal	-11.4217
▁vibrating	-11.4217
▁vibrator	-11.4217
▁vic	-11.4217
▁vicious	-11.4217
▁viewpoint	-11.4217
▁vigorus	-11.4217
▁vigour	-11.4217
▁violate	-11.4217
▁virtually	-11.4217
▁visualise	-11.4217
▁vocabulary	-11.4217
▁voiced	-11.4217
▁voiceless	-11.4217
▁volontarily	-11.4217
▁volume	-11.4217
▁vyvanse	-11.4217
▁wailing	-11.4217
▁walter	-11.4217
▁wandering	-11.4217
▁wandsworth	-11.4217
▁wannabe	-11.4217
▁warden	-11.4217
▁warming	-11.4217
▁warn	-11.4217
▁warnock	-11.4217
▁warzones	-11.4217
▁watering	-11.4217
▁watery	-11.4217
▁wavy	-11.4217
▁weaker	-11.4217
▁weakest	-11.4217
▁webpage	-11.4217
▁weighing	-11.4217
▁weighs	-11.4217
▁weighted	-11.4217
▁weirdo	-11.4217
▁wellbutrin	-11.4217
▁wfh	-11.4217
▁whack	-11.4217
▁whim	-11.4217
▁whine	-11.4217
▁whiner	-11.4217
▁whining	-11.4217
▁wholeheartedly	-11.4217
▁whoo	-11.4217
▁whta	-11.4217
▁widespread	-11.4217
▁wig	-11.4217
▁wilson	-11.4217
▁wiriter	-11.4217
▁wisely	-11.4217
▁wishful	-11.4217
▁witness	-11.4217
▁witnessed	-11.4217
▁woken	-11.4217
▁wonderland	-11.4217
▁wood	-11.4217
▁workaholic	-11.4217
▁workaholism	-11.4217
▁workflow	-11.4217
▁worm	-11.4217
▁worsening	-11.4217
▁worthiness	-11.4217
▁worthlessness	-11.4217
▁wouldve	-11.4217
▁wtf	-11.4217
▁wven	-11.4217
▁xan	-11.4217
▁yard	-11.4217
▁yee	-11.4217
▁yogic	-11.4217
▁youngest	-11.4217
▁youngster	-11.4217
▁youtuber	-11.4217
▁zen	-11.4217
▁aaoa	-12.1149
▁aarda	-12.1149
▁ab	-12.1149
▁abdomen	-12.1149
▁abdomin	-12.1149
▁abide	-12.1149
▁abject	-12.1149
▁aborigine	-12.1149
▁aboslutey	-12.1149
▁abrasion	-12.1149
▁abroad	-12.1149
▁abruptly	-12.1149
▁absorbing	-12.1149
▁abuela	-12.1149
▁accelerate	-12.1149
▁accidental	-12.1149
▁accidently	-12.1149
▁acclimated	-12.1149
▁accommodate	-12.1149
▁accommodating	-12.1149
▁accompanied	-12.1149
▁accompanying	-12.1149
▁accomplice	-12.1149
▁accumulated	-12.1149
▁accumulation	-12.1149
▁accusation	-12.1149
▁accusing	-12.1149
▁accusion	-12.1149
▁achieves	-12.1149
▁acne	-12.1149
▁acquired	-12.1149
▁acrid	-12.1149
▁actualized	-12.1149
▁adam	-12.1149
▁adaptability	-12.1149
▁adaptation	-12.1149
▁adapted	-12.1149
▁adjusting	-12.1149
▁administration	-12.1149
▁admiration	-12.1149
▁admired	-12.1149
▁adoptdontshop	-12.1149
▁adopting	-12.1149
▁adoration	-12.1149
▁advanced	-12.1149
▁advantageous	-12.1149
▁adventurous	-12.1149
▁adversely	-12.1149
▁advertise	-12.1149
▁advertisement	-12.1149
▁advising	-12.1149
▁advisory	-12.1149
▁aerobic	-12.1149
▁aeronautical	-12.1149
▁affable	-12.1149
▁affirming	-12.1149
▁afflicted	-12.1149
▁affords	-12.1149
▁affraid	-12.1149
▁afriad	-12.1149
▁afterlife	-12.1149
▁afterschool	-12.1149
▁agenda	-12.1149
▁aggressively	-12.1149
▁aging	-12.1149
▁agitation	-12.1149
▁agrophobic	-12.1149
▁ahhh	-12.1149
▁ahold	-12.1149
▁aimlessly	-12.1149
▁aimlessness	-12.1149
▁aircraft	-12.1149
▁airline	-12.1149
▁airplane	-12.1149
▁airport	-12.1149
▁aisle	-12.1149
▁akhiles	-12.1149
▁akhilesarmyofawesome	-12.1149
▁akin	-12.1149
▁aknowledged	-12.1149
▁al	-12.1149
▁alchemist	-12.1149
▁alchemy	-12.1149
▁alci	-12.1149
▁algebra	-12.1149
▁algorithm	-12.1149
▁alien	-12.1149
▁alienating	-12.1149
▁aligns	-12.1149
▁allegheny	-12.1149
▁allergic	-12.1149
▁allocated	-12.1149
▁allotted	-12.1149
▁allowance	-12.1149
▁allways	-12.1149
▁aloud	-12.1149
▁alphonse	-12.1149
▁alter	-12.1149
▁alters	-12.1149
▁altetness	-12.1149
▁alto	-12.1149
▁amaalzaza	-12.1149
▁amazings	-12.1149
▁amend	-12.1149
▁amends	-12.1149
▁amid	-12.1149
▁amidst	-12.1149
▁amino	-12.1149
▁ammal	-12.1149
▁amorphous	-12.1149
▁amounting	-12.1149
▁amphetamine	-12.1149
▁ample	-12.1149
▁amplify	-12.1149
▁amputation	-12.1149
▁amusement	-12.1149
▁analogously	-12.1149
▁analyse	-12.1149
▁analysis	-12.1149
▁analytical	-12.1149
▁anata	-12.1149
▁andrea	-12.1149
▁andrew	-12.1149
▁andy	-12.1149
▁anecdote	-12.1149
▁anesthesiology	-12.1149
▁aneurism	-12.1149
▁anew	-12.1149
▁ang	-12.1149
▁angsty	-12.1149
▁anhedonic	-12.1149
▁animalistic	-12.1149
▁animated	-12.1149
▁anki	-12.1149
▁ann	-12.1149
▁announcement	-12.1149
▁annoyance	-12.1149
▁annual	-12.1149
▁antacid	-12.1149
▁anthropology	-12.1149
▁antibody	-12.1149
▁anticipate	-12.1149
▁anticipation	-12.1149
▁antipsychotic	-12.1149
▁antonia	-12.1149
▁antything	-12.1149
▁anwser	-12.1149
▁anwsers	-12.1149
▁anxiolytic	-12.1149
▁anyday	-12.1149
▁anyhow	-12.1149
▁anythings	-12.1149
▁anywho	-12.1149
▁apnea	-12.1149
▁apocalyptic	-12.1149
▁apolitical	-12.1149
▁apologised	-12.1149
▁appaling	-12.1149
▁apparel	-12.1149
▁appart	-12.1149
▁appartement	-12.1149
▁appeal	-12.1149
▁appealing	-12.1149
▁appearing	-12.1149
▁apperenrly	-12.1149
▁appetizer	-12.1149
▁apppreactied	-12.1149
▁appraisal	-12.1149
▁appreicated	-12.1149
▁approaching	-12.1149
▁appropriate	-12.1149
▁appropriately	-12.1149
▁approves	-12.1149
▁approving	-12.1149
▁aptitude	-12.1149
▁arabic	-12.1149
▁arby	-12.1149
▁arctic	-12.1149
▁arduous	-12.1149
▁arguably	-12.1149
▁arhan	-12.1149
▁arleady	-12.1149
▁armchair	-12.1149
▁aroma	-12.1149
▁aromatic	-12.1149
▁arrangement	-12.1149
▁arrgh	-12.1149
▁arrh	-12.1149
▁artistry	-12.1149
▁asfff	-12.1149
▁ash	-12.1149
▁ashed	-12.1149
▁ashore	-12.1149
▁aspen	-12.1149
▁assaulted	-12.1149
▁assed	-12.1149
▁assert	-12.1149
▁assertiveness	-12.1149
▁asskisser	-12.1149
▁association	-12.1149
▁assortment	-12.1149
▁assumed	-12.1149
▁astral	-12.1149
▁astrology	-12.1149
▁astronomical	-12.1149
▁aswel	-12.1149
▁atlanta	-12.1149
▁atrittion	-12.1149
▁attaching	-12.1149
▁attracting	-12.1149
▁attractiveness	-12.1149
▁attuned	-12.1149
▁aussie	-12.1149
▁austin	-12.1149
▁australian	-12.1149
▁authenticity	-12.1149
▁authority	-12.1149
▁authorized	-12.1149
▁autocad	-12.1149
▁automated	-12.1149
▁automotive	-12.1149
▁autopsy	-12.1149
▁avail	-12.1149
▁availability	-12.1149
▁avalanche	-12.1149
▁avatar	-12.1149
▁avenue	-12.1149
▁aversion	-12.1149
▁avoids	-12.1149
▁avoir	-12.1149
▁await	-12.1149
▁awarded	-12.1149
▁awkwardly	-12.1149
▁awnser	-12.1149
▁aww	-12.1149
▁axiety	-12.1149
▁aztec	-12.1149
▁babbling	-12.1149
▁baboon	-12.1149
▁babysitter	-12.1149
▁backfire	-12.1149
▁backing	-12.1149
▁backlag	-12.1149
▁backpack	-12.1149
▁backsliding	-12.1149
▁backspaced	-12.1149
▁backstories	-12.1149
▁bacteria	-12.1149
▁badge	-12.1149
▁baffled	-12.1149
▁baffling	-12.1149
▁baggier	-12.1149
▁bail	-12.1149
▁bailed	-12.1149
▁balantly	-12.1149
▁baldy	-12.1149
▁balles	-12.1149
▁bam	-12.1149
▁ban	-12.1149
▁bandaid	-12.1149
▁banger	-12.1149
▁bangin	-12.1149
▁bankrupt	-12.1149
▁bankruptcy	-12.1149
▁banter	-12.1149
▁barbiee	-12.1149
▁barrel	-12.1149
▁barren	-12.1149
▁baseball	-12.1149
▁bashed	-12.1149
▁basicly	-12.1149
▁batting	-12.1149
▁bawl	-12.1149
▁bbq	-12.1149
▁bcak	-12.1149
▁beabadoobee	-12.1149
▁beachside	-12.1149
▁beacuse	-12.1149
▁bearing	-12.1149
▁bearly	-12.1149
▁beautifully	-12.1149
▁becausw	-12.1149
▁beckons	-12.1149
▁bedding	-12.1149
▁bedwetting	-12.1149
▁beed	-12.1149
▁beeing	-12.1149
▁beem	-12.1149
▁beforelife	-12.1149
▁befriending	-12.1149
▁beggar	-12.1149
▁beggining	-12.1149
▁behalf	-12.1149
▁behavioral	-12.1149
▁behavoir	-12.1149
▁beholder	-12.1149
▁belching	-12.1149
▁belittle	-12.1149
▁belittling	-12.1149
▁belive	-12.1149
▁bella	-12.1149
▁belligerently	-12.1149
▁bellow	-12.1149
▁bemindfulonline	-12.1149
▁benadryl	-12.1149
▁benchmark	-12.1149
▁bender	-12.1149
▁bending	-12.1149
▁beneficially	-12.1149
▁bengaluru	-12.1149
▁bentley	-12.1149
▁beside	-12.1149
▁bestfriends	-12.1149
▁besties	-12.1149
▁bestselling	-12.1149
▁betrayal	-12.1149
▁betraying	-12.1149
▁bettering	-12.1149
▁beverage	-12.1149
▁bff	-12.1149
▁bhe	-12.1149
▁bhramari	-12.1149
▁biased	-12.1149
▁billing	-12.1149
▁bin	-12.1149
▁binary	-12.1149
▁binding	-12.1149
▁binged	-12.1149
▁birthed	-12.1149
▁bitcoin	-12.1149
▁bitten	-12.1149
▁bitterly	-12.1149
▁bitterness	-12.1149
▁blacked	-12.1149
▁blackpillers	-12.1149
▁bland	-12.1149
▁blast	-12.1149
▁blasted	-12.1149
▁blasting	-12.1149
▁blatantly	-12.1149
▁blend	-12.1149
▁blindsided	-12.1149
▁blink	-12.1149
▁blinking	-12.1149
▁blip	-12.1149
▁blissfully	-12.1149
▁bloated	-12.1149
▁blocker	-12.1149
▁blod	-12.1149
▁bloodstream	-12.1149
▁blundell	-12.1149
▁bodybuilding	-12.1149
▁bodywork	-12.1149
▁boeing	-12.1149
▁bogus	-12.1149
▁bombed	-12.1149
▁bomber	-12.1149
▁bona	-12.1149
▁bonjour	-12.1149
▁booster	-12.1149
▁booth	-12.1149
▁bootstrap	-12.1149
▁booze	-12.1149
▁borough	-12.1149
▁borrow	-12.1149
▁botched	-12.1149
▁bottling	-12.1149
▁bounce	-12.1149
▁bound	-12.1149
▁bpm	-12.1149
▁brace	-12.1149
▁bracket	-12.1149
▁braid	-12.1149
▁braincells	-12.1149
▁brainpower	-12.1149
▁brandish	-12.1149
▁breadth	-12.1149
▁breakneck	-12.1149
▁breakthrough	-12.1149
▁breathtaking	-12.1149
▁bride	-12.1149
▁bridging	-12.1149
▁brighten	-12.1149
▁broadcast	-12.1149
▁broadway	-12.1149
▁broccoli	-12.1149
▁bronson	-12.1149
▁brotherelisoriano	-12.1149
▁brow	-12.1149
▁browser	-12.1149
▁bud	-12.1149
▁budda	-12.1149
▁budding	-12.1149
▁buddy	-12.1149
▁budge	-12.1149
▁bugging	-12.1149
▁buggy	-12.1149
▁buisness	-12.1149
▁bulldog	-12.1149
▁bulletproof	-12.1149
▁bummer	-12.1149
▁bumping	-12.1149
▁bundled	-12.1149
▁burdnern	-12.1149
▁burg	-12.1149
▁burping	-12.1149
▁burshed	-12.1149
▁bury	-12.1149
▁busier	-12.1149
▁busyness	-12.1149
▁butter	-12.1149
▁button	-12.1149
▁byw	-12.1149
▁ca	-12.1149
▁cab	-12.1149
▁cabinet	-12.1149
▁cable	-12.1149
▁cacophony	-12.1149
▁cafe	-12.1149
▁cakewalk	-12.1149
▁caliber	-12.1149
▁california	-12.1149
▁camel	-12.1149
▁campground	-12.1149
▁camping	-12.1149
▁cancelling	-12.1149
▁candor	-12.1149
▁canola	-12.1149
▁canopy	-12.1149
▁capsule	-12.1149
▁captioned	-12.1149
▁capturing	-12.1149
▁caracterized	-12.1149
▁caregiving	-12.1149
▁careless	-12.1149
▁carl	-12.1149
▁carnegie	-12.1149
▁carnivorous	-12.1149
▁carol	-12.1149
▁carpet	-12.1149
▁carreer	-12.1149
▁cart	-12.1149
▁carve	-12.1149
▁casino	-12.1149
▁caster	-12.1149
▁castle	-12.1149
▁catacholamines	-12.1149
▁catalyst	-12.1149
▁catecholamine	-12.1149
▁caterpillar	-12.1149
▁catharsis	-12.1149
▁catherine	-12.1149
▁caving	-12.1149
▁cbc	-12.1149
▁ccertain	-12.1149
▁ceased	-12.1149
▁cedar	-12.1149
▁cegep	-12.1149
▁celebrity	-12.1149
▁cellphone	-12.1149
▁cellular	-12.1149
▁centralised	-12.1149
▁cerebral	-12.1149
▁cerified	-12.1149
▁cf	-12.1149
▁cfts	-12.1149
▁chairman	-12.1149
▁chakras	-12.1149
▁chamber	-12.1149
▁chamomile	-12.1149
▁characterize	-12.1149
▁charactestic	-12.1149
▁charging	-12.1149
▁charismatic	-12.1149
▁chartered	-12.1149
▁chattanooga	-12.1149
▁chattering	-12.1149
▁cheek	-12.1149
▁cheery	-12.1149
▁chegg	-12.1149
▁chem	-12.1149
▁chennai	-12.1149
▁cherokee	-12.1149
▁cherry	-12.1149
▁chewed	-12.1149
▁chewing	-12.1149
▁chez	-12.1149
▁chickened	-12.1149
▁cholesterol	-12.1149
▁chooser	-12.1149
▁chop	-12.1149
▁chopstick	-12.1149
▁chord	-12.1149
▁christ	-12.1149
▁chronicly	-12.1149
▁chtbl	-12.1149
▁chuckled	-12.1149
▁cinnamon	-12.1149
▁circuitry	-12.1149
▁circulating	-12.1149
▁citalopram	-12.1149
▁citified	-12.1149
▁civic	-12.1149
▁civilization	-12.1149
▁claivoyance	-12.1149
▁clambering	-12.1149
▁clarifying	-12.1149
▁claustrophobic	-12.1149
▁clay	-12.1149
▁cleanning	-12.1149
▁clearer	-12.1149
▁clerical	-12.1149
▁clerk	-12.1149
▁climax	-12.1149
▁climbed	-12.1149
▁clique	-12.1149
▁cloak	-12.1149
▁clocked	-12.1149
▁closely	-12.1149
▁closure	-12.1149
▁clouding	-12.1149
▁cloudy	-12.1149
▁clump	-12.1149
▁clutching	-12.1149
▁cm	-12.1149
▁cmo	-12.1149
▁cnn	-12.1149
▁coast	-12.1149
▁coaster	-12.1149
▁coaxing	-12.1149
▁coco	-12.1149
▁coconut	-12.1149
▁coerce	-12.1149
▁coeval	-12.1149
▁coexist	-12.1149
▁coexistence	-12.1149
▁cog	-12.1149
▁coherent	-12.1149
▁coivd	-12.1149
▁cole	-12.1149
▁collaborating	-12.1149
▁collaboration	-12.1149
▁collantes	-12.1149
▁collar	-12.1149
▁collobaration	-12.1149
▁colombo	-12.1149
▁colour	-12.1149
▁colourless	-12.1149
▁combined	-12.1149
▁comeback	-12.1149
▁comedic	-12.1149
▁comeing	-12.1149
▁comforted	-12.1149
▁comma	-12.1149
▁comming	-12.1149
▁commiserate	-12.1149
▁commiserating	-12.1149
▁commonality	-12.1149
▁communicated	-12.1149
▁communism	-12.1149
▁comorbid	-12.1149
▁companionship	-12.1149
▁competency	-12.1149
▁competent	-12.1149
▁competes	-12.1149
▁competing	-12.1149
▁compliance	-12.1149
▁complied	-12.1149
▁compose	-12.1149
▁composition	-12.1149
▁composure	-12.1149
▁comprehend	-12.1149
▁comprehensive	-12.1149
▁conceivable	-12.1149
▁conceptualization	-12.1149
▁concerta	-12.1149
▁conclude	-12.1149
▁concluding	-12.1149
▁concur	-12.1149
▁condemn	-12.1149
▁condescending	-12.1149
▁cone	-12.1149
▁conecernkng	-12.1149
▁confessed	-12.1149
▁confidencecoach	-12.1149
▁confidently	-12.1149
▁confirmation	-12.1149
▁conflicted	-12.1149
▁conformity	-12.1149
▁confronted	-12.1149
▁confuzzle	-12.1149
▁congratulate	-12.1149
▁congratulated	-12.1149
▁conjunction	-12.1149
▁consequently	-12.1149
▁consisentcy	-12.1149
▁consisting	-12.1149
▁conspiring	-12.1149
▁constally	-12.1149
▁constipation	-12.1149
▁constituted	-12.1149
▁construct	-12.1149
▁constructing	-12.1149
▁constructive	-12.1149
▁constructively	-12.1149
▁consultant	-12.1149
▁consumes	-12.1149
▁contained	-12.1149
▁contains	-12.1149
▁contaminated	-12.1149
▁contaminating	-12.1149
▁contemplating	-12.1149
▁contemporary	-12.1149
▁contempt	-12.1149
▁continent	-12.1149
▁contradicted	-12.1149
▁contradiction	-12.1149
▁contradicts	-12.1149
▁contrast	-12.1149
▁contributed	-12.1149
▁controversy	-12.1149
▁convalescing	-12.1149
▁conversate	-12.1149
▁converse	-12.1149
▁conversing	-12.1149
▁converstation	-12.1149
▁converting	-12.1149
▁convey	-12.1149
▁convict	-12.1149
▁conviction	-12.1149
▁convo	-12.1149
▁convos	-12.1149
▁cookoo	-12.1149
▁coolcatwon	-12.1149
▁cooler	-12.1149
▁coolness	-12.1149
▁cooped	-12.1149
▁cooperative	-12.1149
▁copywriter	-12.1149
▁coral	-12.1149
▁corey	-12.1149
▁corneal	-12.1149
▁corrective	-12.1149
▁correlate	-12.1149
▁correlated	-12.1149
▁correlative	-12.1149
▁correspondence	-12.1149
▁costing	-12.1149
▁cough	-12.1149
▁councilor	-12.1149
▁countenance	-12.1149
▁countryside	-12.1149
▁courted	-12.1149
▁courteous	-12.1149
▁courtroom	-12.1149
▁coverage	-12.1149
▁covering	-12.1149
▁coveted	-12.1149
▁covey	-12.1149
▁cowardly	-12.1149
▁cower	-12.1149
▁cpstd	-12.1149
▁cptsd	-12.1149
▁crab	-12.1149
▁cracking	-12.1149
▁cramed	-12.1149
▁cramp	-12.1149
▁crankier	-12.1149
▁crasher	-12.1149
▁crawl	-12.1149
▁crawlies	-12.1149
▁crawling	-12.1149
▁cream	-12.1149
▁creatively	-12.1149
▁creek	-12.1149
▁creeped	-12.1149
▁creeping	-12.1149
▁crf	-12.1149
▁crier	-12.1149
▁cringey	-12.1149
▁crinkled	-12.1149
▁criticise	-12.1149
▁criticize	-12.1149
▁critiquing	-12.1149
▁croaking	-12.1149
▁crocodile	-12.1149
▁crude	-12.1149
▁crushingly	-12.1149
▁crypto	-12.1149
▁csep	-12.1149
▁csikszentmihalyi	-12.1149
▁cth	-12.1149
▁ctrl	-12.1149
▁cu	-12.1149
▁culminated	-12.1149
▁cultural	-12.1149
▁cumbersome	-12.1149
▁cupboard	-12.1149
▁cuppa	-12.1149
▁curating	-12.1149
▁curb	-12.1149
▁curling	-12.1149
▁curly	-12.1149
▁curse	-12.1149
▁curve	-12.1149
▁curving	-12.1149
▁curvy	-12.1149
▁cushion	-12.1149
▁cutlivate	-12.1149
▁cutted	-12.1149
▁cv	-12.1149
▁cw	-12.1149
▁cya	-12.1149
▁cyberstalk	-12.1149
▁cyberstalker	-12.1149
▁cylinder	-12.1149
▁daan	-12.1149
▁dagger	-12.1149
▁dairy	-12.1149
▁dale	-12.1149
▁dalliance	-12.1149
▁dan	-12.1149
▁dang	-12.1149
▁dangle	-12.1149
▁darren	-12.1149
▁darwinian	-12.1149
▁daryl	-12.1149
▁daugther	-12.1149
▁daw	-12.1149
▁dawned	-12.1149
▁daydreaming	-12.1149
▁dbt	-12.1149
▁dcim	-12.1149
▁deactivated	-12.1149
▁deadlift	-12.1149
▁dealer	-12.1149
▁dearest	-12.1149
▁deathbed	-12.1149
▁debated	-12.1149
▁debit	-12.1149
▁decayed	-12.1149
▁decency	-12.1149
▁deceptive	-12.1149
▁decimal	-12.1149
▁decipher	-12.1149
▁decisive	-12.1149
▁deck	-12.1149
▁declaration	-12.1149
▁declared	-12.1149
▁decorative	-12.1149
▁decreasing	-12.1149
▁deductable	-12.1149
▁deepen	-12.1149
▁defeating	-12.1149
▁defect	-12.1149
▁defiantly	-12.1149
▁defination	-12.1149
▁definetely	-12.1149
▁definetly	-12.1149
▁deflated	-12.1149
▁defragged	-12.1149
▁degeneracy	-12.1149
▁degenerate	-12.1149
▁deliberation	-12.1149
▁delicate	-12.1149
▁delicious	-12.1149
▁delisabranchnealy	-12.1149
▁delivery	-12.1149
▁deluding	-12.1149
▁delusional	-12.1149
▁deluxe	-12.1149
▁democracy	-12.1149
▁dengue	-12.1149
▁deniability	-12.1149
▁denounce	-12.1149
▁dependant	-12.1149
▁depended	-12.1149
▁depends	-12.1149
▁depersnalization	-12.1149
▁depersonalization	-12.1149
▁deploying	-12.1149
▁deposit	-12.1149
▁depress	-12.1149
▁depressingly	-12.1149
▁depriving	-12.1149
▁deression	-12.1149
▁desensitized	-12.1149
▁designated	-12.1149
▁designation	-12.1149
▁designer	-12.1149
▁designing	-12.1149
▁detector	-12.1149
▁detects	-12.1149
▁deter	-12.1149
▁determining	-12.1149
▁detestable	-12.1149
▁detract	-12.1149
▁detriment	-12.1149
▁developemental	-12.1149
▁developer	-12.1149
▁develops	-12.1149
▁deviation	-12.1149
▁devides	-12.1149
▁devoted	-12.1149
▁devoting	-12.1149
▁devouring	-12.1149
▁diagnostic	-12.1149
▁dialed	-12.1149
▁dialogue	-12.1149
▁diameter	-12.1149
▁diaphragm	-12.1149
▁diazepam	-12.1149
▁dictated	-12.1149
▁diego	-12.1149
▁differnet	-12.1149
▁digest	-12.1149
▁diligence	-12.1149
▁dilution	-12.1149
▁dilutional	-12.1149
▁dime	-12.1149
▁directionless	-12.1149
▁directs	-12.1149
▁disagreed	-12.1149
▁disappointement	-12.1149
▁disappoints	-12.1149
▁disapproving	-12.1149
▁disassociated	-12.1149
▁discard	-12.1149
▁discharged	-12.1149
▁disciple	-12.1149
▁disclosure	-12.1149
▁discontinued	-12.1149
▁discontinuing	-12.1149
▁discounting	-12.1149
▁discovering	-12.1149
▁discovery	-12.1149
▁disdain	-12.1149
▁diseased	-12.1149
▁disgust	-12.1149
▁dishonest	-12.1149
▁dishwasher	-12.1149
▁disinterest	-12.1149
▁disliking	-12.1149
▁dismissed	-12.1149
▁disorganized	-12.1149
▁dispel	-12.1149
▁dispellingmyths	-12.1149
▁displacement	-12.1149
▁display	-12.1149
▁displayed	-12.1149
▁displeasure	-12.1149
▁disposable	-12.1149
▁dispraxic	-12.1149
▁disregarding	-12.1149
▁disrespect	-12.1149
▁disrespecting	-12.1149
▁disrupted	-12.1149
▁disruption	-12.1149
▁dissapear	-12.1149
▁dissapoint	-12.1149
▁dissappear	-12.1149
▁dissociated	-12.1149
▁dissociating	-12.1149
▁dissociation	-12.1149
▁disstress	-12.1149
▁distaste	-12.1149
▁distilled	-12.1149
▁distinguish	-12.1149
▁distressing	-12.1149
▁distributed	-12.1149
▁ditch	-12.1149
▁dive	-12.1149
▁diverse	-12.1149
▁divert	-12.1149
▁divide	-12.1149
▁divided	-12.1149
▁dizzyness	-12.1149
▁dnd	-12.1149
▁doable	-12.1149
▁doctoral	-12.1149
▁document	-12.1149
▁documentation	-12.1149
▁documenting	-12.1149
▁doeasn	-12.1149
▁dom	-12.1149
▁domesticity	-12.1149
▁dominant	-12.1149
▁dominated	-12.1149
▁domino	-12.1149
▁donald	-12.1149
▁donation	-12.1149
▁donovan	-12.1149
▁doordash	-12.1149
▁doorway	-12.1149
▁doosie	-12.1149
▁doubting	-12.1149
▁douchebag	-12.1149
▁douchebags	-12.1149
▁dough	-12.1149
▁downer	-12.1149
▁downloads	-12.1149
▁downplay	-12.1149
▁downplayed	-12.1149
▁downplays	-12.1149
▁downright	-12.1149
▁downshift	-12.1149
▁downtown	-12.1149
▁downvote	-12.1149
▁downvoted	-12.1149
▁downvoting	-12.1149
▁dozing	-12.1149
▁dramatically	-12.1149
▁drazizgazipura	-12.1149
▁dreadful	-12.1149
▁dreamed	-12.1149
▁dreamt	-12.1149
▁dredge	-12.1149
▁drenched	-12.1149
▁dried	-12.1149
▁drier	-12.1149
▁drifted	-12.1149
▁drifting	-12.1149
▁drinker	-12.1149
▁drip	-12.1149
▁drivign	-12.1149
▁drool	-12.1149
▁drowned	-12.1149
▁drowsy	-12.1149
▁drtlab	-12.1149
▁drugged	-12.1149
▁drunkenness	-12.1149
▁dryer	-12.1149
▁duathlon	-12.1149
▁duffle	-12.1149
▁duhigg	-12.1149
▁dulled	-12.1149
▁dullness	-12.1149
▁dumbells	-12.1149
▁dumbest	-12.1149
▁dummy	-12.1149
▁dumped	-12.1149
▁dumpster	-12.1149
▁dumspter	-12.1149
▁duy	-12.1149
▁dysphoric	-12.1149
▁dysthymia	-12.1149
▁eachothers	-12.1149
▁earbuds	-12.1149
▁earlyaccess	-12.1149
▁earring	-12.1149
▁eas	-12.1149
▁easterlin	-12.1149
▁eater	-12.1149
▁eather	-12.1149
▁ebb	-12.1149
▁ebtey	-12.1149
▁edith	-12.1149
▁educate	-12.1149
▁educated	-12.1149
▁ee	-12.1149
▁effed	-12.1149
▁effervescent	-12.1149
▁eggshell	-12.1149
▁egocentric	-12.1149
▁egypt	-12.1149
▁eheh	-12.1149
▁el	-12.1149
▁elated	-12.1149
▁elbert	-12.1149
▁electrician	-12.1149
▁electrocute	-12.1149
▁electrocuted	-12.1149
▁electrode	-12.1149
▁electromagnetic	-12.1149
▁electron	-12.1149
▁electronics	-12.1149
▁elemental	-12.1149
▁elephant	-12.1149
▁elevator	-12.1149
▁elicit	-12.1149
▁elixir	-12.1149
▁elles	-12.1149
▁elliott	-12.1149
▁emailing	-12.1149
▁emancipate	-12.1149
▁embarassing	-12.1149
▁embark	-12.1149
▁embarrassingly	-12.1149
▁embryo	-12.1149
▁emdr	-12.1149
▁emerges	-12.1149
▁eminem	-12.1149
▁eminence	-12.1149
▁emitting	-12.1149
▁emmy	-12.1149
▁emojis	-12.1149
▁empahisise	-12.1149
▁empath	-12.1149
▁empathised	-12.1149
▁empathize	-12.1149
▁employ	-12.1149
▁empowering	-12.1149
▁en	-12.1149
▁enabled	-12.1149
▁endangering	-12.1149
▁endocrine	-12.1149
▁endogenously	-12.1149
▁endrant	-12.1149
▁endures	-12.1149
▁energized	-12.1149
▁engagement	-12.1149
▁engine	-12.1149
▁engulfed	-12.1149
▁enhancement	-12.1149
▁enlighten	-12.1149
▁enlightens	-12.1149
▁enormous	-12.1149
▁enormously	-12.1149
▁enquiry	-12.1149
▁enrolling	-12.1149
▁entertained	-12.1149
▁entertaining	-12.1149
▁enthusiastic	-12.1149
▁entitled	-12.1149
▁entitlement	-12.1149
▁entrance	-12.1149
▁entrapped	-12.1149
▁enunciating	-12.1149
▁environmental	-12.1149
▁envisioned	-12.1149
▁enyone	-12.1149
▁epa	-12.1149
▁epidemic	-12.1149
▁equality	-12.1149
▁equate	-12.1149
▁equates	-12.1149
▁equation	-12.1149
▁equip	-12.1149
▁equivalent	-12.1149
▁erase	-12.1149
▁erasing	-12.1149
▁ericfreeman	-12.1149
▁erm	-12.1149
▁ernestine	-12.1149
▁erupted	-12.1149
▁esophagus	-12.1149
▁espn	-12.1149
▁estes	-12.1149
▁estimating	-12.1149
▁et	-12.1149
▁eternity	-12.1149
▁ethical	-12.1149
▁eunuch	-12.1149
▁euthanasia	-12.1149
▁euthanized	-12.1149
▁evaluated	-12.1149
▁evaluating	-12.1149
▁evangelist	-12.1149
▁eventho	-12.1149
▁everthing	-12.1149
▁everyonegoatyy	-12.1149
▁everyonesgoatyyy	-12.1149
▁everythings	-12.1149
▁everyting	-12.1149
▁eveyday	-12.1149
▁eveything	-12.1149
▁evict	-12.1149
▁evoking	-12.1149
▁evolutionaly	-12.1149
▁exacerbate	-12.1149
▁exacerbating	-12.1149
▁exacting	-12.1149
▁examination	-12.1149
▁examine	-12.1149
▁exceed	-12.1149
▁exceedingly	-12.1149
▁exceeds	-12.1149
▁exceptional	-12.1149
▁excercising	-12.1149
▁excitation	-12.1149
▁exclaimed	-12.1149
▁excluded	-12.1149
▁exclusive	-12.1149
▁excusing	-12.1149
▁execution	-12.1149
▁exemple	-12.1149
▁exemplifying	-12.1149
▁existance	-12.1149
▁expands	-12.1149
▁expendable	-12.1149
▁experimental	-12.1149
▁expierenced	-12.1149
▁expierencing	-12.1149
▁expiration	-12.1149
▁expired	-12.1149
▁exploited	-12.1149
▁explosion	-12.1149
▁expoused	-12.1149
▁exquisite	-12.1149
▁externalize	-12.1149
▁extolled	-12.1149
▁extracurriculars	-12.1149
▁extraoedinary	-12.1149
▁extremly	-12.1149
▁extrovert	-12.1149
▁eyelid	-12.1149
▁faceless	-12.1149
▁facetime	-12.1149
▁facilitates	-12.1149
▁facilitating	-12.1149
▁facility	-12.1149
▁fainter	-12.1149
▁faithful	-12.1149
▁falre	-12.1149
▁fam	-12.1149
▁familiarized	-12.1149
▁familly	-12.1149
▁fanaticism	-12.1149
▁fanboy	-12.1149
▁fap	-12.1149
▁farewell	-12.1149
▁farm	-12.1149
▁farmer	-12.1149
▁farthest	-12.1149
▁fascinating	-12.1149
▁fastest	-12.1149
▁fastidiously	-12.1149
▁fatherhood	-12.1149
▁fatty	-12.1149
▁fauna	-12.1149
▁fav	-12.1149
▁favoured	-12.1149
▁fearing	-12.1149
▁fearless	-12.1149
▁feat	-12.1149
▁federal	-12.1149
▁feeing	-12.1149
▁feild	-12.1149
▁felipe	-12.1149
▁femboy	-12.1149
▁femenine	-12.1149
▁feminism	-12.1149
▁femoral	-12.1149
▁fence	-12.1149
▁fertility	-12.1149
▁fest	-12.1149
▁festive	-12.1149
▁festivity	-12.1149
▁fetus	-12.1149
▁feverish	-12.1149
▁fibromyalga	-12.1149
▁fide	-12.1149
▁fidgety	-12.1149
▁fiend	-12.1149
▁fierce	-12.1149
▁fiery	-12.1149
▁filed	-12.1149
▁fin	-12.1149
▁financcial	-12.1149
▁financed	-12.1149
▁financials	-12.1149
▁findinghappiness	-12.1149
▁finest	-12.1149
▁fir	-12.1149
▁firstborn	-12.1149
▁fitbit	-12.1149
▁fizzle	-12.1149
▁fizzled	-12.1149
▁flagged	-12.1149
▁flailing	-12.1149
▁flammable	-12.1149
▁flatlining	-12.1149
▁flattened	-12.1149
▁flatulence	-12.1149
▁flaunting	-12.1149
▁flavor	-12.1149
▁flawlessly	-12.1149
▁fledged	-12.1149
▁fleeing	-12.1149
▁flew	-12.1149
▁flex	-12.1149
▁flexibility	-12.1149
▁flimsy	-12.1149
▁flinch	-12.1149
▁flippantly	-12.1149
▁flirty	-12.1149
▁floated	-12.1149
▁floating	-12.1149
▁floof	-12.1149
▁flora	-12.1149
▁flossing	-12.1149
▁flourishing	-12.1149
▁fluctuates	-12.1149
▁fluoxetine	-12.1149
▁fluting	-12.1149
▁fml	-12.1149
▁fmp	-12.1149
▁fo	-12.1149
▁foe	-12.1149
▁fogged	-12.1149
▁fondest	-12.1149
▁font	-12.1149
▁foodie	-12.1149
▁fooling	-12.1149
▁foolish	-12.1149
▁footing	-12.1149
▁forcefully	-12.1149
▁ford	-12.1149
▁foreheaded	-12.1149
▁foresight	-12.1149
▁forging	-12.1149
▁forgiven	-12.1149
▁formally	-12.1149
▁formative	-12.1149
▁formulate	-12.1149
▁forsaken	-12.1149
▁foward	-12.1149
▁fr	-12.1149
▁fraction	-12.1149
▁fracture	-12.1149
▁fragmentation	-12.1149
▁franc	-12.1149
▁francisco	-12.1149
▁frankie	-12.1149
▁frantic	-12.1149
▁fraternal	-12.1149
▁frayed	-12.1149
▁freacking	-12.1149
▁freeing	-12.1149
▁freelancer	-12.1149
▁freeman	-12.1149
▁freeness	-12.1149
▁fricken	-12.1149
▁fridayfeeling	-12.1149
▁friendless	-12.1149
▁friggin	-12.1149
▁frisbee	-12.1149
▁frisky	-12.1149
▁frisson	-12.1149
▁fronting	-12.1149
▁frosting	-12.1149
▁froze	-12.1149
▁frusterated	-12.1149
▁fsh	-12.1149
▁fuckign	-12.1149
▁fuelled	-12.1149
▁fulfil	-12.1149
▁fulfills	-12.1149
▁fulltime	-12.1149
▁fundamentalist	-12.1149
▁funk	-12.1149
▁fuqn	-12.1149
▁furniture	-12.1149
▁fuse	-12.1149
▁futility	-12.1149
▁gaba	-12.1149
▁gabrielshaw	-12.1149
▁gacha	-12.1149
▁gal	-12.1149
▁gallon	-12.1149
▁gamechanger	-12.1149
▁gangmembers	-12.1149
▁garcia	-12.1149
▁gaslighting	-12.1149
▁gasoline	-12.1149
▁gasping	-12.1149
▁gastroenterologist	-12.1149
▁gastrointestinal	-12.1149
▁gatherer	-12.1149
▁gawjus	-12.1149
▁gazipura	-12.1149
▁ge	-12.1149
▁gen	-12.1149
▁generated	-12.1149
▁generosity	-12.1149
▁genuinenly	-12.1149
▁genuity	-12.1149
▁gerd	-12.1149
▁gifting	-12.1149
▁gigantic	-12.1149
▁giggled	-12.1149
▁girly	-12.1149
▁gist	-12.1149
▁gliding	-12.1149
▁globe	-12.1149
▁globus	-12.1149
▁glock	-12.1149
▁glove	-12.1149
▁glucocorticoid	-12.1149
▁glue	-12.1149
▁glued	-12.1149
▁gnaw	-12.1149
▁goddamb	-12.1149
▁goddess	-12.1149
▁goer	-12.1149
▁goin	-12.1149
▁golf	-12.1149
▁gonit	-12.1149
▁goodnight	-12.1149
▁goodwill	-12.1149
▁goofy	-12.1149
▁goose	-12.1149
▁gotteb	-12.1149
▁gps	-12.1149
▁graced	-12.1149
▁gracefully	-12.1149
▁gracious	-12.1149
▁gram	-12.1149
▁grandchild	-12.1149
▁grandkids	-12.1149
▁grasped	-12.1149
▁grasping	-12.1149
▁graveled	-12.1149
▁gravitate	-12.1149
▁graying	-12.1149
▁grease	-12.1149
▁greeted	-12.1149
▁greeting	-12.1149
▁greets	-12.1149
▁greg	-12.1149
▁gretchen	-12.1149
▁grid	-12.1149
▁grieved	-12.1149
▁grim	-12.1149
▁grinch	-12.1149
▁grip	-12.1149
▁grouched	-12.1149
▁grounding	-12.1149
▁groupon	-12.1149
▁growl	-12.1149
▁gruesome	-12.1149
▁grumpy	-12.1149
▁guarantee	-12.1149
▁guarded	-12.1149
▁gueee	-12.1149
▁gulp	-12.1149
▁gurgling	-12.1149
▁guru	-12.1149
▁gush	-12.1149
▁gutter	-12.1149
▁gymnastics	-12.1149
▁gynaecologist	-12.1149
▁habbit	-12.1149
▁habitat	-12.1149
▁hahahah	-12.1149
▁hahahaha	-12.1149
▁hahahahahah	-12.1149
▁hairstylist	-12.1149
▁halo	-12.1149
▁halp	-12.1149
▁halt	-12.1149
▁hammering	-12.1149
▁handing	-12.1149
▁handsome	-12.1149
▁handwritten	-12.1149
▁handy	-12.1149
▁hanged	-12.1149
▁hanh	-12.1149
▁hannah	-12.1149
▁happybucketlife	-12.1149
▁harassed	-12.1149
▁harassing	-12.1149
▁hardwork	-12.1149
▁hardy	-12.1149
▁harley	-12.1149
▁harmonising	-12.1149
▁harmonized	-12.1149
▁harping	-12.1149
▁harpreetsandhu	-12.1149
▁harr	-12.1149
▁harris	-12.1149
▁harshly	-12.1149
▁hart	-12.1149
▁harvey	-12.1149
▁hassle	-12.1149
▁hatched	-12.1149
▁hateful	-12.1149
▁havnt	-12.1149
▁hawk	-12.1149
▁hazy	-12.1149
▁hd	-12.1149
▁heartache	-12.1149
▁heartbreaking	-12.1149
▁heartburn	-12.1149
▁hearted	-12.1149
▁heartless	-12.1149
▁heater	-12.1149
▁heavier	-12.1149
▁hedonic	-12.1149
▁heed	-12.1149
▁heel	-12.1149
▁hehn	-12.1149
▁heightened	-12.1149
▁heinous	-12.1149
▁hellhole	-12.1149
▁helmet	-12.1149
▁helplessness	-12.1149
▁helpline	-12.1149
▁herd	-12.1149
▁hesitant	-12.1149
▁hesitation	-12.1149
▁heuristic	-12.1149
▁heyejehowh	-12.1149
▁hfa	-12.1149
▁hightail	-12.1149
▁hii	-12.1149
▁hiked	-12.1149
▁hinder	-12.1149
▁hindering	-12.1149
▁hindsight	-12.1149
▁hinduism	-12.1149
▁hippocampus	-12.1149
▁histrionics	-12.1149
▁hitted	-12.1149
▁hnd	-12.1149
▁hoarding	-12.1149
▁hobies	-12.1149
▁holiness	-12.1149
▁hollowed	-12.1149
▁hollowness	-12.1149
▁homeschool	-12.1149
▁homeschooled	-12.1149
▁honed	-12.1149
▁hong	-12.1149
▁honorary	-12.1149
▁hooked	-12.1149
▁hookup	-12.1149
▁horrified	-12.1149
▁horrifying	-12.1149
▁hospitalisation	-12.1149
▁hospitalization	-12.1149
▁host	-12.1149
▁hostel	-12.1149
▁hostile	-12.1149
▁hotel	-12.1149
▁hotlines	-12.1149
▁hounslow	-12.1149
▁housewife	-12.1149
▁housing	-12.1149
▁http	-12.1149
▁hubbard	-12.1149
▁hubby	-12.1149
▁huffing	-12.1149
▁hulu	-12.1149
▁huma	-12.1149
▁humanely	-12.1149
▁humanism	-12.1149
▁humanness	-12.1149
▁humbled	-12.1149
▁humbly	-12.1149
▁humid	-12.1149
▁humiliated	-12.1149
▁humilliations	-12.1149
▁humming	-12.1149
▁hunch	-12.1149
▁hunger	-12.1149
▁hunter	-12.1149
▁hurried	-12.1149
▁hurry	-12.1149
▁hurtful	-12.1149
▁hustle	-12.1149
▁hustlin	-12.1149
▁hut	-12.1149
▁hydroxyzine	-12.1149
▁hype	-12.1149
▁hyperawareness	-12.1149
▁hypersensitive	-12.1149
▁hypomanic	-12.1149
▁hypothalamic	-12.1149
▁hypothalamus	-12.1149
▁hypothermia	-12.1149
▁hysterectomy	-12.1149
▁hysterical	-12.1149
▁hysterically	-12.1149
▁ibuprophen	-12.1149
▁icecream	-12.1149
▁identical	-12.1149
▁idgaf	-12.1149
▁idol	-12.1149
▁idolise	-12.1149
▁idw	-12.1149
▁ignite	-12.1149
▁iii	-12.1149
▁illegal	-12.1149
▁illegally	-12.1149
▁illinois	-12.1149
▁illogical	-12.1149
▁illumination	-12.1149
▁illusionary	-12.1149
▁illustrates	-12.1149
▁illustrator	-12.1149
▁illustrious	-12.1149
▁ilness	-12.1149
▁ima	-12.1149
▁imaginings	-12.1149
▁imalive	-12.1149
▁immature	-12.1149
▁immaturity	-12.1149
▁immensely	-12.1149
▁immersed	-12.1149
▁immidiatly	-12.1149
▁immunocompromised	-12.1149
▁impasse	-12.1149
▁imperative	-12.1149
▁imperfect	-12.1149
▁implementation	-12.1149
▁implied	-12.1149
▁implying	-12.1149
▁imposed	-12.1149
▁impotent	-12.1149
▁improbable	-12.1149
▁inadvertently	-12.1149
▁inaliating	-12.1149
▁inaya	-12.1149
▁inayaconnect	-12.1149
▁inbetween	-12.1149
▁incapacitates	-12.1149
▁incase	-12.1149
▁incel	-12.1149
▁incels	-12.1149
▁inch	-12.1149
▁inclined	-12.1149
▁includes	-12.1149
▁inclusively	-12.1149
▁incompetence	-12.1149
▁incompetent	-12.1149
▁inconcenience	-12.1149
▁inconsiderate	-12.1149
▁inconsistent	-12.1149
▁inconvenienced	-12.1149
▁inconvenient	-12.1149
▁incorrect	-12.1149
▁incorrectly	-12.1149
▁incremental	-12.1149
▁incrementally	-12.1149
▁incroyables	-12.1149
▁indebted	-12.1149
▁indecisive	-12.1149
▁independently	-12.1149
▁indie	-12.1149
▁indifferent	-12.1149
▁indirectly	-12.1149
▁indulgent	-12.1149
▁inept	-12.1149
▁inevitability	-12.1149
▁inexpensive	-12.1149
▁infectious	-12.1149
▁infinitely	-12.1149
▁inflated	-12.1149
▁inflexible	-12.1149
▁influencers	-12.1149
▁influential	-12.1149
▁informative	-12.1149
▁inhabit	-12.1149
▁inhabiting	-12.1149
▁inherent	-12.1149
▁inhibited	-12.1149
▁inhuman	-12.1149
▁inhumane	-12.1149
▁initiated	-12.1149
▁initiative	-12.1149
▁injustice	-12.1149
▁innate	-12.1149
▁innitially	-12.1149
▁innocence	-12.1149
▁innocently	-12.1149
▁inseparable	-12.1149
▁inserted	-12.1149
▁insider	-12.1149
▁insightful	-12.1149
▁insignificant	-12.1149
▁insisted	-12.1149
▁insistent	-12.1149
▁insomniac	-12.1149
▁inspite	-12.1149
▁instilled	-12.1149
▁instinctive	-12.1149
▁institute	-12.1149
▁instructional	-12.1149
▁instructs	-12.1149
▁insulted	-12.1149
▁intently	-12.1149
▁interconnectivity	-12.1149
▁interdependence	-12.1149
▁intermittent	-12.1149
▁internalizes	-12.1149
▁interst	-12.1149
▁interverence	-12.1149
▁interviewed	-12.1149
▁introduces	-12.1149
▁introduction	-12.1149
▁introductory	-12.1149
▁introversion	-12.1149
▁inundated	-12.1149
▁invading	-12.1149
▁invalid	-12.1149
▁invalidating	-12.1149
▁invalidity	-12.1149
▁invasive	-12.1149
▁investigate	-12.1149
▁investigation	-12.1149
▁investigator	-12.1149
▁invisibility	-12.1149
▁inviting	-12.1149
▁involuntary	-12.1149
▁iop	-12.1149
▁ireland	-12.1149
▁irish	-12.1149
▁irishman	-12.1149
▁irrespective	-12.1149
▁irresponsible	-12.1149
▁irreversible	-12.1149
▁irs	-12.1149
▁ishaan	-12.1149
▁isolate	-12.1149
▁isolating	-12.1149
▁isoleted	-12.1149
▁issued	-12.1149
▁itd	-12.1149
▁iu	-12.1149
▁ixl	-12.1149
▁jab	-12.1149
▁jackbox	-12.1149
▁jacket	-12.1149
▁jackpot	-12.1149
▁jackshit	-12.1149
▁jacobson	-12.1149
▁jaded	-12.1149
▁jagged	-12.1149
▁jamaican	-12.1149
▁janitor	-12.1149
▁jazzed	-12.1149
▁jee	-12.1149
▁jehovah	-12.1149
▁jeopardizing	-12.1149
▁jerk	-12.1149
▁jerking	-12.1149
▁jet	-12.1149
▁jme	-12.1149
▁jolly	-12.1149
▁jon	-12.1149
▁jonathan	-12.1149
▁jot	-12.1149
▁journalism	-12.1149
▁journalist	-12.1149
▁journalling	-12.1149
▁joyless	-12.1149
▁joyously	-12.1149
▁judaism	-12.1149
▁judt	-12.1149
▁jumpy	-12.1149
▁jung	-12.1149
▁junkie	-12.1149
▁juno	-12.1149
▁justifiably	-12.1149
▁juvenile	-12.1149
▁kabazie	-12.1149
▁katakana	-12.1149
▁kawasaki	-12.1149
▁kckb	-12.1149
▁ked	-12.1149
▁kent	-12.1149
▁kg	-12.1149
▁kharrazinaturalhealth	-12.1149
▁ki	-12.1149
▁kidnapped	-12.1149
▁kife	-12.1149
▁kindergarden	-12.1149
▁kinesiologist	-12.1149
▁kinky	-12.1149
▁kist	-12.1149
▁knit	-12.1149
▁knkw	-12.1149
▁kno	-12.1149
▁knot	-12.1149
▁kolonopin	-12.1149
▁kong	-12.1149
▁korn	-12.1149
▁krier	-12.1149
▁ksm	-12.1149
▁kumusha	-12.1149
▁kumushafoundation	-12.1149
▁kylehilding	-12.1149
▁labelled	-12.1149
▁lachesism	-12.1149
▁lad	-12.1149
▁ladder	-12.1149
▁lady	-12.1149
▁lament	-12.1149
▁lamenting	-12.1149
▁landlady	-12.1149
▁lapdog	-12.1149
▁lashing	-12.1149
▁lastnight	-12.1149
▁lastyear	-12.1149
▁latch	-12.1149
▁lather	-12.1149
▁laughable	-12.1149
▁laundromat	-12.1149
▁laurie	-12.1149
▁layed	-12.1149
▁layoff	-12.1149
▁lazier	-12.1149
▁leak	-12.1149
▁lean	-12.1149
▁leapfrog	-12.1149
▁learnd	-12.1149
▁leash	-12.1149
▁lectured	-12.1149
▁leeds	-12.1149
▁legacy	-12.1149
▁legality	-12.1149
▁legally	-12.1149
▁legitimately	-12.1149
▁lemmy	-12.1149
▁lender	-12.1149
▁lending	-12.1149
▁lengthy	-12.1149
▁lesbian	-12.1149
▁lesons	-12.1149
▁leveled	-12.1149
▁lewd	-12.1149
▁lgbt	-12.1149
▁liability	-12.1149
▁liberating	-12.1149
▁liberation	-12.1149
▁licence	-12.1149
▁licensed	-12.1149
▁lick	-12.1149
▁lifecoach	-12.1149
▁lifeless	-12.1149
▁lifelessly	-12.1149
▁lifted	-12.1149
▁lightbulb	-12.1149
▁lighter	-12.1149
▁lightly	-12.1149
▁lightning	-12.1149
▁likewise	-12.1149
▁lilly	-12.1149
▁limbo	-12.1149
▁lingo	-12.1149
▁lining	-12.1149
▁linkedin	-12.1149
▁lionelwilson	-12.1149
▁liquor	-12.1149
▁lisence	-12.1149
▁lite	-12.1149
▁liter	-12.1149
▁littlest	-12.1149
▁lively	-12.1149
▁llc	-12.1149
▁lmfao	-12.1149
▁locate	-12.1149
▁located	-12.1149
▁locus	-12.1149
▁lofi	-12.1149
▁lokmkng	-12.1149
▁lollipop	-12.1149
▁lone	-12.1149
▁lonervibes	-12.1149
▁longed	-12.1149
▁lookkng	-12.1149
▁looknat	-12.1149
▁lookout	-12.1149
▁loooooot	-12.1149
▁looping	-12.1149
▁looser	-12.1149
▁lorde	-12.1149
▁lottery	-12.1149
▁louder	-12.1149
▁loudness	-12.1149
▁loveless	-12.1149
▁loveliness	-12.1149
▁lucid	-12.1149
▁lump	-12.1149
▁lurker	-12.1149
▁luxurious	-12.1149
▁lyon	-12.1149
▁macho	-12.1149
▁maharishi	-12.1149
▁maia	-12.1149
▁mailed	-12.1149
▁maintained	-12.1149
▁maintining	-12.1149
▁majorly	-12.1149
▁makefun	-12.1149
▁maker	-12.1149
▁maldives	-12.1149
▁malfunction	-12.1149
▁malfunctioning	-12.1149
▁malibu	-12.1149
▁mall	-12.1149
▁mam	-12.1149
▁mama	-12.1149
▁mammoth	-12.1149
▁manchester	-12.1149
▁manchild	-12.1149
▁manda	-12.1149
▁maneuver	-12.1149
▁manhattan	-12.1149
▁maniac	-12.1149
▁manly	-12.1149
▁mannerism	-12.1149
▁mansion	-12.1149
▁manson	-12.1149
▁manu	-12.1149
▁manual	-12.1149
▁manufacture	-12.1149
▁manyyy	-12.1149
▁marchwicki	-12.1149
▁marginal	-12.1149
▁maried	-12.1149
▁mariljuana	-12.1149
▁marked	-12.1149
▁marketer	-12.1149
▁marred	-12.1149
▁marvel	-12.1149
▁mary	-12.1149
▁masked	-12.1149
▁maskless	-12.1149
▁massager	-12.1149
▁massively	-12.1149
▁masturbated	-12.1149
▁materialise	-12.1149
▁maternal	-12.1149
▁maternity	-12.1149
▁mathematical	-12.1149
▁mathematically	-12.1149
▁mattmark	-12.1149
▁mattress	-12.1149
▁matures	-12.1149
▁maturing	-12.1149
▁maxed	-12.1149
▁maximise	-12.1149
▁maximize	-12.1149
▁mayan	-12.1149
▁mayor	-12.1149
▁mbct	-12.1149
▁mcauliffe	-12.1149
▁mcdonald	-12.1149
▁mckeown	-12.1149
▁mdma	-12.1149
▁meaninglessly	-12.1149
▁meaninglessness	-12.1149
▁measured	-12.1149
▁mechanic	-12.1149
▁medicating	-12.1149
▁mediocre	-12.1149
▁medular	-12.1149
▁melancholic	-12.1149
▁mellow	-12.1149
▁melt	-12.1149
▁meltdown	-12.1149
▁melted	-12.1149
▁memoir	-12.1149
▁memorable	-12.1149
▁memorize	-12.1149
▁memoryh	-12.1149
▁menace	-12.1149
▁mend	-12.1149
▁meniscus	-12.1149
▁menopause	-12.1149
▁mentallity	-12.1149
▁mentaly	-12.1149
▁merge	-12.1149
▁merry	-12.1149
▁mesopotamia	-12.1149
▁messenger	-12.1149
▁meta	-12.1149
▁metabolism	-12.1149
▁metaphor	-12.1149
▁metaphorically	-12.1149
▁metric	-12.1149
▁mia	-12.1149
▁michaelfox	-12.1149
▁michelle	-12.1149
▁micro	-12.1149
▁micromanaged	-12.1149
▁microphone	-12.1149
▁midday	-12.1149
▁middling	-12.1149
▁midwest	-12.1149
▁midwestern	-12.1149
▁migrain	-12.1149
▁mihaly	-12.1149
▁mil	-12.1149
▁miller	-12.1149
▁millionth	-12.1149
▁mindsetmastery	-12.1149
▁mindspace	-12.1149
▁minimize	-12.1149
▁ministry	-12.1149
▁ministryofpoetry	-12.1149
▁minneapolis	-12.1149
▁mint	-12.1149
▁minty	-12.1149
▁mirasol	-12.1149
▁misanthrope	-12.1149
▁miscarriage	-12.1149
▁miscarried	-12.1149
▁misdiagnosed	-12.1149
▁miserably	-12.1149
▁misfit	-12.1149
▁misgendered	-12.1149
▁misguided	-12.1149
▁misinterpreting	-12.1149
▁misogynist	-12.1149
▁misogynistic	-12.1149
▁missery	-12.1149
▁missionary	-12.1149
▁mistaken	-12.1149
▁mistakenly	-12.1149
▁mitigates	-12.1149
▁mitt	-12.1149
▁mixer	-12.1149
▁mixing	-12.1149
▁mo	-12.1149
▁moaning	-12.1149
▁mob	-12.1149
▁mocked	-12.1149
▁modest	-12.1149
▁modesty	-12.1149
▁module	-12.1149
▁momentarily	-12.1149
▁momma	-12.1149
▁monitoring	-12.1149
▁monkey	-12.1149
▁monogamous	-12.1149
▁monogamy	-12.1149
▁monotonous	-12.1149
▁monthes	-12.1149
▁mooded	-12.1149
▁moonlight	-12.1149
▁moonshine	-12.1149
▁mope	-12.1149
▁mopey	-12.1149
▁morbidly	-12.1149
▁mormon	-12.1149
▁mosque	-12.1149
▁mostlyyy	-12.1149
▁motel	-12.1149
▁motivates	-12.1149
▁motivating	-12.1149
▁motorhead	-12.1149
▁mourns	-12.1149
▁mouse	-12.1149
▁mouthguards	-12.1149
▁mover	-12.1149
▁mph	-12.1149
▁mrsknowhow	-12.1149
▁msde	-12.1149
▁msu	-12.1149
▁mt	-12.1149
▁muffled	-12.1149
▁multifaceted	-12.1149
▁multivitamin	-12.1149
▁mumbling	-12.1149
▁muruganar	-12.1149
▁mush	-12.1149
▁mushroom	-12.1149
▁musical	-12.1149
▁musing	-12.1149
▁mustered	-12.1149
▁mutism	-12.1149
▁muttered	-12.1149
▁mutually	-12.1149
▁mythology	-12.1149
▁nadis	-12.1149
▁nag	-12.1149
▁nah	-12.1149
▁nailed	-12.1149
▁namaskar	-12.1149
▁nameless	-12.1149
▁nana	-12.1149
▁napkin	-12.1149
▁narly	-12.1149
▁narrcisim	-12.1149
▁narrcists	-12.1149
▁narrowed	-12.1149
▁narrowest	-12.1149
▁narrowing	-12.1149
▁narsassistic	-12.1149
▁nasa	-12.1149
▁nation	-12.1149
▁nationalist	-12.1149
▁naturallyecstatic	-12.1149
▁navigating	-12.1149
▁neat	-12.1149
▁nebours	-12.1149
▁nectar	-12.1149
▁neediness	-12.1149
▁neet	-12.1149
▁negating	-12.1149
▁neighborhood	-12.1149
▁neuroscientist	-12.1149
▁neurotic	-12.1149
▁newborn	-12.1149
▁newfound	-12.1149
▁newsflash	-12.1149
▁nexplanon	-12.1149
▁nft	-12.1149
▁nge	-12.1149
▁ngo	-12.1149
▁nhat	-12.1149
▁nicer	-12.1149
▁nickname	-12.1149
▁nigh	-12.1149
▁nighter	-12.1149
▁nighti	-12.1149
▁nightingale	-12.1149
▁nihilism	-12.1149
▁nine	-12.1149
▁ninth	-12.1149
▁nix	-12.1149
▁nocturnal	-12.1149
▁nofap	-12.1149
▁nomadland	-12.1149
▁nonjudgmental	-12.1149
▁nonsense	-12.1149
▁noodle	-12.1149
▁noon	-12.1149
▁nooooooo	-12.1149
▁nora	-12.1149
▁noradrenaline	-12.1149
▁normalized	-12.1149
▁north	-12.1149
▁nostalgic	-12.1149
▁nostril	-12.1149
▁nosy	-12.1149
▁notch	-12.1149
▁nothin	-12.1149
▁notified	-12.1149
▁notifies	-12.1149
▁notoriously	-12.1149
▁nottingham	-12.1149
▁nour	-12.1149
▁nourishing	-12.1149
▁nov	-12.1149
▁nude	-12.1149
▁nuh	-12.1149
▁nuisance	-12.1149
▁num	-12.1149
▁nurtureshock	-12.1149
▁nutella	-12.1149
▁nutrient	-12.1149
▁nutritional	-12.1149
▁nutritionally	-12.1149
▁nutshell	-12.1149
▁nyquil	-12.1149
▁obermeyer	-12.1149
▁objected	-12.1149
▁obligatory	-12.1149
▁obnoxious	-12.1149
▁obscenely	-12.1149
▁obscure	-12.1149
▁observation	-12.1149
▁observer	-12.1149
▁obsolete	-12.1149
▁obtaining	-12.1149
▁obv	-12.1149
▁ocassionally	-12.1149
▁occupied	-12.1149
▁occupy	-12.1149
▁occurence	-12.1149
▁occurring	-12.1149
▁octavia	-12.1149
▁oddity	-12.1149
▁ode	-12.1149
▁oded	-12.1149
▁oe	-12.1149
▁offchance	-12.1149
▁offence	-12.1149
▁offsite	-12.1149
▁ofmy	-12.1149
▁oily	-12.1149
▁okey	-12.1149
▁oldschool	-12.1149
▁olympics	-12.1149
▁om	-12.1149
▁onedollarhappiness	-12.1149
▁onlt	-12.1149
▁oooooonnne	-12.1149
▁oozing	-12.1149
▁opted	-12.1149
▁optimist	-12.1149
▁opting	-12.1149
▁optional	-12.1149
▁opts	-12.1149
▁orchestrate	-12.1149
▁organ	-12.1149
▁organically	-12.1149
▁organisation	-12.1149
▁organiser	-12.1149
▁organizational	-12.1149
▁orientated	-12.1149
▁ormond	-12.1149
▁oscar	-12.1149
▁otc	-12.1149
▁ouchy	-12.1149
▁outa	-12.1149
▁outset	-12.1149
▁outsmart	-12.1149
▁outweighs	-12.1149
▁overachievement	-12.1149
▁overachiever	-12.1149
▁overclock	-12.1149
▁overcomefear	-12.1149
▁overcomes	-12.1149
▁overconsumption	-12.1149
▁overdose	-12.1149
▁overdosing	-12.1149
▁overdrafted	-12.1149
▁overdramatic	-12.1149
▁overeat	-12.1149
▁overflooding	-12.1149
▁overload	-12.1149
▁overpaying	-12.1149
▁overplan	-12.1149
▁overpromise	-12.1149
▁overreact	-12.1149
▁overshadowed	-12.1149
▁overstimulated	-12.1149
▁overstretch	-12.1149
▁overthought	-12.1149
▁overtook	-12.1149
▁overwatch	-12.1149
▁overweigh	-12.1149
▁overworker	-12.1149
▁overworking	-12.1149
▁owi	-12.1149
▁owns	-12.1149
▁pacing	-12.1149
▁pained	-12.1149
▁painless	-12.1149
▁paintbrush	-12.1149
▁painted	-12.1149
▁pair	-12.1149
▁paired	-12.1149
▁pakistani	-12.1149
▁pal	-12.1149
▁palete	-12.1149
▁palette	-12.1149
▁paliperidone	-12.1149
▁pallet	-12.1149
▁palo	-12.1149
▁palsy	-12.1149
▁panick	-12.1149
▁panicky	-12.1149
▁pansexual	-12.1149
▁papa	-12.1149
▁paperwork	-12.1149
▁paradigm	-12.1149
▁paradox	-12.1149
▁paragraph	-12.1149
▁paralyzing	-12.1149
▁paranormal	-12.1149
▁parcel	-12.1149
▁parental	-12.1149
▁parosmia	-12.1149
▁partnered	-12.1149
▁partying	-12.1149
▁passionately	-12.1149
▁passively	-12.1149
▁password	-12.1149
▁patched	-12.1149
▁patrol	-12.1149
▁paulson	-12.1149
▁payback	-12.1149
▁paycheck	-12.1149
▁payer	-12.1149
▁peachy	-12.1149
▁pearces	-12.1149
▁pedal	-12.1149
▁pedo	-12.1149
▁pedophilia	-12.1149
▁pedos	-12.1149
▁pen	-12.1149
▁pencil	-12.1149
▁pensez	-12.1149
▁pensum	-12.1149
▁pepe	-12.1149
▁peppermint	-12.1149
▁perceiving	-12.1149
▁perfecting	-12.1149
▁performer	-12.1149
▁perpetual	-12.1149
▁perpetually	-12.1149
▁personalize	-12.1149
▁personhood	-12.1149
▁personnally	-12.1149
▁persuasive	-12.1149
▁pesky	-12.1149
▁pessimist	-12.1149
▁pest	-12.1149
▁peterwarnock	-12.1149
▁pfts	-12.1149
▁pharmaceutical	-12.1149
▁philadelphia	-12.1149
▁phillips	-12.1149
▁phoenix	-12.1149
▁phoniness	-12.1149
▁phoning	-12.1149
▁phony	-12.1149
▁phosphatidylserine	-12.1149
▁photoshoots	-12.1149
▁php	-12.1149
▁phsyical	-12.1149
▁physicaly	-12.1149
▁physiologist	-12.1149
▁physiotherapist	-12.1149
▁physiotherapy	-12.1149
▁pierced	-12.1149
▁piled	-12.1149
▁pimp	-12.1149
▁pinched	-12.1149
▁pine	-12.1149
▁pinpoint	-12.1149
▁pinterest	-12.1149
▁pitching	-12.1149
▁pitfall	-12.1149
▁pittance	-12.1149
▁pivotal	-12.1149
▁pivoted	-12.1149
▁pjs	-12.1149
▁placebo	-12.1149
▁placed	-12.1149
▁placement	-12.1149
▁plagiarized	-12.1149
▁planner	-12.1149
▁plantation	-12.1149
▁platitude	-12.1149
▁plato	-12.1149
▁platoon	-12.1149
▁plausible	-12.1149
▁playtime	-12.1149
▁pleaser	-12.1149
▁pleasurable	-12.1149
▁plumber	-12.1149
▁pmdd	-12.1149
▁pneumonia	-12.1149
▁podcasters	-12.1149
▁poetic	-12.1149
▁pogrom	-12.1149
▁pointlessness	-12.1149
▁poky	-12.1149
▁pole	-12.1149
▁polite	-12.1149
▁polka	-12.1149
▁ponders	-12.1149
▁poorest	-12.1149
▁poptartfriday	-12.1149
▁popularly	-12.1149
▁population	-12.1149
▁pornhub	-12.1149
▁pornography	-12.1149
▁portfolio	-12.1149
▁portrait	-12.1149
▁portrays	-12.1149
▁portsmouth	-12.1149
▁posponing	-12.1149
▁postman	-12.1149
▁postponing	-12.1149
▁pounce	-12.1149
▁poured	-12.1149
▁powdered	-12.1149
▁powered	-12.1149
▁powfu	-12.1149
▁praise	-12.1149
▁praised	-12.1149
▁pranayama	-12.1149
▁preached	-12.1149
▁preacher	-12.1149
▁precarious	-12.1149
▁preceded	-12.1149
▁prediction	-12.1149
▁predicts	-12.1149
▁preemptively	-12.1149
▁preface	-12.1149
▁preferable	-12.1149
▁preffered	-12.1149
▁preform	-12.1149
▁preoccupied	-12.1149
▁prep	-12.1149
▁prepackaged	-12.1149
▁preparedness	-12.1149
▁prerequisite	-12.1149
▁presenting	-12.1149
▁presentmoment	-12.1149
▁preserve	-12.1149
▁pression	-12.1149
▁pressurized	-12.1149
▁presume	-12.1149
▁prettiest	-12.1149
▁prevented	-12.1149
▁primed	-12.1149
▁priming	-12.1149
▁prioritising	-12.1149
▁prioritized	-12.1149
▁prioritizes	-12.1149
▁prision	-12.1149
▁prisoner	-12.1149
▁privatised	-12.1149
▁proactive	-12.1149
▁probation	-12.1149
▁probed	-12.1149
▁proccess	-12.1149
▁procedure	-12.1149
▁proceeded	-12.1149
▁proceeds	-12.1149
▁processed	-12.1149
▁proclaim	-12.1149
▁proclaimed	-12.1149
▁procrastinator	-12.1149
▁prodded	-12.1149
▁prodding	-12.1149
▁prodigy	-12.1149
▁prof	-12.1149
▁profusely	-12.1149
▁programmed	-12.1149
▁promised	-12.1149
▁prompting	-12.1149
▁prone	-12.1149
▁pronounced	-12.1149
▁proofed	-12.1149
▁propably	-12.1149
▁proposing	-12.1149
▁propped	-12.1149
▁prospect	-12.1149
▁prosper	-12.1149
▁protective	-12.1149
▁protein	-12.1149
▁protest	-12.1149
▁protocol	-12.1149
▁proton	-12.1149
▁prototype	-12.1149
▁proudest	-12.1149
▁provoking	-12.1149
▁prozac	-12.1149
▁prozosin	-12.1149
▁prudent	-12.1149
▁psats	-12.1149
▁pssd	-12.1149
▁psychic	-12.1149
▁psycho	-12.1149
▁pt	-12.1149
▁pua	-12.1149
▁puas	-12.1149
▁puberty	-12.1149
▁publicspeaking	-12.1149
▁publish	-12.1149
▁puffy	-12.1149
▁puke	-12.1149
▁puking	-12.1149
▁puller	-12.1149
▁pulsifer	-12.1149
▁pummel	-12.1149
▁punchline	-12.1149
▁punter	-12.1149
▁pup	-12.1149
▁purely	-12.1149
▁purgatory	-12.1149
▁purged	-12.1149
▁purifier	-12.1149
▁purifying	-12.1149
▁purposefully	-12.1149
▁purposeless	-12.1149
▁purposelessness	-12.1149
▁purposlesness	-12.1149
▁putrid	-12.1149
▁pyschopath	-12.1149
▁pysiotherapist	-12.1149
▁qhat	-12.1149
▁quarantined	-12.1149
▁quarter	-12.1149
▁que	-12.1149
▁quelques	-12.1149
▁questioned	-12.1149
▁quilting	-12.1149
▁quin	-12.1149
▁quiplash	-12.1149
▁quirky	-12.1149
▁racketball	-12.1149
▁racking	-12.1149
▁radiant	-12.1149
▁radiate	-12.1149
▁radiates	-12.1149
▁radicalize	-12.1149
▁radiohead	-12.1149
▁raft	-12.1149
▁rag	-12.1149
▁rail	-12.1149
▁railing	-12.1149
▁rainfall	-12.1149
▁raining	-12.1149
▁ralated	-12.1149
▁ram	-12.1149
▁ramp	-12.1149
▁ranch	-12.1149
▁randomness	-12.1149
▁ranting	-12.1149
▁rap	-12.1149
▁rape	-12.1149
▁rapport	-12.1149
▁reachable	-12.1149
▁readily	-12.1149
▁realising	-12.1149
▁realm	-12.1149
▁realtionships	-12.1149
▁realtor	-12.1149
▁reasonably	-12.1149
▁rebirth	-12.1149
▁rebuild	-12.1149
▁recalling	-12.1149
▁recapture	-12.1149
▁receptionist	-12.1149
▁recess	-12.1149
▁recharge	-12.1149
▁recieved	-12.1149
▁reckless	-12.1149
▁reckon	-12.1149
▁recognition	-12.1149
▁recognizably	-12.1149
▁recognizes	-12.1149
▁recruiting	-12.1149
▁recruitment	-12.1149
▁recycled	-12.1149
▁redeem	-12.1149
▁redeemed	-12.1149
▁redefine	-12.1149
▁redemption	-12.1149
▁rediculous	-12.1149
▁redraw	-12.1149
▁referenced	-12.1149
▁referral	-12.1149
▁refers	-12.1149
▁refining	-12.1149
▁reflected	-12.1149
▁reflux	-12.1149
▁reframing	-12.1149
▁refusal	-12.1149
▁regained	-12.1149
▁regenerate	-12.1149
▁regressed	-12.1149
▁regressing	-12.1149
▁regression	-12.1149
▁regrettable	-12.1149
▁regularity	-12.1149
▁rehearse	-12.1149
▁reign	-12.1149
▁reincarnation	-12.1149
▁reinforce	-12.1149
▁reinforced	-12.1149
▁reiterate	-12.1149
▁rejecter	-12.1149
▁rejecting	-12.1149
▁relaxer	-12.1149
▁relentlessly	-12.1149
▁relieved	-12.1149
▁religiously	-12.1149
▁relinquish	-12.1149
▁relocate	-12.1149
▁remaining	-12.1149
▁remarkable	-12.1149
▁remembers	-12.1149
▁remitter	-12.1149
▁remodel	-12.1149
▁remorse	-12.1149
▁remorseful	-12.1149
▁remotely	-12.1149
▁removal	-12.1149
▁removing	-12.1149
▁rendered	-12.1149
▁rendering	-12.1149
▁renew	-12.1149
▁renewal	-12.1149
▁renowned	-12.1149
▁rented	-12.1149
▁renting	-12.1149
▁reopened	-12.1149
▁rep	-12.1149
▁repaid	-12.1149
▁repairing	-12.1149
▁replicated	-12.1149
▁replying	-12.1149
▁reporting	-12.1149
▁represents	-12.1149
▁repression	-12.1149
▁reprimand	-12.1149
▁reprised	-12.1149
▁reproduction	-12.1149
▁repurpose	-12.1149
▁researched	-12.1149
▁reselling	-12.1149
▁resemble	-12.1149
▁resent	-12.1149
▁resentful	-12.1149
▁resetting	-12.1149
▁reshape	-12.1149
▁resides	-12.1149
▁residing	-12.1149
▁resignedwithoutajob	-12.1149
▁resiliency	-12.1149
▁resonova	-12.1149
▁respected	-12.1149
▁respectful	-12.1149
▁respidone	-12.1149
▁respiratory	-12.1149
▁respondent	-12.1149
▁responsibly	-12.1149
▁responsive	-12.1149
▁restart	-12.1149
▁restarted	-12.1149
▁restore	-12.1149
▁restoring	-12.1149
▁restrained	-12.1149
▁restraining	-12.1149
▁restraint	-12.1149
▁restricted	-12.1149
▁restrictive	-12.1149
▁resurfacing	-12.1149
▁retaining	-12.1149
▁retake	-12.1149
▁rethinking	-12.1149
▁retiree	-12.1149
▁retiring	-12.1149
▁retrain	-12.1149
▁retribution	-12.1149
▁retro	-12.1149
▁retroactively	-12.1149
▁reunion	-12.1149
▁reunited	-12.1149
▁revealed	-12.1149
▁revelation	-12.1149
▁reversed	-12.1149
▁reversing	-12.1149
▁revise	-12.1149
▁revised	-12.1149
▁revising	-12.1149
▁revive	-12.1149
▁reviving	-12.1149
▁revolt	-12.1149
▁revolving	-12.1149
▁rf	-12.1149
▁rhetorical	-12.1149
▁rhis	-12.1149
▁rhyming	-12.1149
▁richest	-12.1149
▁ridden	-12.1149
▁ridiculously	-12.1149
▁righteous	-12.1149
▁righteousness	-12.1149
▁rigid	-12.1149
▁rigorous	-12.1149
▁ringer	-12.1149
▁rinse	-12.1149
▁ripe	-12.1149
▁risky	-12.1149
▁rly	-12.1149
▁roach	-12.1149
▁roadblock	-12.1149
▁roap	-12.1149
▁roast	-12.1149
▁robbed	-12.1149
▁robin	-12.1149
▁roblox	-12.1149
▁robot	-12.1149
▁rodeo	-12.1149
▁roker	-12.1149
▁roller	-12.1149
▁rolling	-12.1149
▁roman	-12.1149
▁romanian	-12.1149
▁rooftop	-12.1149
▁roomate	-12.1149
▁roomy	-12.1149
▁rooting	-12.1149
▁rose	-12.1149
▁rosies	-12.1149
▁rotates	-12.1149
▁rotation	-12.1149
▁routinely	-12.1149
▁rowan	-12.1149
▁royal	-12.1149
▁royale	-12.1149
▁royally	-12.1149
▁ruaridh	-12.1149
▁rub	-12.1149
▁rubbish	-12.1149
▁rubin	-12.1149
▁rug	-12.1149
▁rugby	-12.1149
▁ruminate	-12.1149
▁ruminating	-12.1149
▁rumination	-12.1149
▁runaway	-12.1149
▁runner	-12.1149
▁rustling	-12.1149
▁sa	-12.1149
▁sabotaged	-12.1149
▁saddens	-12.1149
▁sadder	-12.1149
▁sadhu	-12.1149
▁safeguard	-12.1149
▁saffron	-12.1149
▁sailing	-12.1149
▁sallust	-12.1149
▁sally	-12.1149
▁salute	-12.1149
▁salvation	-12.1149
▁sand	-12.1149
▁sandhu	-12.1149
▁sandwhich	-12.1149
▁sanskrit	-12.1149
▁santani	-12.1149
▁santos	-12.1149
▁sappy	-12.1149
▁sarah	-12.1149
▁saver	-12.1149
▁savor	-12.1149
▁sb	-12.1149
▁sbout	-12.1149
▁scab	-12.1149
▁scalp	-12.1149
▁scammed	-12.1149
▁scammer	-12.1149
▁scanning	-12.1149
▁scarborough	-12.1149
▁scarce	-12.1149
▁scarcity	-12.1149
▁scariest	-12.1149
▁scarificed	-12.1149
▁scaring	-12.1149
▁scented	-12.1149
▁schooling	-12.1149
▁schoonmaker	-12.1149
▁schopenhauer	-12.1149
▁sci	-12.1149
▁scoffing	-12.1149
▁scorn	-12.1149
▁scorsese	-12.1149
▁scrabbling	-12.1149
▁scramble	-12.1149
▁scrap	-12.1149
▁scrawled	-12.1149
▁screened	-12.1149
▁screenshots	-12.1149
▁scripture	-12.1149
▁scrutiny	-12.1149
▁sculpt	-12.1149
▁sculpture	-12.1149
▁seabed	-12.1149
▁sean	-12.1149
▁seance	-12.1149
▁sec	-12.1149
▁secluded	-12.1149
▁secondarily	-12.1149
▁sector	-12.1149
▁secured	-12.1149
▁seeked	-12.1149
▁seeming	-12.1149
▁seeping	-12.1149
▁seeps	-12.1149
▁segragate	-12.1149
▁selective	-12.1149
▁selectively	-12.1149
▁selfharm	-12.1149
▁selfless	-12.1149
▁seligman	-12.1149
▁semen	-12.1149
▁senate	-12.1149
▁sensaion	-12.1149
▁seperate	-12.1149
▁sequel	-12.1149
▁seratonin	-12.1149
▁serene	-12.1149
▁serf	-12.1149
▁seriousness	-12.1149
▁setup	-12.1149
▁sever	-12.1149
▁sexualized	-12.1149
▁sexualizing	-12.1149
▁shabby	-12.1149
▁shady	-12.1149
▁shaken	-12.1149
▁shamed	-12.1149
▁shameful	-12.1149
▁shaming	-12.1149
▁shaped	-12.1149
▁shattering	-12.1149
▁shaving	-12.1149
▁shcool	-12.1149
▁shear	-12.1149
▁shenanigan	-12.1149
▁sheri	-12.1149
▁sherman	-12.1149
▁shifted	-12.1149
▁shipping	-12.1149
▁shite	-12.1149
▁shithole	-12.1149
▁shitpost	-12.1149
▁shitter	-12.1149
▁shittless	-12.1149
▁shitton	-12.1149
▁shiver	-12.1149
▁shize	-12.1149
▁shockingly	-12.1149
▁shok	-12.1149
▁shone	-12.1149
▁shook	-12.1149
▁shortcoming	-12.1149
▁showcase	-12.1149
▁shreiking	-12.1149
▁shrooms	-12.1149
▁shrugged	-12.1149
▁sht	-12.1149
▁shuffling	-12.1149
▁si	-12.1149
▁sideline	-12.1149
▁sidelining	-12.1149
▁sidetracked	-12.1149
▁sighting	-12.1149
▁signaling	-12.1149
▁signpost	-12.1149
▁silenced	-12.1149
▁silver	-12.1149
▁similarly	-12.1149
▁simp	-12.1149
▁simpler	-12.1149
▁simplify	-12.1149
▁sims	-12.1149
▁sincerity	-12.1149
▁singled	-12.1149
▁sitcom	-12.1149
▁sized	-12.1149
▁skating	-12.1149
▁skeleton	-12.1149
▁sketched	-12.1149
▁skiddish	-12.1149
▁skillful	-12.1149
▁skincare	-12.1149
▁skipped	-12.1149
▁skype	-12.1149
▁skyrocketing	-12.1149
▁slam	-12.1149
▁slapping	-12.1149
▁slash	-12.1149
▁slate	-12.1149
▁sleepapnea	-12.1149
▁sleepiness	-12.1149
▁sleeplessness	-12.1149
▁sleepschedule	-12.1149
▁sleeptest	-12.1149
▁sleeve	-12.1149
▁slew	-12.1149
▁slideshow	-12.1149
▁sliding	-12.1149
▁slight	-12.1149
▁slim	-12.1149
▁slime	-12.1149
▁slipknot	-12.1149
▁slogan	-12.1149
▁slowdown	-12.1149
▁slump	-12.1149
▁slumping	-12.1149
▁smartest	-12.1149
▁smash	-12.1149
▁smfh	-12.1149
▁smidgen	-12.1149
▁smiled	-12.1149
▁smoothy	-12.1149
▁snarky	-12.1149
▁sniffed	-12.1149
▁sniffle	-12.1149
▁snippet	-12.1149
▁snuck	-12.1149
▁snuggle	-12.1149
▁soak	-12.1149
▁soaking	-12.1149
▁soared	-12.1149
▁socialization	-12.1149
▁socio	-12.1149
▁solidarity	-12.1149
▁solidifies	-12.1149
▁solved	-12.1149
▁sonar	-12.1149
▁sont	-12.1149
▁soooo	-12.1149
▁sorority	-12.1149
▁soulless	-12.1149
▁soulrelax	-12.1149
▁soundly	-12.1149
▁soundproof	-12.1149
▁soup	-12.1149
▁spacing	-12.1149
▁spam	-12.1149
▁spank	-12.1149
▁spanked	-12.1149
▁spanned	-12.1149
▁sparing	-12.1149
▁sparkle	-12.1149
▁spasming	-12.1149
