▁feel	-4.44819
<s>	0
</s>	0
<unk>	0
▁like	-4.44865
▁wa	-4.49866
▁life	-4.69178
▁time	-4.74049
▁get	-4.79688
▁know	-4.8395
▁want	-4.87834
▁thing	-4.98732
▁day	-5.01127
▁people	-5.09725
▁even	-5.1395
▁year	-5.21086
▁one	-5.25008
▁really	-5.25008
▁make	-5.2877
▁work	-5.32569
▁help	-5.33793
▁ha	-5.34467
▁think	-5.36517
▁stress	-5.41109
▁would	-5.43672
▁going	-5.50315
▁go	-5.50845
▁much	-5.55327
▁something	-5.58001
▁friend	-5.59293
▁way	-5.60749
▁feeling	-5.63273
▁love	-5.66793
▁everything	-5.69477
▁always	-5.69637
▁never	-5.7109
▁thought	-5.71579
▁need	-5.73392
▁take	-5.7406
▁good	-5.76262
▁back	-5.76949
▁keep	-5.77294
▁u	-5.82624
▁also	-5.85025
▁still	-5.85212
▁every	-5.90598
▁depression	-5.90994
▁new	-5.92192
▁right	-5.93404
▁job	-5.93607
▁could	-5.93811
▁anxiety	-5.94425
▁better	-5.965
▁happy	-5.97766
▁anything	-5.98619
▁anyone	-5.99695
▁say	-6.02996
▁someone	-6.02996
▁week	-6.03895
▁lot	-6.07106
▁start	-6.09465
▁see	-6.11636
▁try	-6.1188
▁well	-6.12125
▁bad	-6.12616
▁amp	-6.12863
▁hard	-6.1311
▁come	-6.13856
▁trying	-6.14356
▁month	-6.14607
▁got	-6.14858
▁school	-6.15617
▁find	-6.15871
▁today	-6.16381
▁everyone	-6.18972
▁first	-6.20027
▁happiness	-6.20293
▁many	-6.20826
▁nothing	-6.21632
▁since	-6.21632
▁family	-6.22988
▁anymore	-6.24087
▁moment	-6.25198
▁self	-6.27458
▁last	-6.28608
▁live	-6.29479
▁give	-6.29771
▁mind	-6.34256
▁ever	-6.34562
▁end	-6.36733
▁person	-6.37362
▁point	-6.37362
▁hate	-6.37995
▁mental	-6.38312
▁getting	-6.38951
▁made	-6.38951
▁world	-6.38951
▁long	-6.39272
▁pain	-6.39272
▁else	-6.39595
▁past	-6.40242
▁sleep	-6.41549
▁sometimes	-6.41549
▁best	-6.41879
▁care	-6.43879
▁problem	-6.43879
▁change	-6.44216
▁fucking	-6.44216
▁around	-6.45235
▁started	-6.45576
▁depressed	-6.45919
▁doe	-6.45919
▁let	-6.45919
▁thinking	-6.46264
▁away	-6.46956
▁health	-6.46956
▁im	-6.48707
▁stressed	-6.5049
▁home	-6.51212
▁talk	-6.52672
▁stop	-6.54527
▁felt	-6.55657
▁others	-6.568
▁tell	-6.568
▁please	-6.57184
▁hope	-6.58734
▁hour	-6.59518
▁used	-6.59518
▁look	-6.59913
▁experience	-6.60309
▁parent	-6.61106
▁different	-6.63126
▁tired	-6.63126
▁maybe	-6.63946
▁though	-6.66025
▁part	-6.66446
▁told	-6.66446
▁without	-6.66446
▁done	-6.67293
▁might	-6.68148
▁shit	-6.70317
▁working	-6.70317
▁put	-6.70757
▁little	-6.71642
▁place	-6.72535
▁ago	-6.72984
▁sad	-6.73435
▁body	-6.73889
▁taking	-6.73889
▁said	-6.74345
▁reason	-6.74802
▁focus	-6.75262
▁cry	-6.75724
▁wish	-6.76654
▁living	-6.77123
▁able	-6.77593
▁enough	-6.77593
▁worse	-6.78066
▁actually	-6.78541
▁alone	-6.79498
▁dont	-6.79498
▁head	-6.80464
▁may	-6.80464
▁wanted	-6.8144
▁emotion	-6.82921
▁high	-6.82921
▁two	-6.8342
▁etc	-6.84425
▁making	-6.84425
▁remember	-6.84425
▁wrong	-6.84931
▁idea	-6.8544
▁mom	-6.8544
▁guy	-6.86466
▁another	-6.86983
▁situation	-6.86983
▁already	-6.87502
▁great	-6.88024
▁college	-6.88549
▁video	-6.88549
▁energy	-6.89077
▁listen	-6.89077
▁step	-6.89608
▁hurt	-6.90141
▁looking	-6.90141
▁money	-6.91216
▁important	-6.91758
▁therapy	-6.91758
▁went	-6.91758
▁anxious	-6.92303
▁relationship	-6.92303
▁constantly	-6.93956
▁mean	-6.93956
▁night	-6.93956
▁success	-6.93956
▁tried	-6.94513
▁goal	-6.95637
▁everyday	-6.97923
▁study	-6.98502
▁post	-6.99085
▁normal	-6.99672
▁heart	-7.00262
▁lt	-7.00855
▁found	-7.02053
▁future	-7.02053
▁lost	-7.02053
▁class	-7.02657
▁die	-7.02657
▁use	-7.02657
▁issue	-7.03265
▁learn	-7.03265
▁question	-7.03265
▁understand	-7.03265
▁minute	-7.04492
▁next	-7.04492
▁kind	-7.05111
▁music	-7.05111
▁social	-7.05734
▁positive	-7.06361
▁sure	-7.06361
▁drey	-7.06992
▁left	-7.06992
▁almost	-7.07627
▁human	-7.07627
▁happen	-7.08266
▁recently	-7.08266
▁cause	-7.08909
▁old	-7.08909
▁share	-7.08909
▁ask	-7.09557
▁brain	-7.09557
▁deal	-7.10208
▁le	-7.10208
▁move	-7.10208
▁covid	-7.10864
▁leave	-7.11524
▁advice	-7.12188
▁call	-7.12857
▁talking	-7.12857
▁daily	-7.14891
▁matter	-7.14891
▁become	-7.15578
▁mother	-7.15578
▁believe	-7.1627
▁course	-7.1627
▁least	-7.1627
▁often	-7.16967
▁pretty	-7.17669
▁present	-7.18376
▁read	-7.18376
▁yet	-7.18376
▁real	-7.19088
▁bed	-7.20526
▁fear	-7.20526
▁seems	-7.20526
▁inside	-7.21254
▁meditation	-7.21254
▁support	-7.21254
▁house	-7.21986
▁whole	-7.21986
▁bit	-7.22724
▁free	-7.23468
▁scared	-7.23468
▁stuff	-7.23468
▁state	-7.24217
▁level	-7.24972
▁due	-7.25732
▁push	-7.25732
▁finally	-7.26498
▁fuck	-7.26498
▁dream	-7.28049
▁enjoy	-7.28049
▁break	-7.28833
▁guess	-7.28833
▁completely	-7.29624
▁difficult	-7.29624
▁probably	-7.29624
▁together	-7.29624
▁control	-7.3042
▁either	-7.3042
▁forward	-7.3042
▁close	-7.31224
▁starting	-7.31224
▁needed	-7.32033
▁suffering	-7.3285
▁thank	-7.3285
▁ok	-7.33673
▁stay	-7.33673
▁rather	-7.34503
▁writing	-7.34503
▁god	-7.35339
▁online	-7.35339
▁seem	-7.36183
▁word	-7.36183
▁thats	-7.37034
▁motivation	-7.38759
▁symptom	-7.38759
▁full	-7.40513
▁took	-7.40513
▁kid	-7.41402
▁saying	-7.41402
▁second	-7.41402
▁hi	-7.42299
▁learning	-7.42299
▁medication	-7.42299
▁book	-7.44117
▁doctor	-7.44117
▁happened	-7.44117
▁later	-7.44117
▁negative	-7.44117
▁small	-7.44117
▁plan	-7.45039
▁story	-7.45039
▁wanna	-7.45039
▁came	-7.45969
▁currently	-7.45969
▁honestly	-7.45969
▁cant	-7.46908
▁pandemic	-7.46908
▁truly	-7.46908
▁especially	-7.47856
▁grade	-7.47856
▁turn	-7.47856
▁deep	-7.48813
▁gonna	-7.48813
▁worst	-7.48813
▁morning	-7.49779
▁open	-7.49779
▁suicide	-7.49779
▁whatever	-7.49779
▁couple	-7.50754
▁dad	-7.50754
▁face	-7.50754
▁memory	-7.50754
▁peace	-7.50754
▁set	-7.50754
▁sorry	-7.50754
▁eye	-7.5174
▁literally	-7.5174
▁low	-7.5174
▁sense	-7.5174
▁successful	-7.5174
▁supposed	-7.5174
▁usually	-7.5174
▁emotional	-7.52735
▁outside	-7.52735
▁age	-7.5374
▁show	-7.5374
▁student	-7.5374
▁car	-7.54755
▁far	-7.54755
▁easy	-7.55781
▁gone	-7.55781
▁attack	-7.56817
▁basically	-7.56817
▁man	-7.56817
▁possible	-7.56817
▁struggling	-7.56817
▁true	-7.57864
▁fact	-7.58922
▁habit	-7.58922
▁mindset	-7.58922
▁therapist	-7.58922
▁coming	-7.59992
▁happens	-7.59992
▁personal	-7.59992
▁soon	-7.59992
▁thanks	-7.59992
▁worry	-7.59992
▁write	-7.59992
▁along	-7.61073
▁eat	-7.61073
▁learned	-7.61073
▁tip	-7.61073
▁wake	-7.61073
▁called	-7.62166
▁interview	-7.62166
▁joy	-7.62166
▁decided	-7.63271
▁fine	-7.63271
▁group	-7.63271
▁hey	-7.63271
▁big	-7.64388
▁constant	-7.64388
▁girl	-7.64388
▁phone	-7.64388
▁physical	-7.64388
▁pressure	-7.64388
▁test	-7.64388
▁top	-7.64388
▁sound	-7.65518
▁stuck	-7.65518
▁behind	-7.66661
▁fun	-7.66661
▁hand	-7.66661
▁handle	-7.66661
▁nobody	-7.66661
▁single	-7.66661
▁calm	-7.67817
▁happening	-7.67817
▁space	-7.67817
▁stressful	-7.67817
▁survey	-7.67817
▁career	-7.68987
▁drive	-7.68987
▁game	-7.68987
▁light	-7.68987
▁mistake	-7.68987
▁research	-7.68987
▁rest	-7.68987
▁short	-7.68987
▁teacher	-7.68987
▁universe	-7.68987
▁child	-7.7017
▁create	-7.7017
▁helped	-7.7017
▁lately	-7.7017
▁panic	-7.7017
▁treatment	-7.7017
▁university	-7.7017
▁instead	-7.71368
▁meet	-7.71368
▁reading	-7.71368
▁room	-7.71368
▁super	-7.71368
▁amount	-7.7258
▁aware	-7.7258
▁awareness	-7.7258
▁follow	-7.7258
▁given	-7.7258
▁must	-7.7258
▁nice	-7.7258
▁whenever	-7.7258
▁name	-7.73807
▁pay	-7.73807
▁seeing	-7.73807
▁spent	-7.73807
▁early	-7.75049
▁healing	-7.75049
▁lead	-7.75049
▁result	-7.75049
▁sit	-7.75049
▁worked	-7.75049
▁youtube	-7.75049
▁afraid	-7.76307
▁boyfriend	-7.76307
▁check	-7.76307
▁choice	-7.76307
▁loved	-7.76307
▁three	-7.76307
▁certain	-7.77581
▁hello	-7.77581
▁interested	-7.77581
▁lived	-7.77581
▁proud	-7.77581
▁answer	-7.78871
▁longer	-7.78871
▁telling	-7.78871
▁asked	-7.80178
▁brother	-7.80178
▁death	-7.80178
▁hit	-7.80178
▁idk	-7.80178
▁okay	-7.80178
▁sadness	-7.80178
▁suicidal	-7.80178
▁towards	-7.80178
▁extremely	-7.81503
▁kill	-7.81503
▁link	-7.81503
▁play	-7.81503
▁purpose	-7.81503
▁side	-7.81503
▁worried	-7.81503
▁cannot	-7.82845
▁diagnosed	-7.82845
▁effect	-7.82845
▁wanting	-7.82845
▁bring	-7.84206
▁broke	-7.84206
▁continue	-7.84206
▁eventually	-7.84206
▁forget	-7.84206
▁journey	-7.84206
▁moving	-7.84206
▁practice	-7.84206
▁quite	-7.84206
▁reach	-7.84206
▁seen	-7.84206
▁sick	-7.84206
▁taken	-7.84206
▁waiting	-7.84206
▁worth	-7.84206
▁asking	-7.85585
▁individual	-7.85585
▁spend	-7.85585
▁whether	-7.85585
▁alive	-7.86984
▁based	-7.86984
▁healthy	-7.86984
▁path	-7.86984
▁action	-7.88402
▁country	-7.88402
▁figure	-7.88402
▁giving	-7.88402
▁hold	-7.88402
▁late	-7.88402
▁med	-7.88402
▁mood	-7.88402
▁sleeping	-7.88402
▁weird	-7.88402
▁within	-7.88402
▁attention	-7.89841
▁breathe	-7.89841
▁entire	-7.89841
▁example	-7.89841
▁half	-7.89841
▁helping	-7.89841
▁knowing	-7.89841
▁passion	-7.89841
▁pushing	-7.89841
▁article	-7.91301
▁company	-7.91301
▁empty	-7.91301
▁medium	-7.91301
▁process	-7.91301
▁disorder	-7.92782
▁exercise	-7.92782
▁hear	-7.92782
▁however	-7.92782
▁meant	-7.92782
▁miss	-7.92782
▁realize	-7.92782
▁technique	-7.92782
▁angry	-7.94286
▁beautiful	-7.94286
▁business	-7.94286
▁food	-7.94286
▁lack	-7.94286
▁sort	-7.94286
▁stopped	-7.94286
▁young	-7.94286
▁act	-7.95813
▁became	-7.95813
▁fill	-7.95813
▁reddit	-7.95813
▁run	-7.95813
▁soul	-7.95813
▁suck	-7.95813
▁truth	-7.95813
▁walk	-7.95813
▁episode	-7.97363
▁exam	-7.97363
▁failure	-7.97363
▁form	-7.97363
▁watch	-7.97363
▁wife	-7.97363
▁breath	-7.98938
▁event	-7.98938
▁expectation	-7.98938
▁girlfriend	-7.98938
▁information	-7.98938
▁kinda	-7.98938
▁notice	-7.98938
▁using	-7.98938
▁accept	-8.00538
▁anyway	-8.00538
▁eating	-8.00538
▁focusing	-8.00538
▁grateful	-8.00538
▁knew	-8.00538
▁lonely	-8.00538
▁power	-8.00538
▁quit	-8.00538
▁simple	-8.00538
▁stupid	-8.00538
▁type	-8.00538
▁adult	-8.02164
▁amazing	-8.02164
▁greater	-8.02164
▁project	-8.02164
▁suffer	-8.02164
▁wondering	-8.02164
▁achieve	-8.03817
▁complete	-8.03817
▁fail	-8.03817
▁fight	-8.03817
▁finding	-8.03817
▁force	-8.03817
▁woman	-8.03817
▁appreciate	-8.05498
▁choose	-8.05498
▁dealing	-8.05498
▁experienced	-8.05498
▁heard	-8.05498
▁huge	-8.05498
▁improve	-8.05498
▁severe	-8.05498
▁struggle	-8.05498
▁studying	-8.05498
▁absolutely	-8.07207
▁cope	-8.07207
▁cut	-8.07207
▁impact	-8.07207
▁listening	-8.07207
▁major	-8.07207
▁participant	-8.07207
▁reality	-8.07207
▁simply	-8.07207
▁term	-8.07207
▁watching	-8.07207
▁yes	-8.07207
▁allow	-8.08947
▁drug	-8.08947
▁father	-8.08947
▁known	-8.08947
▁losing	-8.08947
▁mentally	-8.08947
▁met	-8.08947
▁turned	-8.08947
▁activity	-8.10717
▁anger	-8.10717
▁anybody	-8.10717
▁exactly	-8.10717
▁explain	-8.10717
▁hell	-8.10717
▁ive	-8.10717
▁numb	-8.10717
▁terrible	-8.10717
▁trust	-8.10717
▁comment	-8.12519
▁decision	-8.12519
▁driving	-8.12519
▁dying	-8.12519
▁gratitude	-8.12519
▁kept	-8.12519
▁mine	-8.12519
▁period	-8.12519
▁tomorrow	-8.12519
▁across	-8.14353
▁assignment	-8.14353
▁cycle	-8.14353
▁four	-8.14353
▁horrible	-8.14353
▁pas	-8.14353
▁changed	-8.16223
▁condition	-8.16223
▁degree	-8.16223
▁deserve	-8.16223
▁miserable	-8.16223
▁physically	-8.16223
▁putting	-8.16223
▁questionnaire	-8.16223
▁realized	-8.16223
▁several	-8.16223
▁somehow	-8.16223
▁stand	-8.16223
▁tension	-8.16223
▁account	-8.18127
▁apart	-8.18127
▁circumstance	-8.18127
▁conversation	-8.18127
▁easier	-8.18127
▁following	-8.18127
▁gotten	-8.18127
▁number	-8.18127
▁opportunity	-8.18127
▁session	-8.18127
▁smile	-8.18127
▁trauma	-8.18127
▁understanding	-8.18127
▁eligible	-8.20069
▁fall	-8.20069
▁hoping	-8.20069
▁lie	-8.20069
▁message	-8.20069
▁overwhelmed	-8.20069
▁strong	-8.20069
▁barely	-8.2205
▁born	-8.2205
▁desire	-8.2205
▁dog	-8.2205
▁easily	-8.2205
▁expect	-8.2205
▁fast	-8.2205
▁hospital	-8.2205
▁manage	-8.2205
▁management	-8.2205
▁ready	-8.2205
▁saw	-8.2205
▁sister	-8.2205
▁society	-8.2205
▁wait	-8.2205
▁appreciated	-8.2407
▁brief	-8.2407
▁chest	-8.2407
▁comfortable	-8.2407
▁contact	-8.2407
▁grow	-8.2407
▁headache	-8.2407
▁list	-8.2407
▁moved	-8.2407
▁movie	-8.2407
▁podcasts	-8.2407
▁relief	-8.2407
▁shitty	-8.2407
▁sitting	-8.2407
▁spiritual	-8.2407
▁useless	-8.2407
▁app	-8.26132
▁busy	-8.26132
▁caused	-8.26132
▁died	-8.26132
▁harder	-8.26132
▁perspective	-8.26132
▁playing	-8.26132
▁similar	-8.26132
▁slowly	-8.26132
▁belief	-8.28237
▁breakdown	-8.28237
▁breathing	-8.28237
▁comfort	-8.28237
▁current	-8.28237
▁dead	-8.28237
▁ex	-8.28237
▁growth	-8.28237
▁happier	-8.28237
▁knowledge	-8.28237
▁loser	-8.28237
▁member	-8.28237
▁order	-8.28237
▁perfect	-8.28237
▁reduce	-8.28237
▁relate	-8.28237
▁sharing	-8.28237
▁wave	-8.28237
▁breaking	-8.30388
▁broken	-8.30388
▁causing	-8.30388
▁despite	-8.30388
▁honest	-8.30388
▁main	-8.30388
▁opinion	-8.30388
▁related	-8.30388
▁straight	-8.30388
▁upset	-8.30388
▁although	-8.32586
▁area	-8.32586
▁art	-8.32586
▁begin	-8.32586
▁build	-8.32586
▁crazy	-8.32586
▁dark	-8.32586
▁general	-8.32586
▁growing	-8.32586
▁internet	-8.32586
▁missing	-8.32586
▁mostly	-8.32586
▁noticed	-8.32586
▁option	-8.32586
▁receive	-8.32586
▁talked	-8.32586
▁visit	-8.32586
▁weight	-8.32586
▁add	-8.34833
▁cold	-8.34833
▁cost	-8.34833
▁damn	-8.34833
▁depressive	-8.34833
▁detail	-8.34833
▁exhausted	-8.34833
▁hair	-8.34833
▁hobby	-8.34833
▁killing	-8.34833
▁lose	-8.34833
▁mad	-8.34833
▁mess	-8.34833
▁safe	-8.34833
▁stressing	-8.34833
▁system	-8.34833
▁waste	-8.34833
▁wonder	-8.34833
▁yesterday	-8.34833
▁brings	-8.37132
▁content	-8.37132
▁drink	-8.37132
▁drinking	-8.37132
▁falling	-8.37132
▁lazy	-8.37132
▁method	-8.37132
▁release	-8.37132
▁sign	-8.37132
▁skill	-8.37132
▁speak	-8.37132
▁supplement	-8.37132
▁tool	-8.37132
▁whats	-8.37132
▁allowed	-8.39485
▁awful	-8.39485
▁chill	-8.39485
▁emotionally	-8.39485
▁faith	-8.39485
▁finish	-8.39485
▁goosebump	-8.39485
▁meaning	-8.39485
▁multiple	-8.39485
▁none	-8.39485
▁oh	-8.39485
▁paying	-8.39485
▁piece	-8.39485
▁progress	-8.39485
▁sibling	-8.39485
▁totally	-8.39485
▁uni	-8.39485
▁ups	-8.39485
▁voice	-8.39485
▁weekend	-8.39485
▁worrying	-8.39485
▁ability	-8.41895
▁alcohol	-8.41895
▁challenge	-8.41895
▁chance	-8.41895
▁difference	-8.41895
▁effort	-8.41895
▁fix	-8.41895
▁front	-8.41895
▁fucked	-8.41895
▁impossible	-8.41895
▁interesting	-8.41895
▁line	-8.41895
▁regret	-8.41895
▁relaxing	-8.41895
▁somewhere	-8.41895
▁weak	-8.41895
▁coping	-8.44364
▁illness	-8.44364
▁manager	-8.44364
▁nature	-8.44364
▁older	-8.44364
▁role	-8.44364
▁running	-8.44364
▁son	-8.44364
▁sun	-8.44364
▁tend	-8.44364
▁win	-8.44364
▁affect	-8.46896
▁beat	-8.46896
▁becoming	-8.46896
▁birthday	-8.46896
▁blood	-8.46896
▁bullshit	-8.46896
▁email	-8.46896
▁hopefully	-8.46896
▁platform	-8.46896
▁program	-8.46896
▁relax	-8.46896
▁screen	-8.46896
▁semester	-8.46896
▁sex	-8.46896
▁source	-8.46896
▁suddenly	-8.46896
▁task	-8.46896
▁text	-8.46896
▁yeah	-8.46896
▁bc	-8.49493
▁benefit	-8.49493
▁computer	-8.49493
▁creating	-8.49493
▁failed	-8.49493
▁fault	-8.49493
▁field	-8.49493
▁final	-8.49493
▁financial	-8.49493
▁keeping	-8.49493
▁key	-8.49493
▁letting	-8.49493
▁overcome	-8.49493
▁psychiatrist	-8.49493
▁seriously	-8.49493
▁track	-8.49493
▁vent	-8.49493
▁beginning	-8.5216
▁burden	-8.5216
▁buy	-8.5216
▁case	-8.5216
▁exist	-8.5216
▁experiencing	-8.5216
▁focused	-8.5216
▁forced	-8.5216
▁ill	-8.5216
▁mention	-8.5216
▁office	-8.5216
▁passed	-8.5216
▁quote	-8.5216
▁serious	-8.5216
▁shift	-8.5216
▁skin	-8.5216
▁solution	-8.5216
▁special	-8.5216
▁staying	-8.5216
▁waking	-8.5216
▁water	-8.5216
▁antidepressant	-8.549
▁avoid	-8.549
▁com	-8.549
▁community	-8.549
▁deeper	-8.549
▁ended	-8.549
▁fully	-8.549
▁helpful	-8.549
▁interest	-8.549
▁leaving	-8.549
▁loss	-8.549
▁meeting	-8.549
▁nearly	-8.549
▁otherwise	-8.549
▁partner	-8.549
▁pleasure	-8.549
▁reaction	-8.549
▁subject	-8.549
▁treat	-8.549
▁tv	-8.549
▁abuse	-8.57717
▁afford	-8.57717
▁attempt	-8.57717
▁b	-8.57717
▁balance	-8.57717
▁city	-8.57717
▁cried	-8.57717
▁develop	-8.57717
▁direction	-8.57717
▁drop	-8.57717
▁education	-8.57717
▁five	-8.57717
▁gave	-8.57717
▁hole	-8.57717
▁homework	-8.57717
▁march	-8.57717
▁men	-8.57717
▁mindfulness	-8.57717
▁natural	-8.57717
▁non	-8.57717
▁obviously	-8.57717
▁position	-8.57717
▁seemed	-8.57717
▁specific	-8.57717
▁stomach	-8.57717
▁summer	-8.57717
▁apple	-8.60616
▁boundary	-8.60616
▁brought	-8.60616
▁clear	-8.60616
▁excuse	-8.60616
▁gift	-8.60616
▁google	-8.60616
▁husband	-8.60616
▁immediately	-8.60616
▁insecurity	-8.60616
▁insomnia	-8.60616
▁middle	-8.60616
▁onto	-8.60616
▁patience	-8.60616
▁personality	-8.60616
▁pill	-8.60616
▁poor	-8.60616
▁quick	-8.60616
▁quickly	-8.60616
▁spotify	-8.60616
▁stage	-8.60616
▁tough	-8.60616
▁unable	-8.60616
▁uncomfortable	-8.60616
▁worthless	-8.60616
▁yoga	-8.60616
▁anywhere	-8.63601
▁apartment	-8.63601
▁building	-8.63601
▁concept	-8.63601
▁credit	-8.63601
▁darkness	-8.63601
▁distress	-8.63601
▁door	-8.63601
▁earth	-8.63601
▁feedback	-8.63601
▁hurting	-8.63601
▁including	-8.63601
▁increase	-8.63601
▁intention	-8.63601
▁lay	-8.63601
▁leg	-8.63601
▁loneliness	-8.63601
▁paid	-8.63601
▁rich	-8.63601
▁rule	-8.63601
▁shut	-8.63601
▁strength	-8.63601
▁struggled	-8.63601
▁suggestion	-8.63601
▁value	-8.63601
▁view	-8.63601
▁air	-8.66678
▁bill	-8.66678
▁card	-8.66678
▁chronic	-8.66678
▁closer	-8.66678
▁common	-8.66678
▁didnt	-8.66678
▁embrace	-8.66678
▁environment	-8.66678
▁extra	-8.66678
▁failing	-8.66678
▁forever	-8.66678
▁joke	-8.66678
▁powerful	-8.66678
▁r	-8.66678
▁responsibility	-8.66678
▁schedule	-8.66678
▁six	-8.66678
▁strategy	-8.66678
▁toxic	-8.66678
▁aspect	-8.69853
▁bought	-8.69853
▁cancer	-8.69853
▁divine	-8.69853
▁doubt	-8.69853
▁fresh	-8.69853
▁function	-8.69853
▁guilty	-8.69853
▁higher	-8.69853
▁invited	-8.69853
▁laugh	-8.69853
▁medical	-8.69853
▁painful	-8.69853
▁rant	-8.69853
▁routine	-8.69853
▁seek	-8.69853
▁send	-8.69853
▁syndrome	-8.69853
▁throughout	-8.69853
▁topic	-8.69853
▁training	-8.69853
▁walking	-8.69853
▁wall	-8.69853
▁york	-8.69853
▁younger	-8.69853
▁actual	-8.73132
▁alot	-8.73132
▁appointment	-8.73132
▁bother	-8.73132
▁certainly	-8.73132
▁date	-8.73132
▁ending	-8.73132
▁except	-8.73132
▁genuinely	-8.73132
▁greatly	-8.73132
▁guide	-8.73132
▁holding	-8.73132
▁incredibly	-8.73132
▁inner	-8.73132
▁liked	-8.73132
▁looked	-8.73132
▁mobile	-8.73132
▁normally	-8.73132
▁podcast	-8.73132
▁professional	-8.73132
▁psychology	-8.73132
▁rate	-8.73132
▁seeking	-8.73132
▁sent	-8.73132
▁smart	-8.73132
▁touch	-8.73132
▁trouble	-8.73132
▁unless	-8.73132
▁annoying	-8.76522
▁caught	-8.76522
▁consider	-8.76522
▁coronavirus	-8.76522
▁created	-8.76522
▁dating	-8.76522
▁decide	-8.76522
▁e	-8.76522
▁ease	-8.76522
▁escape	-8.76522
▁excited	-8.76522
▁existence	-8.76522
▁fatigue	-8.76522
▁ground	-8.76522
▁held	-8.76522
▁married	-8.76522
▁offering	-8.76522
▁reply	-8.76522
▁science	-8.76522
▁smoking	-8.76522
▁surface	-8.76522
▁trigger	-8.76522
▁anyways	-8.80031
▁arm	-8.80031
▁asleep	-8.80031
▁badly	-8.80031
▁began	-8.80031
▁coffee	-8.80031
▁confidence	-8.80031
▁confused	-8.80031
▁dealt	-8.80031
▁exact	-8.80031
▁filled	-8.80031
▁male	-8.80031
▁overwhelming	-8.80031
▁productive	-8.80031
▁response	-8.80031
▁rush	-8.80031
▁somewhat	-8.80031
▁tear	-8.80031
▁teeth	-8.80031
▁unhappy	-8.80031
▁willing	-8.80031
▁accomplish	-8.83668
▁baby	-8.83668
▁blog	-8.83668
▁compassion	-8.83668
▁concentrate	-8.83668
▁connect	-8.83668
▁cuz	-8.83668
▁decade	-8.83668
▁definitely	-8.83668
▁disappointed	-8.83668
▁earlier	-8.83668
▁effective	-8.83668
▁express	-8.83668
▁female	-8.83668
▁figured	-8.83668
▁fit	-8.83668
▁gf	-8.83668
▁imagine	-8.83668
▁internal	-8.83668
▁join	-8.83668
▁lol	-8.83668
▁loving	-8.83668
▁nightmare	-8.83668
▁ocd	-8.83668
▁ourself	-8.83668
▁overall	-8.83668
▁pretending	-8.83668
▁random	-8.83668
▁relieve	-8.83668
▁respond	-8.83668
▁song	-8.83668
▁tonight	-8.83668
▁trained	-8.83668
▁travel	-8.83668
▁blame	-8.87442
▁blue	-8.87442
▁bunch	-8.87442
▁cared	-8.87442
▁childhood	-8.87442
▁click	-8.87442
▁clinician	-8.87442
▁columbia	-8.87442
▁existing	-8.87442
▁explains	-8.87442
▁fighting	-8.87442
▁hopeless	-8.87442
▁jump	-8.87442
▁killed	-8.87442
▁lesson	-8.87442
▁limit	-8.87442
▁managed	-8.87442
▁math	-8.87442
▁near	-8.87442
▁news	-8.87442
▁offer	-8.87442
▁picture	-8.87442
▁possibly	-8.87442
▁pre	-8.87442
▁properly	-8.87442
▁quiet	-8.87442
▁resource	-8.87442
▁scary	-8.87442
▁selfish	-8.87442
▁shown	-8.87442
▁significant	-8.87442
▁solve	-8.87442
▁speaking	-8.87442
▁specially	-8.87442
▁teach	-8.87442
▁wealth	-8.87442
▁wear	-8.87442
▁abusive	-8.91364
▁among	-8.91364
▁apply	-8.91364
▁bos	-8.91364
▁changing	-8.91364
▁dr	-8.91364
▁dumb	-8.91364
▁factor	-8.91364
▁fell	-8.91364
▁friendship	-8.91364
▁frustration	-8.91364
▁hug	-8.91364
▁improvement	-8.91364
▁latest	-8.91364
▁novel	-8.91364
▁particularly	-8.91364
▁presence	-8.91364
▁public	-8.91364
▁pull	-8.91364
▁pushed	-8.91364
▁road	-8.91364
▁screaming	-8.91364
▁sport	-8.91364
▁suffered	-8.91364
▁team	-8.91364
▁till	-8.91364
▁wont	-8.91364
▁worker	-8.91364
▁accident	-8.95446
▁author	-8.95446
▁basic	-8.95446
▁bathroom	-8.95446
▁battle	-8.95446
▁catch	-8.95446
▁clean	-8.95446
▁client	-8.95446
▁coach	-8.95446
▁compensated	-8.95446
▁connection	-8.95446
▁cool	-8.95446
▁crap	-8.95446
▁debt	-8.95446
▁dropped	-8.95446
▁everytime	-8.95446
▁extreme	-8.95446
▁facing	-8.95446
▁feature	-8.95446
▁hated	-8.95446
▁law	-8.95446
▁led	-8.95446
▁luck	-8.95446
▁naturally	-8.95446
▁note	-8.95446
▁outcome	-8.95446
▁page	-8.95446
▁passionate	-8.95446
▁played	-8.95446
▁popular	-8.95446
▁posting	-8.95446
▁recent	-8.95446
▁scare	-8.95446
▁season	-8.95446
▁slept	-8.95446
▁spirit	-8.95446
▁stick	-8.95446
▁title	-8.95446
▁twice	-8.95446
▁ultimately	-8.95446
▁zone	-8.95446
▁accepting	-8.99702
▁addiction	-8.99702
▁available	-8.99702
▁beyond	-8.99702
▁biggest	-8.99702
▁bottom	-8.99702
▁center	-8.99702
▁courage	-8.99702
▁define	-8.99702
▁embracing	-8.99702
▁empathy	-8.99702
▁february	-8.99702
▁frustrated	-8.99702
▁grew	-8.99702
▁hang	-8.99702
▁harm	-8.99702
▁heal	-8.99702
▁imposter	-8.99702
▁innovative	-8.99702
▁material	-8.99702
▁mechanism	-8.99702
▁motivated	-8.99702
▁participate	-8.99702
▁party	-8.99702
▁passing	-8.99702
▁principle	-8.99702
▁psychological	-8.99702
▁ptsd	-8.99702
▁raise	-8.99702
▁realised	-8.99702
▁recognize	-8.99702
▁refuse	-8.99702
▁rent	-8.99702
▁respect	-8.99702
▁secret	-8.99702
▁separately	-8.99702
▁sexual	-8.99702
▁shoulder	-8.99702
▁sky	-8.99702
▁slow	-8.99702
▁spending	-8.99702
▁subconscious	-8.99702
▁telehealth	-8.99702
▁unfortunately	-8.99702
▁useful	-8.99702
▁utilize	-8.99702
▁war	-8.99702
▁wasted	-8.99702
▁yorkers	-8.99702
▁abundance	-9.04148
▁achieving	-9.04148
▁acting	-9.04148
▁attitude	-9.04148
▁christmas	-9.04148
▁commit	-9.04148
▁compare	-9.04148
▁considered	-9.04148
▁considering	-9.04148
▁creative	-9.04148
▁distance	-9.04148
▁drunk	-9.04148
▁edge	-9.04148
▁esteem	-9.04148
▁evening	-9.04148
▁everywhere	-9.04148
▁exhausting	-9.04148
▁external	-9.04148
▁fake	-9.04148
▁finished	-9.04148
▁fog	-9.04148
▁followed	-9.04148
▁foot	-9.04148
▁frequently	-9.04148
▁funny	-9.04148
▁generally	-9.04148
▁heavy	-9.04148
▁identity	-9.04148
▁isolation	-9.04148
▁january	-9.04148
▁lucky	-9.04148
▁managing	-9.04148
▁meditate	-9.04148
▁mindful	-9.04148
▁missed	-9.04148
▁monday	-9.04148
▁mum	-9.04148
▁nervous	-9.04148
▁per	-9.04148
▁planet	-9.04148
▁realizing	-9.04148
▁regularly	-9.04148
▁rid	-9.04148
▁root	-9.04148
▁sober	-9.04148
▁soothing	-9.04148
▁sudden	-9.04148
▁supportive	-9.04148
▁tea	-9.04148
▁tho	-9.04148
▁throw	-9.04148
▁trash	-9.04148
▁wellbeing	-9.04148
▁wrote	-9.04148
▁absolute	-9.088
▁access	-9.088
▁acknowledge	-9.088
▁animal	-9.088
▁annoyed	-9.088
▁applied	-9.088
▁average	-9.088
▁block	-9.088
▁checked	-9.088
▁chore	-9.088
▁compared	-9.088
▁conclusion	-9.088
▁connected	-9.088
▁convince	-9.088
▁discus	-9.088
▁enjoying	-9.088
▁everybody	-9.088
▁famous	-9.088
▁folk	-9.088
▁graduated	-9.088
▁hardly	-9.088
▁holiday	-9.088
▁intense	-9.088
▁judgement	-9.088
▁likely	-9.088
▁opposite	-9.088
▁participation	-9.088
▁previous	-9.088
▁psychologist	-9.088
▁rare	-9.088
▁relaxation	-9.088
▁relaxed	-9.088
▁released	-9.088
▁sensation	-9.088
▁sensitive	-9.088
▁shared	-9.088
▁shower	-9.088
▁succeed	-9.088
▁trick	-9.088
▁various	-9.088
▁wisdom	-9.088
▁accepted	-9.13679
▁agree	-9.13679
▁allows	-9.13679
▁alternative	-9.13679
▁besides	-9.13679
▁bigger	-9.13679
▁blessing	-9.13679
▁bright	-9.13679
▁burnt	-9.13679
▁calling	-9.13679
▁calming	-9.13679
▁discover	-9.13679
▁ego	-9.13679
▁forgot	-9.13679
▁grandma	-9.13679
▁guilt	-9.13679
▁hanging	-9.13679
▁happinessnow	-9.13679
▁homeless	-9.13679
▁ignore	-9.13679
▁influence	-9.13679
▁judging	-9.13679
▁lockdown	-9.13679
▁loud	-9.13679
▁maintain	-9.13679
▁motivate	-9.13679
▁nerve	-9.13679
▁noise	-9.13679
▁p	-9.13679
▁painting	-9.13679
▁pathetic	-9.13679
▁perception	-9.13679
▁perform	-9.13679
▁performance	-9.13679
▁pet	-9.13679
▁planned	-9.13679
▁prove	-9.13679
▁provide	-9.13679
▁quality	-9.13679
▁reached	-9.13679
▁react	-9.13679
▁ruined	-9.13679
▁series	-9.13679
▁site	-9.13679
▁sweet	-9.13679
▁terrified	-9.13679
▁thus	-9.13679
▁turning	-9.13679
▁vision	-9.13679
▁ward	-9.13679
▁zoom	-9.13679
▁adhd	-9.18808
▁allowing	-9.18808
▁apparently	-9.18808
▁application	-9.18808
▁atleast	-9.18808
▁brand	-9.18808
▁channel	-9.18808
▁contribute	-9.18808
▁count	-9.18808
▁cutting	-9.18808
▁daughter	-9.18808
▁deeply	-9.18808
▁depressing	-9.18808
▁driven	-9.18808
▁english	-9.18808
▁fire	-9.18808
▁greatest	-9.18808
▁hearing	-9.18808
▁hitting	-9.18808
▁john	-9.18808
▁kindness	-9.18808
▁leading	-9.18808
▁master	-9.18808
▁nowhere	-9.18808
▁nurse	-9.18808
▁personally	-9.18808
▁pick	-9.18808
▁plant	-9.18808
▁porn	-9.18808
▁pursue	-9.18808
▁reaching	-9.18808
▁repeat	-9.18808
▁return	-9.18808
▁senior	-9.18808
▁shake	-9.18808
▁showing	-9.18808
▁somebody	-9.18808
▁spoken	-9.18808
▁teenager	-9.18808
▁tl	-9.18808
▁town	-9.18808
▁train	-9.18808
▁ugly	-9.18808
▁valid	-9.18808
▁wonderful	-9.18808
▁addition	-9.24215
▁ahead	-9.24215
▁anti	-9.24215
▁aside	-9.24215
▁chat	-9.24215
▁clothes	-9.24215
▁combination	-9.24215
▁conditioned	-9.24215
▁consequence	-9.24215
▁data	-9.24215
▁decent	-9.24215
▁development	-9.24215
▁disappointment	-9.24215
▁distant	-9.24215
▁drag	-9.24215
▁draw	-9.24215
▁drawing	-9.24215
▁gmail	-9.24215
▁graduate	-9.24215
▁highschool	-9.24215
▁income	-9.24215
▁loan	-9.24215
▁local	-9.24215
▁lying	-9.24215
▁mainly	-9.24215
▁medicine	-9.24215
▁mid	-9.24215
▁mri	-9.24215
▁muscle	-9.24215
▁neck	-9.24215
▁overthinking	-9.24215
▁particular	-9.24215
▁planning	-9.24215
▁plus	-9.24215
▁political	-9.24215
▁pop	-9.24215
▁posted	-9.24215
▁practicing	-9.24215
▁prana	-9.24215
▁pray	-9.24215
▁prior	-9.24215
▁rise	-9.24215
▁rising	-9.24215
▁risk	-9.24215
▁socially	-9.24215
▁spare	-9.24215
▁spirituality	-9.24215
▁spring	-9.24215
▁stopping	-9.24215
▁stranger	-9.24215
▁stressor	-9.24215
▁sunshine	-9.24215
▁table	-9.24215
▁third	-9.24215
▁tiny	-9.24215
▁trans	-9.24215
▁trip	-9.24215
▁uk	-9.24215
▁venting	-9.24215
▁version	-9.24215
▁welcome	-9.24215
▁acceptance	-9.2993
▁achievement	-9.2993
▁advance	-9.2993
▁affected	-9.2993
▁affecting	-9.2993
▁approach	-9.2993
▁aura	-9.2993
▁basis	-9.2993
▁becomes	-9.2993
▁behavior	-9.2993
▁bike	-9.2993
▁boring	-9.2993
▁bringing	-9.2993
▁caring	-9.2993
▁character	-9.2993
▁clearly	-9.2993
▁club	-9.2993
▁co	-9.2993
▁complain	-9.2993
▁conscious	-9.2993
▁crisis	-9.2993
▁cup	-9.2993
▁curious	-9.2993
▁december	-9.2993
▁dollar	-9.2993
▁edit	-9.2993
▁essay	-9.2993
▁expected	-9.2993
▁explaining	-9.2993
▁favorite	-9.2993
▁flow	-9.2993
▁graduating	-9.2993
▁guidance	-9.2993
▁guided	-9.2993
▁hide	-9.2993
▁history	-9.2993
▁improved	-9.2993
▁include	-9.2993
▁insane	-9.2993
▁instant	-9.2993
▁intervention	-9.2993
▁involved	-9.2993
▁judge	-9.2993
▁jumping	-9.2993
▁large	-9.2993
▁laughing	-9.2993
▁load	-9.2993
▁messed	-9.2993
▁mile	-9.2993
▁neglect	-9.2993
▁paper	-9.2993
▁pleasing	-9.2993
▁plenty	-9.2993
▁possibility	-9.2993
▁professor	-9.2993
▁promotion	-9.2993
▁ride	-9.2993
▁rn	-9.2993
▁roosh	-9.2993
▁rude	-9.2993
▁saving	-9.2993
▁setting	-9.2993
▁smell	-9.2993
▁smoke	-9.2993
▁snap	-9.2993
▁specifically	-9.2993
▁stronger	-9.2993
▁taught	-9.2993
▁teaching	-9.2993
▁thousand	-9.2993
▁ton	-9.2993
▁treated	-9.2993
▁trial	-9.2993
▁tunnel	-9.2993
▁usual	-9.2993
▁vulnerable	-9.2993
▁warm	-9.2993
▁wheel	-9.2993
▁withdrawal	-9.2993
▁wow	-9.2993
▁xanax	-9.2993
▁achieved	-9.35993
▁added	-9.35993
▁affirmation	-9.35993
▁appetite	-9.35993
▁attraction	-9.35993
▁authentic	-9.35993
▁background	-9.35993
▁bank	-9.35993
▁bear	-9.35993
▁behaviour	-9.35993
▁bitch	-9.35993
▁blocked	-9.35993
▁boy	-9.35993
▁built	-9.35993
▁chose	-9.35993
▁church	-9.35993
▁claim	-9.35993
▁closed	-9.35993
▁counselor	-9.35993
▁cover	-9.35993
▁customer	-9.35993
▁desperate	-9.35993
▁desperately	-9.35993
▁diagnosis	-9.35993
▁diary	-9.35993
▁drowning	-9.35993
▁dull	-9.35993
▁employee	-9.35993
▁entirely	-9.35993
▁euphoria	-9.35993
▁fixed	-9.35993
▁floor	-9.35993
▁grown	-9.35993
▁helpless	-9.35993
▁hot	-9.35993
▁ice	-9.35993
▁inevitable	-9.35993
▁infinite	-9.35993
▁inspiration	-9.35993
▁instagram	-9.35993
▁jaw	-9.35993
▁jeremy	-9.35993
▁jesus	-9.35993
▁lift	-9.35993
▁meditating	-9.35993
▁mentioned	-9.35993
▁min	-9.35993
▁mix	-9.35993
▁peaceful	-9.35993
▁perhaps	-9.35993
▁piano	-9.35993
▁prescribed	-9.35993
▁quitting	-9.35993
▁realization	-9.35993
▁regular	-9.35993
▁roommate	-9.35993
▁rough	-9.35993
▁saved	-9.35993
▁service	-9.35993
▁shape	-9.35993
▁slip	-9.35993
▁smiling	-9.35993
▁stable	-9.35993
▁standard	-9.35993
▁subreddit	-9.35993
▁swear	-9.35993
▁tight	-9.35993
▁total	-9.35993
▁toward	-9.35993
▁unique	-9.35993
▁vitamin	-9.35993
▁voluntary	-9.35993
▁vulnerability	-9.35993
▁white	-9.35993
▁wise	-9.35993
▁woke	-9.35993
▁zero	-9.35993
▁addict	-9.42447
▁anonymous	-9.42447
▁anytime	-9.42447
▁beloved	-9.42447
▁bothering	-9.42447
▁calendar	-9.42447
▁capacity	-9.42447
▁celebrate	-9.42447
▁chi	-9.42447
▁clue	-9.42447
▁connecting	-9.42447
▁context	-9.42447
▁countless	-9.42447
▁culture	-9.42447
▁deadline	-9.42447
▁delete	-9.42447
▁describe	-9.42447
▁disappear	-9.42447
▁driver	-9.42447
▁ecstasy	-9.42447
▁everyones	-9.42447
▁f	-9.42447
▁flip	-9.42447
▁freaking	-9.42447
▁frequency	-9.42447
▁friday	-9.42447
▁gain	-9.42447
▁gotta	-9.42447
▁industry	-9.42447
▁info	-9.42447
▁instantly	-9.42447
▁insurance	-9.42447
▁kick	-9.42447
▁laptop	-9.42447
▁leaf	-9.42447
▁license	-9.42447
▁lo	-9.42447
▁massive	-9.42447
▁meal	-9.42447
▁minor	-9.42447
▁mode	-9.42447
▁mouth	-9.42447
▁movement	-9.42447
▁neither	-9.42447
▁noticing	-9.42447
▁philosophy	-9.42447
▁pissed	-9.42447
▁plate	-9.42447
▁police	-9.42447
▁prevent	-9.42447
▁private	-9.42447
▁ran	-9.42447
▁received	-9.42447
▁regarding	-9.42447
▁reward	-9.42447
▁rock	-9.42447
▁satisfaction	-9.42447
▁save	-9.42447
▁score	-9.42447
▁sometime	-9.42447
▁spot	-9.42447
▁sub	-9.42447
▁supported	-9.42447
▁surrounded	-9.42447
▁talent	-9.42447
▁throwing	-9.42447
▁toll	-9.42447
▁touched	-9.42447
▁trapped	-9.42447
▁understands	-9.42447
▁understood	-9.42447
▁unhealthy	-9.42447
▁vacation	-9.42447
▁walked	-9.42447
▁weed	-9.42447
▁youth	-9.42447
▁affection	-9.49346
▁afterwards	-9.49346
▁alright	-9.49346
▁apps	-9.49346
▁argument	-9.49346
▁asshole	-9.49346
▁attractive	-9.49346
▁ball	-9.49346
▁bf	-9.49346
▁bipolar	-9.49346
▁black	-9.49346
▁blind	-9.49346
▁bottle	-9.49346
▁c	-9.49346
▁continues	-9.49346
▁core	-9.49346
▁craft	-9.49346
▁criticism	-9.49346
▁developed	-9.49346
▁discovered	-9.49346
▁disease	-9.49346
▁emptiness	-9.49346
▁extended	-9.49346
▁false	-9.49346
▁financially	-9.49346
▁finger	-9.49346
▁fortunate	-9.49346
▁gentle	-9.49346
▁gym	-9.49346
▁hamster	-9.49346
▁highly	-9.49346
▁hormone	-9.49346
▁idiot	-9.49346
▁increased	-9.49346
▁induced	-9.49346
▁inspire	-9.49346
▁judged	-9.49346
▁lasted	-9.49346
▁laying	-9.49346
▁letter	-9.49346
▁lovely	-9.49346
▁majority	-9.49346
▁mana	-9.49346
▁map	-9.49346
▁mask	-9.49346
▁melody	-9.49346
▁mild	-9.49346
▁minimum	-9.49346
▁mirror	-9.49346
▁mud	-9.49346
▁nauseous	-9.49346
▁negatively	-9.49346
▁obvious	-9.49346
▁ocean	-9.49346
▁organization	-9.49346
▁pause	-9.49346
▁payment	-9.49346
▁photo	-9.49346
▁potential	-9.49346
▁pretend	-9.49346
▁realise	-9.49346
▁recommend	-9.49346
▁recover	-9.49346
▁remind	-9.49346
▁roof	-9.49346
▁scream	-9.49346
▁searching	-9.49346
▁severely	-9.49346
▁stayed	-9.49346
▁store	-9.49346
▁supervisor	-9.49346
▁swept	-9.49346
▁taste	-9.49346
▁tbh	-9.49346
▁ten	-9.49346
▁thread	-9.49346
▁tiring	-9.49346
▁triggered	-9.49346
▁unmotivated	-9.49346
▁upon	-9.49346
▁wearing	-9.49346
▁website	-9.49346
▁wind	-9.49346
▁winner	-9.49346
▁admit	-9.56757
▁answered	-9.56757
▁applying	-9.56757
▁attached	-9.56757
▁autism	-9.56757
▁awesome	-9.56757
▁bag	-9.56757
▁bpd	-9.56757
▁capable	-9.56757
▁challenging	-9.56757
▁cheer	-9.56757
▁chemical	-9.56757
▁chosen	-9.56757
▁clinic	-9.56757
▁commitment	-9.56757
▁concerned	-9.56757
▁confident	-9.56757
▁consume	-9.56757
▁convinced	-9.56757
▁corner	-9.56757
▁cure	-9.56757
▁damaged	-9.56757
▁designed	-9.56757
▁dinner	-9.56757
▁dirty	-9.56757
▁disgusting	-9.56757
▁distract	-9.56757
▁dose	-9.56757
▁dramatic	-9.56757
▁ear	-9.56757
▁endless	-9.56757
▁entrepreneur	-9.56757
▁ethic	-9.56757
▁fi	-9.56757
▁film	-9.56757
▁finance	-9.56757
▁fold	-9.56757
▁forth	-9.56757
▁forum	-9.56757
▁freedom	-9.56757
▁gained	-9.56757
▁gas	-9.56757
▁glad	-9.56757
▁government	-9.56757
▁grab	-9.56757
▁hardship	-9.56757
▁hiding	-9.56757
▁ignored	-9.56757
▁insanely	-9.56757
▁interaction	-9.56757
▁isnt	-9.56757
▁loop	-9.56757
▁market	-9.56757
▁mentor	-9.56757
▁mg	-9.56757
▁minded	-9.56757
▁misery	-9.56757
▁monster	-9.56757
▁negativity	-9.56757
▁nowadays	-9.56757
▁numbness	-9.56757
▁overwhelm	-9.56757
▁patient	-9.56757
▁picked	-9.56757
▁product	-9.56757
▁pure	-9.56757
▁qi	-9.56757
▁radical	-9.56757
▁rapture	-9.56757
▁record	-9.56757
▁recovered	-9.56757
▁resolve	-9.56757
▁review	-9.56757
▁ruin	-9.56757
▁rushing	-9.56757
▁sale	-9.56757
▁sat	-9.56757
▁shame	-9.56757
▁shining	-9.56757
▁silence	-9.56757
▁spoke	-9.56757
▁strange	-9.56757
▁strongly	-9.56757
▁surprised	-9.56757
▁tldr	-9.56757
▁tracking	-9.56757
▁unbearable	-9.56757
▁unexpected	-9.56757
▁urge	-9.56757
▁virtual	-9.56757
▁wasting	-9.56757
▁weakness	-9.56757
▁winning	-9.56757
▁winter	-9.56757
▁worthy	-9.56757
▁written	-9.56757
▁abused	-9.64761
▁active	-9.64761
▁alice	-9.64761
▁april	-9.64761
▁argue	-9.64761
▁artist	-9.64761
▁awkward	-9.64761
▁beauty	-9.64761
▁believed	-9.64761
▁bored	-9.64761
▁chaos	-9.64761
▁charge	-9.64761
▁chase	-9.64761
▁chasing	-9.64761
▁completed	-9.64761
▁complicated	-9.64761
▁correct	-9.64761
▁creation	-9.64761
▁crowd	-9.64761
▁damage	-9.64761
▁dear	-9.64761
▁developing	-9.64761
▁distraction	-9.64761
▁doesnt	-9.64761
▁drama	-9.64761
▁dread	-9.64761
▁eliminate	-9.64761
▁enemy	-9.64761
▁essentially	-9.64761
▁evidence	-9.64761
▁evil	-9.64761
▁excitement	-9.64761
▁expecting	-9.64761
▁facebook	-9.64761
▁faster	-9.64761
▁fat	-9.64761
▁fred	-9.64761
▁fulfilling	-9.64761
▁functioning	-9.64761
▁fundraiser	-9.64761
▁garbage	-9.64761
▁gathering	-9.64761
▁gender	-9.64761
▁giant	-9.64761
▁grief	-9.64761
▁hardest	-9.64761
▁havent	-9.64761
▁highest	-9.64761
▁hoped	-9.64761
▁identify	-9.64761
▁imagining	-9.64761
▁impacted	-9.64761
▁improving	-9.64761
▁independent	-9.64761
▁india	-9.64761
▁insight	-9.64761
▁inspiring	-9.64761
▁jealous	-9.64761
▁joined	-9.64761
▁knife	-9.64761
▁linear	-9.64761
▁necessary	-9.64761
▁nephesch	-9.64761
▁observe	-9.64761
▁permission	-9.64761
▁phase	-9.64761
▁pillar	-9.64761
▁prescription	-9.64761
▁proper	-9.64761
▁psych	-9.64761
▁punch	-9.64761
▁quarantine	-9.64761
▁questioning	-9.64761
▁raised	-9.64761
▁recovering	-9.64761
▁regardless	-9.64761
▁religious	-9.64761
▁remembering	-9.64761
▁reminds	-9.64761
▁remove	-9.64761
▁report	-9.64761
▁restriction	-9.64761
▁ruah	-9.64761
▁scale	-9.64761
▁section	-9.64761
▁shaking	-9.64761
▁shine	-9.64761
▁shot	-9.64761
▁silly	-9.64761
▁slightly	-9.64761
▁statement	-9.64761
▁storm	-9.64761
▁street	-9.64761
▁tendency	-9.64761
▁tw	-9.64761
▁twitch	-9.64761
▁typing	-9.64761
▁via	-9.64761
▁vice	-9.64761
▁virus	-9.64761
▁whilst	-9.64761
▁wishing	-9.64761
▁wound	-9.64761
▁accomplished	-9.73462
▁accomplishment	-9.73462
▁accountable	-9.73462
▁ache	-9.73462
▁agreed	-9.73462
▁alarm	-9.73462
▁album	-9.73462
▁arise	-9.73462
▁assume	-9.73462
▁awake	-9.73462
▁beating	-9.73462
▁birth	-9.73462
▁bite	-9.73462
▁board	-9.73462
▁canada	-9.73462
▁carry	-9.73462
▁cat	-9.73462
▁cell	-9.73462
▁checking	-9.73462
▁climbing	-9.73462
▁cognitive	-9.73462
▁colleague	-9.73462
▁color	-9.73462
▁compound	-9.73462
▁consistency	-9.73462
▁consistent	-9.73462
▁cousin	-9.73462
▁cream	-9.73462
▁critical	-9.73462
▁crush	-9.73462
▁cured	-9.73462
▁dedicated	-9.73462
▁dedication	-9.73462
▁depth	-9.73462
▁destination	-9.73462
▁destroyed	-9.73462
▁differently	-9.73462
▁difficulty	-9.73462
▁dig	-9.73462
▁directly	-9.73462
▁drained	-9.73462
▁effectively	-9.73462
▁encouraged	-9.73462
▁energetic	-9.73462
▁engineering	-9.73462
▁essential	-9.73462
▁ether	-9.73462
▁expressing	-9.73462
▁extent	-9.73462
▁fairly	-9.73462
▁faking	-9.73462
▁fleeting	-9.73462
▁forgotten	-9.73462
▁friendly	-9.73462
▁fulfillment	-9.73462
▁gaming	-9.73462
▁green	-9.73462
▁healthcare	-9.73462
▁illusion	-9.73462
▁importance	-9.73462
▁insecure	-9.73462
▁instance	-9.73462
▁intelligence	-9.73462
▁invite	-9.73462
▁journal	-9.73462
▁journaling	-9.73462
▁launched	-9.73462
▁longevity	-9.73462
▁lung	-9.73462
▁magic	-9.73462
▁mark	-9.73462
▁marketing	-9.73462
▁michael	-9.73462
▁nausea	-9.73462
▁neighbor	-9.73462
▁neutral	-9.73462
▁numerous	-9.73462
▁organized	-9.73462
▁pass	-9.73462
▁pile	-9.73462
▁positivity	-9.73462
▁prepared	-9.73462
▁produce	-9.73462
▁promoted	-9.73462
▁psyche	-9.73462
▁range	-9.73462
▁recipe	-9.73462
▁reflect	-9.73462
▁reminded	-9.73462
▁request	-9.73462
▁resilience	-9.73462
▁schoolwork	-9.73462
▁shy	-9.73462
▁significantly	-9.73462
▁silent	-9.73462
▁solely	-9.73462
▁south	-9.73462
▁speaker	-9.73462
▁specialist	-9.73462
▁speed	-9.73462
▁spiral	-9.73462
▁stepped	-9.73462
▁streaming	-9.73462
▁sunny	-9.73462
▁suppose	-9.73462
▁teenage	-9.73462
▁temporary	-9.73462
▁thankful	-9.73462
▁traumatic	-9.73462
▁typically	-9.73462
▁ugh	-9.73462
▁uncertainty	-9.73462
▁vayu	-9.73462
▁weather	-9.73462
▁window	-9.73462
▁workplace	-9.73462
▁yelling	-9.73462
▁abrupt	-9.82993
▁accountability	-9.82993
▁aim	-9.82993
▁ambitious	-9.82993
▁anhedonia	-9.82993
▁answering	-9.82993
▁approved	-9.82993
▁ashamed	-9.82993
▁asks	-9.82993
▁associate	-9.82993
▁assumption	-9.82993
▁attempted	-9.82993
▁attend	-9.82993
▁autopilot	-9.82993
▁awhile	-9.82993
▁bald	-9.82993
▁band	-9.82993
▁begun	-9.82993
▁belong	-9.82993
▁betty	-9.82993
▁bliss	-9.82993
▁bothered	-9.82993
▁box	-9.82993
▁bridge	-9.82993
▁cake	-9.82993
▁chapter	-9.82993
▁cicely	-9.82993
▁clinical	-9.82993
▁clock	-9.82993
▁communicate	-9.82993
▁consciousness	-9.82993
▁consideration	-9.82993
▁controlled	-9.82993
▁counseling	-9.82993
▁coward	-9.82993
▁coworker	-9.82993
▁crash	-9.82993
▁creator	-9.82993
▁daisy	-9.82993
▁deserves	-9.82993
▁devastating	-9.82993
▁digital	-9.82993
▁dm	-9.82993
▁double	-9.82993
▁eaten	-9.82993
▁educational	-9.82993
▁engage	-9.82993
▁enjoyment	-9.82993
▁excess	-9.82993
▁exercising	-9.82993
▁fair	-9.82993
▁favour	-9.82993
▁feed	-9.82993
▁filling	-9.82993
▁florence	-9.82993
▁follows	-9.82993
▁fund	-9.82993
▁haha	-9.82993
▁humanity	-9.82993
▁hung	-9.82993
▁hungry	-9.82993
▁id	-9.82993
▁ideal	-9.82993
▁ideation	-9.82993
▁ielts	-9.82993
▁immediate	-9.82993
▁immune	-9.82993
▁initially	-9.82993
▁interact	-9.82993
▁irl	-9.82993
▁item	-9.82993
▁kicked	-9.82993
▁limiting	-9.82993
▁lunch	-9.82993
▁marriage	-9.82993
▁meaningful	-9.82993
▁migraine	-9.82993
▁model	-9.82993
▁narcissistic	-9.82993
▁necessarily	-9.82993
▁neurologist	-9.82993
▁obsessive	-9.82993
▁offered	-9.82993
▁opened	-9.82993
▁optimism	-9.82993
▁optimistic	-9.82993
▁outlet	-9.82993
▁paranoid	-9.82993
▁participating	-9.82993
▁pit	-9.82993
▁playlist	-9.82993
▁pm	-9.82993
▁pointless	-9.82993
▁prepare	-9.82993
▁price	-9.82993
▁probability	-9.82993
▁provides	-9.82993
▁race	-9.82993
▁rambling	-9.82993
▁rash	-9.82993
▁realisation	-9.82993
▁recognizing	-9.82993
▁red	-9.82993
▁repeatedly	-9.82993
▁replace	-9.82993
▁replied	-9.82993
▁retail	-9.82993
▁returning	-9.82993
▁river	-9.82993
▁rope	-9.82993
▁row	-9.82993
▁screamed	-9.82993
▁screw	-9.82993
▁screwed	-9.82993
▁security	-9.82993
▁server	-9.82993
▁sh	-9.82993
▁smarter	-9.82993
▁snapped	-9.82993
▁sooner	-9.82993
▁spiraling	-9.82993
▁subconsciously	-9.82993
▁suggest	-9.82993
▁surely	-9.82993
▁surprise	-9.82993
▁teen	-9.82993
▁tends	-9.82993
▁thankfully	-9.82993
▁theory	-9.82993
▁therefore	-9.82993
▁threw	-9.82993
▁thrive	-9.82993
▁timing	-9.82993
▁unknown	-9.82993
▁unlearning	-9.82993
▁user	-9.82993
▁v	-9.82993
▁vibe	-9.82993
▁victim	-9.82993
▁violent	-9.82993
▁weekly	-9.82993
▁workload	-9.82993
▁yell	-9.82993
▁adopt	-9.93529
▁adrenaline	-9.93529
▁advantage	-9.93529
▁alleviate	-9.93529
▁ambition	-9.93529
▁apologize	-9.93529
▁arguing	-9.93529
▁ate	-9.93529
▁august	-9.93529
▁beg	-9.93529
▁begged	-9.93529
▁bird	-9.93529
▁boost	-9.93529
▁bucket	-9.93529
▁bully	-9.93529
▁bum	-9.93529
▁burn	-9.93529
▁caffeine	-9.93529
▁catastrophic	-9.93529
▁challenged	-9.93529
▁charity	-9.93529
▁clarity	-9.93529
▁clip	-9.93529
▁cloud	-9.93529
▁coaching	-9.93529
▁communication	-9.93529
▁competition	-9.93529
▁complex	-9.93529
▁concentration	-9.93529
▁concern	-9.93529
▁conducting	-9.93529
▁confide	-9.93529
▁confusion	-9.93529
▁consuming	-9.93529
▁continuing	-9.93529
▁corona	-9.93529
▁creativity	-9.93529
▁cross	-9.93529
▁crushing	-9.93529
▁delivered	-9.93529
▁depressant	-9.93529
▁design	-9.93529
▁despair	-9.93529
▁determine	-9.93529
▁dick	-9.93529
▁discord	-9.93529
▁dopamine	-9.93529
▁dorm	-9.93529
▁drain	-9.93529
▁draining	-9.93529
▁drove	-9.93529
▁dry	-9.93529
▁dude	-9.93529
▁earning	-9.93529
▁elementary	-9.93529
▁employment	-9.93529
▁examining	-9.93529
▁expert	-9.93529
▁explore	-9.93529
▁exploring	-9.93529
▁favourite	-9.93529
▁fired	-9.93529
▁flower	-9.93529
▁fly	-9.93529
▁forgive	-9.93529
▁formula	-9.93529
▁foundation	-9.93529
▁freshman	-9.93529
▁frustrating	-9.93529
▁fulfilled	-9.93529
▁gaining	-9.93529
▁garden	-9.93529
▁gate	-9.93529
▁ghost	-9.93529
▁goodbye	-9.93529
▁gpa	-9.93529
▁graduation	-9.93529
▁grandmother	-9.93529
▁greatness	-9.93529
▁gt	-9.93529
▁guitar	-9.93529
▁gun	-9.93529
▁hall	-9.93529
▁happiest	-9.93529
▁hip	-9.93529
▁ignorant	-9.93529
▁ignoring	-9.93529
▁injury	-9.93529
▁internship	-9.93529
▁intrusive	-9.93529
▁iron	-9.93529
▁irritable	-9.93529
▁isolated	-9.93529
▁ketamine	-9.93529
▁lasting	-9.93529
▁laughed	-9.93529
▁league	-9.93529
▁lifestyle	-9.93529
▁limited	-9.93529
▁lined	-9.93529
▁literal	-9.93529
▁lmk	-9.93529
▁location	-9.93529
▁lowest	-9.93529
▁maintaining	-9.93529
▁manipulate	-9.93529
▁meantime	-9.93529
▁minimal	-9.93529
▁mixed	-9.93529
▁modern	-9.93529
▁motorcycle	-9.93529
▁named	-9.93529
▁national	-9.93529
▁november	-9.93529
▁ob	-9.93529
▁occasionally	-9.93529
▁opening	-9.93529
▁owner	-9.93529
▁paint	-9.93529
▁pattern	-9.93529
▁pc	-9.93529
▁peer	-9.93529
▁perfectly	-9.93529
▁persistence	-9.93529
▁picking	-9.93529
▁poetry	-9.93529
▁potentially	-9.93529
▁practical	-9.93529
▁pregnancy	-9.93529
▁progression	-9.93529
▁projecting	-9.93529
▁promise	-9.93529
▁protect	-9.93529
▁punishment	-9.93529
▁pursuing	-9.93529
▁radio	-9.93529
▁raising	-9.93529
▁rarely	-9.93529
▁realistically	-9.93529
▁receiving	-9.93529
▁remain	-9.93529
▁reminder	-9.93529
▁require	-9.93529
▁rnb	-9.93529
▁rut	-9.93529
▁sadly	-9.93529
▁scenario	-9.93529
▁search	-9.93529
▁seasonal	-9.93529
▁secure	-9.93529
▁seed	-9.93529
▁sell	-9.93529
▁selling	-9.93529
▁sentence	-9.93529
▁shoe	-9.93529
▁shorter	-9.93529
▁shortly	-9.93529
▁snow	-9.93529
▁sobbing	-9.93529
▁sole	-9.93529
▁solo	-9.93529
▁spread	-9.93529
▁stare	-9.93529
▁strict	-9.93529
▁stroke	-9.93529
▁subscribe	-9.93529
▁succeeding	-9.93529
▁suggested	-9.93529
▁sunday	-9.93529
▁sunlight	-9.93529
▁surgery	-9.93529
▁surrounding	-9.93529
▁survive	-9.93529
▁suspect	-9.93529
▁swimming	-9.93529
▁toy	-9.93529
▁trait	-9.93529
▁transform	-9.93529
▁trap	-9.93529
▁tutor	-9.93529
▁twitter	-9.93529
▁ultimate	-9.93529
▁uncle	-9.93529
▁underneath	-9.93529
▁ungrateful	-9.93529
▁unit	-9.93529
▁unnecessary	-9.93529
▁vital	-9.93529
▁wage	-9.93529
▁warning	-9.93529
▁writer	-9.93529
▁www	-9.93529
▁x	-9.93529
▁yelled	-9.93529
▁according	-10.0531
▁address	-10.0531
▁adulthood	-10.0531
▁affordable	-10.0531
▁amsterdam	-10.0531
▁appearance	-10.0531
▁approval	-10.0531
▁ascension	-10.0531
▁aspiration	-10.0531
▁assessment	-10.0531
▁attachment	-10.0531
▁aunt	-10.0531
▁australia	-10.0531
▁award	-10.0531
▁banned	-10.0531
▁bedroom	-10.0531
▁believer	-10.0531
▁bitter	-10.0531
▁blaming	-10.0531
▁bloom	-10.0531
▁blow	-10.0531
▁bullying	-10.0531
▁burned	-10.0531
▁burning	-10.0531
▁burnout	-10.0531
▁buying	-10.0531
▁cancel	-10.0531
▁candle	-10.0531
▁cbt	-10.0531
▁cheap	-10.0531
▁cheated	-10.0531
▁cheating	-10.0531
▁circle	-10.0531
▁cleaning	-10.0531
▁clench	-10.0531
▁closest	-10.0531
▁code	-10.0531
▁compassionate	-10.0531
▁complaining	-10.0531
▁conflict	-10.0531
▁confront	-10.0531
▁consciously	-10.0531
▁consistently	-10.0531
▁contentment	-10.0531
▁correctly	-10.0531
▁cortisol	-10.0531
▁coworkers	-10.0531
▁creates	-10.0531
▁crippling	-10.0531
▁davis	-10.0531
▁delay	-10.0531
▁denied	-10.0531
▁department	-10.0531
▁described	-10.0531
▁detailed	-10.0531
▁diet	-10.0531
▁disagree	-10.0531
▁discussion	-10.0531
▁divorced	-10.0531
▁dozen	-10.0531
▁dysfunctional	-10.0531
▁ect	-10.0531
▁embarrassed	-10.0531
▁enjoyable	-10.0531
▁enjoyed	-10.0531
▁enrolled	-10.0531
▁ensure	-10.0531
▁entered	-10.0531
▁envy	-10.0531
▁error	-10.0531
▁evolving	-10.0531
▁exciting	-10.0531
▁exhale	-10.0531
▁explode	-10.0531
▁exposed	-10.0531
▁expression	-10.0531
▁fade	-10.0531
▁fallen	-10.0531
▁fame	-10.0531
▁fantastic	-10.0531
▁faridabad	-10.0531
▁fixing	-10.0531
▁flash	-10.0531
▁flat	-10.0531
▁forgetting	-10.0531
▁former	-10.0531
▁fragile	-10.0531
▁fuel	-10.0531
▁fundamental	-10.0531
▁glass	-10.0531
▁global	-10.0531
▁goddamn	-10.0531
▁grandpa	-10.0531
▁greener	-10.0531
▁gut	-10.0531
▁hating	-10.0531
▁headed	-10.0531
▁healthier	-10.0531
▁heat	-10.0531
▁hidden	-10.0531
▁hollow	-10.0531
▁holy	-10.0531
▁hoo	-10.0531
▁hughes	-10.0531
▁hyper	-10.0531
▁ignorance	-10.0531
▁incredible	-10.0531
▁inflicted	-10.0531
▁irritated	-10.0531
▁ishtar	-10.0531
▁junk	-10.0531
▁kitchen	-10.0531
▁l	-10.0531
▁language	-10.0531
▁larger	-10.0531
▁lecture	-10.0531
▁lisa	-10.0531
▁loosing	-10.0531
▁lower	-10.0531
▁luckily	-10.0531
▁mantra	-10.0531
▁marathon	-10.0531
▁marine	-10.0531
▁nap	-10.0531
▁netflix	-10.0531
▁noisy	-10.0531
▁numbing	-10.0531
▁oil	-10.0531
▁outlook	-10.0531
▁oxygen	-10.0531
▁paul	-10.0531
▁physiological	-10.0531
▁pocket	-10.0531
▁pound	-10.0531
▁practise	-10.0531
▁precious	-10.0531
▁pregnant	-10.0531
▁productivity	-10.0531
▁promised	-10.0531
▁providing	-10.0531
▁pursuit	-10.0531
▁racing	-10.0531
▁rain	-10.0531
▁randomly	-10.0531
▁rapist	-10.0531
▁reassure	-10.0531
▁recognise	-10.0531
▁reducing	-10.0531
▁relapse	-10.0531
▁relearning	-10.0531
▁reminding	-10.0531
▁removed	-10.0531
▁replaced	-10.0531
▁researcher	-10.0531
▁resistance	-10.0531
▁responsible	-10.0531
▁restaurant	-10.0531
▁ritual	-10.0531
▁sea	-10.0531
▁semi	-10.0531
▁sergio	-10.0531
▁shell	-10.0531
▁slot	-10.0531
▁snack	-10.0531
▁soft	-10.0531
▁solving	-10.0531
▁sore	-10.0531
▁split	-10.0531
▁status	-10.0531
▁stem	-10.0531
▁sticking	-10.0531
▁sucking	-10.0531
▁swarm	-10.0531
▁sweat	-10.0531
▁sweating	-10.0531
▁swim	-10.0531
▁swing	-10.0531
▁switch	-10.0531
▁tap	-10.0531
▁target	-10.0531
▁tearing	-10.0531
▁technology	-10.0531
▁tense	-10.0531
▁tested	-10.0531
▁trajectory	-10.0531
▁triggering	-10.0531
▁truck	-10.0531
▁tutorial	-10.0531
▁twenty	-10.0531
▁unsure	-10.0531
▁validation	-10.0531
▁verbally	-10.0531
▁vivid	-10.0531
▁vocal	-10.0531
▁warmth	-10.0531
▁wedding	-10.0531
▁wendy	-10.0531
▁whatsoever	-10.0531
▁whoever	-10.0531
▁whose	-10.0531
▁wide	-10.0531
▁willpower	-10.0531
▁wished	-10.0531
▁abundant	-10.1866
▁abuser	-10.1866
▁adderall	-10.1866
▁addicted	-10.1866
▁adding	-10.1866
▁adventure	-10.1866
▁agony	-10.1866
▁alcoholic	-10.1866
▁aligned	-10.1866
▁associated	-10.1866
▁athlete	-10.1866
▁barrier	-10.1866
▁baseline	-10.1866
▁battling	-10.1866
▁beginner	-10.1866
▁binge	-10.1866
▁blamed	-10.1866
▁blanket	-10.1866
▁bless	-10.1866
▁blocking	-10.1866
▁boat	-10.1866
▁bone	-10.1866
▁breakfast	-10.1866
▁breakup	-10.1866
▁brilliant	-10.1866
▁brushing	-10.1866
▁btw	-10.1866
▁burst	-10.1866
▁cage	-10.1866
▁calmed	-10.1866
▁capability	-10.1866
▁celebration	-10.1866
▁centre	-10.1866
▁certification	-10.1866
▁clinically	-10.1866
▁collected	-10.1866
▁collection	-10.1866
▁commute	-10.1866
▁conditioning	-10.1866
▁controlling	-10.1866
▁cook	-10.1866
▁copy	-10.1866
▁counting	-10.1866
▁cute	-10.1866
▁deciding	-10.1866
▁decrease	-10.1866
▁deficiency	-10.1866
▁definition	-10.1866
▁demon	-10.1866
▁deny	-10.1866
▁depend	-10.1866
▁dependent	-10.1866
▁derlin	-10.1866
▁desired	-10.1866
▁desperation	-10.1866
▁destroying	-10.1866
▁destructive	-10.1866
▁device	-10.1866
▁diabetes	-10.1866
▁digging	-10.1866
▁diploma	-10.1866
▁disabled	-10.1866
▁distracted	-10.1866
▁download	-10.1866
▁drift	-10.1866
▁drown	-10.1866
▁dunno	-10.1866
▁dust	-10.1866
▁ebook	-10.1866
▁embarrassing	-10.1866
▁encounter	-10.1866
▁encouragement	-10.1866
▁endure	-10.1866
▁engaged	-10.1866
▁entrepreneurship	-10.1866
▁equal	-10.1866
▁evolve	-10.1866
▁excellent	-10.1866
▁executive	-10.1866
▁exhaustion	-10.1866
▁expand	-10.1866
▁expects	-10.1866
▁expensive	-10.1866
▁explained	-10.1866
▁explores	-10.1866
▁faced	-10.1866
▁familiar	-10.1866
▁farther	-10.1866
▁file	-10.1866
▁finishing	-10.1866
▁fish	-10.1866
▁fitness	-10.1866
▁fool	-10.1866
▁football	-10.1866
▁fortune	-10.1866
▁freely	-10.1866
▁fruit	-10.1866
▁fulfill	-10.1866
▁functional	-10.1866
▁gap	-10.1866
▁genuine	-10.1866
▁gp	-10.1866
▁grace	-10.1866
▁grad	-10.1866
▁grenade	-10.1866
▁h	-10.1866
▁happily	-10.1866
▁harming	-10.1866
▁hometown	-10.1866
▁horizon	-10.1866
▁hr	-10.1866
▁hundred	-10.1866
▁hygiene	-10.1866
▁imagination	-10.1866
▁imagined	-10.1866
▁immense	-10.1866
▁importantly	-10.1866
▁instructor	-10.1866
▁intent	-10.1866
▁interacting	-10.1866
▁introverted	-10.1866
▁iphone	-10.1866
▁ironic	-10.1866
▁jazz	-10.1866
▁jennifer	-10.1866
▁july	-10.1866
▁justified	-10.1866
▁knocked	-10.1866
▁laid	-10.1866
▁landed	-10.1866
▁lash	-10.1866
▁lb	-10.1866
▁lexapro	-10.1866
▁lifetime	-10.1866
▁linked	-10.1866
▁listened	-10.1866
▁lock	-10.1866
▁locked	-10.1866
▁lover	-10.1866
▁mailto	-10.1866
▁manageable	-10.1866
▁manifest	-10.1866
▁manner	-10.1866
▁massage	-10.1866
▁mastery	-10.1866
▁meaningless	-10.1866
▁measure	-10.1866
▁million	-10.1866
▁momma	-10.1866
▁monthly	-10.1866
▁motion	-10.1866
▁motivational	-10.1866
▁mountain	-10.1866
▁neglected	-10.1866
▁nervousness	-10.1866
▁nootropic	-10.1866
▁nutrition	-10.1866
▁obstacle	-10.1866
▁occurred	-10.1866
▁oneself	-10.1866
▁opposed	-10.1866
▁orange	-10.1866
▁original	-10.1866
▁originally	-10.1866
▁ounce	-10.1866
▁overthink	-10.1866
▁packed	-10.1866
▁paranoia	-10.1866
▁perceived	-10.1866
▁perfection	-10.1866
▁permanently	-10.1866
▁perseverance	-10.1866
▁pic	-10.1866
▁pity	-10.1866
▁pounding	-10.1866
▁ppl	-10.1866
▁practiced	-10.1866
▁praying	-10.1866
▁prefer	-10.1866
▁preparing	-10.1866
▁pro	-10.1866
▁processing	-10.1866
▁professionally	-10.1866
▁profile	-10.1866
▁prompt	-10.1866
▁psychiatric	-10.1866
▁psychotic	-10.1866
▁pulled	-10.1866
▁purchase	-10.1866
▁pussy	-10.1866
▁qualified	-10.1866
▁quiz	-10.1866
▁rajinder	-10.1866
▁rapidly	-10.1866
▁reasonable	-10.1866
▁recommendation	-10.1866
▁recorded	-10.1866
▁recording	-10.1866
▁register	-10.1866
▁releasing	-10.1866
▁reliable	-10.1866
▁religion	-10.1866
▁repeated	-10.1866
▁requirement	-10.1866
▁reset	-10.1866
▁resulting	-10.1866
▁ringing	-10.1866
▁robert	-10.1866
▁rollercoaster	-10.1866
▁rushed	-10.1866
▁safety	-10.1866
▁satisfy	-10.1866
▁satisfying	-10.1866
▁scientist	-10.1866
▁scrolling	-10.1866
▁selfishness	-10.1866
▁sending	-10.1866
▁sens	-10.1866
▁september	-10.1866
▁settle	-10.1866
▁seven	-10.1866
▁shallow	-10.1866
▁sin	-10.1866
▁smallest	-10.1866
▁socialising	-10.1866
▁socialize	-10.1866
▁software	-10.1866
▁somethings	-10.1866
▁spark	-10.1866
▁spine	-10.1866
▁ssri	-10.1866
▁staring	-10.1866
▁stepping	-10.1866
▁stillness	-10.1866
▁striving	-10.1866
▁sucked	-10.1866
▁sugar	-10.1866
▁surgeon	-10.1866
▁surroundings	-10.1866
▁throat	-10.1866
▁timeline	-10.1866
▁trade	-10.1866
▁traffic	-10.1866
▁tree	-10.1866
▁troll	-10.1866
▁twin	-10.1866
▁unwanted	-10.1866
▁uplifting	-10.1866
▁visual	-10.1866
▁volunteer	-10.1866
▁abandoned	-10.3408
▁abby	-10.3408
▁academic	-10.3408
▁academically	-10.3408
▁acknowledging	-10.3408
▁actively	-10.3408
▁addressed	-10.3408
▁adopted	-10.3408
▁agreeing	-10.3408
▁american	-10.3408
▁announced	-10.3408
▁apologized	-10.3408
▁appear	-10.3408
▁arrive	-10.3408
▁asap	-10.3408
▁assault	-10.3408
▁attacked	-10.3408
▁attain	-10.3408
▁attempting	-10.3408
▁attract	-10.3408
▁autistic	-10.3408
▁automatically	-10.3408
▁automation	-10.3408
▁avoiding	-10.3408
▁backed	-10.3408
▁baggage	-10.3408
▁bell	-10.3408
▁betrayal	-10.3408
▁bio	-10.3408
▁blah	-10.3408
▁blank	-10.3408
▁blessed	-10.3408
▁blockage	-10.3408
▁blown	-10.3408
▁bout	-10.3408
▁bread	-10.3408
▁breathwork	-10.3408
▁brighter	-10.3408
▁brink	-10.3408
▁brush	-10.3408
▁bulletin	-10.3408
▁bullied	-10.3408
▁bus	-10.3408
▁calmness	-10.3408
▁caretaker	-10.3408
▁cbd	-10.3408
▁celebrated	-10.3408
▁ceo	-10.3408
▁chair	-10.3408
▁chakra	-10.3408
▁chatbot	-10.3408
▁chatting	-10.3408
▁cheat	-10.3408
▁cigarette	-10.3408
▁climb	-10.3408
▁clothing	-10.3408
▁committee	-10.3408
▁comparison	-10.3408
▁completing	-10.3408
▁conference	-10.3408
▁construction	-10.3408
▁consumption	-10.3408
▁contacting	-10.3408
▁contribution	-10.3408
▁convincing	-10.3408
▁cop	-10.3408
▁counsellor	-10.3408
▁counter	-10.3408
▁court	-10.3408
▁covered	-10.3408
▁coz	-10.3408
▁creep	-10.3408
▁dalai	-10.3408
▁dampens	-10.3408
▁dance	-10.3408
▁decides	-10.3408
▁dedicate	-10.3408
▁deepest	-10.3408
▁delhi	-10.3408
▁demand	-10.3408
▁dentist	-10.3408
▁determines	-10.3408
▁diaphram	-10.3408
▁diego	-10.3408
▁direct	-10.3408
▁discipline	-10.3408
▁discussing	-10.3408
▁dish	-10.3408
▁dizziness	-10.3408
▁downstairs	-10.3408
▁drank	-10.3408
▁duty	-10.3408
▁earn	-10.3408
▁easter	-10.3408
▁effexor	-10.3408
▁employed	-10.3408
▁encompassing	-10.3408
▁enhance	-10.3408
▁entering	-10.3408
▁epilepsy	-10.3408
▁esc	-10.3408
▁eternal	-10.3408
▁excessive	-10.3408
▁exists	-10.3408
▁exposure	-10.3408
▁facet	-10.3408
▁fancy	-10.3408
▁feb	-10.3408
▁fewer	-10.3408
▁fiction	-10.3408
▁firstly	-10.3408
▁flashback	-10.3408
▁foggy	-10.3408
▁follower	-10.3408
▁forcing	-10.3408
▁forest	-10.3408
▁freak	-10.3408
▁frequent	-10.3408
▁fuckin	-10.3408
▁funeral	-10.3408
▁gather	-10.3408
▁ged	-10.3408
▁generation	-10.3408
▁gradually	-10.3408
▁grand	-10.3408
▁grandfather	-10.3408
▁granted	-10.3408
▁grass	-10.3408
▁gravity	-10.3408
▁greedy	-10.3408
▁grey	-10.3408
▁grieving	-10.3408
▁grind	-10.3408
▁grocery	-10.3408
▁grounded	-10.3408
▁guard	-10.3408
▁ham	-10.3408
▁handling	-10.3408
▁hat	-10.3408
▁heartbreak	-10.3408
▁heath	-10.3408
▁heck	-10.3408
▁hilarious	-10.3408
▁hill	-10.3408
▁hire	-10.3408
▁hopeful	-10.3408
▁horse	-10.3408
▁hospitalized	-10.3408
▁humor	-10.3408
▁humour	-10.3408
▁hunt	-10.3408
▁icu	-10.3408
▁image	-10.3408
▁impressed	-10.3408
▁inferior	-10.3408
▁infusion	-10.3408
▁ingredient	-10.3408
▁inhale	-10.3408
▁innovate	-10.3408
▁inspired	-10.3408
▁intended	-10.3408
▁investment	-10.3408
▁involve	-10.3408
▁involves	-10.3408
▁iq	-10.3408
▁iva	-10.3408
▁j	-10.3408
▁judgment	-10.3408
▁juice	-10.3408
▁june	-10.3408
▁junior	-10.3408
▁kicking	-10.3408
▁lab	-10.3408
▁lama	-10.3408
▁lastly	-10.3408
▁leader	-10.3408
▁learnt	-10.3408
▁libido	-10.3408
▁lightheadedness	-10.3408
▁logic	-10.3408
▁london	-10.3408
▁loyal	-10.3408
▁lyme	-10.3408
▁magically	-10.3408
▁magnesium	-10.3408
▁manic	-10.3408
▁meanwhile	-10.3408
▁measurable	-10.3408
▁meh	-10.3408
▁messing	-10.3408
▁meth	-10.3408
▁miriam	-10.3408
▁mission	-10.3408
▁monetary	-10.3408
▁moon	-10.3408
▁moral	-10.3408
▁mr	-10.3408
▁needing	-10.3408
▁network	-10.3408
▁neuro	-10.3408
▁novelty	-10.3408
▁obese	-10.3408
▁object	-10.3408
▁objective	-10.3408
▁obsessing	-10.3408
▁occasion	-10.3408
▁occurrence	-10.3408
▁october	-10.3408
▁odd	-10.3408
▁ofc	-10.3408
▁orgasm	-10.3408
▁overbearing	-10.3408
▁paced	-10.3408
▁palpitation	-10.3408
▁partly	-10.3408
▁patch	-10.3408
▁pathway	-10.3408
▁perfectionist	-10.3408
▁personalized	-10.3408
▁petty	-10.3408
▁ph	-10.3408
▁philip	-10.3408
▁plane	-10.3408
▁pls	-10.3408
▁po	-10.3408
▁poll	-10.3408
▁pool	-10.3408
▁positively	-10.3408
▁press	-10.3408
▁previously	-10.3408
▁primary	-10.3408
▁priority	-10.3408
▁progressively	-10.3408
▁prolonged	-10.3408
▁property	-10.3408
▁proven	-10.3408
▁provider	-10.3408
▁psychologically	-10.3408
▁pulling	-10.3408
▁puzzle	-10.3408
▁quest	-10.3408
▁rainbow	-10.3408
▁raped	-10.3408
▁rational	-10.3408
▁realign	-10.3408
▁recommended	-10.3408
▁reduction	-10.3408
▁relatively	-10.3408
▁remote	-10.3408
▁requires	-10.3408
▁researching	-10.3408
▁reserving	-10.3408
▁retarded	-10.3408
▁retired	-10.3408
▁reverse	-10.3408
▁rewire	-10.3408
▁rewiring	-10.3408
▁ridiculous	-10.3408
▁rotten	-10.3408
▁route	-10.3408
▁rupee	-10.3408
▁sacrifice	-10.3408
▁samadhi	-10.3408
▁sandwich	-10.3408
▁satisfied	-10.3408
▁scan	-10.3408
▁scratch	-10.3408
▁seemingly	-10.3408
▁seizure	-10.3408
▁separate	-10.3408
▁serve	-10.3408
▁sheet	-10.3408
▁shes	-10.3408
▁shocked	-10.3408
▁shop	-10.3408
▁shouldnt	-10.3408
▁showed	-10.3408
▁signing	-10.3408
▁sing	-10.3408
▁singing	-10.3408
▁size	-10.3408
▁skipping	-10.3408
▁skull	-10.3408
▁slipping	-10.3408
▁sold	-10.3408
▁sophomore	-10.3408
▁soreness	-10.3408
▁sorrow	-10.3408
▁specie	-10.3408
▁steal	-10.3408
▁stoic	-10.3408
▁stone	-10.3408
▁stood	-10.3408
▁straw	-10.3408
▁structure	-10.3408
▁studied	-10.3408
▁studio	-10.3408
▁style	-10.3408
▁subjective	-10.3408
▁substance	-10.3408
▁suit	-10.3408
▁supporting	-10.3408
▁takeaway	-10.3408
▁tangible	-10.3408
▁tennis	-10.3408
▁thesis	-10.3408
▁thinker	-10.3408
▁threatening	-10.3408
▁thrown	-10.3408
▁tied	-10.3408
▁toe	-10.3408
▁toilet	-10.3408
▁trusted	-10.3408
▁tuition	-10.3408
▁turkey	-10.3408
▁typical	-10.3408
▁unloved	-10.3408
▁unstable	-10.3408
▁upsetting	-10.3408
▁upside	-10.3408
▁usu	-10.3408
▁utter	-10.3408
▁vehicle	-10.3408
▁venture	-10.3408
▁vibration	-10.3408
▁victory	-10.3408
▁villain	-10.3408
▁void	-10.3408
▁warren	-10.3408
▁wasnt	-10.3408
▁watched	-10.3408
▁web	-10.3408
▁wellness	-10.3408
▁wherever	-10.3408
▁widow	-10.3408
▁wild	-10.3408
▁wondered	-10.3408
▁workout	-10.3408
▁worn	-10.3408
▁wrapped	-10.3408
▁yellow	-10.3408
▁yo	-10.3408
▁yr	-10.3408
▁abyss	-10.5231
▁acceptable	-10.5231
▁acoustic	-10.5231
▁acquire	-10.5231
▁acted	-10.5231
▁activate	-10.5231
▁activism	-10.5231
▁actor	-10.5231
▁affectionate	-10.5231
▁aforementioned	-10.5231
▁afternoon	-10.5231
▁aged	-10.5231
▁agency	-10.5231
▁aka	-10.5231
▁alarming	-10.5231
▁aligning	-10.5231
▁alignment	-10.5231
▁ally	-10.5231
▁amazon	-10.5231
▁ancient	-10.5231
▁animation	-10.5231
▁anniversary	-10.5231
▁ap	-10.5231
▁apologise	-10.5231
▁appreciation	-10.5231
▁arent	-10.5231
▁arises	-10.5231
▁army	-10.5231
▁arrives	-10.5231
▁assuming	-10.5231
▁assure	-10.5231
▁atm	-10.5231
▁attainable	-10.5231
▁attending	-10.5231
▁audio	-10.5231
▁auric	-10.5231
▁avoided	-10.5231
▁backwards	-10.5231
▁barley	-10.5231
▁base	-10.5231
▁basketball	-10.5231
▁bawling	-10.5231
▁behavioral	-10.5231
▁believing	-10.5231
▁belly	-10.5231
▁beneath	-10.5231
▁berate	-10.5231
▁betrayed	-10.5231
▁bhagavan	-10.5231
▁bi	-10.5231
▁bleed	-10.5231
▁bleeding	-10.5231
▁blonded	-10.5231
▁brick	-10.5231
▁briefly	-10.5231
▁bro	-10.5231
▁buck	-10.5231
▁bug	-10.5231
▁bump	-10.5231
▁buzzing	-10.5231
▁campus	-10.5231
▁candy	-10.5231
▁capital	-10.5231
▁careful	-10.5231
▁carrot	-10.5231
▁carrying	-10.5231
▁cartoon	-10.5231
▁category	-10.5231
▁chakras	-10.5231
▁cherish	-10.5231
▁childish	-10.5231
▁chip	-10.5231
▁classmate	-10.5231
▁clearing	-10.5231
▁climate	-10.5231
▁collapse	-10.5231
▁comforting	-10.5231
▁committed	-10.5231
▁committing	-10.5231
▁comparing	-10.5231
▁compelled	-10.5231
▁competitive	-10.5231
▁complaint	-10.5231
▁concentrating	-10.5231
▁confirm	-10.5231
▁conquer	-10.5231
▁contemplated	-10.5231
▁corporate	-10.5231
▁counteract	-10.5231
▁crack	-10.5231
▁crashing	-10.5231
▁crave	-10.5231
▁craving	-10.5231
▁creepy	-10.5231
▁crimsonpill	-10.5231
▁crucial	-10.5231
▁cruel	-10.5231
▁crushed	-10.5231
▁crutch	-10.5231
▁ct	-10.5231
▁cultivate	-10.5231
▁cuss	-10.5231
▁danger	-10.5231
▁dangerous	-10.5231
▁dare	-10.5231
▁de	-10.5231
▁decline	-10.5231
▁decreased	-10.5231
▁defense	-10.5231
▁defensive	-10.5231
▁defining	-10.5231
▁delayed	-10.5231
▁deliberately	-10.5231
▁dementia	-10.5231
▁depleted	-10.5231
▁destroy	-10.5231
▁detached	-10.5231
▁determination	-10.5231
▁determined	-10.5231
▁devise	-10.5231
▁diagnose	-10.5231
▁dictate	-10.5231
▁dieing	-10.5231
▁director	-10.5231
▁disability	-10.5231
▁disappoint	-10.5231
▁disappointing	-10.5231
▁disciplined	-10.5231
▁disconnected	-10.5231
▁dissatisfied	-10.5231
▁dragging	-10.5231
▁dress	-10.5231
▁dwell	-10.5231
▁dwelling	-10.5231
▁dy	-10.5231
▁easiest	-10.5231
▁economic	-10.5231
▁economy	-10.5231
▁edition	-10.5231
▁emergency	-10.5231
▁empowerment	-10.5231
▁endeavor	-10.5231
▁ent	-10.5231
▁enters	-10.5231
▁enthusiasm	-10.5231
▁evaluate	-10.5231
▁evolved	-10.5231
▁excel	-10.5231
▁exchange	-10.5231
▁exit	-10.5231
▁explanation	-10.5231
▁facial	-10.5231
▁faint	-10.5231
▁fan	-10.5231
▁fantasize	-10.5231
▁fantasy	-10.5231
▁fasting	-10.5231
▁fate	-10.5231
▁fee	-10.5231
▁fellow	-10.5231
▁firm	-10.5231
▁flake	-10.5231
▁flight	-10.5231
▁flu	-10.5231
▁fluent	-10.5231
▁forehead	-10.5231
▁formal	-10.5231
▁foster	-10.5231
▁frankly	-10.5231
▁gallbladder	-10.5231
▁germany	-10.5231
▁grammar	-10.5231
▁grieve	-10.5231
▁grinding	-10.5231
▁gross	-10.5231
▁grows	-10.5231
▁hanged	-10.5231
▁hangout	-10.5231
▁harmed	-10.5231
▁harmful	-10.5231
▁harsh	-10.5231
▁hater	-10.5231
▁hatred	-10.5231
▁haunted	-10.5231
▁headspace	-10.5231
▁hectic	-10.5231
▁hence	-10.5231
▁hormonal	-10.5231
▁horny	-10.5231
▁horribly	-10.5231
▁ig	-10.5231
▁ignores	-10.5231
▁ik	-10.5231
▁inability	-10.5231
▁included	-10.5231
▁indeed	-10.5231
▁indian	-10.5231
▁inevitably	-10.5231
▁intelligent	-10.5231
▁intend	-10.5231
▁intensely	-10.5231
▁intensity	-10.5231
▁interfere	-10.5231
▁introvert	-10.5231
▁invested	-10.5231
▁island	-10.5231
▁japanese	-10.5231
▁judgmental	-10.5231
▁julie	-10.5231
▁jumped	-10.5231
▁king	-10.5231
▁kyle	-10.5231
▁label	-10.5231
▁laundry	-10.5231
▁lawyer	-10.5231
▁legit	-10.5231
▁length	-10.5231
▁lied	-10.5231
▁lingering	-10.5231
▁listed	-10.5231
▁lmao	-10.5231
▁longest	-10.5231
▁loose	-10.5231
▁luxury	-10.5231
▁machine	-10.5231
▁makeup	-10.5231
▁mature	-10.5231
▁medically	-10.5231
▁meme	-10.5231
▁milk	-10.5231
▁minimalism	-10.5231
▁minuscule	-10.5231
▁moderate	-10.5231
▁mutual	-10.5231
▁nail	-10.5231
▁narrow	-10.5231
▁noone	-10.5231
▁nootropics	-10.5231
▁nope	-10.5231
▁norma	-10.5231
▁normalcy	-10.5231
▁notification	-10.5231
▁nut	-10.5231
▁nyc	-10.5231
▁occasional	-10.5231
▁occur	-10.5231
▁officer	-10.5231
▁official	-10.5231
▁oldest	-10.5231
▁ongoing	-10.5231
▁ordinary	-10.5231
▁outward	-10.5231
▁overcoming	-10.5231
▁overlooked	-10.5231
▁overnight	-10.5231
▁owe	-10.5231
▁palm	-10.5231
▁panicked	-10.5231
▁panicking	-10.5231
▁park	-10.5231
▁parking	-10.5231
▁passenger	-10.5231
▁penny	-10.5231
▁percent	-10.5231
▁perfectionism	-10.5231
▁phd	-10.5231
▁piss	-10.5231
▁pivot	-10.5231
▁plague	-10.5231
▁plastic	-10.5231
▁player	-10.5231
▁poisoned	-10.5231
▁postgraduate	-10.5231
▁powerhouse	-10.5231
▁powerless	-10.5231
▁prayer	-10.5231
▁preparation	-10.5231
▁pretended	-10.5231
▁preventing	-10.5231
▁principal	-10.5231
▁prison	-10.5231
▁procrastinate	-10.5231
▁procrastinating	-10.5231
▁procrastination	-10.5231
▁profound	-10.5231
▁progressing	-10.5231
▁punish	-10.5231
▁punished	-10.5231
▁qualification	-10.5231
▁quits	-10.5231
▁ray	-10.5231
▁reacting	-10.5231
▁realising	-10.5231
▁realistic	-10.5231
▁recovery	-10.5231
▁regard	-10.5231
▁reinvent	-10.5231
▁rejected	-10.5231
▁rejection	-10.5231
▁relapsed	-10.5231
▁relating	-10.5231
▁relevant	-10.5231
▁reliever	-10.5231
▁relieving	-10.5231
▁remains	-10.5231
▁remembered	-10.5231
▁repair	-10.5231
▁repeating	-10.5231
▁replacement	-10.5231
▁repressed	-10.5231
▁requested	-10.5231
▁required	-10.5231
▁resilient	-10.5231
▁resolution	-10.5231
▁resolved	-10.5231
▁resting	-10.5231
▁roll	-10.5231
▁rolled	-10.5231
▁romantic	-10.5231
▁rot	-10.5231
▁sake	-10.5231
▁sane	-10.5231
▁scattered	-10.5231
▁schizophrenia	-10.5231
▁searched	-10.5231
▁settling	-10.5231
▁sexuality	-10.5231
▁shall	-10.5231
▁shopping	-10.5231
▁sincerely	-10.5231
▁sink	-10.5231
▁slightest	-10.5231
▁solid	-10.5231
▁sooo	-10.5231
▁sought	-10.5231
▁sounded	-10.5231
▁spiritually	-10.5231
▁spotlight	-10.5231
▁sri	-10.5231
▁stated	-10.5231
▁stepmom	-10.5231
▁stiff	-10.5231
▁stream	-10.5231
▁stretch	-10.5231
▁submission	-10.5231
▁submit	-10.5231
▁submitted	-10.5231
▁subsided	-10.5231
▁succeeded	-10.5231
▁suffocating	-10.5231
▁survival	-10.5231
▁survivor	-10.5231
▁suspicious	-10.5231
▁sustainable	-10.5231
▁talented	-10.5231
▁tall	-10.5231
▁technical	-10.5231
▁tedious	-10.5231
▁temporarily	-10.5231
▁tending	-10.5231
▁terribly	-10.5231
▁texture	-10.5231
▁thru	-10.5231
▁tiredness	-10.5231
▁toast	-10.5231
▁totaled	-10.5231
▁trace	-10.5231
▁tracker	-10.5231
▁trading	-10.5231
▁transformation	-10.5231
▁trend	-10.5231
▁tuesday	-10.5231
▁twelve	-10.5231
▁unemployed	-10.5231
▁unfortunate	-10.5231
▁united	-10.5231
▁unlike	-10.5231
▁unproductive	-10.5231
▁unreasonable	-10.5231
▁unwind	-10.5231
▁upbeat	-10.5231
▁update	-10.5231
▁ur	-10.5231
▁validated	-10.5231
▁valuable	-10.5231
▁vibrating	-10.5231
▁videogames	-10.5231
▁viscous	-10.5231
▁visible	-10.5231
▁visualization	-10.5231
▁vomit	-10.5231
▁wade	-10.5231
▁waited	-10.5231
▁wallow	-10.5231
▁wealthy	-10.5231
▁webinar	-10.5231
▁wellbutrin	-10.5231
▁wet	-10.5231
▁whine	-10.5231
▁willingly	-10.5231
▁wouldnt	-10.5231
▁yea	-10.5231
▁zoloft	-10.5231
▁abilify	-10.7462
▁abnormal	-10.7462
▁absurd	-10.7462
▁abusing	-10.7462
▁accidentally	-10.7462
▁accolade	-10.7462
▁accomplishing	-10.7462
▁accumulate	-10.7462
▁accused	-10.7462
▁acid	-10.7462
▁adamant	-10.7462
▁adapt	-10.7462
▁adjust	-10.7462
▁admission	-10.7462
▁adorable	-10.7462
▁adversity	-10.7462
▁affective	-10.7462
▁agenda	-10.7462
▁aggressive	-10.7462
▁aid	-10.7462
▁alt	-10.7462
▁altogether	-10.7462
▁ambiguity	-10.7462
▁america	-10.7462
▁amplified	-10.7462
▁analyze	-10.7462
▁android	-10.7462
▁angel	-10.7462
▁annoy	-10.7462
▁anorexia	-10.7462
▁apathy	-10.7462
▁apology	-10.7462
▁approximately	-10.7462
▁apt	-10.7462
▁arising	-10.7462
▁arthritis	-10.7462
▁ashwaganda	-10.7462
▁ashwagandha	-10.7462
▁asmi	-10.7462
▁assigned	-10.7462
▁assistance	-10.7462
▁athletic	-10.7462
▁atmosphere	-10.7462
▁attended	-10.7462
▁awaits	-10.7462
▁awakening	-10.7462
▁ba	-10.7462
▁bachelor	-10.7462
▁backup	-10.7462
▁badass	-10.7462
▁bahadurgarh	-10.7462
▁balanced	-10.7462
▁balancing	-10.7462
▁balcony	-10.7462
▁bang	-10.7462
▁baseball	-10.7462
▁beach	-10.7462
▁bead	-10.7462
▁bearable	-10.7462
▁bedtime	-10.7462
▁biking	-10.7462
▁biological	-10.7462
▁biology	-10.7462
▁blurry	-10.7462
▁bob	-10.7462
▁bold	-10.7462
▁bombarded	-10.7462
▁bond	-10.7462
▁border	-10.7462
▁boss	-10.7462
▁bowel	-10.7462
▁brazilian	-10.7462
▁breakthrough	-10.7462
▁bubbly	-10.7462
▁buffet	-10.7462
▁bumpy	-10.7462
▁bustling	-10.7462
▁calculus	-10.7462
▁calmer	-10.7462
▁calmly	-10.7462
▁camera	-10.7462
▁candidate	-10.7462
▁captain	-10.7462
▁cardiologist	-10.7462
▁cash	-10.7462
▁celebrating	-10.7462
▁censored	-10.7462
▁centerforfearlessresearch	-10.7462
▁certificate	-10.7462
▁chamomile	-10.7462
▁characteristic	-10.7462
▁chastise	-10.7462
▁chatted	-10.7462
▁cheesy	-10.7462
▁chemistry	-10.7462
▁chilled	-10.7462
▁chunk	-10.7462
▁circuiting	-10.7462
▁citizen	-10.7462
▁claimed	-10.7462
▁cluster	-10.7462
▁cocktail	-10.7462
▁colorful	-10.7462
▁combat	-10.7462
▁comedy	-10.7462
▁comfortably	-10.7462
▁compulsive	-10.7462
▁concerning	-10.7462
▁confirming	-10.7462
▁consent	-10.7462
▁consist	-10.7462
▁contains	-10.7462
▁contend	-10.7462
▁continually	-10.7462
▁continued	-10.7462
▁continuous	-10.7462
▁contributes	-10.7462
▁controling	-10.7462
▁convert	-10.7462
▁cooking	-10.7462
▁cornerstone	-10.7462
▁counselling	-10.7462
▁cow	-10.7462
▁cracked	-10.7462
▁crappy	-10.7462
▁creature	-10.7462
▁criminal	-10.7462
▁critic	-10.7462
▁criticized	-10.7462
▁cube	-10.7462
▁cuddle	-10.7462
▁cum	-10.7462
▁curiosity	-10.7462
▁curl	-10.7462
▁cutest	-10.7462
▁cwru	-10.7462
▁cycling	-10.7462
▁darkest	-10.7462
▁deaf	-10.7462
▁defeat	-10.7462
▁defeated	-10.7462
▁defence	-10.7462
▁deleted	-10.7462
▁deliberate	-10.7462
▁delivering	-10.7462
▁delusion	-10.7462
▁depending	-10.7462
▁depletion	-10.7462
▁describes	-10.7462
▁deserved	-10.7462
▁deserving	-10.7462
▁despise	-10.7462
▁devere	-10.7462
▁diamond	-10.7462
▁ding	-10.7462
▁dirt	-10.7462
▁disagreement	-10.7462
▁discomfort	-10.7462
▁disguise	-10.7462
▁disregarded	-10.7462
▁distanced	-10.7462
▁distancing	-10.7462
▁disturbing	-10.7462
▁division	-10.7462
▁dizzy	-10.7462
▁dj	-10.7462
▁dna	-10.7462
▁donate	-10.7462
▁downhill	-10.7462
▁downward	-10.7462
▁drastic	-10.7462
▁drastically	-10.7462
▁dreaming	-10.7462
▁drtlab	-10.7462
▁dweck	-10.7462
▁dysphoria	-10.7462
▁earpiece	-10.7462
▁economics	-10.7462
▁ed	-10.7462
▁edu	-10.7462
▁eeyore	-10.7462
▁efficient	-10.7462
▁eg	-10.7462
▁eh	-10.7462
▁eight	-10.7462
▁elon	-10.7462
▁em	-10.7462
▁emailed	-10.7462
▁employer	-10.7462
▁endeavour	-10.7462
▁endorphin	-10.7462
▁engaging	-10.7462
▁engineer	-10.7462
▁enhancing	-10.7462
▁enlightenment	-10.7462
▁entrepreneurial	-10.7462
▁entry	-10.7462
▁epiphany	-10.7462
▁eudaimonia	-10.7462
▁euphoric	-10.7462
▁evoke	-10.7462
▁exempt	-10.7462
▁existential	-10.7462
▁exiting	-10.7462
▁extends	-10.7462
▁extensive	-10.7462
▁exurbs	-10.7462
▁failiure	-10.7462
▁fails	-10.7462
▁fantasizing	-10.7462
▁fearful	-10.7462
▁featured	-10.7462
▁fed	-10.7462
▁fence	-10.7462
▁fever	-10.7462
▁fifteen	-10.7462
▁figuring	-10.7462
▁fist	-10.7462
▁flawed	-10.7462
▁fling	-10.7462
▁flipped	-10.7462
▁fluctuated	-10.7462
▁fought	-10.7462
▁founder	-10.7462
▁frame	-10.7462
▁fraud	-10.7462
▁french	-10.7462
▁fundamentally	-10.7462
▁fundraising	-10.7462
▁futile	-10.7462
▁gathered	-10.7462
▁gay	-10.7462
▁generate	-10.7462
▁gold	-10.7462
▁golden	-10.7462
▁gossip	-10.7462
▁grandparent	-10.7462
▁greed	-10.7462
▁grudge	-10.7462
▁guideline	-10.7462
▁handbook	-10.7462
▁handful	-10.7462
▁heading	-10.7462
▁heartbroken	-10.7462
▁heaven	-10.7462
▁heroin	-10.7462
▁hid	-10.7462
▁himalaya	-10.7462
▁hiv	-10.7462
▁hmm	-10.7462
▁ho	-10.7462
▁honor	-10.7462
▁hooker	-10.7462
▁household	-10.7462
▁howard	-10.7462
▁howell	-10.7462
▁hw	-10.7462
▁hydrogen	-10.7462
▁hypocrite	-10.7462
▁imperfection	-10.7462
▁incapable	-10.7462
▁incident	-10.7462
▁includes	-10.7462
▁increasing	-10.7462
▁increasingly	-10.7462
▁independence	-10.7462
▁indicated	-10.7462
▁indoors	-10.7462
▁infant	-10.7462
▁inflatable	-10.7462
▁influenced	-10.7462
▁infront	-10.7462
▁ingrained	-10.7462
▁input	-10.7462
▁inquiry	-10.7462
▁instinct	-10.7462
▁insufficient	-10.7462
▁insult	-10.7462
▁insulting	-10.7462
▁intake	-10.7462
▁interactive	-10.7462
▁internally	-10.7462
▁international	-10.7462
▁interpretation	-10.7462
▁introduced	-10.7462
▁invest	-10.7462
▁investing	-10.7462
▁io	-10.7462
▁irritating	-10.7462
▁ish	-10.7462
▁israel	-10.7462
▁iv	-10.7462
▁ivy	-10.7462
▁jayne	-10.7462
▁jealousy	-10.7462
▁jeremyhughes	-10.7462
▁jim	-10.7462
▁joining	-10.7462
▁jolene	-10.7462
▁joyfully	-10.7462
▁jukebox	-10.7462
▁justify	-10.7462
▁karma	-10.7462
▁kickboxing	-10.7462
▁kilometer	-10.7462
▁kiss	-10.7462
▁km	-10.7462
▁la	-10.7462
▁lady	-10.7462
▁largely	-10.7462
▁laughter	-10.7462
▁lecturing	-10.7462
▁lessen	-10.7462
▁lethal	-10.7462
▁liberate	-10.7462
▁lifestories	-10.7462
▁lifting	-10.7462
▁lightheaded	-10.7462
▁lighting	-10.7462
▁liking	-10.7462
▁lily	-10.7462
▁limitless	-10.7462
▁lionsheartlifestyle	-10.7462
▁lip	-10.7462
▁loathing	-10.7462
▁log	-10.7462
▁logical	-10.7462
▁logically	-10.7462
▁lucrative	-10.7462
▁luther	-10.7462
▁mabye	-10.7462
▁magnetic	-10.7462
▁manages	-10.7462
▁mandatory	-10.7462
▁manga	-10.7462
▁mass	-10.7462
▁massaging	-10.7462
▁mastermind	-10.7462
▁masturbate	-10.7462
▁match	-10.7462
▁mbct	-10.7462
▁mcdonald	-10.7462
▁mentality	-10.7462
▁messaging	-10.7462
▁messy	-10.7462
▁midnight	-10.7462
▁midterm	-10.7462
▁millennials	-10.7462
▁mindless	-10.7462
▁miracle	-10.7462
▁mobilize	-10.7462
▁modeling	-10.7462
▁momentary	-10.7462
▁mooji	-10.7462
▁mortgage	-10.7462
▁motivator	-10.7462
▁mount	-10.7462
▁msc	-10.7462
▁multi	-10.7462
▁musk	-10.7462
▁narcissist	-10.7462
▁narrative	-10.7462
▁nde	-10.7462
▁nearby	-10.7462
▁nearing	-10.7462
▁neurological	-10.7462
▁nico	-10.7462
▁nigel	-10.7462
▁nit	-10.7462
▁nobel	-10.7462
▁normalize	-10.7462
▁nothingness	-10.7462
▁notified	-10.7462
▁nurture	-10.7462
▁obedient	-10.7462
▁objectively	-10.7462
▁obsessed	-10.7462
▁obsession	-10.7462
▁occupied	-10.7462
▁offense	-10.7462
▁origin	-10.7462
▁ought	-10.7462
▁outdoor	-10.7462
▁output	-10.7462
▁outstanding	-10.7462
▁outta	-10.7462
▁overreacting	-10.7462
▁overseas	-10.7462
▁overweight	-10.7462
▁packing	-10.7462
▁painkiller	-10.7462
▁painter	-10.7462
▁pakistan	-10.7462
▁partnership	-10.7462
▁pausing	-10.7462
▁peek	-10.7462
▁penis	-10.7462
▁performing	-10.7462
▁permanent	-10.7462
▁permit	-10.7462
▁persevere	-10.7462
▁pete	-10.7462
▁photographer	-10.7462
▁phrase	-10.7462
▁physic	-10.7462
▁pipe	-10.7462
▁pitch	-10.7462
▁plab	-10.7462
▁playground	-10.7462
▁pleaded	-10.7462
▁pleasant	-10.7462
▁pleasanton	-10.7462
▁plodding	-10.7462
▁plp	-10.7462
▁pointed	-10.7462
▁poisoning	-10.7462
▁polish	-10.7462
▁poorly	-10.7462
▁popularity	-10.7462
▁posse	-10.7462
▁preference	-10.7462
▁presentation	-10.7462
▁president	-10.7462
▁prestigious	-10.7462
▁prevention	-10.7462
▁prioritise	-10.7462
▁privilege	-10.7462
▁privileged	-10.7462
▁prize	-10.7462
▁probable	-10.7462
▁production	-10.7462
▁profit	-10.7462
▁profoundly	-10.7462
▁programme	-10.7462
▁promising	-10.7462
▁propelled	-10.7462
▁protecting	-10.7462
▁proudly	-10.7462
▁province	-10.7462
▁prozac	-10.7462
▁published	-10.7462
▁pumped	-10.7462
▁punishing	-10.7462
▁puppy	-10.7462
▁quickest	-10.7462
▁quietly	-10.7462
▁quo	-10.7462
▁raffle	-10.7462
▁rage	-10.7462
▁rake	-10.7462
▁ramble	-10.7462
▁rank	-10.7462
▁recognized	-10.7462
▁reconnect	-10.7462
▁reference	-10.7462
▁reflecting	-10.7462
▁reflection	-10.7462
▁refused	-10.7462
▁regaining	-10.7462
▁regretting	-10.7462
▁relates	-10.7462
▁relentless	-10.7462
▁relive	-10.7462
▁rely	-10.7462
▁reserve	-10.7462
▁reside	-10.7462
▁residential	-10.7462
▁resistant	-10.7462
▁resisting	-10.7462
▁resort	-10.7462
▁responding	-10.7462
▁restful	-10.7462
▁restilen	-10.7462
▁restless	-10.7462
▁restroom	-10.7462
▁retire	-10.7462
▁returned	-10.7462
▁reveals	-10.7462
▁reviewed	-10.7462
▁rewriting	-10.7462
▁rhythm	-10.7462
▁riding	-10.7462
▁ripped	-10.7462
▁rocky	-10.7462
▁ruining	-10.7462
▁ruled	-10.7462
▁rupert	-10.7462
▁sacred	-10.7462
▁sample	-10.7462
▁sanity	-10.7462
▁sansation	-10.7462
▁scene	-10.7462
▁scenery	-10.7462
▁scheduled	-10.7462
▁scholarship	-10.7462
▁screwing	-10.7462
▁script	-10.7462
▁scrolled	-10.7462
▁secondly	-10.7462
▁semblance	-10.7462
▁sends	-10.7462
▁separated	-10.7462
▁sertraline	-10.7462
▁served	-10.7462
▁setback	-10.7462
▁sexually	-10.7462
▁shaky	-10.7462
▁shamble	-10.7462
▁sharp	-10.7462
▁shed	-10.7462
▁sheep	-10.7462
▁shoot	-10.7462
▁shortage	-10.7462
▁shortened	-10.7462
▁shout	-10.7462
▁shrug	-10.7462
▁shuts	-10.7462
▁shutting	-10.7462
▁signal	-10.7462
▁simplest	-10.7462
▁simultaneously	-10.7462
▁sincero	-10.7462
▁sits	-10.7462
▁skillset	-10.7462
▁slap	-10.7462
▁smaller	-10.7462
▁smooth	-10.7462
▁socialise	-10.7462
▁solace	-10.7462
▁soldier	-10.7462
▁someday	-10.7462
▁somtimes	-10.7462
▁sonething	-10.7462
▁sorta	-10.7462
▁specialized	-10.7462
▁spike	-10.7462
▁square	-10.7462
▁stab	-10.7462
▁stabbed	-10.7462
▁stability	-10.7462
▁standing	-10.7462
▁star	-10.7462
▁starving	-10.7462
▁station	-10.7462
▁steady	-10.7462
▁stereotype	-10.7462
▁stiffness	-10.7462
▁stigma	-10.7462
▁strain	-10.7462
▁stretching	-10.7462
▁stroll	-10.7462
▁structured	-10.7462
▁stubborn	-10.7462
▁successfully	-10.7462
▁suffice	-10.7462
▁sum	-10.7462
▁surpass	-10.7462
▁surprisingly	-10.7462
▁surround	-10.7462
▁suspicion	-10.7462
▁swallow	-10.7462
▁switzerland	-10.7462
▁synthesis	-10.7462
▁tax	-10.7462
▁temptation	-10.7462
▁terrifies	-10.7462
▁texas	-10.7462
▁texted	-10.7462
▁thanking	-10.7462
▁therapeutic	-10.7462
▁thiamine	-10.7462
▁thigh	-10.7462
▁thrash	-10.7462
▁thursday	-10.7462
▁tia	-10.7462
▁tie	-10.7462
▁til	-10.7462
▁timer	-10.7462
▁tinnitus	-10.7462
▁toddler	-10.7462
▁tom	-10.7462
▁torment	-10.7462
▁torturous	-10.7462
▁tragedy	-10.7462
▁trainer	-10.7462
▁translation	-10.7462
▁travelling	-10.7462
▁treating	-10.7462
▁tremendous	-10.7462
▁trendy	-10.7462
▁trump	-10.7462
▁trustworthy	-10.7462
▁tune	-10.7462
▁twist	-10.7462
▁ub	-10.7462
▁un	-10.7462
▁unconditional	-10.7462
▁unconscious	-10.7462
▁uncover	-10.7462
▁underage	-10.7462
▁unexpectedly	-10.7462
▁unfold	-10.7462
▁unfulfilled	-10.7462
▁unlearn	-10.7462
▁unlikely	-10.7462
▁unlock	-10.7462
▁unplanned	-10.7462
▁unrealistic	-10.7462
▁upper	-10.7462
▁us	-10.7462
▁valdez	-10.7462
▁valerian	-10.7462
▁variety	-10.7462
▁versus	-10.7462
▁vessel	-10.7462
▁vicious	-10.7462
▁viewing	-10.7462
▁viewpoint	-10.7462
▁violation	-10.7462
▁virginity	-10.7462
▁visited	-10.7462
▁visiting	-10.7462
▁vomiting	-10.7462
▁wallet	-10.7462
▁wandsworth	-10.7462
▁wash	-10.7462
▁weirdly	-10.7462
▁whisper	-10.7462
▁wholesome	-10.7462
▁wing	-10.7462
▁wire	-10.7462
▁wolf	-10.7462
▁worsened	-10.7462
▁worsens	-10.7462
▁wrist	-10.7462
▁ya	-10.7462
▁yale	-10.7462
▁yall	-10.7462
▁yogi	-10.7462
▁abiding	-11.0339
▁abortion	-11.0339
▁absence	-11.0339
▁absent	-11.0339
▁absorb	-11.0339
▁abstract	-11.0339
▁accessible	-11.0339
▁accordingly	-11.0339
▁accountant	-11.0339
▁accustomed	-11.0339
▁achievable	-11.0339
▁aching	-11.0339
▁acidic	-11.0339
▁acne	-11.0339
▁acquiring	-11.0339
▁actualized	-11.0339
▁additional	-11.0339
▁adequate	-11.0339
▁admitted	-11.0339
▁admittedly	-11.0339
▁adolescent	-11.0339
▁adopting	-11.0339
▁advanced	-11.0339
▁advertising	-11.0339
▁affair	-11.0339
▁african	-11.0339
▁afterward	-11.0339
▁aging	-11.0339
▁agonizing	-11.0339
▁agreement	-11.0339
▁ah	-11.0339
▁ai	-11.0339
▁al	-11.0339
▁alert	-11.0339
▁alienated	-11.0339
▁alongside	-11.0339
▁alpha	-11.0339
▁altruism	-11.0339
▁ambrosio	-11.0339
▁ambulance	-11.0339
▁amongst	-11.0339
▁analogy	-11.0339
▁analysing	-11.0339
▁angle	-11.0339
▁angst	-11.0339
▁animating	-11.0339
▁anonymously	-11.0339
▁ant	-11.0339
▁anyones	-11.0339
▁apathetic	-11.0339
▁apparent	-11.0339
▁appealing	-11.0339
▁argues	-11.0339
▁asian	-11.0339
▁aspire	-11.0339
▁assist	-11.0339
▁atheist	-11.0339
▁audition	-11.0339
▁auditory	-11.0339
▁backstory	-11.0339
▁bake	-11.0339
▁banging	-11.0339
▁bar	-11.0339
▁bare	-11.0339
▁basement	-11.0339
▁bath	-11.0339
▁battlefield	-11.0339
▁beam	-11.0339
▁bee	-11.0339
▁beer	-11.0339
▁behave	-11.0339
▁belonged	-11.0339
▁belt	-11.0339
▁berating	-11.0339
▁bias	-11.0339
▁bible	-11.0339
▁bleach	-11.0339
▁blew	-11.0339
▁bloody	-11.0339
▁blooming	-11.0339
▁blossom	-11.0339
▁blueberry	-11.0339
▁blur	-11.0339
▁boiled	-11.0339
▁bombing	-11.0339
▁boo	-11.0339
▁boot	-11.0339
▁borderline	-11.0339
▁bore	-11.0339
▁bouncing	-11.0339
▁brake	-11.0339
▁brazil	-11.0339
▁breeze	-11.0339
▁broadly	-11.0339
▁bros	-11.0339
▁browsing	-11.0339
▁brushed	-11.0339
▁buddhist	-11.0339
▁budget	-11.0339
▁burdened	-11.0339
▁burger	-11.0339
▁butterfly	-11.0339
▁cambodia	-11.0339
▁campaign	-11.0339
▁canadian	-11.0339
▁capture	-11.0339
▁cardio	-11.0339
▁cardiovascular	-11.0339
▁caregiver	-11.0339
▁carter	-11.0339
▁catastrophe	-11.0339
▁catching	-11.0339
▁cease	-11.0339
▁ceiling	-11.0339
▁cent	-11.0339
▁century	-11.0339
▁chain	-11.0339
▁charming	-11.0339
▁chart	-11.0339
▁cheerleader	-11.0339
▁chef	-11.0339
▁chew	-11.0339
▁chicken	-11.0339
▁chin	-11.0339
▁chooses	-11.0339
▁choosing	-11.0339
▁christian	-11.0339
▁circuit	-11.0339
▁circus	-11.0339
▁civil	-11.0339
▁clarify	-11.0339
▁classic	-11.0339
▁cleared	-11.0339
▁clenched	-11.0339
▁cling	-11.0339
▁closing	-11.0339
▁clout	-11.0339
▁clumsy	-11.0339
▁coding	-11.0339
▁coffin	-11.0339
▁cognitively	-11.0339
▁coincidence	-11.0339
▁collect	-11.0339
▁column	-11.0339
▁combine	-11.0339
▁combining	-11.0339
▁comedian	-11.0339
▁commented	-11.0339
▁commited	-11.0339
▁compete	-11.0339
▁compliment	-11.0339
▁component	-11.0339
▁concerta	-11.0339
▁concrete	-11.0339
▁conduct	-11.0339
▁confronting	-11.0339
▁confusing	-11.0339
▁consists	-11.0339
▁constraint	-11.0339
▁consumed	-11.0339
▁contacted	-11.0339
▁continuously	-11.0339
▁contract	-11.0339
▁contradictory	-11.0339
▁contrary	-11.0339
▁contributing	-11.0339
▁cooked	-11.0339
▁cooky	-11.0339
▁coordinator	-11.0339
▁cosmic	-11.0339
▁costly	-11.0339
▁couch	-11.0339
▁county	-11.0339
▁covidya	-11.0339
▁cpa	-11.0339
▁crackhead	-11.0339
▁craze	-11.0339
▁crime	-11.0339
▁criticised	-11.0339
▁crossing	-11.0339
▁crumble	-11.0339
▁crumbling	-11.0339
▁cultivating	-11.0339
▁daddy	-11.0339
▁damaging	-11.0339
▁damned	-11.0339
▁dated	-11.0339
▁david	-11.0339
▁daycare	-11.0339
▁deadbeat	-11.0339
▁debilitating	-11.0339
▁defend	-11.0339
▁defined	-11.0339
▁delirious	-11.0339
▁deliver	-11.0339
▁delivery	-11.0339
▁denial	-11.0339
▁denying	-11.0339
▁deprived	-11.0339
▁derive	-11.0339
▁desk	-11.0339
▁dessert	-11.0339
▁destruction	-11.0339
▁deteriorated	-11.0339
▁deteriorating	-11.0339
▁detox	-11.0339
▁detriment	-11.0339
▁dev	-11.0339
▁devastated	-11.0339
▁devoid	-11.0339
▁diarrhea	-11.0339
▁dieting	-11.0339
▁dilemma	-11.0339
▁dimension	-11.0339
▁diminishing	-11.0339
▁disclaimer	-11.0339
▁disgusted	-11.0339
▁dislike	-11.0339
▁distracts	-11.0339
▁distressed	-11.0339
▁doc	-11.0339
▁documentary	-11.0339
▁doll	-11.0339
▁donating	-11.0339
▁doom	-11.0339
▁doomed	-11.0339
▁dos	-11.0339
▁dosage	-11.0339
▁downfall	-11.0339
▁downtown	-11.0339
▁drawn	-11.0339
▁dreadful	-11.0339
▁dressed	-11.0339
▁drone	-11.0339
▁dropping	-11.0339
▁dug	-11.0339
▁duh	-11.0339
▁dumbass	-11.0339
▁dynamic	-11.0339
▁dysfunction	-11.0339
▁eachother	-11.0339
▁earned	-11.0339
▁ecstatic	-11.0339
▁edgy	-11.0339
▁edited	-11.0339
▁editing	-11.0339
▁effected	-11.0339
▁efficiently	-11.0339
▁effortlessly	-11.0339
▁eith	-11.0339
▁elaborate	-11.0339
▁elder	-11.0339
▁electric	-11.0339
▁electricity	-11.0339
▁element	-11.0339
▁elevate	-11.0339
▁eli	-11.0339
▁embraced	-11.0339
▁emits	-11.0339
▁emotionless	-11.0339
▁empowered	-11.0339
▁enable	-11.0339
▁encourages	-11.0339
▁encouraging	-11.0339
▁endured	-11.0339
▁england	-11.0339
▁enjoys	-11.0339
▁ensuring	-11.0339
▁enter	-11.0339
▁entertain	-11.0339
▁entirety	-11.0339
▁envious	-11.0339
▁equally	-11.0339
▁equation	-11.0339
▁er	-11.0339
▁escapism	-11.0339
▁essence	-11.0339
▁est	-11.0339
▁eternally	-11.0339
▁everlasting	-11.0339
▁everthing	-11.0339
▁evolution	-11.0339
▁evolves	-11.0339
▁exaggerating	-11.0339
▁existed	-11.0339
▁existent	-11.0339
▁expanding	-11.0339
▁experiment	-11.0339
▁exploding	-11.0339
▁exposing	-11.0339
▁expressed	-11.0339
▁extinguish	-11.0339
▁fabricated	-11.0339
▁facade	-11.0339
▁factory	-11.0339
▁fb	-11.0339
▁fck	-11.0339
▁fearlessness	-11.0339
▁feasible	-11.0339
▁feat	-11.0339
▁felon	-11.0339
▁feminist	-11.0339
▁figment	-11.0339
▁fittest	-11.0339
▁fixating	-11.0339
▁flag	-11.0339
▁flavour	-11.0339
▁flaw	-11.0339
▁flourish	-11.0339
▁flunked	-11.0339
▁folded	-11.0339
▁folder	-11.0339
▁fomo	-11.0339
▁fond	-11.0339
▁forbid	-11.0339
▁foreign	-11.0339
▁forgets	-11.0339
▁forgiveness	-11.0339
▁formed	-11.0339
▁fourteen	-11.0339
▁fractured	-11.0339
▁framework	-11.0339
▁frank	-11.0339
▁freaked	-11.0339
▁fridge	-11.0339
▁frightening	-11.0339
▁froze	-11.0339
▁frozen	-11.0339
▁ft	-11.0339
▁ftm	-11.0339
▁fuhg	-11.0339
▁funniest	-11.0339
▁gambino	-11.0339
▁garage	-11.0339
▁gear	-11.0339
▁generous	-11.0339
▁genetic	-11.0339
▁genetics	-11.0339
▁genius	-11.0339
▁genre	-11.0339
▁geographic	-11.0339
▁gesture	-11.0339
▁giggle	-11.0339
▁gina	-11.0339
▁gloomy	-11.0339
▁graciously	-11.0339
▁grain	-11.0339
▁grammy	-11.0339
▁grant	-11.0339
▁graph	-11.0339
▁grasp	-11.0339
▁gratification	-11.0339
▁grease	-11.0339
▁grit	-11.0339
▁groundbreaking	-11.0339
▁grounding	-11.0339
▁guiding	-11.0339
▁gum	-11.0339
▁hallucination	-11.0339
▁hallway	-11.0339
▁handled	-11.0339
▁happend	-11.0339
▁harassment	-11.0339
▁hardcore	-11.0339
▁hardworking	-11.0339
▁harmony	-11.0339
▁harshly	-11.0339
▁haunt	-11.0339
▁headline	-11.0339
▁healed	-11.0339
▁heated	-11.0339
▁heave	-11.0339
▁heavily	-11.0339
▁height	-11.0339
▁heir	-11.0339
▁helicopter	-11.0339
▁herb	-11.0339
▁herbal	-11.0339
▁highway	-11.0339
▁hike	-11.0339
▁hint	-11.0339
▁hired	-11.0339
▁hiring	-11.0339
▁hive	-11.0339
▁honesty	-11.0339
▁honour	-11.0339
▁hook	-11.0339
▁hosting	-11.0339
▁howtomeditate	-11.0339
▁hugged	-11.0339
▁husk	-11.0339
▁hyperventilating	-11.0339
▁idle	-11.0339
▁illustration	-11.0339
▁impacting	-11.0339
▁impatient	-11.0339
▁impress	-11.0339
▁impressive	-11.0339
▁impulse	-11.0339
▁inbox	-11.0339
▁inbreath	-11.0339
▁induce	-11.0339
▁inducing	-11.0339
▁ineffective	-11.0339
▁infected	-11.0339
▁infection	-11.0339
▁informed	-11.0339
▁inherently	-11.0339
▁initial	-11.0339
▁initiate	-11.0339
▁inject	-11.0339
▁injured	-11.0339
▁injustice	-11.0339
▁insidious	-11.0339
▁inspirational	-11.0339
▁institution	-11.0339
▁instrumental	-11.0339
▁instrumentals	-11.0339
▁intending	-11.0339
▁intentionally	-11.0339
▁interruption	-11.0339
▁intimidating	-11.0339
▁intro	-11.0339
▁introduce	-11.0339
▁intuitive	-11.0339
▁invalidated	-11.0339
▁inventory	-11.0339
▁involvement	-11.0339
▁inwards	-11.0339
▁ip	-11.0339
▁irb	-11.0339
▁irrational	-11.0339
▁jaded	-11.0339
▁jail	-11.0339
▁jan	-11.0339
▁jar	-11.0339
▁jittery	-11.0339
▁joe	-11.0339
▁joking	-11.0339
▁joyful	-11.0339
▁judgemental	-11.0339
▁k	-11.0339
▁keen	-11.0339
▁kidney	-11.0339
▁killer	-11.0339
▁kindly	-11.0339
▁kissed	-11.0339
▁labor	-11.0339
▁lacking	-11.0339
▁land	-11.0339
▁landlord	-11.0339
▁lane	-11.0339
▁largest	-11.0339
▁latter	-11.0339
▁launch	-11.0339
▁launching	-11.0339
▁leaning	-11.0339
▁leap	-11.0339
▁legacy	-11.0339
▁leverage	-11.0339
▁levin	-11.0339
▁lgbtq	-11.0339
▁liar	-11.0339
▁licorice	-11.0339
▁lifelong	-11.0339
▁lightly	-11.0339
▁lionel	-11.0339
▁liquid	-11.0339
▁listener	-11.0339
▁listens	-11.0339
▁listing	-11.0339
▁lit	-11.0339
▁litterally	-11.0339
▁litteraly	-11.0339
▁lively	-11.0339
▁liver	-11.0339
▁loaded	-11.0339
▁loathe	-11.0339
▁locking	-11.0339
▁logging	-11.0339
▁lord	-11.0339
▁lori	-11.0339
▁louder	-11.0339
▁lowering	-11.0339
▁lurking	-11.0339
▁lust	-11.0339
▁mae	-11.0339
▁magnitude	-11.0339
▁mall	-11.0339
▁mania	-11.0339
▁manifestation	-11.0339
▁manifested	-11.0339
▁manipulating	-11.0339
▁mariana	-11.0339
▁marijuana	-11.0339
▁marry	-11.0339
▁masking	-11.0339
▁mastering	-11.0339
▁masturbated	-11.0339
▁masturbating	-11.0339
▁mate	-11.0339
▁mater	-11.0339
▁mayo	-11.0339
▁mccartney	-11.0339
▁meat	-11.0339
▁medicated	-11.0339
▁mega	-11.0339
▁melted	-11.0339
▁merely	-11.0339
▁messaged	-11.0339
▁metal	-11.0339
▁meteor	-11.0339
▁microwave	-11.0339
▁midst	-11.0339
▁millionaire	-11.0339
▁mindedness	-11.0339
▁mindlessly	-11.0339
▁mini	-11.0339
▁minority	-11.0339
▁misinterpret	-11.0339
▁mistaken	-11.0339
▁mod	-11.0339
▁molested	-11.0339
▁monumental	-11.0339
▁moreover	-11.0339
▁morphed	-11.0339
▁motif	-11.0339
▁mouthful	-11.0339
▁mra	-11.0339
▁mrv	-11.0339
▁musician	-11.0339
▁n	-11.0339
▁namely	-11.0339
▁napoleon	-11.0339
▁nasal	-11.0339
▁nasty	-11.0339
▁native	-11.0339
▁nauseated	-11.0339
▁needy	-11.0339
▁neighbour	-11.0339
▁net	-11.0339
▁netherlands	-11.0339
▁neuralgia	-11.0339
▁neurotransmitter	-11.0339
▁nevertheless	-11.0339
▁newhart	-11.0339
▁newspaper	-11.0339
▁nicely	-11.0339
▁niche	-11.0339
▁nod	-11.0339
▁nonetheless	-11.0339
▁norm	-11.0339
▁nose	-11.0339
▁nursing	-11.0339
▁ny	-11.0339
▁obligated	-11.0339
▁occurs	-11.0339
▁odds	-11.0339
▁officially	-11.0339
▁omg	-11.0339
▁openly	-11.0339
▁ordered	-11.0339
▁orientation	-11.0339
▁outbreath	-11.0339
▁outgoing	-11.0339
▁overdosed	-11.0339
▁overloaded	-11.0339
▁overpower	-11.0339
▁overview	-11.0339
▁owned	-11.0339
▁owning	-11.0339
▁pace	-11.0339
▁pack	-11.0339
▁pan	-11.0339
▁pandora	-11.0339
▁papa	-11.0339
▁paralysis	-11.0339
▁partial	-11.0339
▁partially	-11.0339
▁participated	-11.0339
▁passive	-11.0339
▁pat	-11.0339
▁payed	-11.0339
▁peppermint	-11.0339
▁perceivable	-11.0339
▁perceive	-11.0339
▁periodically	-11.0339
▁pharma	-11.0339
▁phenomenon	-11.0339
▁photoshoots	-11.0339
▁physicist	-11.0339
▁picnic	-11.0339
▁pissing	-11.0339
▁pitched	-11.0339
▁pivoting	-11.0339
▁planting	-11.0339
▁pleased	-11.0339
▁plot	-11.0339
▁poem	-11.0339
▁poet	-11.0339
▁poison	-11.0339
▁policy	-11.0339
▁politician	-11.0339
▁popping	-11.0339
▁portrait	-11.0339
▁possession	-11.0339
▁potato	-11.0339
▁pouring	-11.0339
▁poverty	-11.0339
▁practically	-11.0339
▁prayed	-11.0339
▁predator	-11.0339
▁predictable	-11.0339
▁predicting	-11.0339
▁presented	-11.0339
▁presently	-11.0339
▁prevents	-11.0339
▁prioritize	-11.0339
▁privacy	-11.0339
▁proceed	-11.0339
▁programmer	-11.0339
▁programming	-11.0339
▁projected	-11.0339
▁promote	-11.0339
▁promoting	-11.0339
▁proposal	-11.0339
▁protected	-11.0339
▁provided	-11.0339
▁pry	-11.0339
▁pursued	-11.0339
▁questionable	-11.0339
▁rabbit	-11.0339
▁racist	-11.0339
▁raining	-11.0339
▁rainy	-11.0339
▁ramana	-11.0339
▁rapper	-11.0339
▁rat	-11.0339
▁rationally	-11.0339
▁raver	-11.0339
▁reactive	-11.0339
▁reacts	-11.0339
▁realigned	-11.0339
▁realignment	-11.0339
▁reap	-11.0339
▁reassurance	-11.0339
▁recall	-11.0339
▁reckless	-11.0339
▁recognition	-11.0339
▁recurrent	-11.0339
▁recurring	-11.0339
▁reduced	-11.0339
▁reduces	-11.0339
▁reel	-11.0339
▁referring	-11.0339
▁regain	-11.0339
▁region	-11.0339
▁registered	-11.0339
▁rehab	-11.0339
▁relative	-11.0339
▁relearn	-11.0339
▁reluctant	-11.0339
▁repairing	-11.0339
▁repetitive	-11.0339
▁replaceable	-11.0339
▁replacing	-11.0339
▁replicate	-11.0339
▁repressing	-11.0339
▁resent	-11.0339
▁resentment	-11.0339
▁resigning	-11.0339
▁resolving	-11.0339
▁responds	-11.0339
▁restart	-11.0339
▁rested	-11.0339
▁restlessness	-11.0339
▁resume	-11.0339
▁rethink	-11.0339
▁ring	-11.0339
▁rip	-11.0339
▁rlly	-11.0339
▁roadblock	-11.0339
▁rocket	-11.0339
▁roleplaying	-11.0339
▁roomie	-11.0339
▁roughly	-11.0339
▁rumination	-11.0339
▁salary	-11.0339
▁salt	-11.0339
▁sam	-11.0339
▁sarcastic	-11.0339
▁satan	-11.0339
▁saturday	-11.0339
▁savior	-11.0339
▁scar	-11.0339
▁scheduling	-11.0339
▁scientific	-11.0339
▁scolded	-11.0339
▁scratched	-11.0339
▁seat	-11.0339
▁sensory	-11.0339
▁serenity	-11.0339
▁serotonin	-11.0339
▁severity	-11.0339
▁shifting	-11.0339
▁ship	-11.0339
▁shirt	-11.0339
▁shivering	-11.0339
▁shooting	-11.0339
▁showered	-11.0339
▁showering	-11.0339
▁sided	-11.0339
▁sight	-11.0339
▁signed	-11.0339
▁simulation	-11.0339
▁singh	-11.0339
▁skinny	-11.0339
▁skip	-11.0339
▁skipped	-11.0339
▁skydiving	-11.0339
▁skype	-11.0339
▁slammed	-11.0339
▁slamming	-11.0339
▁sleepless	-11.0339
▁slide	-11.0339
▁slowed	-11.0339
▁smth	-11.0339
▁snapchat	-11.0339
▁solitude	-11.0339
▁somone	-11.0339
▁sounding	-11.0339
▁spaced	-11.0339
▁spanish	-11.0339
▁spanked	-11.0339
▁spectacle	-11.0339
▁spell	-11.0339
▁spoon	-11.0339
▁spouse	-11.0339
▁squeeze	-11.0339
▁stair	-11.0339
▁staircase	-11.0339
▁stalker	-11.0339
▁stalking	-11.0339
▁stall	-11.0339
▁standalone	-11.0339
▁starved	-11.0339
▁stating	-11.0339
▁stats	-11.0339
▁stephen	-11.0339
▁stepmother	-11.0339
▁stimulated	-11.0339
▁stock	-11.0339
▁stoicism	-11.0339
▁stored	-11.0339
▁strained	-11.0339
▁string	-11.0339
▁strongest	-11.0339
▁suffocated	-11.0339
▁suitable	-11.0339
▁suitcase	-11.0339
▁sunrise	-11.0339
▁supervisory	-11.0339
▁supply	-11.0339
▁survived	-11.0339
▁surviving	-11.0339
▁sustained	-11.0339
▁sway	-11.0339
▁switched	-11.0339
▁sympathetic	-11.0339
▁tab	-11.0339
▁tablet	-11.0339
▁tasting	-11.0339
▁tech	-11.0339
▁ted	-11.0339
▁temp	-11.0339
▁temple	-11.0339
▁terminal	-11.0339
▁terrifying	-11.0339
▁testing	-11.0339
▁texting	-11.0339
▁theanine	-11.0339
▁thereafter	-11.0339
▁thereby	-11.0339
▁thin	-11.0339
▁thirty	-11.0339
▁threat	-11.0339
▁threaten	-11.0339
▁threshold	-11.0339
▁throwaway	-11.0339
▁tht	-11.0339
▁tick	-11.0339
▁tier	-11.0339
▁tightly	-11.0339
▁tiktok	-11.0339
▁tinder	-11.0339
▁tingling	-11.0339
▁tiniest	-11.0339
▁tipping	-11.0339
▁titled	-11.0339
▁tm	-11.0339
▁tolerance	-11.0339
▁tone	-11.0339
▁tongue	-11.0339
▁torn	-11.0339
▁torrent	-11.0339
▁torture	-11.0339
▁tradition	-11.0339
▁traditional	-11.0339
▁tragic	-11.0339
▁transmitter	-11.0339
▁transness	-11.0339
▁transportation	-11.0339
▁trashed	-11.0339
▁traumatized	-11.0339
▁traveling	-11.0339
▁tremendously	-11.0339
▁trending	-11.0339
▁tribe	-11.0339
▁tribulation	-11.0339
▁trigeminal	-11.0339
▁triumph	-11.0339
▁trivial	-11.0339
▁troubling	-11.0339
▁trough	-11.0339
▁trusting	-11.0339
▁tumbling	-11.0339
▁tumour	-11.0339
▁turmeric	-11.0339
▁ukraine	-11.0339
▁um	-11.0339
▁unattractive	-11.0339
▁unaware	-11.0339
▁unbearably	-11.0339
▁underlying	-11.0339
▁undivided	-11.0339
▁unemployment	-11.0339
▁unintelligent	-11.0339
▁unity	-11.0339
▁universal	-11.0339
▁unlucky	-11.0339
▁unnoticed	-11.0339
▁unsuccessful	-11.0339
▁unusual	-11.0339
▁upcoming	-11.0339
▁updated	-11.0339
▁urgent	-11.0339
▁uselessness	-11.0339
▁utility	-11.0339
▁vacant	-11.0339
▁vaccine	-11.0339
▁valentine	-11.0339
▁vaping	-11.0339
▁varied	-11.0339
▁verge	-11.0339
▁verification	-11.0339
▁versa	-11.0339
▁verve	-11.0339
▁vibrant	-11.0339
▁village	-11.0339
▁virtually	-11.0339
▁visitor	-11.0339
▁visually	-11.0339
▁volume	-11.0339
▁volunteering	-11.0339
▁w	-11.0339
▁walmart	-11.0339
▁wander	-11.0339
▁wandering	-11.0339
▁warmer	-11.0339
▁weighing	-11.0339
▁welcomed	-11.0339
▁wether	-11.0339
▁whatnot	-11.0339
▁wich	-11.0339
▁wine	-11.0339
▁wit	-11.0339
▁woken	-11.0339
▁wore	-11.0339
▁worldly	-11.0339
▁wreck	-11.0339
▁writes	-11.0339
▁wronged	-11.0339
▁wwii	-11.0339
▁xr	-11.0339
▁yard	-11.0339
▁yearns	-11.0339
▁yk	-11.0339
▁youngest	-11.0339
▁yt	-11.0339
▁zombie	-11.0339
▁abandon	-11.4394
▁abandonment	-11.4394
▁abdomen	-11.4394
▁abolishing	-11.4394
▁abrasion	-11.4394
▁academy	-11.4394
▁accelerated	-11.4394
▁accompany	-11.4394
▁accompanying	-11.4394
▁accordance	-11.4394
▁accounting	-11.4394
▁accurately	-11.4394
▁acknowledged	-11.4394
▁acronym	-11.4394
▁activation	-11.4394
▁activist	-11.4394
▁actualize	-11.4394
▁acute	-11.4394
▁ad	-11.4394
▁adaptable	-11.4394
▁adaptive	-11.4394
▁additionally	-11.4394
▁addressing	-11.4394
▁adequately	-11.4394
▁adhere	-11.4394
▁adhering	-11.4394
▁admin	-11.4394
▁admirable	-11.4394
▁admire	-11.4394
▁admired	-11.4394
▁admitting	-11.4394
▁adoptive	-11.4394
▁adore	-11.4394
▁adrenal	-11.4394
▁advantageous	-11.4394
▁adversely	-11.4394
▁advocate	-11.4394
▁advocating	-11.4394
▁aesthetic	-11.4394
▁af	-11.4394
▁afar	-11.4394
▁afterthought	-11.4394
▁agent	-11.4394
▁aggiemail	-11.4394
▁agrees	-11.4394
▁aha	-11.4394
▁aide	-11.4394
▁aiding	-11.4394
▁aimed	-11.4394
▁aimless	-11.4394
▁airplane	-11.4394
▁alarmingly	-11.4394
▁alaska	-11.4394
▁alci	-11.4394
▁alcoholism	-11.4394
▁alcolism	-11.4394
▁aliviate	-11.4394
▁alkaline	-11.4394
▁alllll	-11.4394
▁alopecia	-11.4394
▁aloud	-11.4394
▁alrealdy	-11.4394
▁alveolus	-11.4394
▁alzheimer	-11.4394
▁amazed	-11.4394
▁amazingly	-11.4394
▁amazings	-11.4394
▁ambiance	-11.4394
▁amends	-11.4394
▁amorphous	-11.4394
▁ample	-11.4394
▁analyzed	-11.4394
▁anchor	-11.4394
▁ancien	-11.4394
▁andew	-11.4394
▁androgenetic	-11.4394
▁anemia	-11.4394
▁aneurism	-11.4394
▁anew	-11.4394
▁anguished	-11.4394
▁animalistic	-11.4394
▁anime	-11.4394
▁ankle	-11.4394
▁anonymity	-11.4394
▁anthropoligist	-11.4394
▁antibody	-11.4394
▁antipsychotic	-11.4394
▁antisocial	-11.4394
▁anxiousness	-11.4394
▁appalled	-11.4394
▁applies	-11.4394
▁appreciating	-11.4394
▁appreciative	-11.4394
▁approached	-11.4394
▁approving	-11.4394
▁appt	-11.4394
▁aptitude	-11.4394
▁arbitrary	-11.4394
▁argued	-11.4394
▁armed	-11.4394
▁aromatherapy	-11.4394
▁arrange	-11.4394
▁arrived	-11.4394
▁artery	-11.4394
▁articulate	-11.4394
▁ascending	-11.4394
▁ascensionmeditation	-11.4394
▁asd	-11.4394
▁asexual	-11.4394
▁asfff	-11.4394
▁ash	-11.4394
▁ashed	-11.4394
▁asocially	-11.4394
▁aspergers	-11.4394
▁ass	-11.4394
▁assisted	-11.4394
▁asskisser	-11.4394
▁astonishing	-11.4394
▁atlas	-11.4394
▁atmospheric	-11.4394
▁attach	-11.4394
▁attacking	-11.4394
▁attained	-11.4394
▁authorattn	-11.4394
▁auto	-11.4394
▁automated	-11.4394
▁autumn	-11.4394
▁awarded	-11.4394
▁awry	-11.4394
▁backbone	-11.4394
▁balding	-11.4394
▁baldness	-11.4394
▁bankrupt	-11.4394
▁barbiee	-11.4394
▁barefoot	-11.4394
▁bat	-11.4394
▁bathe	-11.4394
▁bathing	-11.4394
▁bawl	-11.4394
▁bbq	-11.4394
▁beachside	-11.4394
▁beacuse	-11.4394
▁bearing	-11.4394
▁beaten	-11.4394
▁beatles	-11.4394
▁bedding	-11.4394
▁befor	-11.4394
▁beforehand	-11.4394
▁befriend	-11.4394
▁begging	-11.4394
▁behavioural	-11.4394
▁behold	-11.4394
▁beholder	-11.4394
▁beingness	-11.4394
▁belated	-11.4394
▁belgium	-11.4394
▁bemindfulonline	-11.4394
▁bench	-11.4394
▁benefited	-11.4394
▁benzo	-11.4394
▁bestfriend	-11.4394
▁bestseller	-11.4394
▁bestselling	-11.4394
▁betray	-11.4394
▁bettering	-11.4394
▁bfa	-11.4394
▁biafra	-11.4394
▁bich	-11.4394
▁biggies	-11.4394
▁billie	-11.4394
▁bin	-11.4394
▁binging	-11.4394
▁biologically	-11.4394
▁biostatistics	-11.4394
▁biting	-11.4394
▁bitterness	-11.4394
▁blacked	-11.4394
▁blatantly	-11.4394
▁bleak	-11.4394
▁blemish	-11.4394
▁blesses	-11.4394
▁blip	-11.4394
▁blm	-11.4394
▁blowing	-11.4394
▁boil	-11.4394
▁boiling	-11.4394
▁bombard	-11.4394
▁bonus	-11.4394
▁bookshelf	-11.4394
▁boom	-11.4394
▁boosted	-11.4394
▁boosting	-11.4394
▁booth	-11.4394
▁booze	-11.4394
▁bossa	-11.4394
▁bottled	-11.4394
▁bow	-11.4394
▁bowl	-11.4394
▁brave	-11.4394
▁breast	-11.4394
▁breathed	-11.4394
▁brew	-11.4394
▁bricker	-11.4394
▁brien	-11.4394
▁brighten	-11.4394
▁british	-11.4394
▁bronson	-11.4394
▁browse	-11.4394
▁bruise	-11.4394
▁brunch	-11.4394
▁brutal	-11.4394
▁budding	-11.4394
▁buddy	-11.4394
▁buffett	-11.4394
▁bulimia	-11.4394
▁bullet	-11.4394
▁bummed	-11.4394
▁bumping	-11.4394
▁burdening	-11.4394
▁burg	-11.4394
▁buried	-11.4394
▁butt	-11.4394
▁buttered	-11.4394
▁button	-11.4394
▁bystander	-11.4394
▁cabin	-11.4394
▁cafine	-11.4394
▁cal	-11.4394
▁calorie	-11.4394
▁camel	-11.4394
▁canceled	-11.4394
▁cancelled	-11.4394
▁cannabis	-11.4394
▁canton	-11.4394
▁canucknaround	-11.4394
▁capstone	-11.4394
▁capsule	-11.4394
▁captaindepression	-11.4394
▁caravan	-11.4394
▁carer	-11.4394
▁carlos	-11.4394
▁carol	-11.4394
▁carve	-11.4394
▁casual	-11.4394
▁casually	-11.4394
▁catastrophize	-11.4394
▁cater	-11.4394
▁catharsis	-11.4394
▁cattle	-11.4394
▁cave	-11.4394
▁cavity	-11.4394
▁cbc	-11.4394
▁ccertain	-11.4394
▁ccna	-11.4394
▁ceased	-11.4394
▁cec	-11.4394
▁celebrity	-11.4394
▁cemetery	-11.4394
▁centered	-11.4394
▁centering	-11.4394
▁centralised	-11.4394
▁cert	-11.4394
▁certainty	-11.4394
▁cf	-11.4394
▁challeged	-11.4394
▁challeges	-11.4394
▁chanting	-11.4394
▁chaotic	-11.4394
▁characterize	-11.4394
▁charismatic	-11.4394
▁charitable	-11.4394
▁charles	-11.4394
▁chatter	-11.4394
▁chattering	-11.4394
▁cheaper	-11.4394
▁checkout	-11.4394
▁cheerful	-11.4394
▁cherry	-11.4394
▁chevrolet	-11.4394
▁chillllll	-11.4394
▁chillls	-11.4394
▁chime	-11.4394
▁china	-11.4394
▁chipping	-11.4394
▁chiropractor	-11.4394
▁chirping	-11.4394
▁chocolate	-11.4394
▁choking	-11.4394
▁chris	-11.4394
▁christ	-11.4394
▁christianity	-11.4394
▁chromebook	-11.4394
▁chuckle	-11.4394
▁ciggarettes	-11.4394
▁cinema	-11.4394
▁cinematic	-11.4394
▁circulating	-11.4394
▁claiming	-11.4394
▁clapping	-11.4394
▁clash	-11.4394
▁classical	-11.4394
▁classify	-11.4394
▁classroom	-11.4394
▁claude	-11.4394
▁cleaned	-11.4394
▁cleanse	-11.4394
▁cleft	-11.4394
▁clever	-11.4394
▁clicked	-11.4394
▁climax	-11.4394
▁climbed	-11.4394
▁clingy	-11.4394
▁clipped	-11.4394
▁clocking	-11.4394
▁clonazepam	-11.4394
▁closet	-11.4394
▁cloth	-11.4394
▁cloudy	-11.4394
▁clown	-11.4394
▁cocky	-11.4394
▁coco	-11.4394
▁coin	-11.4394
▁coinbase	-11.4394
▁collaboration	-11.4394
▁collapsed	-11.4394
▁collecting	-11.4394
▁collective	-11.4394
▁collins	-11.4394
▁colon	-11.4394
▁colouring	-11.4394
▁combating	-11.4394
▁combustion	-11.4394
▁comfortability	-11.4394
▁comfy	-11.4394
▁comic	-11.4394
▁commence	-11.4394
▁commends	-11.4394
▁commenting	-11.4394
▁commerce	-11.4394
▁commiserating	-11.4394
▁commiting	-11.4394
▁compatible	-11.4394
▁compensation	-11.4394
▁compiled	-11.4394
▁complained	-11.4394
▁compounding	-11.4394
▁compromise	-11.4394
▁compulsion	-11.4394
▁concussion	-11.4394
▁confidential	-11.4394
▁confidently	-11.4394
▁conform	-11.4394
▁conforming	-11.4394
▁congratulation	-11.4394
▁conscience	-11.4394
▁consedring	-11.4394
▁conservative	-11.4394
▁considerable	-11.4394
▁consitent	-11.4394
▁console	-11.4394
▁consolidate	-11.4394
▁constructively	-11.4394
▁consult	-11.4394
▁consultant	-11.4394
▁consultation	-11.4394
▁consumes	-11.4394
▁contain	-11.4394
▁contained	-11.4394
▁container	-11.4394
▁contemplating	-11.4394
▁contemptible	-11.4394
▁continent	-11.4394
▁continously	-11.4394
▁controller	-11.4394
▁convenient	-11.4394
▁conventional	-11.4394
▁conventionally	-11.4394
▁conversion	-11.4394
▁converted	-11.4394
▁conveyer	-11.4394
▁conviced	-11.4394
▁convincingly	-11.4394
▁cooping	-11.4394
▁coordination	-11.4394
▁coped	-11.4394
▁corneal	-11.4394
▁corp	-11.4394
▁correlation	-11.4394
▁corrupted	-11.4394
▁couldnt	-11.4394
▁countdown	-11.4394
▁coupled	-11.4394
▁coverage	-11.4394
▁cozy	-11.4394
▁crab	-11.4394
▁cracking	-11.4394
▁cramming	-11.4394
▁cramped	-11.4394
▁craves	-11.4394
▁crawlies	-11.4394
▁creatives	-11.4394
▁creek	-11.4394
▁crew	-11.4394
▁criterion	-11.4394
▁criticizes	-11.4394
▁critter	-11.4394
▁crowded	-11.4394
▁crowed	-11.4394
▁crown	-11.4394
▁crumbled	-11.4394
▁cruz	-11.4394
▁crybaby	-11.4394
▁crypto	-11.4394
▁crystal	-11.4394
▁crystallizes	-11.4394
▁culmination	-11.4394
▁cumming	-11.4394
▁cunt	-11.4394
▁cuppa	-11.4394
▁curating	-11.4394
▁cursed	-11.4394
▁curve	-11.4394
▁curving	-11.4394
▁custody	-11.4394
▁cutler	-11.4394
▁cylinder	-11.4394
▁cymbalta	-11.4394
▁cynical	-11.4394
▁da	-11.4394
▁dagger	-11.4394
▁dalio	-11.4394
▁damped	-11.4394
▁dan	-11.4394
▁dancing	-11.4394
▁dangerously	-11.4394
▁dared	-11.4394
▁darker	-11.4394
▁darkly	-11.4394
▁darn	-11.4394
▁daybreaker	-11.4394
▁daytime	-11.4394
▁daze	-11.4394
▁deadlift	-11.4394
▁dearest	-11.4394
▁dearly	-11.4394
▁debate	-11.4394
▁debated	-11.4394
▁debating	-11.4394
▁decency	-11.4394
▁deception	-11.4394
▁declined	-11.4394
▁declining	-11.4394
▁decoration	-11.4394
▁deductable	-11.4394
▁deed	-11.4394
▁deem	-11.4394
▁deemed	-11.4394
▁deems	-11.4394
▁default	-11.4394
▁defeating	-11.4394
▁defending	-11.4394
▁defination	-11.4394
▁definite	-11.4394
▁deformed	-11.4394
▁degrading	-11.4394
▁deity	-11.4394
▁delaying	-11.4394
▁delicious	-11.4394
▁delight	-11.4394
▁delusional	-11.4394
▁democracy	-11.4394
▁demotivated	-11.4394
▁demotivation	-11.4394
▁dense	-11.4394
▁densest	-11.4394
▁depends	-11.4394
▁depersnalization	-11.4394
▁dermatologist	-11.4394
▁describing	-11.4394
▁desktop	-11.4394
▁despaired	-11.4394
▁destined	-11.4394
▁destiny	-11.4394
▁destress	-11.4394
▁destroys	-11.4394
▁destructed	-11.4394
▁detailing	-11.4394
▁detect	-11.4394
▁deter	-11.4394
▁developmental	-11.4394
▁devil	-11.4394
▁devotion	-11.4394
▁diafram	-11.4394
▁diametrically	-11.4394
▁differ	-11.4394
▁digestion	-11.4394
▁dilation	-11.4394
▁dildo	-11.4394
▁dimattina	-11.4394
▁diminish	-11.4394
▁diminished	-11.4394
▁directed	-11.4394
▁disappeared	-11.4394
▁disappearing	-11.4394
▁disappears	-11.4394
▁disappointement	-11.4394
▁disassembling	-11.4394
▁disconnect	-11.4394
▁discouragement	-11.4394
▁discussed	-11.4394
▁disfunctional	-11.4394
▁disingenuous	-11.4394
▁dismiss	-11.4394
▁disney	-11.4394
▁disordered	-11.4394
▁disowned	-11.4394
▁disposition	-11.4394
▁disproportionate	-11.4394
▁disregard	-11.4394
▁disrespecting	-11.4394
▁disrupt	-11.4394
▁dissapointed	-11.4394
▁dissertation	-11.4394
▁dissociating	-11.4394
▁distinct	-11.4394
▁distinction	-11.4394
▁distortion	-11.4394
▁distracting	-11.4394
▁distraught	-11.4394
▁distribution	-11.4394
▁disturb	-11.4394
▁ditch	-11.4394
▁divide	-11.4394
▁divisional	-11.4394
▁dizzyness	-11.4394
▁doable	-11.4394
▁documenting	-11.4394
▁doer	-11.4394
▁dominant	-11.4394
▁dominate	-11.4394
▁donation	-11.4394
▁dong	-11.4394
▁doordash	-11.4394
▁doosie	-11.4394
▁dopa	-11.4394
▁dope	-11.4394
▁dorky	-11.4394
▁dot	-11.4394
▁downplays	-11.4394
▁downsize	-11.4394
▁downvotes	-11.4394
▁downwards	-11.4394
▁dragged	-11.4394
▁dragon	-11.4394
▁dramatically	-11.4394
▁dreading	-11.4394
▁dreamed	-11.4394
▁dreamt	-11.4394
▁drivign	-11.4394
▁drool	-11.4394
▁drowsy	-11.4394
▁drugged	-11.4394
▁drum	-11.4394
▁dt	-11.4394
▁duly	-11.4394
▁dumbfounded	-11.4394
▁dump	-11.4394
▁dumped	-11.4394
▁dumping	-11.4394
▁dysthimia	-11.4394
▁dysthymia	-11.4394
▁eager	-11.4394
▁earliest	-11.4394
▁earthquake	-11.4394
▁eased	-11.4394
▁eastern	-11.4394
▁eats	-11.4394
▁ebony	-11.4394
▁effortless	-11.4394
▁egypt	-11.4394
▁eilish	-11.4394
▁ekg	-11.4394
▁el	-11.4394
▁elated	-11.4394
▁elation	-11.4394
▁elbert	-11.4394
▁elbow	-11.4394
▁electrical	-11.4394
▁electrocute	-11.4394
▁electrode	-11.4394
▁electromagnetic	-11.4394
▁electrotechnic	-11.4394
▁eliminating	-11.4394
▁elite	-11.4394
▁elixir	-11.4394
▁elsewhere	-11.4394
▁emailing	-11.4394
▁emancipate	-11.4394
▁embarassed	-11.4394
▁embark	-11.4394
▁embarrass	-11.4394
▁embarrassment	-11.4394
▁emerged	-11.4394
▁emo	-11.4394
▁emotionality	-11.4394
▁empathetic	-11.4394
▁empathize	-11.4394
▁emphaising	-11.4394
▁emphasized	-11.4394
▁enabled	-11.4394
▁enables	-11.4394
▁encephalitis	-11.4394
▁encourage	-11.4394
▁endeavoured	-11.4394
▁endgame	-11.4394
▁endometriosis	-11.4394
▁enhances	-11.4394
▁enlivened	-11.4394
▁enormous	-11.4394
▁enriching	-11.4394
▁ensures	-11.4394
▁entity	-11.4394
▁entourage	-11.4394
▁entreprener	-11.4394
▁envied	-11.4394
▁environmental	-11.4394
▁epidemic	-11.4394
▁equality	-11.4394
▁equate	-11.4394
▁equipped	-11.4394
▁eradicated	-11.4394
▁erect	-11.4394
▁erection	-11.4394
▁escalated	-11.4394
▁escaped	-11.4394
▁escaping	-11.4394
▁escapist	-11.4394
▁establish	-11.4394
▁established	-11.4394
▁estate	-11.4394
▁estranged	-11.4394
▁ethnicity	-11.4394
▁euphemism	-11.4394
▁euthanized	-11.4394
▁evangelism	-11.4394
▁evaporate	-11.4394
▁eventhough	-11.4394
▁eventual	-11.4394
▁everyon	-11.4394
▁evicted	-11.4394
▁evolutionary	-11.4394
▁excelling	-11.4394
▁excercises	-11.4394
▁excessively	-11.4394
▁exclusive	-11.4394
▁exhaust	-11.4394
▁exhibition	-11.4394
▁existance	-11.4394
▁existencial	-11.4394
▁exited	-11.4394
▁expanded	-11.4394
▁expands	-11.4394
▁expansion	-11.4394
▁experimented	-11.4394
▁expired	-11.4394
▁explicit	-11.4394
▁exploit	-11.4394
▁exploited	-11.4394
▁explosion	-11.4394
▁exponentially	-11.4394
▁expose	-11.4394
▁expound	-11.4394
▁expressive	-11.4394
▁extend	-11.4394
▁extort	-11.4394
▁extract	-11.4394
▁extraoedinary	-11.4394
▁extremly	-11.4394
▁extroverted	-11.4394
▁eyed	-11.4394
▁facetimed	-11.4394
▁facilitate	-11.4394
▁faded	-11.4394
▁fading	-11.4394
▁failling	-11.4394
▁faithful	-11.4394
▁falcon	-11.4394
▁falsely	-11.4394
▁fam	-11.4394
▁farm	-11.4394
▁fastest	-11.4394
▁fatigued	-11.4394
▁fatty	-11.4394
▁favor	-11.4394
▁fawk	-11.4394
▁fcking	-11.4394
▁fearing	-11.4394
▁fearless	-11.4394
▁feild	-11.4394
▁felix	-11.4394
▁fellowship	-11.4394
▁feminine	-11.4394
▁ferriss	-11.4394
▁festival	-11.4394
▁feverish	-11.4394
▁fiance	-11.4394
▁fiercely	-11.4394
▁fifth	-11.4394
▁fin	-11.4394
▁finalised	-11.4394
▁financials	-11.4394
▁fir	-11.4394
▁fishing	-11.4394
▁fitful	-11.4394
▁fixated	-11.4394
▁flair	-11.4394
▁flammable	-11.4394
▁flare	-11.4394
▁flatmate	-11.4394
▁flatsharing	-11.4394
▁flea	-11.4394
▁fleeing	-11.4394
▁flinching	-11.4394
▁flood	-11.4394
▁flooded	-11.4394
▁floof	-11.4394
▁floss	-11.4394
▁flossing	-11.4394
▁flowing	-11.4394
▁fluff	-11.4394
▁fluoxetine	-11.4394
▁flushed	-11.4394
▁fml	-11.4394
▁foe	-11.4394
▁ford	-11.4394
▁formation	-11.4394
▁formative	-11.4394
▁formatting	-11.4394
▁forming	-11.4394
▁forsee	-11.4394
▁foul	-11.4394
▁foward	-11.4394
▁fox	-11.4394
▁framed	-11.4394
▁franklin	-11.4394
▁freelance	-11.4394
▁freeze	-11.4394
▁freezing	-11.4394
▁fremont	-11.4394
▁freshens	-11.4394
▁fried	-11.4394
▁friendzoned	-11.4394
▁frightened	-11.4394
▁frisky	-11.4394
▁frisson	-11.4394
▁frizzle	-11.4394
▁frontline	-11.4394
▁fruitless	-11.4394
▁fucken	-11.4394
▁fulfills	-11.4394
▁fulfils	-11.4394
▁fuller	-11.4394
▁fullest	-11.4394
▁fulltime	-11.4394
▁functionally	-11.4394
▁funnest	-11.4394
▁fuq	-11.4394
▁fur	-11.4394
▁furious	-11.4394
▁furry	-11.4394
▁fusion	-11.4394
▁g	-11.4394
▁gaba	-11.4394
▁gabriel	-11.4394
▁gage	-11.4394
▁gallstone	-11.4394
▁gamble	-11.4394
▁gambling	-11.4394
▁gang	-11.4394
▁garmin	-11.4394
▁garyvee	-11.4394
▁gaslight	-11.4394
▁gaslighting	-11.4394
▁gastroenterologist	-11.4394
▁gatekeeper	-11.4394
▁gateway	-11.4394
▁gatewaylocation	-11.4394
▁gauge	-11.4394
▁gaze	-11.4394
▁genuity	-11.4394
▁getaway	-11.4394
▁getsmartebooks	-11.4394
▁ghetto	-11.4394
▁ghosted	-11.4394
▁ghosting	-11.4394
▁giddy	-11.4394
▁gifted	-11.4394
▁gimmick	-11.4394
▁gimpy	-11.4394
▁ginseng	-11.4394
▁givebooks	-11.4394
▁glance	-11.4394
▁glandular	-11.4394
▁gleaned	-11.4394
▁glimmer	-11.4394
▁globally	-11.4394
▁gloom	-11.4394
▁glorified	-11.4394
▁glory	-11.4394
▁glow	-11.4394
▁goodnight	-11.4394
▁googled	-11.4394
▁gosh	-11.4394
▁gotteb	-11.4394
▁gps	-11.4394
▁grabbing	-11.4394
▁gradual	-11.4394
▁granddaughter	-11.4394
▁grandiose	-11.4394
▁grandkids	-11.4394
▁gras	-11.4394
▁gratefulness	-11.4394
▁gravely	-11.4394
▁graying	-11.4394
▁grazed	-11.4394
▁greet	-11.4394
▁greg	-11.4394
▁greyhound	-11.4394
▁grieved	-11.4394
▁grim	-11.4394
▁grinded	-11.4394
▁groin	-11.4394
▁grouched	-11.4394
▁grp	-11.4394
▁grueling	-11.4394
▁grunt	-11.4394
▁guardian	-11.4394
▁guessed	-11.4394
▁guest	-11.4394
▁guidedmeditation	-11.4394
▁guru	-11.4394
▁gynaecologist	-11.4394
▁habbit	-11.4394
▁hack	-11.4394
▁hacked	-11.4394
▁hahah	-11.4394
▁hahahahahah	-11.4394
▁hahhaa	-11.4394
▁halfway	-11.4394
▁halt	-11.4394
▁handy	-11.4394
▁hanger	-11.4394
▁hangover	-11.4394
▁happg	-11.4394
▁harbor	-11.4394
▁harshness	-11.4394
▁harvey	-11.4394
▁haryana	-11.4394
▁hassle	-11.4394
▁haw	-11.4394
▁haze	-11.4394
▁header	-11.4394
▁healthline	-11.4394
▁heartbeat	-11.4394
▁heatlh	-11.4394
▁heavenly	-11.4394
▁hedonic	-11.4394
▁heed	-11.4394
▁hella	-11.4394
▁helper	-11.4394
▁helpline	-11.4394
▁hereafter	-11.4394
▁hereunder	-11.4394
▁hernia	-11.4394
▁hero	-11.4394
▁hesitate	-11.4394
▁hiatal	-11.4394
▁highlight	-11.4394
▁hightail	-11.4394
▁hilding	-11.4394
▁hind	-11.4394
▁hindi	-11.4394
▁hindsight	-11.4394
▁holiness	-11.4394
▁holistic	-11.4394
▁homophobic	-11.4394
▁honed	-11.4394
▁honey	-11.4394
▁hopelessness	-11.4394
▁horrendous	-11.4394
▁host	-11.4394
▁hotel	-11.4394
▁hourglass	-11.4394
▁housemate	-11.4394
▁housing	-11.4394
▁htp	-11.4394
▁huberman	-11.4394
▁hugely	-11.4394
▁huhu	-11.4394
▁humbled	-11.4394
▁humility	-11.4394
▁humored	-11.4394
▁hunched	-11.4394
▁hungover	-11.4394
▁hunting	-11.4394
▁hurricane	-11.4394
▁hustle	-11.4394
▁hustlin	-11.4394
▁hypochondriac	-11.4394
▁hypocritical	-11.4394
▁icahn	-11.4394
▁identifying	-11.4394
▁idgaf	-11.4394
▁idiocy	-11.4394
▁idiotic	-11.4394
▁ignite	-11.4394
▁illogical	-11.4394
▁illustrate	-11.4394
▁imaginative	-11.4394
▁imbalance	-11.4394
▁immensely	-11.4394
▁immigrated	-11.4394
▁imo	-11.4394
▁impactful	-11.4394
▁impartial	-11.4394
▁implant	-11.4394
▁implemented	-11.4394
▁implementing	-11.4394
▁implying	-11.4394
▁imposed	-11.4394
▁impulsively	-11.4394
▁inattention	-11.4394
▁incarnation	-11.4394
▁incompetence	-11.4394
▁incompetent	-11.4394
▁incontinent	-11.4394
▁inconvenience	-11.4394
▁incorporate	-11.4394
▁incurable	-11.4394
▁indication	-11.4394
▁indicator	-11.4394
▁indirectly	-11.4394
▁individually	-11.4394
▁indomitable	-11.4394
▁indulge	-11.4394
▁inertia	-11.4394
▁inexplicably	-11.4394
▁infancy	-11.4394
▁infinitesilence	-11.4394
▁inflammation	-11.4394
▁inflation	-11.4394
▁influencers	-11.4394
▁influential	-11.4394
▁inhabilitating	-11.4394
▁inherits	-11.4394
▁inhibit	-11.4394
▁inimitable	-11.4394
▁inlove	-11.4394
▁innate	-11.4394
▁innocent	-11.4394
▁innovation	-11.4394
▁insanity	-11.4394
▁insensitive	-11.4394
▁insist	-11.4394
▁insistent	-11.4394
▁insists	-11.4394
▁insomniac	-11.4394
▁instability	-11.4394
▁instilling	-11.4394
▁institutionalised	-11.4394
▁instructs	-11.4394
▁instrument	-11.4394
▁integrate	-11.4394
▁intellectual	-11.4394
▁intends	-11.4394
▁internalized	-11.4394
▁intersection	-11.4394
▁interst	-11.4394
▁interval	-11.4394
▁intimate	-11.4394
▁intrigued	-11.4394
▁introduces	-11.4394
▁intuition	-11.4394
▁invasive	-11.4394
▁inventing	-11.4394
▁investigating	-11.4394
▁invisible	-11.4394
▁involving	-11.4394
▁iowa	-11.4394
▁ireland	-11.4394
▁ironically	-11.4394
▁irresponsibility	-11.4394
▁irritability	-11.4394
▁ishayas	-11.4394
▁ishtarhowell	-11.4394
▁isolate	-11.4394
▁isolating	-11.4394
▁issued	-11.4394
▁italy	-11.4394
▁itd	-11.4394
▁iteration	-11.4394
▁itll	-11.4394
▁ivf	-11.4394
▁jack	-11.4394
▁jacked	-11.4394
▁james	-11.4394
▁japan	-11.4394
▁jazzed	-11.4394
▁jello	-11.4394
▁jen	-11.4394
▁jenkins	-11.4394
▁jerk	-11.4394
▁jerking	-11.4394
▁jewish	-11.4394
▁jkz	-11.4394
▁joint	-11.4394
▁joked	-11.4394
▁joyous	-11.4394
▁judaism	-11.4394
▁jumb	-11.4394
▁jumbled	-11.4394
▁jus	-11.4394
▁justice	-11.4394
▁ka	-11.4394
▁kawasaki	-11.4394
▁kennel	-11.4394
▁kinder	-11.4394
▁kingdom	-11.4394
▁kinky	-11.4394
▁kist	-11.4394
▁knee	-11.4394
▁knock	-11.4394
▁knocking	-11.4394
▁knowhow	-11.4394
▁korean	-11.4394
▁labour	-11.4394
▁lachesism	-11.4394
▁lake	-11.4394
▁lame	-11.4394
▁lamp	-11.4394
▁lap	-11.4394
▁lapdog	-11.4394
▁lastyear	-11.4394
▁latch	-11.4394
▁latuda	-11.4394
▁laughably	-11.4394
▁leafing	-11.4394
▁learnd	-11.4394
▁learner	-11.4394
▁lease	-11.4394
▁leash	-11.4394
▁legally	-11.4394
▁legend	-11.4394
▁legitimate	-11.4394
▁leisure	-11.4394
▁lend	-11.4394
▁lender	-11.4394
▁lengthy	-11.4394
▁lesons	-11.4394
▁lesser	-11.4394
▁liberal	-11.4394
▁liberation	-11.4394
▁library	-11.4394
▁licence	-11.4394
▁lick	-11.4394
▁licking	-11.4394
▁liege	-11.4394
▁lighty	-11.4394
▁likelihood	-11.4394
▁likwise	-11.4394
▁limb	-11.4394
▁limitation	-11.4394
▁lingers	-11.4394
▁lingo	-11.4394
▁linkedin	-11.4394
▁liquor	-11.4394
▁lisabergstrom	-11.4394
▁literature	-11.4394
▁livestream	-11.4394
▁logo	-11.4394
▁loner	-11.4394
▁looknat	-11.4394
▁loooooot	-11.4394
▁loophole	-11.4394
▁losserrrrrrr	-11.4394
▁lotta	-11.4394
▁lovable	-11.4394
▁lowered	-11.4394
▁lsd	-11.4394
▁lyrical	-11.4394
▁magazine	-11.4394
▁maharshi	-11.4394
▁maia	-11.4394
▁maintains	-11.4394
▁malfunction	-11.4394
▁malibu	-11.4394
▁managment	-11.4394
▁manchester	-11.4394
▁maneuver	-11.4394
▁manifesting	-11.4394
▁manipulated	-11.4394
▁manipulative	-11.4394
▁mannequin	-11.4394
▁mannerism	-11.4394
▁mansion	-11.4394
▁manufacturing	-11.4394
▁marble	-11.4394
▁marketplace	-11.4394
▁martin	-11.4394
▁marvelous	-11.4394
▁masterclass	-11.4394
▁masterful	-11.4394
▁masturbation	-11.4394
▁matched	-11.4394
▁materialistic	-11.4394
▁mathematically	-11.4394
▁mattered	-11.4394
▁matured	-11.4394
▁maturely	-11.4394
▁maturing	-11.4394
▁max	-11.4394
▁maximum	-11.4394
▁mci	-11.4394
▁mckeown	-11.4394
▁mcu	-11.4394
▁mdd	-11.4394
▁measured	-11.4394
▁measurement	-11.4394
▁mechanical	-11.4394
▁mechatronics	-11.4394
▁mediavine	-11.4394
▁mediocre	-11.4394
▁meditated	-11.4394
▁meditationteacher	-11.4394
▁mek	-11.4394
▁melatonin	-11.4394
▁mellow	-11.4394
▁memorized	-11.4394
▁mend	-11.4394
▁mendes	-11.4394
▁mending	-11.4394
▁meniscus	-11.4394
▁mentioning	-11.4394
▁merciful	-11.4394
▁mercilessly	-11.4394
▁mercurial	-11.4394
▁mercy	-11.4394
▁mere	-11.4394
▁merit	-11.4394
▁metabolism	-11.4394
▁metaphorically	-11.4394
▁methodology	-11.4394
▁mf	-11.4394
▁mft	-11.4394
▁michigan	-11.4394
▁micro	-11.4394
▁micromanaged	-11.4394
▁microphone	-11.4394
▁midday	-11.4394
▁mike	-11.4394
▁military	-11.4394
▁mill	-11.4394
▁milla	-11.4394
▁mindfully	-11.4394
▁minecraft	-11.4394
▁mineral	-11.4394
▁minimized	-11.4394
▁minus	-11.4394
▁misanthrope	-11.4394
▁misfit	-11.4394
▁misfortune	-11.4394
▁misunderstanding	-11.4394
▁mitty	-11.4394
▁mixture	-11.4394
▁molecular	-11.4394
▁molecule	-11.4394
▁molesting	-11.4394
▁monastic	-11.4394
▁monitor	-11.4394
▁monk	-11.4394
▁monkey	-11.4394
▁moody	-11.4394
▁moonlight	-11.4394
▁moonshine	-11.4394
▁mope	-11.4394
▁morale	-11.4394
▁morbid	-11.4394
▁moreso	-11.4394
▁moron	-11.4394
▁morose	-11.4394
▁mortal	-11.4394
▁motivates	-11.4394
▁motor	-11.4394
▁mouthguards	-11.4394
▁movember	-11.4394
▁mt	-11.4394
▁multifaceted	-11.4394
▁mundane	-11.4394
▁muted	-11.4394
▁mutually	-11.4394
▁muvespace	-11.4394
▁mystic	-11.4394
▁mystical	-11.4394
▁myth	-11.4394
▁nagging	-11.4394
▁naive	-11.4394
▁naked	-11.4394
▁narcissism	-11.4394
▁narrowing	-11.4394
▁nasa	-11.4394
▁nation	-11.4394
▁navigate	-11.4394
▁nazi	-11.4394
▁neat	-11.4394
▁necessity	-11.4394
▁nectar	-11.4394
▁needle	-11.4394
▁neglectful	-11.4394
▁neglecting	-11.4394
▁negotiation	-11.4394
▁neice	-11.4394
▁neighborly	-11.4394
▁nephew	-11.4394
▁neuropathy	-11.4394
▁newbie	-11.4394
▁nexplanon	-11.4394
▁nft	-11.4394
▁nicodimattina	-11.4394
▁nicotine	-11.4394
▁niece	-11.4394
▁nighttime	-11.4394
▁nightwish	-11.4394
▁nj	-11.4394
▁noble	-11.4394
▁nocturnal	-11.4394
▁noel	-11.4394
▁nofap	-11.4394
▁noida	-11.4394
▁nonchalantly	-11.4394
▁nonexistent	-11.4394
▁nonsensical	-11.4394
▁nonstop	-11.4394
▁noregrets	-11.4394
▁norepinephrine	-11.4394
▁nosedive	-11.4394
▁nothin	-11.4394
▁noticeable	-11.4394
▁noticeably	-11.4394
▁noting	-11.4394
▁nova	-11.4394
▁nurtureshock	-11.4394
▁nutella	-11.4394
▁nyquil	-11.4394
▁obligation	-11.4394
▁oblivion	-11.4394
▁observant	-11.4394
▁observing	-11.4394
▁obstetric	-11.4394
▁obstetrics	-11.4394
▁obv	-11.4394
▁occupation	-11.4394
▁occurence	-11.4394
▁oe	-11.4394
▁ofcourse	-11.4394
▁offed	-11.4394
▁offended	-11.4394
▁offload	-11.4394
▁ohhh	-11.4394
▁ohhhh	-11.4394
▁olympic	-11.4394
▁oncoming	-11.4394
▁onlinesuccesgroup	-11.4394
▁onset	-11.4394
▁op	-11.4394
▁operates	-11.4394
▁operating	-11.4394
▁operation	-11.4394
▁operator	-11.4394
▁oppinion	-11.4394
▁oppose	-11.4394
▁oppressed	-11.4394
▁ops	-11.4394
▁optional	-11.4394
▁orchestrate	-11.4394
▁ordeal	-11.4394
▁oriented	-11.4394
▁ot	-11.4394
▁otherway	-11.4394
▁ourworld	-11.4394
▁outa	-11.4394
▁outer	-11.4394
▁outfit	-11.4394
▁outing	-11.4394
▁outwardly	-11.4394
▁outwards	-11.4394
▁ovary	-11.4394
▁oven	-11.4394
▁overdoses	-11.4394
▁overdosing	-11.4394
▁overdrive	-11.4394
▁overeat	-11.4394
▁overflowing	-11.4394
▁overly	-11.4394
▁overpaying	-11.4394
▁overrated	-11.4394
▁overwatch	-11.4394
▁overweigh	-11.4394
▁overwhelmingly	-11.4394
▁overworked	-11.4394
▁ownership	-11.4394
▁oy	-11.4394
▁paddle	-11.4394
▁pageviews	-11.4394
▁painfully	-11.4394
▁painless	-11.4394
▁paintbrush	-11.4394
▁paltry	-11.4394
▁papaw	-11.4394
▁paradoxically	-11.4394
▁paragraph	-11.4394
▁paralized	-11.4394
▁paralyzed	-11.4394
▁paralyzing	-11.4394
▁paraphrasing	-11.4394
▁parental	-11.4394
▁parenting	-11.4394
▁password	-11.4394
▁paste	-11.4394
▁pathology	-11.4394
▁patronizing	-11.4394
▁payback	-11.4394
▁payout	-11.4394
▁pcp	-11.4394
▁peacefully	-11.4394
▁peachy	-11.4394
▁pedal	-11.4394
▁peice	-11.4394
▁pepper	-11.4394
▁perceives	-11.4394
▁performed	-11.4394
▁performer	-11.4394
▁perk	-11.4394
▁persistent	-11.4394
▁persona	-11.4394
▁persuasive	-11.4394
▁petal	-11.4394
▁petition	-11.4394
▁phenomenal	-11.4394
▁philadelphia	-11.4394
▁philippine	-11.4394
▁philipwade	-11.4394
▁philosopher	-11.4394
▁phobia	-11.4394
▁photography	-11.4394
▁physique	-11.4394
▁pianist	-11.4394
▁picky	-11.4394
▁pie	-11.4394
▁piggyback	-11.4394
▁piling	-11.4394
▁pillow	-11.4394
▁pink	-11.4394
▁piteous	-11.4394
▁pitfall	-11.4394
▁pitying	-11.4394
▁pizza	-11.4394
▁placing	-11.4394
▁plasma	-11.4394
▁plea	-11.4394
▁plum	-11.4394
▁plunged	-11.4394
▁pogrom	-11.4394
▁pointing	-11.4394
▁poisonous	-11.4394
▁poking	-11.4394
▁politics	-11.4394
▁poly	-11.4394
▁pond	-11.4394
▁pony	-11.4394
▁poof	-11.4394
▁poorer	-11.4394
▁poorest	-11.4394
▁popsugar	-11.4394
▁popularly	-11.4394
▁population	-11.4394
▁portion	-11.4394
▁portray	-11.4394
▁portrayed	-11.4394
▁poster	-11.4394
▁posttraumatic	-11.4394
▁posture	-11.4394
▁potent	-11.4394
▁pouch	-11.4394
▁powdered	-11.4394
▁practicality	-11.4394
▁praise	-11.4394
▁pranayama	-11.4394
▁preaching	-11.4394
▁precaution	-11.4394
▁precursor	-11.4394
▁predestined	-11.4394
▁predict	-11.4394
▁predictably	-11.4394
▁preface	-11.4394
▁preform	-11.4394
▁prejudice	-11.4394
▁prepares	-11.4394
▁prerequisite	-11.4394
▁prescribe	-11.4394
▁prescriber	-11.4394
▁preservation	-11.4394
▁pressing	-11.4394
▁pressured	-11.4394
▁prestige	-11.4394
▁pretents	-11.4394
▁prevailed	-11.4394
▁prevalent	-11.4394
▁prey	-11.4394
▁pricing	-11.4394
▁prime	-11.4394
▁print	-11.4394
▁printed	-11.4394
▁prioritised	-11.4394
▁problematic	-11.4394
▁procastinating	-11.4394
▁prodded	-11.4394
▁producer	-11.4394
▁prof	-11.4394
▁programmed	-11.4394
▁prolongs	-11.4394
▁prominent	-11.4394
▁pronounce	-11.4394
▁proof	-11.4394
▁prostitute	-11.4394
▁protein	-11.4394
▁provoking	-11.4394
▁prude	-11.4394
▁psychic	-11.4394
▁psychopath	-11.4394
▁psychotherapy	-11.4394
▁publicly	-11.4394
▁publish	-11.4394
▁puddle	-11.4394
▁pump	-11.4394
▁purposeless	-11.4394
▁pyramid	-11.4394
▁q	-11.4394
▁qhat	-11.4394
▁qualify	-11.4394
▁queen	-11.4394
▁query	-11.4394
▁quicker	-11.4394
▁racism	-11.4394
▁racking	-11.4394
▁radar	-11.4394
▁raisedbynarcissists	-11.4394
▁rajasthan	-11.4394
▁randomised	-11.4394
▁randomized	-11.4394
▁ranked	-11.4394
▁ranting	-11.4394
▁rape	-11.4394
▁raping	-11.4394
▁rationalize	-11.4394
▁razor	-11.4394
▁reacted	-11.4394
▁reactionary	-11.4394
▁reader	-11.4394
▁realm	-11.4394
▁realy	-11.4394
▁rearrange	-11.4394
▁reasonably	-11.4394
▁rebutted	-11.4394
▁receives	-11.4394
▁recession	-11.4394
▁reciprocate	-11.4394
▁redditors	-11.4394
▁redraw	-11.4394
▁redundancy	-11.4394
▁refer	-11.4394
▁referral	-11.4394
▁referred	-11.4394
▁refined	-11.4394
▁refreshing	-11.4394
▁refusal	-11.4394
▁regulate	-11.4394
▁rehabilitated	-11.4394
▁reinforcing	-11.4394
▁reject	-11.4394
▁rejoined	-11.4394
▁rejuvenate	-11.4394
▁relatable	-11.4394
▁relation	-11.4394
▁relied	-11.4394
▁relies	-11.4394
▁relinquish	-11.4394
▁relocating	-11.4394
▁relying	-11.4394
▁remained	-11.4394
▁remark	-11.4394
▁remarkable	-11.4394
▁remarry	-11.4394
▁reminisce	-11.4394
▁remission	-11.4394
▁remorse	-11.4394
▁remorseful	-11.4394
▁removal	-11.4394
▁rendition	-11.4394
▁renovation	-11.4394
▁renowned	-11.4394
▁reopened	-11.4394
▁rep	-11.4394
▁repetitiveness	-11.4394
▁replay	-11.4394
▁replaying	-11.4394
▁repop	-11.4394
▁reported	-11.4394
▁repost	-11.4394
▁representative	-11.4394
▁represented	-11.4394
▁reprogram	-11.4394
▁repurpose	-11.4394
▁reputable	-11.4394
▁requesting	-11.4394
▁reschedule	-11.4394
▁researched	-11.4394
▁reshaping	-11.4394
▁resigned	-11.4394
▁resignedwithoutajob	-11.4394
▁resist	-11.4394
▁resonate	-11.4394
▁resonated	-11.4394
▁resonates	-11.4394
▁respected	-11.4394
▁respective	-11.4394
▁responded	-11.4394
▁restarted	-11.4394
▁restored	-11.4394
▁restrain	-11.4394
▁retake	-11.4394
▁retard	-11.4394
▁retiree	-11.4394
▁retort	-11.4394
▁reunion	-11.4394
▁reveal	-11.4394
▁revenge	-11.4394
▁revenue	-11.4394
▁reverts	-11.4394
▁revising	-11.4394
▁revisited	-11.4394
▁revolve	-11.4394
▁revolves	-11.4394
▁rewarded	-11.4394
▁rewatch	-11.4394
▁ridden	-11.4394
▁rider	-11.4394
▁rightfully	-11.4394
▁rigorous	-11.4394
▁risked	-11.4394
▁risky	-11.4394
▁riveter	-11.4394
▁rmd	-11.4394
▁roast	-11.4394
▁rob	-11.4394
▁robbins	-11.4394
▁robin	-11.4394
▁roleplay	-11.4394
▁romance	-11.4394
▁romhack	-11.4394
▁rooted	-11.4394
▁rose	-11.4394
▁rosie	-11.4394
▁round	-11.4394
▁rudeness	-11.4394
▁rx	-11.4394
▁sabotaged	-11.4394
▁sabotaging	-11.4394
▁sack	-11.4394
▁saddest	-11.4394
▁safeguard	-11.4394
▁salesman	-11.4394
▁sanctuary	-11.4394
▁sand	-11.4394
▁sandwhich	-11.4394
▁sank	-11.4394
▁santa	-11.4394
▁sapphire	-11.4394
▁sas	-11.4394
▁satisficing	-11.4394
▁savouring	-11.4394
▁scam	-11.4394
▁scammed	-11.4394
▁scammer	-11.4394
▁scapegoat	-11.4394
▁scarce	-11.4394
▁scarcity	-11.4394
▁schizophrenic	-11.4394
▁schollarship	-11.4394
▁schooler	-11.4394
▁scientifically	-11.4394
▁scumbags	-11.4394
▁se	-11.4394
▁seance	-11.4394
▁secreted	-11.4394
▁secretion	-11.4394
▁sedated	-11.4394
▁seeping	-11.4394
▁seize	-11.4394
▁seldom	-11.4394
▁sended	-11.4394
▁sensed	-11.4394
▁senseless	-11.4394
▁sensitivity	-11.4394
▁separating	-11.4394
▁separation	-11.4394
▁sept	-11.4394
▁servant	-11.4394
▁settlement	-11.4394
▁sexy	-11.4394
▁sf	-11.4394
▁shabby	-11.4394
▁shattered	-11.4394
▁shatters	-11.4394
▁shave	-11.4394
▁shaving	-11.4394
▁shaw	-11.4394
▁shedding	-11.4394
▁shelf	-11.4394
▁shelter	-11.4394
▁shitton	-11.4394
▁shittyasses	-11.4394
▁shocking	-11.4394
▁shook	-11.4394
▁shortcoming	-11.4394
▁shove	-11.4394
▁shoved	-11.4394
▁shrinking	-11.4394
▁shrooms	-11.4394
▁shutdown	-11.4394
▁si	-11.4394
▁sidebar	-11.4394
▁sideline	-11.4394
▁sigh	-11.4394
▁signaling	-11.4394
▁sikh	-11.4394
▁simplicity	-11.4394
▁simplified	-11.4394
▁simplify	-11.4394
▁sinai	-11.4394
▁sincere	-11.4394
▁sinking	-11.4394
▁sjsu	-11.4394
▁skyball	-11.4394
▁skyrocketed	-11.4394
▁slapped	-11.4394
▁slave	-11.4394
▁sleeper	-11.4394
▁sleepover	-11.4394
▁sleeve	-11.4394
▁slice	-11.4394
▁slo	-11.4394
▁slothish	-11.4394
▁slower	-11.4394
▁slows	-11.4394
▁sludge	-11.4394
▁sluggish	-11.4394
▁smam	-11.4394
▁smartphone	-11.4394
▁smash	-11.4394
▁smelled	-11.4394
▁smelling	-11.4394
▁smidgen	-11.4394
▁smiled	-11.4394
▁smirking	-11.4394
▁smith	-11.4394
▁smoked	-11.4394
▁snapping	-11.4394
▁snappy	-11.4394
▁sneak	-11.4394
▁sniffed	-11.4394
▁sniffle	-11.4394
▁snowing	-11.4394
▁snri	-11.4394
▁sob	-11.4394
▁sobriety	-11.4394
▁soccer	-11.4394
▁sociable	-11.4394
▁socializing	-11.4394
▁sociopath	-11.4394
▁soil	-11.4394
▁solar	-11.4394
▁solidity	-11.4394
▁solitary	-11.4394
▁somedays	-11.4394
▁somethin	-11.4394
▁soo	-11.4394
▁sooooo	-11.4394
▁soriano	-11.4394
▁sorted	-11.4394
▁soulful	-11.4394
▁soulless	-11.4394
▁soundproofing	-11.4394
▁soup	-11.4394
▁sp	-11.4394
▁sparked	-11.4394
▁specialty	-11.4394
▁spectrum	-11.4394
▁speech	-11.4394
▁speeding	-11.4394
▁spelled	-11.4394
▁spends	-11.4394
▁spewing	-11.4394
▁spiraled	-11.4394
▁spiralling	-11.4394
▁spitting	-11.4394
▁splint	-11.4394
▁spoiling	-11.4394
▁sponsor	-11.4394
▁spontaneously	-11.4394
▁sporadic	-11.4394
▁spout	-11.4394
▁spreader	-11.4394
▁spreading	-11.4394
▁spreadsheet	-11.4394
▁squeezing	-11.4394
▁stabilized	-11.4394
▁stabilizer	-11.4394
▁stack	-11.4394
▁staff	-11.4394
▁stain	-11.4394
▁stance	-11.4394
▁standyby	-11.4394
▁stanford	-11.4394
▁stared	-11.4394
▁starred	-11.4394
▁startup	-11.4394
▁statesman	-11.4394
▁steam	-11.4394
▁steering	-11.4394
▁stemming	-11.4394
▁stereotypical	-11.4394
▁sternberg	-11.4394
▁sterssing	-11.4394
▁steve	-11.4394
▁stew	-11.4394
▁sticky	-11.4394
▁stimulating	-11.4394
▁stimulation	-11.4394
▁stole	-11.4394
▁stolen	-11.4394
▁stopppef	-11.4394
▁strand	-11.4394
▁strategic	-11.4394
▁stray	-11.4394
▁streak	-11.4394
▁stricly	-11.4394
▁stride	-11.4394
▁strive	-11.4394
▁struggledto	-11.4394
▁stubbornness	-11.4394
▁stuffed	-11.4394
▁stumbling	-11.4394
▁stunted	-11.4394
▁stupidly	-11.4394
▁stutter	-11.4394
▁submissive	-11.4394
▁subscriber	-11.4394
▁subscription	-11.4394
▁subsequent	-11.4394
▁subsequently	-11.4394
▁subsides	-11.4394
▁substantial	-11.4394
▁subtance	-11.4394
▁subtle	-11.4394
▁succeeds	-11.4394
▁succes	-11.4394
▁sucker	-11.4394
▁sucky	-11.4394
▁suffers	-11.4394
▁sufficient	-11.4394
▁suggestible	-11.4394
▁suggests	-11.4394
▁sumedh	-11.4394
▁summarise	-11.4394
▁summarize	-11.4394
▁summary	-11.4394
▁superb	-11.4394
▁supercharge	-11.4394
▁superficial	-11.4394
▁supermarket	-11.4394
▁superpower	-11.4394
▁supreme	-11.4394
▁sur	-11.4394
▁surefire	-11.4394
▁surfing	-11.4394
▁surge	-11.4394
▁surprising	-11.4394
▁surrender	-11.4394
▁sustaining	-11.4394
▁swallowing	-11.4394
▁sweaty	-11.4394
▁sweep	-11.4394
▁sweetheart	-11.4394
▁swell	-11.4394
▁sympathy	-11.4394
▁symtoms	-11.4394
▁tackle	-11.4394
▁tad	-11.4394
▁tai	-11.4394
▁taiwan	-11.4394
▁taker	-11.4394
▁talentless	-11.4394
▁tangibility	-11.4394
▁tasted	-11.4394
▁taylor	-11.4394
▁teddy	-11.4394
▁teething	-11.4394
▁telegram	-11.4394
▁telephone	-11.4394
▁television	-11.4394
▁temporal	-11.4394
▁tempting	-11.4394
▁tenet	-11.4394
▁tent	-11.4394
▁terminating	-11.4394
▁testis	-11.4394
▁testosterone	-11.4394
▁tether	-11.4394
▁tf	-11.4394
▁thanksgiving	-11.4394
▁thay	-11.4394
▁theatrics	-11.4394
▁theoretical	-11.4394
▁therappy	-11.4394
▁theyve	-11.4394
▁thick	-11.4394
▁thingy	-11.4394
▁thinning	-11.4394
▁thirsty	-11.4394
▁thoughs	-11.4394
▁thoughtctrl	-11.4394
▁thriving	-11.4394
▁thrust	-11.4394
▁tibet	-11.4394
▁tidy	-11.4394
▁tiger	-11.4394
▁tim	-11.4394
▁tina	-11.4394
▁tire	-11.4394
▁tireless	-11.4394
▁toiled	-11.4394
▁tolerate	-11.4394
▁tolerates	-11.4394
▁tomato	-11.4394
▁toned	-11.4394
▁tony	-11.4394
▁toronto	-11.4394
▁tortured	-11.4394
▁tote	-11.4394
▁toughest	-11.4394
▁touring	-11.4394
▁tourist	-11.4394
▁tower	-11.4394
▁toxicity	-11.4394
▁traced	-11.4394
▁tracing	-11.4394
▁transcendent	-11.4394
▁transecures	-11.4394
▁transfer	-11.4394
▁transferable	-11.4394
▁transferred	-11.4394
▁transformative	-11.4394
▁transformed	-11.4394
▁transition	-11.4394
▁transitioning	-11.4394
▁translate	-11.4394
▁translates	-11.4394
▁transmit	-11.4394
▁transport	-11.4394
▁trapping	-11.4394
▁travail	-11.4394
▁trazodone	-11.4394
▁treacherous	-11.4394
▁treading	-11.4394
▁treadmill	-11.4394
▁triangle	-11.4394
▁triathlete	-11.4394
▁trillion	-11.4394
▁triumphant	-11.4394
▁tropical	-11.4394
▁troubled	-11.4394
▁truely	-11.4394
▁truer	-11.4394
▁truthful	-11.4394
▁truthfully	-11.4394
▁tryptophan	-11.4394
▁tub	-11.4394
▁tumbleweed	-11.4394
▁tumblr	-11.4394
▁tummy	-11.4394
▁tumor	-11.4394
▁tweak	-11.4394
▁twisting	-11.4394
▁tycoon	-11.4394
▁tyson	-11.4394
▁uc	-11.4394
▁ugliness	-11.4394
▁uh	-11.4394
▁ultramarathon	-11.4394
▁unappreciated	-11.4394
▁unappreciative	-11.4394
▁unattainable	-11.4394
▁unavoidable	-11.4394
▁unbelievably	-11.4394
▁uncaring	-11.4394
▁uncertain	-11.4394
▁undecided	-11.4394
▁underemployment	-11.4394
▁underestimate	-11.4394
▁undergoing	-11.4394
▁underperformed	-11.4394
▁understandable	-11.4394
▁undiagnosed	-11.4394
▁undisputed	-11.4394
▁undo	-11.4394
▁undoing	-11.4394
▁uneasy	-11.4394
▁unenthusiastic	-11.4394
▁unfair	-11.4394
▁unfairly	-11.4394
▁unfamiliar	-11.4394
▁unfollowed	-11.4394
▁unfriended	-11.4394
▁uninspired	-11.4394
▁uninterrupted	-11.4394
▁uninvited	-11.4394
▁unis	-11.4394
▁unlovable	-11.4394
▁unmatchable	-11.4394
▁unmatched	-11.4394
▁unorganised	-11.4394
▁unorganized	-11.4394
▁unpacking	-11.4394
▁unpaid	-11.4394
▁unpleasant	-11.4394
▁unpopular	-11.4394
▁unprecedented	-11.4394
▁unprepared	-11.4394
▁unquantifiable	-11.4394
▁unravel	-11.4394
▁unreal	-11.4394
▁unrelated	-11.4394
▁unrepresentative	-11.4394
▁unresolved	-11.4394
▁unseen	-11.4394
▁untangle	-11.4394
▁untill	-11.4394
▁untrained	-11.4394
▁unwell	-11.4394
▁unwilling	-11.4394
▁upbringing	-11.4394
▁uplifted	-11.4394
▁uploaded	-11.4394
▁upperside	-11.4394
▁upscale	-11.4394
▁upstairs	-11.4394
▁upvotes	-11.4394
▁urged	-11.4394
▁usa	-11.4394
▁usefulness	-11.4394
▁utc	-11.4394
▁utilizing	-11.4394
▁utterly	-11.4394
▁vacate	-11.4394
▁vain	-11.4394
▁valorant	-11.4394
▁vancouver	-11.4394
▁vape	-11.4394
▁variable	-11.4394
▁variating	-11.4394
▁varying	-11.4394
▁vaso	-11.4394
▁vba	-11.4394
▁veg	-11.4394
▁vegan	-11.4394
▁veggie	-11.4394
▁vegus	-11.4394
▁vein	-11.4394
▁venezuela	-11.4394
▁venlafaxin	-11.4394
▁ventilator	-11.4394
▁viable	-11.4394
▁vigorus	-11.4394
▁vigour	-11.4394
▁violate	-11.4394
▁viral	-11.4394
▁virgin	-11.4394
▁virtue	-11.4394
▁visibly	-11.4394
▁visualize	-11.4394
▁vocabulary	-11.4394
▁voiced	-11.4394
▁voiceless	-11.4394
▁voicemail	-11.4394
▁volatility	-11.4394
▁volontarily	-11.4394
▁vortex	-11.4394
▁vyvanse	-11.4394
▁walter	-11.4394
▁wan	-11.4394
▁wannabe	-11.4394
▁warden	-11.4394
▁warehouse	-11.4394
▁warming	-11.4394
▁warn	-11.4394
▁warnock	-11.4394
▁washing	-11.4394
▁watering	-11.4394
▁weaker	-11.4394
▁weakest	-11.4394
▁weakling	-11.4394
▁weapon	-11.4394
▁webpage	-11.4394
▁wednesday	-11.4394
▁weighted	-11.4394
▁weirdo	-11.4394
▁welcoming	-11.4394
▁western	-11.4394
▁wfh	-11.4394
▁whack	-11.4394
▁whereas	-11.4394
▁wheter	-11.4394
▁whiffed	-11.4394
▁whim	-11.4394
▁whimper	-11.4394
▁whiner	-11.4394
▁whining	-11.4394
▁whirling	-11.4394
▁wholeheartedly	-11.4394
▁whoo	-11.4394
▁whta	-11.4394
▁widespread	-11.4394
▁wifi	-11.4394
▁wig	-11.4394
▁wiggle	-11.4394
▁wiki	-11.4394
▁wikipedia	-11.4394
▁willingness	-11.4394
▁wilson	-11.4394
▁wince	-11.4394
▁wiriter	-11.4394
▁wisely	-11.4394
▁wishful	-11.4394
▁withdrawn	-11.4394
▁witnessed	-11.4394
▁woeful	-11.4394
▁wonna	-11.4394
▁wooden	-11.4394
▁woozy	-11.4394
▁workflow	-11.4394
▁worm	-11.4394
▁worsening	-11.4394
▁worthiness	-11.4394
▁worthlessness	-11.4394
▁worthwhile	-11.4394
▁wouldve	-11.4394
▁wrinkle	-11.4394
▁wtf	-11.4394
▁wven	-11.4394
▁xy	-11.4394
▁yee	-11.4394
▁yikies	-11.4394
▁yogic	-11.4394
▁youngster	-11.4394
▁youre	-11.4394
▁yummy	-11.4394
▁zawaideh	-11.4394
▁zealand	-11.4394
▁zen	-11.4394
▁aaoa	-12.1325
▁aarda	-12.1325
▁aarrrrggghhh	-12.1325
▁aau	-12.1325
▁ab	-12.1325
▁abdomin	-12.1325
▁abide	-12.1325
▁abject	-12.1325
▁abnormality	-12.1325
▁aborigine	-12.1325
▁aborted	-12.1325
▁aboslutey	-12.1325
▁abotu	-12.1325
▁abroad	-12.1325
▁abruptly	-12.1325
▁abscess	-12.1325
▁absorbing	-12.1325
▁abuela	-12.1325
▁accepts	-12.1325
▁accidental	-12.1325
▁acclimated	-12.1325
▁accommodate	-12.1325
▁accommodating	-12.1325
▁accomplice	-12.1325
▁accumulation	-12.1325
▁accurate	-12.1325
▁accusation	-12.1325
▁accuse	-12.1325
▁accusing	-12.1325
▁accusion	-12.1325
▁achieves	-12.1325
▁acquaintance	-12.1325
▁acquired	-12.1325
▁actionable	-12.1325
▁adage	-12.1325
▁adam	-12.1325
▁adaptability	-12.1325
▁adaptation	-12.1325
▁adapting	-12.1325
▁adaptogen	-12.1325
▁addictive	-12.1325
▁adjusting	-12.1325
▁administration	-12.1325
▁admins	-12.1325
▁adoptdontshop	-12.1325
▁adoration	-12.1325
▁adrenalin	-12.1325
▁adsense	-12.1325
▁adventurous	-12.1325
▁advertise	-12.1325
▁advertisement	-12.1325
▁advise	-12.1325
▁advising	-12.1325
▁advisory	-12.1325
▁aerobic	-12.1325
▁afect	-12.1325
▁affable	-12.1325
▁affiliate	-12.1325
▁affiliation	-12.1325
▁affirming	-12.1325
▁afghanistan	-12.1325
▁afriad	-12.1325
▁africa	-12.1325
▁afterlife	-12.1325
▁afterschool	-12.1325
▁aggressively	-12.1325
▁aggrieved	-12.1325
▁agitated	-12.1325
▁agressive	-12.1325
▁agressively	-12.1325
▁agressvely	-12.1325
▁agrophobic	-12.1325
▁ahold	-12.1325
▁aiming	-12.1325
▁aimlessly	-12.1325
▁aimlessness	-12.1325
▁aircraft	-12.1325
▁airport	-12.1325
▁akhiles	-12.1325
▁akhilesarmyofawesome	-12.1325
▁akin	-12.1325
▁aknowledged	-12.1325
▁alabama	-12.1325
▁albania	-12.1325
▁alberto	-12.1325
▁alchemist	-12.1325
▁alchemy	-12.1325
▁alchohol	-12.1325
▁alexa	-12.1325
▁algebra	-12.1325
▁alienation	-12.1325
▁align	-12.1325
▁aliveness	-12.1325
▁allegheny	-12.1325
▁allergic	-12.1325
▁allotted	-12.1325
▁allowance	-12.1325
▁allways	-12.1325
▁aloofness	-12.1325
▁alprazolam	-12.1325
▁alter	-12.1325
▁alteration	-12.1325
▁alters	-12.1325
▁altetness	-12.1325
▁altough	-12.1325
▁amend	-12.1325
▁amid	-12.1325
▁amidst	-12.1325
▁amino	-12.1325
▁aminobutyric	-12.1325
▁amorphousness	-12.1325
▁amounting	-12.1325
▁amplify	-12.1325
▁amputation	-12.1325
▁amusement	-12.1325
▁analyse	-12.1325
▁analysis	-12.1325
▁analytical	-12.1325
▁anata	-12.1325
▁andrea	-12.1325
▁andy	-12.1325
▁anecdote	-12.1325
▁anesthesiology	-12.1325
▁ang	-12.1325
▁angelic	-12.1325
▁angrier	-12.1325
▁angsty	-12.1325
▁anhedonic	-12.1325
▁animated	-12.1325
▁ann	-12.1325
▁anngel	-12.1325
▁annoyance	-12.1325
▁annoys	-12.1325
▁annual	-12.1325
▁antacid	-12.1325
▁anthropology	-12.1325
▁anticipate	-12.1325
▁anticipation	-12.1325
▁antioxidant	-12.1325
▁antonia	-12.1325
▁anuthing	-12.1325
▁anwsers	-12.1325
▁anxiolytic	-12.1325
▁anyday	-12.1325
▁anythings	-12.1325
▁anywho	-12.1325
▁aphatic	-12.1325
▁apnea	-12.1325
▁apolitical	-12.1325
▁apologised	-12.1325
▁appaling	-12.1325
▁apparel	-12.1325
▁appart	-12.1325
▁appartement	-12.1325
▁appeal	-12.1325
▁appearence	-12.1325
▁appearing	-12.1325
▁appears	-12.1325
▁appetizer	-12.1325
▁apppreactied	-12.1325
▁appraisal	-12.1325
▁appreciates	-12.1325
▁appreicated	-12.1325
▁apprenticeship	-12.1325
▁approaching	-12.1325
▁appropriate	-12.1325
▁appropriately	-12.1325
▁approve	-12.1325
▁arabic	-12.1325
▁arby	-12.1325
▁arctic	-12.1325
▁ard	-12.1325
▁arduous	-12.1325
▁arguably	-12.1325
▁arhan	-12.1325
▁arleady	-12.1325
▁armchair	-12.1325
▁armenia	-12.1325
▁arnold	-12.1325
▁aroma	-12.1325
▁aromatic	-12.1325
▁arranged	-12.1325
▁arrangement	-12.1325
▁arrgh	-12.1325
▁arrh	-12.1325
▁arriving	-12.1325
▁arrogant	-12.1325
▁arrogantly	-12.1325
▁artistic	-12.1325
▁artwork	-12.1325
▁asf	-12.1325
▁ashore	-12.1325
▁asperger	-12.1325
▁assaulted	-12.1325
▁assed	-12.1325
▁assert	-12.1325
▁assertiveness	-12.1325
▁association	-12.1325
▁assortment	-12.1325
▁asthma	-12.1325
▁astonishment	-12.1325
▁astral	-12.1325
▁astronomical	-12.1325
▁aswel	-12.1325
▁aswell	-12.1325
▁atom	-12.1325
▁atomoxetine	-12.1325
▁atrittion	-12.1325
▁attaching	-12.1325
▁attracted	-12.1325
▁attracting	-12.1325
▁attractiveness	-12.1325
▁attribute	-12.1325
▁audacity	-12.1325
▁audience	-12.1325
▁aunti	-12.1325
▁aussie	-12.1325
▁austin	-12.1325
▁australian	-12.1325
▁austria	-12.1325
▁authenticity	-12.1325
▁authority	-12.1325
▁authorized	-12.1325
▁autocad	-12.1325
▁automates	-12.1325
▁automatic	-12.1325
▁automotive	-12.1325
▁avail	-12.1325
▁avatar	-12.1325
▁avenue	-12.1325
▁avoidance	-12.1325
▁avoids	-12.1325
▁avoir	-12.1325
▁await	-12.1325
▁awaited	-12.1325
▁aways	-12.1325
▁aww	-12.1325
▁awww	-12.1325
▁axiety	-12.1325
▁axis	-12.1325
▁ayurvedic	-12.1325
▁aztec	-12.1325
▁baboon	-12.1325
▁babysitter	-12.1325
▁backfire	-12.1325
▁backing	-12.1325
▁backpack	-12.1325
▁backsliding	-12.1325
▁backspaced	-12.1325
▁backstories	-12.1325
▁backyard	-12.1325
▁bacteria	-12.1325
▁badge	-12.1325
▁badminton	-12.1325
▁badmouth	-12.1325
▁baffled	-12.1325
▁baffling	-12.1325
▁baggier	-12.1325
▁bail	-12.1325
▁bailed	-12.1325
▁bait	-12.1325
▁balantly	-12.1325
▁baldy	-12.1325
▁balles	-12.1325
▁ban	-12.1325
▁bandaid	-12.1325
▁banger	-12.1325
▁bangin	-12.1325
▁bangladesh	-12.1325
▁bankruptcy	-12.1325
▁banter	-12.1325
▁barr	-12.1325
▁barrel	-12.1325
▁barren	-12.1325
▁barricade	-12.1325
▁bashed	-12.1325
▁basicly	-12.1325
▁basket	-12.1325
▁battery	-12.1325
▁batting	-12.1325
▁bay	-12.1325
▁bcak	-12.1325
▁beabadoobee	-12.1325
▁bearly	-12.1325
▁becausw	-12.1325
▁becouse	-12.1325
▁bedwetting	-12.1325
▁beed	-12.1325
▁beeing	-12.1325
▁beem	-12.1325
▁beep	-12.1325
▁beforelife	-12.1325
▁beggar	-12.1325
▁beggining	-12.1325
▁begs	-12.1325
▁behaved	-12.1325
▁behavoir	-12.1325
▁beleicve	-12.1325
▁beleive	-12.1325
▁belittling	-12.1325
▁belive	-12.1325
▁bella	-12.1325
▁belligerently	-12.1325
▁bellow	-12.1325
▁belongs	-12.1325
▁ben	-12.1325
▁benadryl	-12.1325
▁benchmark	-12.1325
▁bender	-12.1325
▁beneficial	-12.1325
▁beneficially	-12.1325
▁beside	-12.1325
▁bestfriends	-12.1325
▁beta	-12.1325
▁beverage	-12.1325
▁bff	-12.1325
▁bhramari	-12.1325
▁biased	-12.1325
▁bigoted	-12.1325
▁billing	-12.1325
▁billion	-12.1325
▁binding	-12.1325
▁binged	-12.1325
▁birthed	-12.1325
▁bitcoin	-12.1325
▁bitterly	-12.1325
▁blackpillers	-12.1325
▁blanchard	-12.1325
▁bland	-12.1325
▁blankly	-12.1325
▁blast	-12.1325
▁blasting	-12.1325
▁blend	-12.1325
▁blink	-12.1325
▁blinking	-12.1325
▁bloated	-12.1325
▁blod	-12.1325
▁blogging	-12.1325
▁blundell	-12.1325
▁blunt	-12.1325
▁blurred	-12.1325
▁bnot	-12.1325
▁boarding	-12.1325
▁bodybuilding	-12.1325
▁bodywork	-12.1325
▁boeing	-12.1325
▁bogus	-12.1325
▁bombed	-12.1325
▁bomber	-12.1325
▁bona	-12.1325
▁bonjour	-12.1325
▁bookcase	-12.1325
▁booked	-12.1325
▁boomer	-12.1325
▁boops	-12.1325
▁booster	-12.1325
▁bootstrap	-12.1325
▁boredom	-12.1325
▁boris	-12.1325
▁borough	-12.1325
▁borrow	-12.1325
▁borrowed	-12.1325
▁botched	-12.1325
▁botswana	-12.1325
▁bottling	-12.1325
▁bounce	-12.1325
▁bound	-12.1325
▁boxing	-12.1325
▁bpm	-12.1325
▁bracket	-12.1325
▁bragging	-12.1325
▁braid	-12.1325
▁braincells	-12.1325
▁brainfog	-12.1325
▁brainpower	-12.1325
▁brainwashing	-12.1325
▁branding	-12.1325
▁brat	-12.1325
▁breadth	-12.1325
▁breakneck	-12.1325
▁breakout	-12.1325
▁breathtaking	-12.1325
▁bribe	-12.1325
▁bride	-12.1325
▁bridging	-12.1325
▁brightening	-12.1325
▁britain	-12.1325
▁britney	-12.1325
▁broadcast	-12.1325
▁broader	-12.1325
▁broadway	-12.1325
▁brokenness	-12.1325
▁brotherelisoriano	-12.1325
▁brow	-12.1325
▁browser	-12.1325
▁bruised	-12.1325
▁brunt	-12.1325
▁bud	-12.1325
▁budda	-12.1325
▁buddha	-12.1325
▁budge	-12.1325
▁bugging	-12.1325
▁buggy	-12.1325
▁buisiness	-12.1325
▁bull	-12.1325
▁bulldog	-12.1325
▁bulletproof	-12.1325
▁bummer	-12.1325
▁bundled	-12.1325
▁bungalow	-12.1325
▁bungee	-12.1325
▁burdnern	-12.1325
▁burkina	-12.1325
▁burping	-12.1325
▁burshed	-12.1325
▁burundi	-12.1325
▁bury	-12.1325
▁busier	-12.1325
▁bussy	-12.1325
▁bustedandblack	-12.1325
▁busyness	-12.1325
▁butter	-12.1325
▁buttock	-12.1325
▁bye	-12.1325
▁cab	-12.1325
▁cabinet	-12.1325
▁cable	-12.1325
▁cacophony	-12.1325
▁cafe	-12.1325
▁cafeteria	-12.1325
▁cagegory	-12.1325
▁cakewalk	-12.1325
▁calculated	-12.1325
▁calf	-12.1325
▁caliber	-12.1325
▁camp	-12.1325
▁campground	-12.1325
▁camping	-12.1325
▁cancelling	-12.1325
▁candid	-12.1325
▁candor	-12.1325
▁canola	-12.1325
▁canopy	-12.1325
▁capitalism	-12.1325
▁captioned	-12.1325
▁capturing	-12.1325
▁caracterized	-12.1325
▁carbongrit	-12.1325
▁careerwise	-12.1325
▁carefree	-12.1325
▁caregiving	-12.1325
▁careless	-12.1325
▁carl	-12.1325
▁carnegie	-12.1325
▁carpet	-12.1325
▁carreer	-12.1325
▁carried	-12.1325
▁cart	-12.1325
▁cascade	-12.1325
▁cashier	-12.1325
▁casino	-12.1325
▁caster	-12.1325
▁casting	-12.1325
▁castle	-12.1325
▁catalyst	-12.1325
▁catherine	-12.1325
▁cedar	-12.1325
▁celeb	-12.1325
▁celexa	-12.1325
▁cellphone	-12.1325
▁central	-12.1325
▁cerebral	-12.1325
▁cerified	-12.1325
▁certify	-12.1325
▁cfts	-12.1325
▁chad	-12.1325
▁chairman	-12.1325
▁chalked	-12.1325
▁champion	-12.1325
▁channeling	-12.1325
▁channelise	-12.1325
▁charlotte	-12.1325
▁chartered	-12.1325
▁chated	-12.1325
▁chattanooga	-12.1325
▁cheapskate	-12.1325
▁cheek	-12.1325
▁cheered	-12.1325
▁chegg	-12.1325
▁chem	-12.1325
▁chemo	-12.1325
▁cherished	-12.1325
▁cherokee	-12.1325
▁chewed	-12.1325
▁chewing	-12.1325
▁chez	-12.1325
▁childless	-12.1325
▁chinese	-12.1325
▁cholesterol	-12.1325
▁chooser	-12.1325
▁chopstick	-12.1325
▁chord	-12.1325
▁chromebooks	-12.1325
▁chronicly	-12.1325
▁chtbl	-12.1325
▁chuckled	-12.1325
▁cinnamon	-12.1325
▁circuitry	-12.1325
▁citified	-12.1325
▁citizenship	-12.1325
▁civic	-12.1325
▁civilization	-12.1325
▁clambering	-12.1325
▁clamped	-12.1325
▁clarifying	-12.1325
▁claustrophobic	-12.1325
▁clay	-12.1325
▁clayton	-12.1325
▁cleaner	-12.1325
▁cleanning	-12.1325
▁clearer	-12.1325
▁clinging	-12.1325
▁clique	-12.1325
▁clonazapam	-12.1325
▁clone	-12.1325
▁closely	-12.1325
▁closure	-12.1325
▁clouding	-12.1325
▁clump	-12.1325
▁clutching	-12.1325
▁clutter	-12.1325
▁cm	-12.1325
▁cmo	-12.1325
▁cna	-12.1325
▁cnn	-12.1325
▁coast	-12.1325
▁coaster	-12.1325
▁coconut	-12.1325
▁codo	-12.1325
▁coeval	-12.1325
▁cog	-12.1325
▁coherent	-12.1325
▁coivd	-12.1325
▁colder	-12.1325
▁cole	-12.1325
▁collaborating	-12.1325
▁collantes	-12.1325
▁collateral	-12.1325
▁colourless	-12.1325
▁combined	-12.1325
▁comeback	-12.1325
▁comedic	-12.1325
▁comeing	-12.1325
▁comforted	-12.1325
▁commission	-12.1325
▁commissioned	-12.1325
▁commonality	-12.1325
▁commonly	-12.1325
▁communism	-12.1325
▁commuter	-12.1325
▁comoros	-12.1325
▁companionship	-12.1325
▁competency	-12.1325
▁competent	-12.1325
▁compliance	-12.1325
▁complicate	-12.1325
▁complicating	-12.1325
▁complication	-12.1325
▁compose	-12.1325
▁composition	-12.1325
▁composure	-12.1325
▁comprehensive	-12.1325
▁conceivable	-12.1325
▁concentrated	-12.1325
▁conceptualization	-12.1325
▁concert	-12.1325
▁conclude	-12.1325
▁concluding	-12.1325
▁concur	-12.1325
▁condemn	-12.1325
▁condemned	-12.1325
▁cone	-12.1325
▁conecernkng	-12.1325
▁confessed	-12.1325
▁confined	-12.1325
▁confines	-12.1325
▁confirmation	-12.1325
▁conflicted	-12.1325
▁conflicting	-12.1325
▁confrontation	-12.1325
▁congestion	-12.1325
▁congo	-12.1325
▁congratulate	-12.1325
▁congratulated	-12.1325
▁congressional	-12.1325
▁conjunction	-12.1325
▁consequently	-12.1325
▁considers	-12.1325
▁consisentcy	-12.1325
▁consisting	-12.1325
▁conspiring	-12.1325
▁constally	-12.1325
▁constipation	-12.1325
▁constituted	-12.1325
▁construct	-12.1325
▁constructing	-12.1325
▁constructive	-12.1325
▁contaminated	-12.1325
▁contaminating	-12.1325
▁contemporary	-12.1325
▁continuousness	-12.1325
▁contradicted	-12.1325
▁contradiction	-12.1325
▁contradicts	-12.1325
▁contrast	-12.1325
▁contributed	-12.1325
▁controversy	-12.1325
▁convalescing	-12.1325
▁convenience	-12.1325
▁conversate	-12.1325
▁converse	-12.1325
▁converstation	-12.1325
▁converting	-12.1325
▁convey	-12.1325
▁conviction	-12.1325
▁convo	-12.1325
▁convos	-12.1325
▁convulsive	-12.1325
▁cookoo	-12.1325
▁coolcatwon	-12.1325
▁cooler	-12.1325
▁coolio	-12.1325
▁coolness	-12.1325
▁cooped	-12.1325
▁cooperate	-12.1325
▁cooperative	-12.1325
▁copd	-12.1325
▁copywriter	-12.1325
▁coral	-12.1325
▁cord	-12.1325
▁corey	-12.1325
▁corrected	-12.1325
▁corrective	-12.1325
▁correlate	-12.1325
▁correlated	-12.1325
▁correlative	-12.1325
▁correspondence	-12.1325
▁cortex	-12.1325
▁costa	-12.1325
▁cough	-12.1325
▁councilor	-12.1325
▁countenance	-12.1325
▁countryside	-12.1325
▁courted	-12.1325
▁covering	-12.1325
▁coveted	-12.1325
▁covey	-12.1325
▁cowardly	-12.1325
▁cower	-12.1325
▁cpstd	-12.1325
▁cptsd	-12.1325
▁cram	-12.1325
▁cramed	-12.1325
▁cramp	-12.1325
▁crankier	-12.1325
▁crashed	-12.1325
▁crasher	-12.1325
▁crawl	-12.1325
▁crawled	-12.1325
▁crawling	-12.1325
▁creatively	-12.1325
▁creeping	-12.1325
▁crematorium	-12.1325
▁crier	-12.1325
▁cringey	-12.1325
▁critically	-12.1325
▁criticize	-12.1325
▁critiquing	-12.1325
▁croaking	-12.1325
▁crocodile	-12.1325
▁crude	-12.1325
▁crushingly	-12.1325
▁csep	-12.1325
▁csikszentmihalyi	-12.1325
▁ctrl	-12.1325
▁cuddling	-12.1325
▁culminated	-12.1325
▁cult	-12.1325
▁cultivated	-12.1325
▁cultural	-12.1325
▁cumbersome	-12.1325
▁cupboard	-12.1325
▁curb	-12.1325
▁curcumin	-12.1325
▁curling	-12.1325
▁curse	-12.1325
▁cushion	-12.1325
▁customized	-12.1325
▁cutlivate	-12.1325
▁cutted	-12.1325
▁cw	-12.1325
▁cya	-12.1325
▁cyberstalk	-12.1325
▁cyberstalker	-12.1325
▁czechia	-12.1325
▁daan	-12.1325
▁dae	-12.1325
▁dale	-12.1325
▁dalliance	-12.1325
▁dang	-12.1325
▁dangle	-12.1325
▁dar	-12.1325
▁darren	-12.1325
▁darwinian	-12.1325
▁daryl	-12.1325
▁dashed	-12.1325
▁daugther	-12.1325
▁davinciresolve	-12.1325
▁daw	-12.1325
▁dawned	-12.1325
▁daydream	-12.1325
▁daydreaming	-12.1325
▁dbt	-12.1325
▁dcim	-12.1325
▁deactivated	-12.1325
▁dealer	-12.1325
▁deathbed	-12.1325
▁deault	-12.1325
▁debit	-12.1325
▁dec	-12.1325
▁decayed	-12.1325
▁decease	-12.1325
▁deceit	-12.1325
▁decimal	-12.1325
▁decipher	-12.1325
▁deck	-12.1325
▁declaration	-12.1325
▁decorated	-12.1325
▁decorative	-12.1325
▁decreasing	-12.1325
▁deepen	-12.1325
▁defaulted	-12.1325
▁defect	-12.1325
▁defiantly	-12.1325
▁defines	-12.1325
▁definetely	-12.1325
▁defragged	-12.1325
▁defy	-12.1325
▁degeneracy	-12.1325
▁degenerate	-12.1325
▁dehydrated	-12.1325
▁delegate	-12.1325
▁delicate	-12.1325
▁delta	-12.1325
▁deluxe	-12.1325
▁demean	-12.1325
▁demonstrate	-12.1325
▁demonstrated	-12.1325
▁dengue	-12.1325
▁deniability	-12.1325
▁denmark	-12.1325
▁denounce	-12.1325
▁denton	-12.1325
▁departing	-12.1325
▁dependable	-12.1325
▁dependant	-12.1325
▁depended	-12.1325
▁deplete	-12.1325
▁deploying	-12.1325
▁deposit	-12.1325
▁deposited	-12.1325
▁depress	-12.1325
▁depressingly	-12.1325
▁deprivation	-12.1325
▁depriving	-12.1325
▁derby	-12.1325
▁deression	-12.1325
▁description	-12.1325
▁desensitized	-12.1325
▁desi	-12.1325
▁designation	-12.1325
▁designer	-12.1325
▁designing	-12.1325
▁desmotivated	-12.1325
▁despressed	-12.1325
▁detach	-12.1325
▁detachment	-12.1325
▁determining	-12.1325
▁detestable	-12.1325
▁devalues	-12.1325
▁devastate	-12.1325
▁developer	-12.1325
▁develops	-12.1325
▁deviation	-12.1325
▁devides	-12.1325
▁devine	-12.1325
▁devistating	-12.1325
▁devoted	-12.1325
▁devoting	-12.1325
▁diagnostic	-12.1325
▁dialed	-12.1325
▁dialogue	-12.1325
▁diameter	-12.1325
▁diaphragm	-12.1325
▁dictator	-12.1325
▁differnet	-12.1325
▁differs	-12.1325
▁digest	-12.1325
▁digestive	-12.1325
▁diligence	-12.1325
▁dilution	-12.1325
▁dilutional	-12.1325
▁diminishes	-12.1325
▁dining	-12.1325
▁dint	-12.1325
▁dipping	-12.1325
▁directing	-12.1325
▁directs	-12.1325
▁disagreed	-12.1325
▁disappoints	-12.1325
▁disapproved	-12.1325
▁disapproving	-12.1325
▁disassociated	-12.1325
▁disassociation	-12.1325
▁disaster	-12.1325
▁discard	-12.1325
▁disclosed	-12.1325
▁discontinuing	-12.1325
▁discovering	-12.1325
▁disdain	-12.1325
▁disgust	-12.1325
▁dishonest	-12.1325
▁dishonesty	-12.1325
▁dishwasher	-12.1325
▁disinterest	-12.1325
▁disinterested	-12.1325
▁disliking	-12.1325
▁dismissed	-12.1325
▁disorganized	-12.1325
▁dispair	-12.1325
▁dispel	-12.1325
▁dispelled	-12.1325
▁dispellingmyths	-12.1325
▁displacement	-12.1325
▁display	-12.1325
▁displayed	-12.1325
▁disposable	-12.1325
▁dispraxic	-12.1325
▁disregarding	-12.1325
▁disrespect	-12.1325
▁disrupted	-12.1325
▁disrupting	-12.1325
▁disruption	-12.1325
▁dissapointment	-12.1325
▁dissappear	-12.1325
▁dissatisfaction	-12.1325
▁dissect	-12.1325
▁disserve	-12.1325
▁dissociate	-12.1325
▁dissociated	-12.1325
▁dissociation	-12.1325
▁disstress	-12.1325
▁distaste	-12.1325
▁distilled	-12.1325
▁distressing	-12.1325
▁distributed	-12.1325
▁dive	-12.1325
▁diverse	-12.1325
▁divert	-12.1325
▁divided	-12.1325
▁divinely	-12.1325
▁divorce	-12.1325
▁dming	-12.1325
▁dnd	-12.1325
▁documantaries	-12.1325
▁document	-12.1325
▁documentation	-12.1325
▁doeasn	-12.1325
▁doggy	-12.1325
▁dollop	-12.1325
▁dom	-12.1325
▁domesticity	-12.1325
▁dominated	-12.1325
▁domino	-12.1325
▁donald	-12.1325
▁donkey	-12.1325
▁donovan	-12.1325
▁doorway	-12.1325
▁doubting	-12.1325
▁douchebag	-12.1325
▁douchebags	-12.1325
▁dough	-12.1325
▁downloaded	-12.1325
▁downloads	-12.1325
▁downplay	-12.1325
▁downplayed	-12.1325
▁downright	-12.1325
▁downvote	-12.1325
▁downvoted	-12.1325
▁downvoting	-12.1325
▁dozing	-12.1325
▁dredge	-12.1325
▁drenched	-12.1325
▁drifted	-12.1325
▁drifting	-12.1325
▁drill	-12.1325
▁drinker	-12.1325
▁drip	-12.1325
▁drunkenness	-12.1325
▁dryer	-12.1325
▁dual	-12.1325
▁duathlon	-12.1325
▁ducey	-12.1325
▁ducking	-12.1325
▁duffle	-12.1325
▁duhigg	-12.1325
▁dulled	-12.1325
▁dullness	-12.1325
▁dumbed	-12.1325
▁dumbells	-12.1325
▁dumber	-12.1325
▁dumbest	-12.1325
▁dummy	-12.1325
▁dumpster	-12.1325
▁dumspter	-12.1325
▁duy	-12.1325
▁dysphoric	-12.1325
▁eachothers	-12.1325
▁earbuds	-12.1325
▁earlyaccess	-12.1325
▁earring	-12.1325
▁earthy	-12.1325
▁easterlin	-12.1325
▁eater	-12.1325
▁eather	-12.1325
▁ebb	-12.1325
▁ebtey	-12.1325
▁echo	-12.1325
▁ecosystem	-12.1325
▁edith	-12.1325
▁ee	-12.1325
▁eeg	-12.1325
▁effecting	-12.1325
▁effed	-12.1325
▁effervescent	-12.1325
▁egocentric	-12.1325
▁egotistical	-12.1325
▁eighth	-12.1325
▁einstein	-12.1325
▁election	-12.1325
▁electro	-12.1325
▁electrocuted	-12.1325
▁electron	-12.1325
▁electronics	-12.1325
▁elemental	-12.1325
▁elephant	-12.1325
▁elevator	-12.1325
▁elicit	-12.1325
▁elles	-12.1325
▁elliott	-12.1325
▁embarassing	-12.1325
▁embarrassingly	-12.1325
▁embryo	-12.1325
▁emdr	-12.1325
▁eminem	-12.1325
▁eminence	-12.1325
▁emit	-12.1325
▁emitting	-12.1325
▁emmy	-12.1325
▁emojis	-12.1325
▁empahisise	-12.1325
▁empath	-12.1325
▁empathised	-12.1325
▁emphasize	-12.1325
▁employ	-12.1325
▁employing	-12.1325
▁empower	-12.1325
▁empowering	-12.1325
▁en	-12.1325
▁encountered	-12.1325
▁endangering	-12.1325
▁endogenously	-12.1325
▁endrant	-12.1325
▁energized	-12.1325
▁eng	-12.1325
▁engagement	-12.1325
▁engine	-12.1325
▁engulfed	-12.1325
▁enhancement	-12.1325
▁enlighten	-12.1325
▁enlightens	-12.1325
▁enormously	-12.1325
▁enourmous	-12.1325
▁enquiry	-12.1325
▁enroll	-12.1325
▁enrolling	-12.1325
▁entail	-12.1325
▁entertained	-12.1325
▁entertaining	-12.1325
▁entertainment	-12.1325
▁enthrall	-12.1325
▁enthusiastic	-12.1325
▁entitled	-12.1325
▁entrance	-12.1325
▁entrapped	-12.1325
▁entrusted	-12.1325
▁enunciating	-12.1325
▁enveloped	-12.1325
▁envisioned	-12.1325
▁enyone	-12.1325
▁epa	-12.1325
▁equates	-12.1325
▁equip	-12.1325
▁equivalent	-12.1325
▁erase	-12.1325
▁erm	-12.1325
▁ernestine	-12.1325
▁errand	-12.1325
▁erupted	-12.1325
▁escalate	-12.1325
▁escort	-12.1325
▁esophagus	-12.1325
▁estimating	-12.1325
▁eswatini	-12.1325
▁et	-12.1325
▁eternity	-12.1325
▁ethical	-12.1325
▁ethiopia	-12.1325
▁eu	-12.1325
▁eunuch	-12.1325
▁euthanasia	-12.1325
▁evade	-12.1325
▁evaluated	-12.1325
▁evaluating	-12.1325
▁evangelist	-12.1325
▁evasive	-12.1325
▁eventho	-12.1325
▁everyonegoatyy	-12.1325
▁everyonesgoatyyy	-12.1325
▁everythi	-12.1325
▁everythings	-12.1325
▁everyting	-12.1325
▁eveyday	-12.1325
▁eveyrhting	-12.1325
▁evict	-12.1325
▁evoking	-12.1325
▁evolutionaly	-12.1325
▁exacerbate	-12.1325
▁exacerbating	-12.1325
▁exacting	-12.1325
▁examine	-12.1325
▁exceedingly	-12.1325
▁exceeds	-12.1325
▁exceptionally	-12.1325
▁excercising	-12.1325
▁excitation	-12.1325
▁excite	-12.1325
▁exclaimed	-12.1325
▁excluded	-12.1325
▁excluding	-12.1325
▁exclusively	-12.1325
▁excruciating	-12.1325
▁excusing	-12.1325
▁execution	-12.1325
▁exemple	-12.1325
▁exemplifying	-12.1325
▁expendable	-12.1325
▁expense	-12.1325
▁experimental	-12.1325
▁exploded	-12.1325
▁expoused	-12.1325
▁exquisite	-12.1325
▁extensively	-12.1325
▁externalize	-12.1325
▁extinct	-12.1325
▁extolled	-12.1325
▁extracurriculars	-12.1325
▁extraordinary	-12.1325
▁eyebrow	-12.1325
▁eyeing	-12.1325
▁eyyyy	-12.1325
▁faceless	-12.1325
▁facilitates	-12.1325
▁facilitating	-12.1325
▁facility	-12.1325
▁factual	-12.1325
▁fainter	-12.1325
▁fairness	-12.1325
▁falre	-12.1325
▁familiarized	-12.1325
▁familly	-12.1325
▁famously	-12.1325
▁fanaticism	-12.1325
▁fanboy	-12.1325
▁fantasized	-12.1325
▁fantastical	-12.1325
▁fap	-12.1325
▁fare	-12.1325
▁farewell	-12.1325
▁farmer	-12.1325
▁farthest	-12.1325
▁fase	-12.1325
▁fashion	-12.1325
▁faso	-12.1325
▁fastidiously	-12.1325
▁fatal	-12.1325
▁fatherhood	-12.1325
▁fatherless	-12.1325
▁fauna	-12.1325
▁fav	-12.1325
▁favoured	-12.1325
▁faze	-12.1325
▁feared	-12.1325
▁feather	-12.1325
▁federal	-12.1325
▁feeding	-12.1325
▁feeing	-12.1325
▁felipe	-12.1325
▁fella	-12.1325
▁femboy	-12.1325
▁feminism	-12.1325
▁femoral	-12.1325
▁fertility	-12.1325
▁fest	-12.1325
▁festive	-12.1325
▁festivity	-12.1325
▁fetus	-12.1325
▁fetzima	-12.1325
▁fibromyalga	-12.1325
▁fictional	-12.1325
▁fide	-12.1325
▁fidget	-12.1325
▁fidgety	-12.1325
▁fiend	-12.1325
▁fierce	-12.1325
▁fiery	-12.1325
▁figths	-12.1325
▁fiji	-12.1325
▁filmmaker	-12.1325
▁financcial	-12.1325
▁financed	-12.1325
▁findinghappiness	-12.1325
▁finland	-12.1325
▁firearm	-12.1325
▁fireplace	-12.1325
▁firmly	-12.1325
▁firstborn	-12.1325
▁fitbit	-12.1325
▁fixation	-12.1325
▁fizzle	-12.1325
▁fizzled	-12.1325
▁fk	-12.1325
▁fkn	-12.1325
▁flagged	-12.1325
▁flailing	-12.1325
▁flashing	-12.1325
▁flatlines	-12.1325
▁flatlining	-12.1325
▁flattened	-12.1325
▁flavor	-12.1325
▁flawlessly	-12.1325
▁fled	-12.1325
▁fledged	-12.1325
▁flew	-12.1325
▁flex	-12.1325
▁flexibility	-12.1325
▁flexible	-12.1325
▁flimsy	-12.1325
▁flinch	-12.1325
▁flipping	-12.1325
▁flirty	-12.1325
▁float	-12.1325
▁floated	-12.1325
▁floating	-12.1325
▁flooding	-12.1325
▁floored	-12.1325
▁flora	-12.1325
▁flourishing	-12.1325
▁fluctuates	-12.1325
▁fluting	-12.1325
▁flutter	-12.1325
▁flyer	-12.1325
▁flying	-12.1325
▁fmp	-12.1325
▁fo	-12.1325
▁fogged	-12.1325
▁font	-12.1325
▁fooling	-12.1325
▁foolish	-12.1325
▁footing	-12.1325
▁forcefully	-12.1325
▁forcibly	-12.1325
▁foreheaded	-12.1325
▁foreigner	-12.1325
▁foresight	-12.1325
▁forgein	-12.1325
▁formally	-12.1325
▁format	-12.1325
▁formidable	-12.1325
▁formulate	-12.1325
▁forsaken	-12.1325
▁fortunately	-12.1325
▁forty	-12.1325
▁fourth	-12.1325
▁fpv	-12.1325
▁fr	-12.1325
▁fraction	-12.1325
▁fracture	-12.1325
▁frail	-12.1325
▁franc	-12.1325
▁francisco	-12.1325
▁frankie	-12.1325
▁frantic	-12.1325
▁fraternal	-12.1325
▁fraught	-12.1325
▁frayed	-12.1325
▁freacking	-12.1325
▁freeing	-12.1325
▁freelancer	-12.1325
▁freeness	-12.1325
▁freindly	-12.1325
▁freinds	-12.1325
▁fridayfeeling	-12.1325
▁fridaymorning	-12.1325
▁fridaymotivation	-12.1325
▁fridaythoughts	-12.1325
▁friendless	-12.1325
▁friggin	-12.1325
▁fringe	-12.1325
▁frisbee	-12.1325
▁frontend	-12.1325
▁fronting	-12.1325
▁frosting	-12.1325
▁frusterated	-12.1325
▁fsh	-12.1325
▁fucker	-12.1325
▁fuckign	-12.1325
▁fuelled	-12.1325
▁ful	-12.1325
▁fulfil	-12.1325
▁fulfilment	-12.1325
▁funk	-12.1325
▁fuqn	-12.1325
▁fuse	-12.1325
▁futility	-12.1325
▁fuvking	-12.1325
▁fwd	-12.1325
▁fyi	-12.1325
▁gabapentin	-12.1325
▁gabrielshaw	-12.1325
▁gag	-12.1325
▁gainful	-12.1325
▁gal	-12.1325
▁gale	-12.1325
▁gallon	-12.1325
▁gambia	-12.1325
▁gamechanger	-12.1325
▁gamma	-12.1325
▁gangmembers	-12.1325
▁garcia	-12.1325
▁gardening	-12.1325
▁gary	-12.1325
▁gasoline	-12.1325
▁gastrointestinal	-12.1325
▁gatherer	-12.1325
▁gawjus	-12.1325
▁ge	-12.1325
▁geared	-12.1325
▁gearing	-12.1325
▁gen	-12.1325
▁gene	-12.1325
▁generated	-12.1325
▁generic	-12.1325
▁generosity	-12.1325
▁gently	-12.1325
▁genuinenly	-12.1325
▁george	-12.1325
▁georgia	-12.1325
▁gerd	-12.1325
▁german	-12.1325
▁gi	-12.1325
▁gifting	-12.1325
▁gigantic	-12.1325
▁giggled	-12.1325
▁giggling	-12.1325
▁ginanoeld	-12.1325
▁girly	-12.1325
▁gliding	-12.1325
▁globe	-12.1325
▁glued	-12.1325
▁gnaw	-12.1325
▁goddamb	-12.1325
▁goddess	-12.1325
▁gogetfunding	-12.1325
▁goin	-12.1325
▁goldfish	-12.1325
▁golf	-12.1325
▁gonit	-12.1325
▁goofy	-12.1325
▁goose	-12.1325
▁gorgeous	-12.1325
▁governed	-12.1325
▁graced	-12.1325
▁gracefully	-12.1325
▁gracious	-12.1325
▁granphater	-12.1325
▁graveled	-12.1325
▁gravitating	-12.1325
▁greatfull	-12.1325
▁greenspace	-12.1325
▁greenspaces	-12.1325
▁greeted	-12.1325
▁greeting	-12.1325
▁greets	-12.1325
▁gretchen	-12.1325
▁grid	-12.1325
▁groom	-12.1325
▁grouchy	-12.1325
▁groupon	-12.1325
▁growl	-12.1325
▁gruesome	-12.1325
▁guarantee	-12.1325
▁guaranteed	-12.1325
▁guarded	-12.1325
▁guardianship	-12.1325
▁gueee	-12.1325
▁guilted	-12.1325
▁guinea	-12.1325
▁guinness	-12.1325
▁gulp	-12.1325
▁gunsmithing	-12.1325
▁gurgling	-12.1325
▁gush	-12.1325
▁gutted	-12.1325
▁gutter	-12.1325
▁gymnast	-12.1325
▁gymnastics	-12.1325
▁habitat	-12.1325
▁hahaha	-12.1325
▁hahahaha	-12.1325
▁hairline	-12.1325
▁hairstylist	-12.1325
▁haiti	-12.1325
▁halloween	-12.1325
▁halo	-12.1325
▁halp	-12.1325
▁halted	-12.1325
▁hammering	-12.1325
▁handed	-12.1325
▁handicapped	-12.1325
▁handsome	-12.1325
▁handwritten	-12.1325
▁hannah	-12.1325
▁happybucketlife	-12.1325
▁hapy	-12.1325
▁harassed	-12.1325
▁harassing	-12.1325
▁harbored	-12.1325
▁hardwork	-12.1325
▁hardy	-12.1325
▁harley	-12.1325
▁harmonising	-12.1325
▁harping	-12.1325
▁harris	-12.1325
▁hartford	-12.1325
▁harvard	-12.1325
▁hasnt	-12.1325
▁hastily	-12.1325
▁hatched	-12.1325
▁hateful	-12.1325
▁haunting	-12.1325
▁havnt	-12.1325
▁havoc	-12.1325
▁havve	-12.1325
▁hazy	-12.1325
▁healer	-12.1325
▁heartbreaking	-12.1325
▁heartburn	-12.1325
▁heartless	-12.1325
▁heater	-12.1325
▁heavier	-12.1325
▁hebrew	-12.1325
▁hehn	-12.1325
▁heightened	-12.1325
▁heinous	-12.1325
▁hellhole	-12.1325
▁helmet	-12.1325
▁henderson	-12.1325
▁herd	-12.1325
▁hesitant	-12.1325
▁hesitating	-12.1325
▁hesitation	-12.1325
▁hfa	-12.1325
▁hiatus	-12.1325
▁highlighting	-12.1325
▁hii	-12.1325
▁himan	-12.1325
▁hinder	-12.1325
▁hindering	-12.1325
▁hindu	-12.1325
▁hinduism	-12.1325
▁hippocampus	-12.1325
▁histrionics	-12.1325
▁hitted	-12.1325
▁hnd	-12.1325
▁hoarding	-12.1325
▁hobble	-12.1325
▁hobies	-12.1325
▁holistically	-12.1325
▁hollowed	-12.1325
▁hollowness	-12.1325
▁homemaker	-12.1325
▁homescreen	-12.1325
▁homophobia	-12.1325
▁hong	-12.1325
▁honorary	-12.1325
▁honored	-12.1325
▁hood	-12.1325
▁hooked	-12.1325
▁hop	-12.1325
▁hopping	-12.1325
▁horde	-12.1325
▁horrific	-12.1325
▁horticulture	-12.1325
▁hospitalization	-12.1325
▁hostel	-12.1325
▁hostile	-12.1325
▁hotline	-12.1325
▁hotlines	-12.1325
▁hounslow	-12.1325
▁howtobehappy	-12.1325
▁http	-12.1325
▁hubbard	-12.1325
▁hubby	-12.1325
▁huffing	-12.1325
▁huh	-12.1325
▁hulu	-12.1325
▁huma	-12.1325
▁humanely	-12.1325
▁humanism	-12.1325
▁humanness	-12.1325
▁humbly	-12.1325
▁humilliations	-12.1325
▁humming	-12.1325
▁hunch	-12.1325
▁hunger	-12.1325
▁hungrier	-12.1325
▁hunter	-12.1325
▁hurdle	-12.1325
▁hurried	-12.1325
▁hurtful	-12.1325
▁hussle	-12.1325
▁hyperawareness	-12.1325
▁hypomanic	-12.1325
▁hypothermia	-12.1325
▁hysterectomy	-12.1325
▁hysterically	-12.1325
▁ibs	-12.1325
▁ibuprophen	-12.1325
▁iceland	-12.1325
▁icing	-12.1325
▁icon	-12.1325
▁identical	-12.1325
▁identified	-12.1325
▁identifies	-12.1325
▁idol	-12.1325
▁idw	-12.1325
▁iii	-12.1325
▁illegal	-12.1325
▁illegally	-12.1325
▁illinois	-12.1325
▁illumination	-12.1325
▁illusionary	-12.1325
▁illustrator	-12.1325
▁ilness	-12.1325
▁ilnesses	-12.1325
▁ima	-12.1325
▁imagery	-12.1325
▁imaginary	-12.1325
▁imaginings	-12.1325
▁imessage	-12.1325
▁immature	-12.1325
▁immaturity	-12.1325
▁immersed	-12.1325
▁immet	-12.1325
▁immidiatly	-12.1325
▁immoral	-12.1325
▁immunity	-12.1325
▁immunocompromised	-12.1325
▁imnotevenstressedanymore	-12.1325
▁impasse	-12.1325
▁impeccable	-12.1325
▁imperative	-12.1325
▁imperfect	-12.1325
▁implementation	-12.1325
▁implied	-12.1325
▁imply	-12.1325
▁impossibility	-12.1325
▁impotent	-12.1325
▁impression	-12.1325
▁improbable	-12.1325
▁inadvertently	-12.1325
▁inaliating	-12.1325
▁inanimate	-12.1325
▁inappropriate	-12.1325
▁inaya	-12.1325
▁inayaconnect	-12.1325
▁incapacitates	-12.1325
▁incel	-12.1325
▁inch	-12.1325
▁inclined	-12.1325
▁inconcenience	-12.1325
▁inconsiderate	-12.1325
▁inconsistent	-12.1325
▁inconvenienced	-12.1325
▁inconvenient	-12.1325
▁incorrect	-12.1325
▁incorrectly	-12.1325
▁incremental	-12.1325
▁incrementally	-12.1325
▁incroyables	-12.1325
▁indebted	-12.1325
▁indecision	-12.1325
▁indecisive	-12.1325
▁independently	-12.1325
▁indgenous	-12.1325
▁indie	-12.1325
▁indifference	-12.1325
▁indifferent	-12.1325
▁indo	-12.1325
▁inevitability	-12.1325
▁inexpensive	-12.1325
▁infatuated	-12.1325
▁infinitely	-12.1325
▁inflammatory	-12.1325
▁inflated	-12.1325
▁inflexible	-12.1325
▁influencefull	-12.1325
▁inform	-12.1325
▁informative	-12.1325
▁infuriate	-12.1325
▁inhabiting	-12.1325
▁inherent	-12.1325
▁inhuman	-12.1325
▁inhumane	-12.1325
▁initiated	-12.1325
▁initiative	-12.1325
▁innitially	-12.1325
▁innocence	-12.1325
▁innocently	-12.1325
▁inquisitive	-12.1325
▁inseparable	-12.1325
▁inserted	-12.1325
▁insightful	-12.1325
▁insignificant	-12.1325
▁insisted	-12.1325
▁inspite	-12.1325
▁instantaneous	-12.1325
▁instantaneously	-12.1325
▁instigator	-12.1325
▁instilled	-12.1325
▁instinctive	-12.1325
▁institute	-12.1325
▁instruction	-12.1325
▁instructional	-12.1325
▁insulted	-12.1325
▁intact	-12.1325
▁integrated	-12.1325
▁integrity	-12.1325
▁intel	-12.1325
▁intension	-12.1325
▁intently	-12.1325
▁interconnectivity	-12.1325
▁intercourse	-12.1325
▁interdependence	-12.1325
▁interesed	-12.1325
▁intermittent	-12.1325
▁intern	-12.1325
▁internalised	-12.1325
▁internalizes	-12.1325
▁interrupt	-12.1325
▁intersex	-12.1325
▁interviewed	-12.1325
▁interviewing	-12.1325
▁intimacy	-12.1325
▁introduction	-12.1325
▁introductory	-12.1325
▁introversion	-12.1325
▁inundated	-12.1325
▁invades	-12.1325
▁invading	-12.1325
▁invalid	-12.1325
▁invalidating	-12.1325
▁invariably	-12.1325
▁investigation	-12.1325
▁investigator	-12.1325
▁invitation	-12.1325
▁inviting	-12.1325
▁iop	-12.1325
▁iran	-12.1325
▁iraq	-12.1325
▁irish	-12.1325
▁irregularly	-12.1325
▁irrelevant	-12.1325
▁irrespective	-12.1325
▁irresponsible	-12.1325
▁irritant	-12.1325
▁irs	-12.1325
▁ishaan	-12.1325
▁isoleted	-12.1325
▁itchy	-12.1325
▁iu	-12.1325
▁ixl	-12.1325
▁jab	-12.1325
▁jackbox	-12.1325
▁jacket	-12.1325
▁jackpot	-12.1325
▁jackshit	-12.1325
▁jacobson	-12.1325
▁jagged	-12.1325
▁jake	-12.1325
▁jakeducey	-12.1325
▁jamaican	-12.1325
▁jana	-12.1325
▁janitor	-12.1325
▁je	-12.1325
▁jeaousy	-12.1325
▁jee	-12.1325
▁jehovah	-12.1325
▁jelly	-12.1325
▁jelous	-12.1325
▁jeopardizing	-12.1325
▁jet	-12.1325
▁jiggle	-12.1325
▁jj	-12.1325
▁jme	-12.1325
▁joleneobrien	-12.1325
▁jolly	-12.1325
▁jon	-12.1325
▁jonathan	-12.1325
▁jot	-12.1325
▁journalism	-12.1325
▁journalist	-12.1325
▁journalling	-12.1325
▁joyless	-12.1325
▁joyously	-12.1325
▁juggle	-12.1325
▁jung	-12.1325
▁junky	-12.1325
▁juno	-12.1325
▁juvenile	-12.1325
▁kabazie	-12.1325
▁kava	-12.1325
▁kckb	-12.1325
▁ked	-12.1325
▁kent	-12.1325
▁kenya	-12.1325
▁keystone	-12.1325
▁kharrazinaturalhealth	-12.1325
▁ki	-12.1325
▁kicker	-12.1325
▁kidnapped	-12.1325
▁kife	-12.1325
▁kindergarden	-12.1325
▁kinesiologist	-12.1325
▁knit	-12.1325
▁knkw	-12.1325
▁knot	-12.1325
▁kolonopin	-12.1325
▁kong	-12.1325
▁korn	-12.1325
▁krier	-12.1325
▁kylehilding	-12.1325
▁labelled	-12.1325
▁lad	-12.1325
▁ladder	-12.1325
▁lall	-12.1325
▁lament	-12.1325
▁landlady	-12.1325
▁landscaping	-12.1325
▁lanka	-12.1325
▁lasagna	-12.1325
▁lashed	-12.1325
▁lashing	-12.1325
▁lathargic	-12.1325
▁lather	-12.1325
▁latley	-12.1325
▁laughable	-12.1325
▁laughted	-12.1325
▁laurie	-12.1325
▁lawn	-12.1325
▁lawson	-12.1325
▁layed	-12.1325
▁layer	-12.1325
▁lazier	-12.1325
▁laziness	-12.1325
▁lbl	-12.1325
▁lcd	-12.1325
▁leak	-12.1325
▁leaked	-12.1325
▁leaking	-12.1325
▁lean	-12.1325
▁leapfrog	-12.1325
▁lectured	-12.1325
▁leech	-12.1325
▁leeds	-12.1325
▁leftover	-12.1325
▁legal	-12.1325
▁legality	-12.1325
▁legitimately	-12.1325
▁lemmy	-12.1325
▁lemon	-12.1325
▁lending	-12.1325
▁leone	-12.1325
▁lesbian	-12.1325
▁lesotho	-12.1325
▁lethargic	-12.1325
▁leveled	-12.1325
▁lewd	-12.1325
▁lgbt	-12.1325
▁liability	-12.1325
▁liberated	-12.1325
▁liberating	-12.1325
▁liberia	-12.1325
▁licensed	-12.1325
▁licensing	-12.1325
▁lifecoach	-12.1325
▁lifeless	-12.1325
▁lifelessly	-12.1325
▁lifted	-12.1325
▁lightbulb	-12.1325
▁lighter	-12.1325
▁lightning	-12.1325
▁liife	-12.1325
▁likewise	-12.1325
▁lilly	-12.1325
▁limbo	-12.1325
▁lining	-12.1325
▁linking	-12.1325
▁lionelwilson	-12.1325
▁liqour	-12.1325
▁lisence	-12.1325
▁lite	-12.1325
▁littlest	-12.1325
▁liverpool	-12.1325
▁livingbetterandlonger	-12.1325
▁livinginthemoment	-12.1325
▁llama	-12.1325
▁llc	-12.1325
▁lmfao	-12.1325
▁lne	-12.1325
▁loath	-12.1325
▁loathed	-12.1325
▁locate	-12.1325
▁locus	-12.1325
▁lofi	-12.1325
▁loiter	-12.1325
▁lokmkng	-12.1325
▁lollipop	-12.1325
▁lonervibes	-12.1325
▁longed	-12.1325
▁longing	-12.1325
▁lookkng	-12.1325
▁looping	-12.1325
▁looser	-12.1325
▁lorde	-12.1325
▁loses	-12.1325
▁loudness	-12.1325
▁loveless	-12.1325
▁loveliness	-12.1325
▁lube	-12.1325
▁lucid	-12.1325
▁lullaby	-12.1325
▁lutherclayton	-12.1325
▁luxembourg	-12.1325
▁lymphoma	-12.1325
▁lyon	-12.1325
▁macho	-12.1325
▁madagascar	-12.1325
▁maddening	-12.1325
▁madness	-12.1325
▁maharishi	-12.1325
▁maid	-12.1325
▁mail	-12.1325
▁mailed	-12.1325
▁maintining	-12.1325
▁majorly	-12.1325
▁maker	-12.1325
▁malady	-12.1325
▁malawi	-12.1325
▁malfunctioning	-12.1325
▁mali	-12.1325
▁mam	-12.1325
▁mama	-12.1325
▁manchild	-12.1325
▁manda	-12.1325
▁maniac	-12.1325
▁manipualtive	-12.1325
▁mankind	-12.1325
▁manly	-12.1325
▁manson	-12.1325
▁manu	-12.1325
▁manualized	-12.1325
▁manufacture	-12.1325
▁manyyy	-12.1325
▁marc	-12.1325
▁marchwicki	-12.1325
▁marginal	-12.1325
▁maried	-12.1325
▁mariljuana	-12.1325
▁marked	-12.1325
▁marker	-12.1325
▁marketer	-12.1325
▁marred	-12.1325
▁marrying	-12.1325
▁marvel	-12.1325
▁marx	-12.1325
▁mary	-12.1325
▁masked	-12.1325
▁maskless	-12.1325
▁massager	-12.1325
▁massively	-12.1325
▁materialise	-12.1325
▁maternal	-12.1325
▁maternity	-12.1325
▁mathematical	-12.1325
▁mathernal	-12.1325
▁matthew	-12.1325
▁mattmark	-12.1325
▁matures	-12.1325
▁mauritania	-12.1325
▁maxed	-12.1325
▁maximise	-12.1325
▁maximize	-12.1325
▁mayan	-12.1325
▁mba	-12.1325
▁mcauliffe	-12.1325
▁mcconaughey	-12.1325
▁mcdonalds	-12.1325
▁mdma	-12.1325
▁mealplan	-12.1325
▁meaninglessly	-12.1325
▁meaninglessness	-12.1325
▁measuring	-12.1325
▁mechanic	-12.1325
▁medal	-12.1325
▁mediation	-12.1325
▁mediocrity	-12.1325
▁medular	-12.1325
▁medulla	-12.1325
▁melancholic	-12.1325
▁melt	-12.1325
▁meltdown	-12.1325
▁memoir	-12.1325
▁memorable	-12.1325
▁memorize	-12.1325
▁memoryh	-12.1325
▁menace	-12.1325
▁menopause	-12.1325
▁mentallity	-12.1325
▁mentaly	-12.1325
▁meowing	-12.1325
▁merge	-12.1325
▁meridian	-12.1325
▁merry	-12.1325
▁mesopotamia	-12.1325
▁meta	-12.1325
▁metaphor	-12.1325
▁metric	-12.1325
▁mexican	-12.1325
▁mexico	-12.1325
▁mia	-12.1325
▁michaelfox	-12.1325
▁michaeljames	-12.1325
▁michelle	-12.1325
▁mics	-12.1325
▁middling	-12.1325
▁midwest	-12.1325
▁migrain	-12.1325
▁mihaly	-12.1325
▁mil	-12.1325
▁mildly	-12.1325
▁milestone	-12.1325
▁miller	-12.1325
▁millionth	-12.1325
▁mimar	-12.1325
▁mindsetmastery	-12.1325
▁minimize	-12.1325
▁ministry	-12.1325
▁ministryofpoetry	-12.1325
▁minneapolis	-12.1325
▁mint	-12.1325
▁minty	-12.1325
▁mirasol	-12.1325
▁misbehaves	-12.1325
▁miscarriage	-12.1325
▁miscarried	-12.1325
▁misclicked	-12.1325
▁misdiagnosed	-12.1325
▁miserably	-12.1325
▁misgendered	-12.1325
▁misinterpreting	-12.1325
▁misogynist	-12.1325
▁misogynistic	-12.1325
▁misremembered	-12.1325
▁missery	-12.1325
▁missionary	-12.1325
▁mistreated	-12.1325
▁mitigate	-12.1325
▁mitt	-12.1325
▁mixer	-12.1325
▁mixing	-12.1325
▁mo	-12.1325
▁moan	-12.1325
▁moaning	-12.1325
▁mob	-12.1325
▁mocked	-12.1325
▁moderation	-12.1325
▁moderator	-12.1325
▁modest	-12.1325
▁modesty	-12.1325
▁modt	-12.1325
▁module	-12.1325
▁momentarily	-12.1325
▁mommy	-12.1325
▁mon	-12.1325
▁monitoring	-12.1325
▁monogamous	-12.1325
▁monogamy	-12.1325
▁monotonous	-12.1325
▁monthes	-12.1325
▁mooded	-12.1325
▁moonshot	-12.1325
▁morbidly	-12.1325
▁morgan	-12.1325
▁mormon	-12.1325
▁mosque	-12.1325
▁motivating	-12.1325
▁motive	-12.1325
▁motorhead	-12.1325
▁mourns	-12.1325
▁mozambique	-12.1325
▁mph	-12.1325
▁mrsknowhow	-12.1325
▁msde	-12.1325
▁msu	-12.1325
▁muffled	-12.1325
▁mug	-12.1325
▁mullet	-12.1325
▁multimillionaires	-12.1325
▁multitasking	-12.1325
▁multivitamin	-12.1325
▁mumbai	-12.1325
▁mumbling	-12.1325
▁murdered	-12.1325
▁mush	-12.1325
▁mushroom	-12.1325
▁musical	-12.1325
▁musing	-12.1325
▁muslim	-12.1325
▁muster	-12.1325
▁mustered	-12.1325
▁mutism	-12.1325
▁muttered	-12.1325
▁mxf	-12.1325
▁myanmar	-12.1325
▁mystery	-12.1325
▁mythology	-12.1325
▁nada	-12.1325
▁nag	-12.1325
▁nah	-12.1325
▁nailed	-12.1325
▁namaskar	-12.1325
▁nameless	-12.1325
▁namibia	-12.1325
▁napkin	-12.1325
▁narcisisstic	-12.1325
▁narly	-12.1325
▁narrcisim	-12.1325
▁narrcists	-12.1325
▁narrowed	-12.1325
▁nat	-12.1325
▁nationalist	-12.1325
▁naturallyecstatic	-12.1325
▁navigating	-12.1325
▁naw	-12.1325
▁nearest	-12.1325
▁necklace	-12.1325
▁needes	-12.1325
▁neediness	-12.1325
▁neet	-12.1325
▁negating	-12.1325
▁neighborhood	-12.1325
▁nepal	-12.1325
▁nepotism	-12.1325
▁neuroscientist	-12.1325
▁newey	-12.1325
▁newfound	-12.1325
▁newly	-12.1325
▁newsflash	-12.1325
▁ng	-12.1325
▁nge	-12.1325
▁ngo	-12.1325
▁nicer	-12.1325
▁nick	-12.1325
▁niger	-12.1325
▁nigh	-12.1325
▁nighter	-12.1325
▁nighti	-12.1325
▁nihilist	-12.1325
▁nine	-12.1325
▁ninth	-12.1325
▁nitpicks	-12.1325
▁nix	-12.1325
▁nomadland	-12.1325
▁nonjudgmental	-12.1325
▁nonprofit	-12.1325
▁nonsense	-12.1325
▁noon	-12.1325
▁nooooooo	-12.1325
▁nootralize	-12.1325
▁nora	-12.1325
▁normalized	-12.1325
▁norway	-12.1325
▁nostalgic	-12.1325
▁nostril	-12.1325
▁nosy	-12.1325
▁notifies	-12.1325
▁notoriously	-12.1325
▁nottingham	-12.1325
▁nour	-12.1325
▁nourishing	-12.1325
▁nov	-12.1325
▁ntohing	-12.1325
▁nude	-12.1325
▁nuisance	-12.1325
▁num	-12.1325
▁nutritional	-12.1325
▁nutritionally	-12.1325
▁nutshell	-12.1325
▁obesity	-12.1325
▁objected	-12.1325
▁obligatory	-12.1325
▁obliges	-12.1325
▁obnoxious	-12.1325
▁obscenely	-12.1325
▁obscure	-12.1325
▁observer	-12.1325
▁obtain	-12.1325
▁obtaining	-12.1325
▁ocassionally	-12.1325
▁occupy	-12.1325
▁occurring	-12.1325
▁oct	-12.1325
▁octavia	-12.1325
▁oddity	-12.1325
▁ode	-12.1325
▁oded	-12.1325
▁offchance	-12.1325
▁offence	-12.1325
▁offender	-12.1325
▁offensive	-12.1325
▁okayish	-12.1325
▁oldschool	-12.1325
▁olympics	-12.1325
▁onedollarhappiness	-12.1325
▁onlt	-12.1325
▁oooooonnne	-12.1325
▁opiate	-12.1325
▁opted	-12.1325
▁optimal	-12.1325
▁optimist	-12.1325
▁optimize	-12.1325
▁opting	-12.1325
▁opts	-12.1325
▁ordering	-12.1325
▁organ	-12.1325
▁organisation	-12.1325
▁organised	-12.1325
▁organiser	-12.1325
▁organizational	-12.1325
▁organizing	-12.1325
▁originating	-12.1325
▁orleans	-12.1325
▁ormond	-12.1325
▁orthogonal	-12.1325
▁ouchy	-12.1325
▁outbreak	-12.1325
▁outburst	-12.1325
▁outcast	-12.1325
▁outdoors	-12.1325
▁outline	-12.1325
▁outraged	-12.1325
▁outright	-12.1325
▁outset	-12.1325
▁outsmart	-12.1325
▁overachievement	-12.1325
▁overachiever	-12.1325
▁overanalyze	-12.1325
▁overate	-12.1325
▁overclock	-12.1325
▁overconsumption	-12.1325
▁overdose	-12.1325
▁overdrafted	-12.1325
▁overdramatic	-12.1325
▁overeating	-12.1325
▁overflood	-12.1325
▁overhead	-12.1325
▁overhwelmed	-12.1325
▁overload	-12.1325
▁overplan	-12.1325
▁overpromise	-12.1325
▁overreact	-12.1325
▁overstretch	-12.1325
▁overthinks	-12.1325
▁overthought	-12.1325
▁overtime	-12.1325
▁overtook	-12.1325
▁overwork	-12.1325
▁overworker	-12.1325
▁owes	-12.1325
▁owi	-12.1325
▁owl	-12.1325
▁owns	-12.1325
▁oxytocin	-12.1325
▁painted	-12.1325
▁pair	-12.1325
▁paired	-12.1325
▁pairing	-12.1325
▁pakistani	-12.1325
▁palestinian	-12.1325
▁palete	-12.1325
▁palette	-12.1325
▁paliperidone	-12.1325
▁palsy	-12.1325
▁pam	-12.1325
▁pang	-12.1325
▁panick	-12.1325
▁panicky	-12.1325
▁pant	-12.1325
▁paperwork	-12.1325
▁paradigm	-12.1325
▁paradox	-12.1325
▁parcel	-12.1325
▁partnered	-12.1325
▁partying	-12.1325
▁passionflower	-12.1325
▁passively	-12.1325
▁passivity	-12.1325
▁pasta	-12.1325
▁pastry	-12.1325
▁patched	-12.1325
▁patrol	-12.1325
▁paving	-12.1325
▁paycheck	-12.1325
▁payer	-12.1325
▁pdf	-12.1325
▁peaceandlove	-12.1325
▁pearces	-12.1325
▁pearl	-12.1325
▁pedo	-12.1325
▁pedophilia	-12.1325
▁pee	-12.1325
▁pencil	-12.1325
▁pensez	-12.1325
▁pensum	-12.1325
▁pepe	-12.1325
▁perceiving	-12.1325
▁perfecting	-12.1325
▁perpetual	-12.1325
▁perpetually	-12.1325
▁perpetuating	-12.1325
▁persecuted	-12.1325
▁personalize	-12.1325
▁personhood	-12.1325
▁personnally	-12.1325
▁pesky	-12.1325
▁pessimism	-12.1325
▁pessimist	-12.1325
▁pessimistic	-12.1325
▁pest	-12.1325
▁peterwarnock	-12.1325
▁petrified	-12.1325
▁pfts	-12.1325
▁pharmaceutical	-12.1325
▁phaternal	-12.1325
▁phillips	-12.1325
▁phoniness	-12.1325
▁phoning	-12.1325
▁phony	-12.1325
▁phosphatidylserine	-12.1325
▁php	-12.1325
▁phsyical	-12.1325
▁physicaly	-12.1325
▁physician	-12.1325
▁physiologist	-12.1325
▁physiotherapist	-12.1325
▁physiotherapy	-12.1325
▁pierced	-12.1325
▁piled	-12.1325
▁pilot	-12.1325
▁pimp	-12.1325
▁pinched	-12.1325
▁pincher	-12.1325
▁pine	-12.1325
▁pinterest	-12.1325
▁piti	-12.1325
▁pittance	-12.1325
▁pivotal	-12.1325
▁pivoted	-12.1325
▁pjs	-12.1325
▁placebo	-12.1325
▁placed	-12.1325
▁placement	-12.1325
▁plagiarized	-12.1325
▁plain	-12.1325
▁planner	-12.1325
▁plantation	-12.1325
▁plateauing	-12.1325
▁platitude	-12.1325
▁plato	-12.1325
▁platonic	-12.1325
▁platoon	-12.1325
▁plausible	-12.1325
▁playtime	-12.1325
▁pleading	-12.1325
▁pleaser	-12.1325
▁pleasurable	-12.1325
▁plumits	-12.1325
▁pmdd	-12.1325
▁pneumonia	-12.1325
▁podcasters	-12.1325
▁poetic	-12.1325
▁pointings	-12.1325
▁pointlessness	-12.1325
▁poky	-12.1325
▁polite	-12.1325
▁politely	-12.1325
▁polka	-12.1325
▁pollard	-12.1325
▁pooh	-12.1325
▁poop	-12.1325
▁poptartfriday	-12.1325
▁pornhub	-12.1325
▁pornography	-12.1325
▁portfolio	-12.1325
▁portrays	-12.1325
▁portsmouth	-12.1325
▁pose	-12.1325
▁positing	-12.1325
▁posponing	-12.1325
▁postman	-12.1325
▁postponing	-12.1325
▁pot	-12.1325
▁poured	-12.1325
▁powered	-12.1325
▁powfu	-12.1325
▁pr	-12.1325
▁pradesh	-12.1325
▁preached	-12.1325
▁preacher	-12.1325
▁precarious	-12.1325
▁preceded	-12.1325
▁precise	-12.1325
▁predicament	-12.1325
▁prediction	-12.1325
▁preferable	-12.1325
▁preferably	-12.1325
▁preffered	-12.1325
▁premed	-12.1325
▁prep	-12.1325
▁prepackaged	-12.1325
▁preparedness	-12.1325
▁presenting	-12.1325
▁presentmoment	-12.1325
▁preserving	-12.1325
▁pressuring	-12.1325
▁pressurized	-12.1325
▁presume	-12.1325
▁prettiest	-12.1325
▁prevented	-12.1325
▁princess	-12.1325
▁printables	-12.1325
▁prioritising	-12.1325
▁prioritized	-12.1325
▁prision	-12.1325
▁prisoner	-12.1325
▁privately	-12.1325
▁privatised	-12.1325
▁proactive	-12.1325
▁prob	-12.1325
▁probation	-12.1325
▁probed	-12.1325
▁proccess	-12.1325
▁procedure	-12.1325
▁proceeded	-12.1325
▁processed	-12.1325
▁proclaim	-12.1325
▁proclaimed	-12.1325
▁procrastinator	-12.1325
▁prodding	-12.1325
▁prodigy	-12.1325
▁producing	-12.1325
▁profusely	-12.1325
▁progressed	-12.1325
▁projection	-12.1325
▁promo	-12.1325
▁prompting	-12.1325
▁prone	-12.1325
▁pronoun	-12.1325
▁pronounced	-12.1325
▁proofed	-12.1325
▁propably	-12.1325
▁propel	-12.1325
▁propose	-12.1325
▁proposing	-12.1325
▁propped	-12.1325
▁prospect	-12.1325
▁prosper	-12.1325
▁prosperity	-12.1325
▁prosthetics	-12.1325
▁protest	-12.1325
▁protocol	-12.1325
▁proton	-12.1325
▁prototype	-12.1325
▁proudest	-12.1325
▁proved	-12.1325
▁provoke	-12.1325
▁prudent	-12.1325
▁psats	-12.1325
▁pshyical	-12.1325
▁pssd	-12.1325
▁psychedelics	-12.1325
▁psycho	-12.1325
▁psychoanalysis	-12.1325
▁psychosis	-12.1325
▁psyvh	-12.1325
▁pt	-12.1325
▁pua	-12.1325
▁puas	-12.1325
▁puberty	-12.1325
▁publicspeaking	-12.1325
▁puffy	-12.1325
▁puke	-12.1325
▁pulsifer	-12.1325
▁pummel	-12.1325
▁punching	-12.1325
▁punchline	-12.1325
▁punter	-12.1325
▁pup	-12.1325
▁purely	-12.1325
▁purgatory	-12.1325
▁purged	-12.1325
▁purifier	-12.1325
▁purposefully	-12.1325
▁purposelessness	-12.1325
▁purposlesness	-12.1325
▁pyschopath	-12.1325
▁pysiotherapist	-12.1325
▁quantifiable	-12.1325
▁quarantined	-12.1325
▁quarter	-12.1325
▁que	-12.1325
▁quelques	-12.1325
▁questioned	-12.1325
▁quin	-12.1325
▁quiplash	-12.1325
▁quirky	-12.1325
▁racial	-12.1325
▁racketball	-12.1325
▁radiant	-12.1325
▁radiate	-12.1325
▁radiates	-12.1325
▁radiation	-12.1325
▁radicalize	-12.1325
▁radiohead	-12.1325
▁raft	-12.1325
▁rag	-12.1325
▁raging	-12.1325
▁rail	-12.1325
▁railing	-12.1325
▁rainfall	-12.1325
▁ralated	-12.1325
▁ranch	-12.1325
▁randomness	-12.1325
▁rap	-12.1325
▁rapid	-12.1325
▁rapport	-12.1325
▁ratio	-12.1325
▁reachable	-12.1325
▁readily	-12.1325
▁realll	-12.1325
▁realtionships	-12.1325
▁realtor	-12.1325
▁reasoning	-12.1325
▁rebirth	-12.1325
▁rebuild	-12.1325
▁rebuilding	-12.1325
▁recalling	-12.1325
▁recapture	-12.1325
▁receiver	-12.1325
▁receptor	-12.1325
▁recess	-12.1325
▁recharge	-12.1325
▁recieved	-12.1325
▁reckon	-12.1325
▁recognizably	-12.1325
▁recommending	-12.1325
▁reconciling	-12.1325
▁recruiting	-12.1325
▁recruitment	-12.1325
▁rectified	-12.1325
▁recycled	-12.1325
▁redeem	-12.1325
▁redeemed	-12.1325
▁redefine	-12.1325
▁redemption	-12.1325
▁rediculous	-12.1325
▁redirect	-12.1325
▁redo	-12.1325
▁redundant	-12.1325
▁reef	-12.1325
▁reevaluating	-12.1325
▁referenced	-12.1325
▁referencing	-12.1325
▁refers	-12.1325
▁reflected	-12.1325
▁refocus	-12.1325
▁reframe	-12.1325
▁reframing	-12.1325
▁refresh	-12.1325
▁regained	-12.1325
▁regenerate	-12.1325
▁regressed	-12.1325
▁regressing	-12.1325
▁regression	-12.1325
▁regrettable	-12.1325
▁regretted	-12.1325
▁regularity	-12.1325
▁regulation	-12.1325
▁rehearse	-12.1325
▁reign	-12.1325
▁reincarnation	-12.1325
▁reinforce	-12.1325
▁rejecting	-12.1325
▁relashionship	-12.1325
▁relaxer	-12.1325
▁relaying	-12.1325
▁releaseyouranxietymonster	-12.1325
▁relentlessly	-12.1325
▁relieved	-12.1325
▁religiously	-12.1325
▁relish	-12.1325
▁relocate	-12.1325
▁remainder	-12.1325
▁remaining	-12.1325
▁remdies	-12.1325
▁remedy	-12.1325
▁remitter	-12.1325
▁remotely	-12.1325
▁removing	-12.1325
▁render	-12.1325
▁rendered	-12.1325
▁rendering	-12.1325
▁renewal	-12.1325
▁rented	-12.1325
▁renting	-12.1325
▁repaid	-12.1325
▁replying	-12.1325
▁reporting	-12.1325
▁represent	-12.1325
▁represents	-12.1325
▁repression	-12.1325
▁reprieve	-12.1325
▁reprimand	-12.1325
▁reprised	-12.1325
▁republic	-12.1325
▁repulsive	-12.1325
▁repurposed	-12.1325
▁rescue	-12.1325
▁reselling	-12.1325
▁resemble	-12.1325
▁resented	-12.1325
▁resentful	-12.1325
▁resents	-12.1325
▁resetting	-12.1325
▁reshape	-12.1325
▁resident	-12.1325
▁resides	-12.1325
▁residing	-12.1325
▁resiliency	-12.1325
▁resonova	-12.1325
▁respectful	-12.1325
▁respiratory	-12.1325
▁respondent	-12.1325
▁responsibly	-12.1325
▁responsive	-12.1325
▁restore	-12.1325
▁restoring	-12.1325
▁restraining	-12.1325
▁restricted	-12.1325
▁restrictive	-12.1325
▁restylene	-12.1325
▁resulted	-12.1325
▁resurfacing	-12.1325
▁retaining	-12.1325
▁retention	-12.1325
▁rethinking	-12.1325
▁retirement	-12.1325
▁retrain	-12.1325
▁retreat	-12.1325
▁retribution	-12.1325
▁retro	-12.1325
▁retroactively	-12.1325
▁reunited	-12.1325
▁revealed	-12.1325
▁revelation	-12.1325
▁revise	-12.1325
▁revised	-12.1325
▁revive	-12.1325
▁reviving	-12.1325
▁revolt	-12.1325
▁revolution	-12.1325
▁revolutionary	-12.1325
▁revolving	-12.1325
▁rexulti	-12.1325
▁rf	-12.1325
▁rhetorical	-12.1325
▁rhyming	-12.1325
▁rica	-12.1325
▁richer	-12.1325
▁richest	-12.1325
▁riddled	-12.1325
▁ridiculously	-12.1325
▁rigged	-12.1325
▁righteous	-12.1325
▁rigid	-12.1325
▁rinse	-12.1325
▁ripe	-12.1325
▁roach	-12.1325
▁roap	-12.1325
▁robbed	-12.1325
▁robbing	-12.1325
▁roblox	-12.1325
▁robot	-12.1325
▁rocking	-12.1325
▁rodeo	-12.1325
▁roker	-12.1325
▁roller	-12.1325
▁rolling	-12.1325
▁roman	-12.1325
▁roomate	-12.1325
▁roomates	-12.1325
▁roomy	-12.1325
▁rosies	-12.1325
▁rotates	-12.1325
▁rotted	-12.1325
▁routinely	-12.1325
▁rowan	-12.1325
▁royal	-12.1325
▁royale	-12.1325
▁rub	-12.1325
▁rubin	-12.1325
▁rug	-12.1325
▁rugby	-12.1325
▁ruminate	-12.1325
▁runaway	-12.1325
▁runner	-12.1325
▁rural	-12.1325
▁russian	-12.1325
▁rustling	-12.1325
▁rwanda	-12.1325
▁rythme	-12.1325
▁sa	-12.1325
▁sacrificing	-12.1325
▁saddens	-12.1325
▁sadder	-12.1325
▁saffron	-12.1325
▁sailing	-12.1325
▁sallust	-12.1325
▁sally	-12.1325
▁salute	-12.1325
▁salvation	-12.1325
▁san	-12.1325
▁sanskrit	-12.1325
▁santani	-12.1325
▁santayana	-12.1325
▁santos	-12.1325
▁sappy	-12.1325
▁saturated	-12.1325
▁saver	-12.1325
▁savor	-12.1325
▁savory	-12.1325
▁savransky	-12.1325
▁sb	-12.1325
▁sbout	-12.1325
▁scab	-12.1325
▁scalp	-12.1325
▁scanning	-12.1325
▁scariest	-12.1325
▁scarificed	-12.1325
▁scaring	-12.1325
▁scarred	-12.1325
▁scarring	-12.1325
▁scent	-12.1325
▁scented	-12.1325
▁scholar	-12.1325
▁schoolbook	-12.1325
▁schopenhauer	-12.1325
▁schreiber	-12.1325
▁schwarzenegger	-12.1325
▁sci	-12.1325
▁scoffing	-12.1325
▁scored	-12.1325
▁scoring	-12.1325
▁scorn	-12.1325
▁scrabbling	-12.1325
▁scrambled	-12.1325
▁scrap	-12.1325
▁scraping	-12.1325
▁scrawled	-12.1325
▁screened	-12.1325
▁screenshots	-12.1325
▁scripted	-12.1325
▁scriptural	-12.1325
▁scripture	-12.1325
▁scroll	-12.1325
▁sculpt	-12.1325
▁seabed	-12.1325
▁sean	-12.1325
▁seasoning	-12.1325
▁sec	-12.1325
▁secondarily	-12.1325
▁secondary	-12.1325
▁secretly	-12.1325
▁secured	-12.1325
▁securing	-12.1325
▁sedating	-12.1325
▁seeked	-12.1325
▁seeps	-12.1325
▁segment	-12.1325
▁segragate	-12.1325
▁selected	-12.1325
▁selective	-12.1325
▁selectively	-12.1325
▁selen	-12.1325
▁selfharm	-12.1325
▁selfharming	-12.1325
▁selfless	-12.1325
▁selfrealization	-12.1325
▁seligman	-12.1325
▁semen	-12.1325
▁seminar	-12.1325
▁senate	-12.1325
▁senegal	-12.1325
▁sensaion	-12.1325
▁sentimental	-12.1325
▁seperate	-12.1325
▁seperation	-12.1325
▁sequel	-12.1325
▁seratonin	-12.1325
▁serene	-12.1325
▁serf	-12.1325
▁seriousness	-12.1325
▁seroquel	-12.1325
▁settled	-12.1325
▁setup	-12.1325
▁sexist	-12.1325
▁sexualize	-12.1325
▁sexualized	-12.1325
▁sexualizing	-12.1325
▁shady	-12.1325
▁shaken	-12.1325
▁shakespeare	-12.1325
▁shaming	-12.1325
▁shaped	-12.1325
▁shattering	-12.1325
▁shcool	-12.1325
▁shear	-12.1325
▁sheer	-12.1325
▁shenanigan	-12.1325
▁sheri	-12.1325
▁shield	-12.1325
▁shifted	-12.1325
▁shite	-12.1325
▁shitpost	-12.1325
▁shitter	-12.1325
▁shiver	-12.1325
▁shize	-12.1325
▁shock	-12.1325
▁shockingly	-12.1325
▁shok	-12.1325
▁shorten	-12.1325
▁shortest	-12.1325
▁shortness	-12.1325
▁shotgun	-12.1325
▁shouted	-12.1325
▁shouting	-12.1325
▁shoutouts	-12.1325
▁shoveling	-12.1325
▁showbiz	-12.1325
▁showcase	-12.1325
▁shreiking	-12.1325
▁shrugged	-12.1325
▁sht	-12.1325
▁sidetracked	-12.1325
▁siding	-12.1325
▁sierra	-12.1325
▁silenced	-12.1325
▁silently	-12.1325
▁silver	-12.1325
▁similarly	-12.1325
▁sims	-12.1325
▁sinan	-12.1325
▁singled	-12.1325
▁singledom	-12.1325
▁sipping	-12.1325
▁sir	-12.1325
▁sitcom	-12.1325
▁sixteen	-12.1325
▁sized	-12.1325
▁skating	-12.1325
▁skeleton	-12.1325
▁sketchbook	-12.1325
▁sketched	-12.1325
▁skiddish	-12.1325
▁skilfully	-12.1325
▁skillful	-12.1325
▁skincare	-12.1325
▁slam	-12.1325
▁slapping	-12.1325
▁slash	-12.1325
