▁like	-4.44327
<s>	0
</s>	0
<unk>	0
▁wa	-4.47137
▁feel	-4.48171
▁time	-4.72959
▁life	-4.74176
▁get	-4.76656
▁know	-4.83072
▁want	-4.89285
▁thing	-4.98845
▁day	-5.05403
▁people	-5.11617
▁even	-5.12602
▁year	-5.15152
▁one	-5.25545
▁really	-5.28242
▁make	-5.29087
▁work	-5.3232
▁ha	-5.33532
▁help	-5.35096
▁think	-5.36571
▁stress	-5.4125
▁would	-5.42576
▁going	-5.50267
▁go	-5.51322
▁much	-5.55514
▁something	-5.5789
▁friend	-5.60906
▁way	-5.65989
▁feeling	-5.66913
▁always	-5.68316
▁everything	-5.6958
▁love	-5.69899
▁never	-5.71021
▁take	-5.71344
▁need	-5.72484
▁thought	-5.73305
▁back	-5.77518
▁also	-5.78209
▁good	-5.84282
▁keep	-5.84282
▁every	-5.86329
▁job	-5.86894
▁u	-5.86894
▁still	-5.88035
▁depression	-5.93134
▁could	-5.93336
▁right	-5.94553
▁happy	-5.95167
▁new	-5.95167
▁anyone	-5.95785
▁anxiety	-5.96823
▁better	-6.00005
▁say	-6.00005
▁anything	-6.01306
▁someone	-6.01964
▁week	-6.02404
▁month	-6.05316
▁lot	-6.06
▁got	-6.07848
▁school	-6.08784
▁bad	-6.10685
▁happiness	-6.12134
▁hard	-6.12622
▁family	-6.13112
▁try	-6.13605
▁well	-6.15348
▁many	-6.156
▁trying	-6.17123
▁first	-6.17635
▁see	-6.17635
▁find	-6.17893
▁amp	-6.18151
▁start	-6.19451
▁everyone	-6.19713
▁since	-6.19713
▁today	-6.2024
▁moment	-6.20504
▁nothing	-6.20769
▁anymore	-6.21301
▁come	-6.2373
▁live	-6.29349
▁self	-6.29349
▁person	-6.29639
▁ever	-6.33179
▁last	-6.33179
▁give	-6.3348
▁point	-6.3348
▁mind	-6.34387
▁hate	-6.35304
▁end	-6.35611
▁getting	-6.38103
▁mental	-6.38103
▁stressed	-6.38103
▁around	-6.38736
▁else	-6.38736
▁long	-6.38736
▁sleep	-6.38736
▁world	-6.38736
▁im	-6.39054
▁fucking	-6.40336
▁made	-6.41308
▁past	-6.41635
▁care	-6.4229
▁depressed	-6.43615
▁let	-6.4462
▁problem	-6.45635
▁sometimes	-6.46661
▁best	-6.47005
▁started	-6.47351
▁talk	-6.47351
▁tell	-6.47351
▁doe	-6.48394
▁home	-6.48394
▁away	-6.50158
▁health	-6.50158
▁hour	-6.50514
▁stop	-6.50514
▁felt	-6.51231
▁thinking	-6.51231
▁change	-6.54151
▁others	-6.54895
▁without	-6.54895
▁parent	-6.56398
▁pain	-6.57925
▁hope	-6.5831
▁told	-6.59476
▁look	-6.6026
▁please	-6.6105
▁tired	-6.61448
▁experience	-6.6346
▁used	-6.64276
▁different	-6.64687
▁living	-6.65929
▁maybe	-6.65929
▁might	-6.66766
▁put	-6.66766
▁done	-6.67187
▁body	-6.6761
▁though	-6.68035
▁said	-6.6932
▁shit	-6.70185
▁cry	-6.70621
▁little	-6.70621
▁part	-6.71059
▁wish	-6.7194
▁working	-6.7194
▁place	-6.73726
▁taking	-6.74177
▁reason	-6.75086
▁actually	-6.76004
▁wanted	-6.76004
▁dont	-6.76929
▁mom	-6.78807
▁worse	-6.79283
▁head	-6.7976
▁able	-6.80239
▁ago	-6.80239
▁sad	-6.80239
▁may	-6.80721
▁two	-6.80721
▁remember	-6.81206
▁enough	-6.81692
▁high	-6.81692
▁alone	-6.82181
▁college	-6.83167
▁video	-6.83167
▁focus	-6.84162
▁money	-6.84162
▁relationship	-6.84663
▁situation	-6.84663
▁step	-6.85673
▁looking	-6.86182
▁another	-6.87207
▁listen	-6.87207
▁making	-6.87207
▁etc	-6.87724
▁guy	-6.88244
▁emotion	-6.89291
▁night	-6.89291
▁wrong	-6.89291
▁tried	-6.89819
▁energy	-6.90882
▁already	-6.925
▁went	-6.93045
▁issue	-6.93593
▁understand	-6.93593
▁therapy	-6.94144
▁constantly	-6.94698
▁hurt	-6.94698
▁idea	-6.94698
▁great	-6.95255
▁success	-6.95255
▁normal	-6.96378
▁lost	-6.96945
▁mean	-6.96945
▁class	-6.97515
▁everyday	-6.99244
▁future	-6.99244
▁next	-6.99827
▁die	-7.00413
▁almost	-7.01003
▁minute	-7.01003
▁mother	-7.01003
▁found	-7.01597
▁positive	-7.02795
▁anxious	-7.03399
▁move	-7.04618
▁post	-7.04618
▁old	-7.05234
▁study	-7.05234
▁important	-7.06476
▁use	-7.06476
▁heart	-7.07103
▁brain	-7.07734
▁lt	-7.07734
▁human	-7.08369
▁leave	-7.08369
▁sure	-7.08369
▁goal	-7.09008
▁matter	-7.10298
▁present	-7.10298
▁happen	-7.10949
▁kind	-7.10949
▁learn	-7.10949
▁whole	-7.10949
▁fear	-7.12265
▁share	-7.12265
▁talking	-7.12265
▁call	-7.1293
▁least	-7.1293
▁question	-7.1293
▁daily	-7.13599
▁le	-7.13599
▁social	-7.13599
▁cause	-7.14272
▁house	-7.14272
▁drey	-7.1495
▁left	-7.1495
▁pretty	-7.1495
▁ask	-7.15633
▁become	-7.15633
▁covid	-7.15633
▁scared	-7.15633
▁bit	-7.17012
▁stuff	-7.17012
▁often	-7.17709
▁yet	-7.19829
▁believe	-7.20546
▁recently	-7.20546
▁real	-7.21268
▁advice	-7.21995
▁finally	-7.21995
▁probably	-7.21995
▁deal	-7.22728
▁free	-7.22728
▁fuck	-7.22728
▁course	-7.24209
▁difficult	-7.24209
▁due	-7.24209
▁music	-7.24958
▁stay	-7.24958
▁bed	-7.25713
▁inside	-7.25713
▁break	-7.26474
▁word	-7.26474
▁meditation	-7.2724
▁second	-7.2724
▁seems	-7.2724
▁support	-7.28012
▁control	-7.2879
▁either	-7.2879
▁together	-7.2879
▁read	-7.29575
▁gonna	-7.31162
▁cant	-7.31965
▁needed	-7.31965
▁state	-7.31965
▁completely	-7.32775
▁enjoy	-7.32775
▁happened	-7.32775
▁plan	-7.32775
▁starting	-7.32775
▁dream	-7.33591
▁forward	-7.34414
▁ok	-7.34414
▁thank	-7.34414
▁dad	-7.35244
▁doctor	-7.35244
▁full	-7.36925
▁push	-7.36925
▁saying	-7.36925
▁story	-7.36925
▁currently	-7.38634
▁kid	-7.38634
▁later	-7.38634
▁sorry	-7.38634
▁close	-7.395
▁guess	-7.395
▁rather	-7.395
▁hi	-7.40373
▁medication	-7.40373
▁online	-7.40373
▁seem	-7.40373
▁writing	-7.40373
▁grade	-7.41254
▁outside	-7.41254
▁god	-7.42143
▁level	-7.42143
▁morning	-7.42143
▁pandemic	-7.42143
▁truly	-7.42143
▁honestly	-7.4304
▁learning	-7.4304
▁age	-7.43945
▁suffering	-7.44858
▁took	-7.44858
▁low	-7.4578
▁car	-7.4671
▁couple	-7.4671
▁especially	-7.4671
▁face	-7.4671
▁motivation	-7.4671
▁small	-7.4671
▁successful	-7.4671
▁eat	-7.47649
▁attack	-7.48597
▁peace	-7.5052
▁student	-7.5052
▁turn	-7.5052
▁usually	-7.5052
▁wanna	-7.5052
▁came	-7.51496
▁man	-7.51496
▁pay	-7.51496
▁basically	-7.52481
▁book	-7.52481
▁stressful	-7.52481
▁symptom	-7.52481
▁thats	-7.52481
▁emotional	-7.53476
▁fact	-7.53476
▁learned	-7.53476
▁big	-7.54481
▁called	-7.54481
▁deep	-7.54481
▁interview	-7.55497
▁rest	-7.55497
▁sense	-7.55497
▁show	-7.55497
▁suicide	-7.55497
▁true	-7.55497
▁behind	-7.56522
▁far	-7.56522
▁set	-7.56522
▁literally	-7.57558
▁worst	-7.57558
▁cannot	-7.58606
▁phone	-7.58606
▁possible	-7.58606
▁super	-7.58606
▁test	-7.58606
▁whatever	-7.58606
▁handle	-7.59664
▁happens	-7.59664
▁easy	-7.60733
▁negative	-7.60733
▁struggling	-7.60733
▁wake	-7.60733
▁eye	-7.62907
▁mindset	-7.62907
▁open	-7.62907
▁sound	-7.62907
▁thanks	-7.62907
▁tip	-7.62907
▁university	-7.62907
▁coming	-7.64012
▁hey	-7.64012
▁must	-7.64012
▁room	-7.64012
▁single	-7.64012
▁soon	-7.64012
▁spent	-7.64012
▁whenever	-7.64012
▁decided	-7.6513
▁hand	-7.6513
▁memory	-7.6513
▁write	-7.6513
▁along	-7.6626
▁kill	-7.6626
▁loved	-7.6626
▁meet	-7.6626
▁panic	-7.6626
▁top	-7.6626
▁instead	-7.67402
▁lately	-7.67402
▁teacher	-7.67402
▁therapist	-7.67402
▁worked	-7.67402
▁career	-7.68559
▁choice	-7.68559
▁fine	-7.68559
▁nobody	-7.68559
▁pressure	-7.68559
▁aware	-7.69728
▁gone	-7.69728
▁suicidal	-7.69728
▁angry	-7.70912
▁exercise	-7.70912
▁given	-7.70912
▁hit	-7.70912
▁joy	-7.70912
▁light	-7.70912
▁reading	-7.70912
▁research	-7.70912
▁supposed	-7.72109
▁worry	-7.72109
▁constant	-7.73321
▁answer	-7.74548
▁child	-7.74548
▁fun	-7.74548
▁girl	-7.74548
▁healthy	-7.74548
▁interested	-7.74548
▁physical	-7.74548
▁realize	-7.74548
▁seeing	-7.74548
▁asked	-7.75791
▁game	-7.75791
▁mistake	-7.75791
▁personal	-7.75791
▁telling	-7.75791
▁treatment	-7.75791
▁worried	-7.75791
▁youtube	-7.75791
▁afraid	-7.77048
▁asking	-7.77048
▁happening	-7.77048
▁hold	-7.77048
▁nice	-7.77048
▁okay	-7.77048
▁calm	-7.78322
▁expectation	-7.78322
▁helped	-7.78322
▁result	-7.78322
▁short	-7.78322
▁spend	-7.78322
▁universe	-7.78322
▁awareness	-7.79613
▁bring	-7.79613
▁habit	-7.79613
▁moving	-7.79613
▁sick	-7.79613
▁stuck	-7.79613
▁stupid	-7.79613
▁giving	-7.8092
▁knew	-7.8092
▁play	-7.8092
▁quite	-7.8092
▁taken	-7.8092
▁alive	-7.82244
▁boyfriend	-7.82244
▁breathe	-7.82244
▁continue	-7.82244
▁country	-7.82244
▁extremely	-7.82244
▁food	-7.82244
▁group	-7.82244
▁idk	-7.82244
▁seen	-7.82244
▁drive	-7.83587
▁drug	-7.83587
▁experienced	-7.83587
▁failure	-7.83587
▁forget	-7.83587
▁lead	-7.83587
▁lived	-7.83587
▁sadness	-7.83587
▁struggle	-7.83587
▁certain	-7.84947
▁diagnosed	-7.84947
▁effect	-7.84947
▁follow	-7.84947
▁longer	-7.84947
▁name	-7.84947
▁amount	-7.86327
▁disorder	-7.86327
▁girlfriend	-7.86327
▁half	-7.86327
▁healing	-7.86327
▁hear	-7.86327
▁lonely	-7.86327
▁practice	-7.86327
▁sit	-7.86327
▁survey	-7.86327
▁three	-7.86327
▁woman	-7.86327
▁accept	-7.87725
▁attention	-7.87725
▁broke	-7.87725
▁brother	-7.87725
▁check	-7.87725
▁death	-7.87725
▁miss	-7.87725
▁reach	-7.87725
▁stopped	-7.87725
▁watch	-7.87725
▁create	-7.89144
▁dealing	-7.89144
▁early	-7.89144
▁however	-7.89144
▁mood	-7.89144
▁side	-7.89144
▁sister	-7.89144
▁within	-7.89144
▁beautiful	-7.90583
▁example	-7.90583
▁medium	-7.90583
▁met	-7.90583
▁space	-7.90583
▁walk	-7.90583
▁wanting	-7.90583
▁worth	-7.90583
▁based	-7.92042
▁figure	-7.92042
▁hello	-7.92042
▁knowing	-7.92042
▁path	-7.92042
▁proud	-7.92042
▁waiting	-7.92042
▁finding	-7.93524
▁late	-7.93524
▁link	-7.93524
▁purpose	-7.93524
▁reality	-7.93524
▁sort	-7.93524
▁whether	-7.93524
▁kinda	-7.95028
▁run	-7.95028
▁changed	-7.96555
▁company	-7.96555
▁eating	-7.96555
▁eventually	-7.96555
▁individual	-7.96555
▁lie	-7.96555
▁wife	-7.96555
▁yes	-7.96555
▁achieve	-7.98105
▁activity	-7.98105
▁amazing	-7.98105
▁event	-7.98105
▁fill	-7.98105
▁force	-7.98105
▁grateful	-7.98105
▁journey	-7.98105
▁losing	-7.98105
▁med	-7.98105
▁process	-7.98105
▁project	-7.98105
▁trust	-7.98105
▁young	-7.98105
▁adult	-7.9968
▁became	-7.9968
▁empty	-7.9968
▁major	-7.9968
▁passion	-7.9968
▁act	-8.0128
▁driving	-8.0128
▁entire	-8.0128
▁heard	-8.0128
▁meant	-8.0128
▁soul	-8.0128
▁suck	-8.0128
▁towards	-8.0128
▁turned	-8.0128
▁anyway	-8.02906
▁article	-8.02906
▁exam	-8.02906
▁fail	-8.02906
▁huge	-8.02906
▁information	-8.02906
▁power	-8.02906
▁pushing	-8.02906
▁quit	-8.02906
▁truth	-8.02906
▁barely	-8.04559
▁episode	-8.04559
▁helping	-8.04559
▁kept	-8.04559
▁lack	-8.04559
▁saw	-8.04559
▁sleeping	-8.04559
▁account	-8.0624
▁business	-8.0624
▁mentally	-8.0624
▁message	-8.0624
▁putting	-8.0624
▁simple	-8.0624
▁spiritual	-8.0624
▁using	-8.0624
▁wondering	-8.0624
▁action	-8.07949
▁period	-8.07949
▁straight	-8.07949
▁type	-8.07949
▁absolutely	-8.09688
▁complete	-8.09688
▁cut	-8.09688
▁decision	-8.09688
▁dog	-8.09688
▁explain	-8.09688
▁four	-8.09688
▁greater	-8.09688
▁impact	-8.09688
▁release	-8.09688
▁society	-8.09688
▁suffer	-8.09688
▁born	-8.11458
▁breath	-8.11458
▁choose	-8.11458
▁form	-8.11458
▁hell	-8.11458
▁ready	-8.11458
▁reddit	-8.11458
▁severe	-8.11458
▁somehow	-8.11458
▁strong	-8.11458
▁assignment	-8.1326
▁degree	-8.1326
▁lose	-8.1326
▁movie	-8.1326
▁realized	-8.1326
▁terrible	-8.1326
▁watching	-8.1326
▁across	-8.15095
▁dying	-8.15095
▁focusing	-8.15095
▁goosebump	-8.15095
▁gratitude	-8.15095
▁headache	-8.15095
▁improve	-8.15095
▁listening	-8.15095
▁manage	-8.15095
▁opportunity	-8.15095
▁option	-8.15095
▁pas	-8.15095
▁perspective	-8.15095
▁physically	-8.15095
▁several	-8.15095
▁term	-8.15095
▁weird	-8.15095
▁whats	-8.15095
▁chill	-8.16964
▁cope	-8.16964
▁easier	-8.16964
▁easily	-8.16964
▁hair	-8.16964
▁killing	-8.16964
▁notice	-8.16964
▁tomorrow	-8.16964
▁anger	-8.18869
▁belief	-8.18869
▁chest	-8.18869
▁comfortable	-8.18869
▁cost	-8.18869
▁fight	-8.18869
▁growth	-8.18869
▁opinion	-8.18869
▁overwhelmed	-8.18869
▁participant	-8.18869
▁reduce	-8.18869
▁skill	-8.18869
▁studying	-8.18869
▁understanding	-8.18869
▁water	-8.18869
▁apart	-8.20811
▁comment	-8.20811
▁conversation	-8.20811
▁deserve	-8.20811
▁expect	-8.20811
▁failed	-8.20811
▁following	-8.20811
▁horrible	-8.20811
▁management	-8.20811
▁member	-8.20811
▁numb	-8.20811
▁order	-8.20811
▁simply	-8.20811
▁technique	-8.20811
▁wait	-8.20811
▁allow	-8.22791
▁busy	-8.22791
▁circumstance	-8.22791
▁emotionally	-8.22791
▁exactly	-8.22791
▁fast	-8.22791
▁father	-8.22791
▁finish	-8.22791
▁front	-8.22791
▁gotten	-8.22791
▁known	-8.22791
▁loser	-8.22791
▁mess	-8.22791
▁similar	-8.22791
▁appreciated	-8.24811
▁content	-8.24811
▁fall	-8.24811
▁mine	-8.24811
▁paying	-8.24811
▁questionnaire	-8.24811
▁semester	-8.24811
▁slowly	-8.24811
▁smile	-8.24811
▁son	-8.24811
▁talked	-8.24811
▁tension	-8.24811
▁wave	-8.24811
▁alcohol	-8.26873
▁anybody	-8.26873
▁breakdown	-8.26873
▁contact	-8.26873
▁current	-8.26873
▁hospital	-8.26873
▁ive	-8.26873
▁knowledge	-8.26873
▁multiple	-8.26873
▁related	-8.26873
▁sitting	-8.26873
▁speak	-8.26873
▁weak	-8.26873
▁appreciate	-8.28979
▁comfort	-8.28979
▁cycle	-8.28979
▁eligible	-8.28979
▁final	-8.28979
▁internet	-8.28979
▁miserable	-8.28979
▁number	-8.28979
▁perfect	-8.28979
▁playing	-8.28979
▁relate	-8.28979
▁session	-8.28979
▁stand	-8.28979
▁trauma	-8.28979
▁upset	-8.28979
▁ability	-8.31129
▁dead	-8.31129
▁desire	-8.31129
▁detail	-8.31129
▁died	-8.31129
▁ex	-8.31129
▁fucked	-8.31129
▁harder	-8.31129
▁interesting	-8.31129
▁mad	-8.31129
▁method	-8.31129
▁missing	-8.31129
▁progress	-8.31129
▁sign	-8.31129
▁useless	-8.31129
▁birthday	-8.33327
▁breathing	-8.33327
▁brief	-8.33327
▁causing	-8.33327
▁dark	-8.33327
▁despite	-8.33327
▁ended	-8.33327
▁fix	-8.33327
▁hoping	-8.33327
▁illness	-8.33327
▁line	-8.33327
▁mostly	-8.33327
▁receive	-8.33327
▁shitty	-8.33327
▁caused	-8.35574
▁depressive	-8.35574
▁fault	-8.35574
▁fully	-8.35574
▁grow	-8.35574
▁list	-8.35574
▁manager	-8.35574
▁safe	-8.35574
▁serious	-8.35574
▁sharing	-8.35574
▁broken	-8.37873
▁burden	-8.37873
▁buy	-8.37873
▁chance	-8.37873
▁crazy	-8.37873
▁falling	-8.37873
▁growing	-8.37873
▁keeping	-8.37873
▁moved	-8.37873
▁older	-8.37873
▁podcasts	-8.37873
▁program	-8.37873
▁stomach	-8.37873
▁strength	-8.37873
▁stressing	-8.37873
▁ups	-8.37873
▁yeah	-8.37873
▁although	-8.40226
▁app	-8.40226
▁becoming	-8.40226
▁benefit	-8.40226
▁build	-8.40226
▁city	-8.40226
▁coping	-8.40226
▁effort	-8.40226
▁faith	-8.40226
▁happier	-8.40226
▁ill	-8.40226
▁nature	-8.40226
▁non	-8.40226
▁none	-8.40226
▁noticed	-8.40226
▁supplement	-8.40226
▁weight	-8.40226
▁add	-8.42636
▁allowed	-8.42636
▁computer	-8.42636
▁general	-8.42636
▁honest	-8.42636
▁impossible	-8.42636
▁main	-8.42636
▁oh	-8.42636
▁solution	-8.42636
▁somewhere	-8.42636
▁yesterday	-8.42636
▁art	-8.45105
▁awful	-8.45105
▁balance	-8.45105
▁beginning	-8.45105
▁blood	-8.45105
▁brings	-8.45105
▁case	-8.45105
▁cold	-8.45105
▁drink	-8.45105
▁drinking	-8.45105
▁email	-8.45105
▁failing	-8.45105
▁focused	-8.45105
▁hopefully	-8.45105
▁including	-8.45105
▁key	-8.45105
▁lazy	-8.45105
▁loss	-8.45105
▁meaning	-8.45105
▁nearly	-8.45105
▁position	-8.45105
▁relief	-8.45105
▁source	-8.45105
▁waking	-8.45105
▁waste	-8.45105
▁weekend	-8.45105
▁worrying	-8.45105
▁abuse	-8.47637
▁challenge	-8.47637
▁condition	-8.47637
▁except	-8.47637
▁exist	-8.47637
▁forced	-8.47637
▁gave	-8.47637
▁higher	-8.47637
▁looked	-8.47637
▁passed	-8.47637
▁regret	-8.47637
▁relax	-8.47637
▁running	-8.47637
▁seemed	-8.47637
▁shift	-8.47637
▁skin	-8.47637
▁struggled	-8.47637
▁text	-8.47637
▁uni	-8.47637
▁area	-8.50235
▁avoid	-8.50235
▁beat	-8.50235
▁begin	-8.50235
▁breaking	-8.50235
▁caught	-8.50235
▁escape	-8.50235
▁financial	-8.50235
▁hurting	-8.50235
▁letting	-8.50235
▁platform	-8.50235
▁screen	-8.50235
▁system	-8.50235
▁task	-8.50235
▁tend	-8.50235
▁walking	-8.50235
▁exhausted	-8.52901
▁fighting	-8.52901
▁insecurity	-8.52901
▁joke	-8.52901
▁leaving	-8.52901
▁middle	-8.52901
▁poor	-8.52901
▁psychiatrist	-8.52901
▁reaction	-8.52901
▁seriously	-8.52901
▁specific	-8.52901
▁subject	-8.52901
▁treat	-8.52901
▁vent	-8.52901
▁visit	-8.52901
▁win	-8.52901
▁affect	-8.55641
▁brought	-8.55641
▁com	-8.55641
▁damn	-8.55641
▁door	-8.55641
▁hobby	-8.55641
▁march	-8.55641
▁mention	-8.55641
▁obviously	-8.55641
▁schedule	-8.55641
▁sex	-8.55641
▁sibling	-8.55641
▁throughout	-8.55641
▁toxic	-8.55641
▁tv	-8.55641
▁unable	-8.55641
▁wonder	-8.55641
▁actual	-8.58458
▁attempt	-8.58458
▁badly	-8.58458
▁clear	-8.58458
▁common	-8.58458
▁dating	-8.58458
▁earth	-8.58458
▁excuse	-8.58458
▁feedback	-8.58458
▁field	-8.58458
▁five	-8.58458
▁google	-8.58458
▁homework	-8.58458
▁natural	-8.58458
▁overcome	-8.58458
▁quick	-8.58458
▁random	-8.58458
▁summer	-8.58458
▁sun	-8.58458
▁totally	-8.58458
▁bill	-8.61357
▁card	-8.61357
▁chronic	-8.61357
▁ending	-8.61357
▁excited	-8.61357
▁harm	-8.61357
▁interest	-8.61357
▁personality	-8.61357
▁pill	-8.61357
▁rate	-8.61357
▁suddenly	-8.61357
▁tough	-8.61357
▁worthless	-8.61357
▁afford	-8.64342
▁apartment	-8.64342
▁b	-8.64342
▁bc	-8.64342
▁community	-8.64342
▁cried	-8.64342
▁drop	-8.64342
▁experiencing	-8.64342
▁gf	-8.64342
▁guilty	-8.64342
▁husband	-8.64342
▁immediately	-8.64342
▁laugh	-8.64342
▁male	-8.64342
▁men	-8.64342
▁office	-8.64342
▁paid	-8.64342
▁quickly	-8.64342
▁relaxing	-8.64342
▁response	-8.64342
▁shut	-8.64342
▁staying	-8.64342
▁tear	-8.64342
▁track	-8.64342
▁training	-8.64342
▁travel	-8.64342
▁unless	-8.64342
▁view	-8.64342
▁voice	-8.64342
▁baby	-8.6742
▁building	-8.6742
▁clean	-8.6742
▁closer	-8.6742
▁consider	-8.6742
▁creating	-8.6742
▁date	-8.6742
▁dr	-8.6742
▁education	-8.6742
▁extra	-8.6742
▁fit	-8.6742
▁gift	-8.6742
▁grandma	-8.6742
▁heal	-8.6742
▁lay	-8.6742
▁mum	-8.6742
▁painful	-8.6742
▁partner	-8.6742
▁patience	-8.6742
▁picture	-8.6742
▁piece	-8.6742
▁pretending	-8.6742
▁quote	-8.6742
▁role	-8.6742
▁seek	-8.6742
▁six	-8.6742
▁speaking	-8.6742
▁antidepressant	-8.70595
▁anyways	-8.70595
▁anywhere	-8.70595
▁boundary	-8.70595
▁concentrate	-8.70595
▁confidence	-8.70595
▁credit	-8.70595
▁difference	-8.70595
▁existence	-8.70595
▁filled	-8.70595
▁genuinely	-8.70595
▁greatly	-8.70595
▁held	-8.70595
▁loneliness	-8.70595
▁onto	-8.70595
▁otherwise	-8.70595
▁relieve	-8.70595
▁rich	-8.70595
▁spirit	-8.70595
▁touch	-8.70595
▁trouble	-8.70595
▁uncomfortable	-8.70595
▁air	-8.73874
▁appointment	-8.73874
▁blame	-8.73874
▁changing	-8.73874
▁coffee	-8.73874
▁compassion	-8.73874
▁coronavirus	-8.73874
▁dealt	-8.73874
▁earlier	-8.73874
▁embrace	-8.73874
▁forever	-8.73874
▁frequency	-8.73874
▁fresh	-8.73874
▁ground	-8.73874
▁helpful	-8.73874
▁holding	-8.73874
▁hole	-8.73874
▁inner	-8.73874
▁insomnia	-8.73874
▁lol	-8.73874
▁married	-8.73874
▁math	-8.73874
▁professional	-8.73874
▁public	-8.73874
▁rant	-8.73874
▁rent	-8.73874
▁responsibility	-8.73874
▁seeking	-8.73874
▁special	-8.73874
▁suggestion	-8.73874
▁syndrome	-8.73874
▁topic	-8.73874
▁unhappy	-8.73874
▁younger	-8.73874
▁apple	-8.77264
▁bathroom	-8.77264
▁bought	-8.77264
▁divine	-8.77264
▁dropped	-8.77264
▁environment	-8.77264
▁exact	-8.77264
▁function	-8.77264
▁increase	-8.77264
▁intention	-8.77264
▁lesson	-8.77264
▁managed	-8.77264
▁meditate	-8.77264
▁mindfulness	-8.77264
▁motivated	-8.77264
▁ocd	-8.77264
▁podcast	-8.77264
▁possibly	-8.77264
▁reply	-8.77264
▁routine	-8.77264
▁smart	-8.77264
▁spotify	-8.77264
▁ugly	-8.77264
▁value	-8.77264
▁wont	-8.77264
▁yoga	-8.77264
▁alot	-8.80773
▁animal	-8.80773
▁available	-8.80773
▁biggest	-8.80773
▁bos	-8.80773
▁childhood	-8.80773
▁confused	-8.80773
▁connect	-8.80773
▁deeper	-8.80773
▁definitely	-8.80773
▁didnt	-8.80773
▁distress	-8.80773
▁everytime	-8.80773
▁factor	-8.80773
▁figured	-8.80773
▁holiday	-8.80773
▁incredibly	-8.80773
▁meeting	-8.80773
▁nightmare	-8.80773
▁normally	-8.80773
▁opposite	-8.80773
▁productive	-8.80773
▁sent	-8.80773
▁shown	-8.80773
▁smoking	-8.80773
▁song	-8.80773
▁trigger	-8.80773
▁apply	-8.8441
▁beyond	-8.8441
▁catch	-8.8441
▁concept	-8.8441
▁considered	-8.8441
▁considering	-8.8441
▁darkness	-8.8441
▁develop	-8.8441
▁direction	-8.8441
▁disappointed	-8.8441
▁explains	-8.8441
▁express	-8.8441
▁fell	-8.8441
▁foot	-8.8441
▁graduate	-8.8441
▁guide	-8.8441
▁hang	-8.8441
▁killed	-8.8441
▁law	-8.8441
▁loud	-8.8441
▁master	-8.8441
▁medical	-8.8441
▁mobile	-8.8441
▁offer	-8.8441
▁overwhelming	-8.8441
▁pre	-8.8441
▁quality	-8.8441
▁r	-8.8441
▁road	-8.8441
▁rush	-8.8441
▁selfish	-8.8441
▁send	-8.8441
▁separately	-8.8441
▁sexual	-8.8441
▁slept	-8.8441
▁spending	-8.8441
▁title	-8.8441
▁trained	-8.8441
▁york	-8.8441
▁accident	-8.88184
▁asleep	-8.88184
▁aspect	-8.88184
▁began	-8.88184
▁bother	-8.88184
▁bottom	-8.88184
▁bunch	-8.88184
▁cancer	-8.88184
▁click	-8.88184
▁client	-8.88184
▁cool	-8.88184
▁invited	-8.88184
▁luck	-8.88184
▁material	-8.88184
▁note	-8.88184
▁offering	-8.88184
▁posting	-8.88184
▁presence	-8.88184
▁solve	-8.88184
▁sport	-8.88184
▁teach	-8.88184
▁throw	-8.88184
▁wall	-8.88184
▁wellbeing	-8.88184
▁arm	-8.92106
▁author	-8.92106
▁battle	-8.92106
▁christmas	-8.92106
▁connection	-8.92106
▁crap	-8.92106
▁cuz	-8.92106
▁doubt	-8.92106
▁external	-8.92106
▁fatigue	-8.92106
▁graduated	-8.92106
▁heavy	-8.92106
▁hopeless	-8.92106
▁latest	-8.92106
▁limit	-8.92106
▁ourself	-8.92106
▁participate	-8.92106
▁passionate	-8.92106
▁pull	-8.92106
▁quiet	-8.92106
▁rid	-8.92106
▁science	-8.92106
▁significant	-8.92106
▁store	-8.92106
▁strategy	-8.92106
▁supportive	-8.92106
▁tl	-8.92106
▁tool	-8.92106
▁twice	-8.92106
▁ultimately	-8.92106
▁unfortunately	-8.92106
▁wasted	-8.92106
▁willing	-8.92106
▁worker	-8.92106
▁annoying	-8.96188
▁applied	-8.96188
▁bullshit	-8.96188
▁cared	-8.96188
▁clinician	-8.96188
▁clothes	-8.96188
▁columbia	-8.96188
▁connected	-8.96188
▁created	-8.96188
▁creative	-8.96188
▁cutting	-8.96188
▁decade	-8.96188
▁decide	-8.96188
▁edge	-8.96188
▁edit	-8.96188
▁everybody	-8.96188
▁february	-8.96188
▁identity	-8.96188
▁jump	-8.96188
▁loving	-8.96188
▁managing	-8.96188
▁naturally	-8.96188
▁outcome	-8.96188
▁particularly	-8.96188
▁pathetic	-8.96188
▁planet	-8.96188
▁pleasure	-8.96188
▁powerful	-8.96188
▁provide	-8.96188
▁ptsd	-8.96188
▁refuse	-8.96188
▁respond	-8.96188
▁screaming	-8.96188
▁service	-8.96188
▁stranger	-8.96188
▁terrified	-8.96188
▁tonight	-8.96188
▁trans	-8.96188
▁wrote	-8.96188
▁accomplish	-9.00444
▁besides	-9.00444
▁center	-9.00444
▁checked	-9.00444
▁chi	-9.00444
▁coach	-9.00444
▁compare	-9.00444
▁compensated	-9.00444
▁e	-9.00444
▁ease	-9.00444
▁empathy	-9.00444
▁esteem	-9.00444
▁evening	-9.00444
▁existing	-9.00444
▁feature	-9.00444
▁female	-9.00444
▁film	-9.00444
▁finished	-9.00444
▁forgot	-9.00444
▁frequently	-9.00444
▁generally	-9.00444
▁grew	-9.00444
▁hated	-9.00444
▁hug	-9.00444
▁internal	-9.00444
▁leg	-9.00444
▁liked	-9.00444
▁mechanism	-9.00444
▁misery	-9.00444
▁novel	-9.00444
▁page	-9.00444
▁passing	-9.00444
▁pick	-9.00444
▁properly	-9.00444
▁psychological	-9.00444
▁pushed	-9.00444
▁realised	-9.00444
▁recent	-9.00444
▁recognize	-9.00444
▁regularly	-9.00444
▁repeat	-9.00444
▁root	-9.00444
▁ruined	-9.00444
▁scare	-9.00444
▁scary	-9.00444
▁series	-9.00444
▁somewhat	-9.00444
▁specially	-9.00444
▁stage	-9.00444
▁suffered	-9.00444
▁tho	-9.00444
▁train	-9.00444
▁vacation	-9.00444
▁wear	-9.00444
▁zone	-9.00444
▁accepting	-9.04889
▁acting	-9.04889
▁calling	-9.04889
▁certainly	-9.04889
▁courage	-9.04889
▁decent	-9.04889
▁distance	-9.04889
▁dollar	-9.04889
▁ego	-9.04889
▁embracing	-9.04889
▁english	-9.04889
▁euphoria	-9.04889
▁facing	-9.04889
▁fake	-9.04889
▁hitting	-9.04889
▁ignore	-9.04889
▁imagine	-9.04889
▁influence	-9.04889
▁led	-9.04889
▁load	-9.04889
▁loan	-9.04889
▁monster	-9.04889
▁nervous	-9.04889
▁overthinking	-9.04889
▁per	-9.04889
▁planning	-9.04889
▁played	-9.04889
▁popular	-9.04889
▁prana	-9.04889
▁psychologist	-9.04889
▁reached	-9.04889
▁shared	-9.04889
▁shower	-9.04889
▁slow	-9.04889
▁stick	-9.04889
▁subconscious	-9.04889
▁tea	-9.04889
▁till	-9.04889
▁tiny	-9.04889
▁venting	-9.04889
▁vision	-9.04889
▁wealth	-9.04889
▁abundance	-9.09541
▁addiction	-9.09541
▁allowing	-9.09541
▁apparently	-9.09541
▁argument	-9.09541
▁attitude	-9.09541
▁aura	-9.09541
▁average	-9.09541
▁bf	-9.09541
▁blog	-9.09541
▁channel	-9.09541
▁character	-9.09541
▁chose	-9.09541
▁commit	-9.09541
▁compared	-9.09541
▁contribute	-9.09541
▁cover	-9.09541
▁daughter	-9.09541
▁debt	-9.09541
▁define	-9.09541
▁discover	-9.09541
▁effective	-9.09541
▁exhausting	-9.09541
▁folk	-9.09541
▁followed	-9.09541
▁friendship	-9.09541
▁frustration	-9.09541
▁funny	-9.09541
▁homeless	-9.09541
▁imposter	-9.09541
▁innovative	-9.09541
▁join	-9.09541
▁judgement	-9.09541
▁likely	-9.09541
▁mask	-9.09541
▁medicine	-9.09541
▁news	-9.09541
▁nowhere	-9.09541
▁overall	-9.09541
▁porn	-9.09541
▁pursue	-9.09541
▁react	-9.09541
▁realizing	-9.09541
▁resource	-9.09541
▁rule	-9.09541
▁sensation	-9.09541
▁shake	-9.09541
▁shoulder	-9.09541
▁smoke	-9.09541
▁team	-9.09541
▁teeth	-9.09541
▁telehealth	-9.09541
▁thousand	-9.09541
▁town	-9.09541
▁trash	-9.09541
▁turning	-9.09541
▁utilize	-9.09541
▁war	-9.09541
▁yorkers	-9.09541
▁abusive	-9.1442
▁accepted	-9.1442
▁access	-9.1442
▁adhd	-9.1442
▁agree	-9.1442
▁ahead	-9.1442
▁allows	-9.1442
▁among	-9.1442
▁block	-9.1442
▁bottle	-9.1442
▁bringing	-9.1442
▁conclusion	-9.1442
▁customer	-9.1442
▁defining	-9.1442
▁depressing	-9.1442
▁disappear	-9.1442
▁disease	-9.1442
▁dumb	-9.1442
▁explaining	-9.1442
▁fog	-9.1442
▁gmail	-9.1442
▁greatest	-9.1442
▁hardly	-9.1442
▁improvement	-9.1442
▁income	-9.1442
▁intense	-9.1442
▁kindness	-9.1442
▁lucky	-9.1442
▁near	-9.1442
▁nerve	-9.1442
▁noise	-9.1442
▁particular	-9.1442
▁party	-9.1442
▁prior	-9.1442
▁psychology	-9.1442
▁released	-9.1442
▁respect	-9.1442
▁rn	-9.1442
▁saving	-9.1442
▁season	-9.1442
▁shape	-9.1442
▁showing	-9.1442
▁site	-9.1442
▁snap	-9.1442
▁sober	-9.1442
▁spoken	-9.1442
▁trick	-9.1442
▁useful	-9.1442
▁various	-9.1442
▁vitamin	-9.1442
▁wow	-9.1442
▁xanax	-9.1442
▁added	-9.19549
▁alternative	-9.19549
▁anti	-9.19549
▁application	-9.19549
▁attractive	-9.19549
▁blue	-9.19549
▁bright	-9.19549
▁celebrate	-9.19549
▁deadline	-9.19549
▁deeply	-9.19549
▁ecstasy	-9.19549
▁essay	-9.19549
▁famous	-9.19549
▁floor	-9.19549
▁guilt	-9.19549
▁hide	-9.19549
▁history	-9.19549
▁isolation	-9.19549
▁john	-9.19549
▁journaling	-9.19549
▁judging	-9.19549
▁lift	-9.19549
▁lying	-9.19549
▁mindful	-9.19549
▁missed	-9.19549
▁paper	-9.19549
▁payment	-9.19549
▁pretend	-9.19549
▁rare	-9.19549
▁regular	-9.19549
▁risk	-9.19549
▁roof	-9.19549
▁secret	-9.19549
▁setting	-9.19549
▁smiling	-9.19549
▁spirituality	-9.19549
▁stable	-9.19549
▁stayed	-9.19549
▁stressor	-9.19549
▁stutter	-9.19549
▁sweet	-9.19549
▁third	-9.19549
▁thus	-9.19549
▁upon	-9.19549
▁valid	-9.19549
▁weed	-9.19549
▁wise	-9.19549
▁woke	-9.19549
▁annoyed	-9.24956
▁bigger	-9.24956
▁bitch	-9.24956
▁burnt	-9.24956
▁chat	-9.24956
▁combination	-9.24956
▁consequence	-9.24956
▁convince	-9.24956
▁countless	-9.24956
▁crisis	-9.24956
▁data	-9.24956
▁december	-9.24956
▁development	-9.24956
▁disappointment	-9.24956
▁drawing	-9.24956
▁enjoying	-9.24956
▁fire	-9.24956
▁frustrated	-9.24956
▁happinessnow	-9.24956
▁highschool	-9.24956
▁hormone	-9.24956
▁insane	-9.24956
▁insurance	-9.24956
▁involved	-9.24956
▁january	-9.24956
▁lockdown	-9.24956
▁mid	-9.24956
▁perception	-9.24956
▁performance	-9.24956
▁perhaps	-9.24956
▁planned	-9.24956
▁plant	-9.24956
▁pray	-9.24956
▁prescribed	-9.24956
▁previous	-9.24956
▁produce	-9.24956
▁prove	-9.24956
▁retail	-9.24956
▁return	-9.24956
▁rise	-9.24956
▁rising	-9.24956
▁save	-9.24956
▁severely	-9.24956
▁sometime	-9.24956
▁soothing	-9.24956
▁subreddit	-9.24956
▁sudden	-9.24956
▁surface	-9.24956
▁teaching	-9.24956
▁uk	-9.24956
▁unique	-9.24956
▁voluntary	-9.24956
▁acceptance	-9.30672
▁achieved	-9.30672
▁achieving	-9.30672
▁addition	-9.30672
▁advance	-9.30672
▁affection	-9.30672
▁affirmation	-9.30672
▁anytime	-9.30672
▁background	-9.30672
▁basic	-9.30672
▁blessing	-9.30672
▁capacity	-9.30672
▁chemical	-9.30672
▁closed	-9.30672
▁conscious	-9.30672
▁diet	-9.30672
▁discus	-9.30672
▁doesnt	-9.30672
▁driven	-9.30672
▁drunk	-9.30672
▁everywhere	-9.30672
▁extended	-9.30672
▁f	-9.30672
▁favorite	-9.30672
▁freaking	-9.30672
▁gas	-9.30672
▁grab	-9.30672
▁hearing	-9.30672
▁industry	-9.30672
▁instagram	-9.30672
▁jesus	-9.30672
▁judge	-9.30672
▁lasted	-9.30672
▁laughing	-9.30672
▁local	-9.30672
▁lovely	-9.30672
▁mainly	-9.30672
▁mana	-9.30672
▁meal	-9.30672
▁messed	-9.30672
▁mild	-9.30672
▁mile	-9.30672
▁minor	-9.30672
▁monday	-9.30672
▁mri	-9.30672
▁muscle	-9.30672
▁neither	-9.30672
▁p	-9.30672
▁plus	-9.30672
▁pm	-9.30672
▁posted	-9.30672
▁potential	-9.30672
▁prepared	-9.30672
▁principle	-9.30672
▁private	-9.30672
▁product	-9.30672
▁qi	-9.30672
▁raise	-9.30672
▁rapture	-9.30672
▁realise	-9.30672
▁relaxed	-9.30672
▁reward	-9.30672
▁ride	-9.30672
▁roosh	-9.30672
▁sat	-9.30672
▁senior	-9.30672
▁sentence	-9.30672
▁sky	-9.30672
▁spring	-9.30672
▁succeed	-9.30672
▁table	-9.30672
▁teenager	-9.30672
▁total	-9.30672
▁treated	-9.30672
▁trip	-9.30672
▁zoom	-9.30672
▁abused	-9.36734
▁achievement	-9.36734
▁admit	-9.36734
▁affected	-9.36734
▁approach	-9.36734
▁aside	-9.36734
▁atleast	-9.36734
▁autism	-9.36734
▁basis	-9.36734
▁becomes	-9.36734
▁bike	-9.36734
▁bipolar	-9.36734
▁blocked	-9.36734
▁bothering	-9.36734
▁boy	-9.36734
▁brand	-9.36734
▁c	-9.36734
▁calming	-9.36734
▁cat	-9.36734
▁challenging	-9.36734
▁church	-9.36734
▁clearly	-9.36734
▁club	-9.36734
▁conditioned	-9.36734
▁connecting	-9.36734
▁cup	-9.36734
▁curious	-9.36734
▁differently	-9.36734
▁directly	-9.36734
▁disgusting	-9.36734
▁dramatic	-9.36734
▁draw	-9.36734
▁dull	-9.36734
▁employee	-9.36734
▁endless	-9.36734
▁entirely	-9.36734
▁extreme	-9.36734
▁flow	-9.36734
▁grown	-9.36734
▁guided	-9.36734
▁helpless	-9.36734
▁hot	-9.36734
▁ice	-9.36734
▁identify	-9.36734
▁instantly	-9.36734
▁jeremy	-9.36734
▁journal	-9.36734
▁jumping	-9.36734
▁kick	-9.36734
▁laying	-9.36734
▁map	-9.36734
▁mentioned	-9.36734
▁min	-9.36734
▁motivate	-9.36734
▁nephesch	-9.36734
▁nurse	-9.36734
▁pet	-9.36734
▁pop	-9.36734
▁professor	-9.36734
▁pure	-9.36734
▁raised	-9.36734
▁regarding	-9.36734
▁ruah	-9.36734
▁saved	-9.36734
▁stopping	-9.36734
▁stronger	-9.36734
▁sub	-9.36734
▁taught	-9.36734
▁ten	-9.36734
▁tendency	-9.36734
▁uncle	-9.36734
▁usual	-9.36734
▁wheel	-9.36734
▁wisdom	-9.36734
▁wonderful	-9.36734
▁yelling	-9.36734
▁zero	-9.36734
▁acknowledge	-9.43188
▁attend	-9.43188
▁authentic	-9.43188
▁ball	-9.43188
▁bank	-9.43188
▁boring	-9.43188
▁built	-9.43188
▁carry	-9.43188
▁chore	-9.43188
▁clue	-9.43188
▁completed	-9.43188
▁delete	-9.43188
▁desperate	-9.43188
▁developed	-9.43188
▁difficulty	-9.43188
▁distant	-9.43188
▁distraction	-9.43188
▁entrepreneur	-9.43188
▁essential	-9.43188
▁expected	-9.43188
▁fixed	-9.43188
▁gathering	-9.43188
▁glad	-9.43188
▁gotta	-9.43188
▁gym	-9.43188
▁hanging	-9.43188
▁hardest	-9.43188
▁inevitable	-9.43188
▁inspiration	-9.43188
▁intervention	-9.43188
▁invite	-9.43188
▁laptop	-9.43188
▁large	-9.43188
▁leaf	-9.43188
▁license	-9.43188
▁maintain	-9.43188
▁massive	-9.43188
▁meditating	-9.43188
▁movement	-9.43188
▁necessary	-9.43188
▁noticing	-9.43188
▁ocean	-9.43188
▁painting	-9.43188
▁participation	-9.43188
▁plate	-9.43188
▁police	-9.43188
▁political	-9.43188
▁possibility	-9.43188
▁practicing	-9.43188
▁reaching	-9.43188
▁relaxation	-9.43188
▁review	-9.43188
▁rough	-9.43188
▁ruin	-9.43188
▁rushing	-9.43188
▁score	-9.43188
▁section	-9.43188
▁shaking	-9.43188
▁socially	-9.43188
▁solely	-9.43188
▁supported	-9.43188
▁swear	-9.43188
▁tbh	-9.43188
▁throwing	-9.43188
▁tight	-9.43188
▁tldr	-9.43188
▁tracking	-9.43188
▁trapped	-9.43188
▁trial	-9.43188
▁understood	-9.43188
▁unhealthy	-9.43188
▁version	-9.43188
▁vice	-9.43188
▁violent	-9.43188
▁ward	-9.43188
▁wasting	-9.43188
▁wearing	-9.43188
▁weather	-9.43188
▁winner	-9.43188
▁wishing	-9.43188
▁x	-9.43188
▁youth	-9.43188
▁addict	-9.50088
▁alarm	-9.50088
▁alright	-9.50088
▁appetite	-9.50088
▁applying	-9.50088
▁artist	-9.50088
▁awesome	-9.50088
▁awkward	-9.50088
▁bear	-9.50088
▁believed	-9.50088
▁calendar	-9.50088
▁caring	-9.50088
▁chaos	-9.50088
▁complain	-9.50088
▁confident	-9.50088
▁consume	-9.50088
▁context	-9.50088
▁core	-9.50088
▁criticism	-9.50088
▁culture	-9.50088
▁describe	-9.50088
▁designed	-9.50088
▁desperately	-9.50088
▁driver	-9.50088
▁drowning	-9.50088
▁ear	-9.50088
▁enemy	-9.50088
▁essentially	-9.50088
▁financially	-9.50088
▁flat	-9.50088
▁freedom	-9.50088
▁friday	-9.50088
▁functioning	-9.50088
▁gender	-9.50088
▁graduating	-9.50088
▁guidance	-9.50088
▁hardship	-9.50088
▁improved	-9.50088
▁increased	-9.50088
▁instant	-9.50088
▁interaction	-9.50088
▁isnt	-9.50088
▁l	-9.50088
▁market	-9.50088
▁marriage	-9.50088
▁mg	-9.50088
▁michael	-9.50088
▁nauseous	-9.50088
▁negativity	-9.50088
▁neglect	-9.50088
▁nowadays	-9.50088
▁peaceful	-9.50088
▁perform	-9.50088
▁personally	-9.50088
▁phase	-9.50088
▁piano	-9.50088
▁pissed	-9.50088
▁pleasing	-9.50088
▁plenty	-9.50088
▁promotion	-9.50088
▁quitting	-9.50088
▁radical	-9.50088
▁ran	-9.50088
▁realization	-9.50088
▁recommend	-9.50088
▁recovering	-9.50088
▁reflect	-9.50088
▁resilience	-9.50088
▁resolve	-9.50088
▁sale	-9.50088
▁sensitive	-9.50088
▁shame	-9.50088
▁slip	-9.50088
▁somebody	-9.50088
▁specifically	-9.50088
▁spiral	-9.50088
▁sunshine	-9.50088
▁swept	-9.50088
▁talent	-9.50088
▁ton	-9.50088
▁urge	-9.50088
▁vulnerable	-9.50088
▁walked	-9.50088
▁warm	-9.50088
▁accomplished	-9.57498
▁active	-9.57498
▁advantage	-9.57498
▁afterwards	-9.57498
▁april	-9.57498
▁attached	-9.57498
▁attraction	-9.57498
▁behaviour	-9.57498
▁beloved	-9.57498
▁black	-9.57498
▁blaming	-9.57498
▁bored	-9.57498
▁bothered	-9.57498
▁capable	-9.57498
▁charge	-9.57498
▁chosen	-9.57498
▁clinic	-9.57498
▁co	-9.57498
▁commitment	-9.57498
▁complaining	-9.57498
▁concerned	-9.57498
▁convinced	-9.57498
▁cousin	-9.57498
▁coworker	-9.57498
▁cure	-9.57498
▁destroyed	-9.57498
▁discovered	-9.57498
▁distract	-9.57498
▁dm	-9.57498
▁ether	-9.57498
▁fat	-9.57498
▁finance	-9.57498
▁fkn	-9.57498
▁flip	-9.57498
▁forth	-9.57498
▁gain	-9.57498
▁government	-9.57498
▁gpa	-9.57498
▁grief	-9.57498
▁hamster	-9.57498
▁happiest	-9.57498
▁healthier	-9.57498
▁hoped	-9.57498
▁ielts	-9.57498
▁ignored	-9.57498
▁impacted	-9.57498
▁improving	-9.57498
▁include	-9.57498
▁induced	-9.57498
▁insanely	-9.57498
▁insight	-9.57498
▁melody	-9.57498
▁mentor	-9.57498
▁necessarily	-9.57498
▁observe	-9.57498
▁obvious	-9.57498
▁opening	-9.57498
▁organization	-9.57498
▁pattern	-9.57498
▁paul	-9.57498
▁pause	-9.57498
▁philosophy	-9.57498
▁picked	-9.57498
▁prevent	-9.57498
▁psych	-9.57498
▁punch	-9.57498
▁quarantine	-9.57498
▁rarely	-9.57498
▁received	-9.57498
▁recover	-9.57498
▁recovered	-9.57498
▁restriction	-9.57498
▁rude	-9.57498
▁sadly	-9.57498
▁scenario	-9.57498
▁shot	-9.57498
▁sore	-9.57498
▁spare	-9.57498
▁specialist	-9.57498
▁speed	-9.57498
▁spoke	-9.57498
▁spot	-9.57498
▁standard	-9.57498
▁stroke	-9.57498
▁suggest	-9.57498
▁surrounded	-9.57498
▁survive	-9.57498
▁tested	-9.57498
▁tiring	-9.57498
▁toward	-9.57498
▁unbearable	-9.57498
▁unknown	-9.57498
▁vayu	-9.57498
▁virtual	-9.57498
▁virus	-9.57498
▁vulnerability	-9.57498
▁weakness	-9.57498
▁website	-9.57498
▁white	-9.57498
▁winning	-9.57498
▁winter	-9.57498
▁withdrawal	-9.57498
▁workload	-9.57498
▁written	-9.57498
▁yell	-9.57498
▁abby	-9.65503
▁affecting	-9.65503
▁album	-9.65503
▁ambitious	-9.65503
▁anonymous	-9.65503
▁answering	-9.65503
▁apologize	-9.65503
▁appear	-9.65503
▁arise	-9.65503
▁ashamed	-9.65503
▁august	-9.65503
▁bag	-9.65503
▁band	-9.65503
▁behavior	-9.65503
▁bite	-9.65503
▁cheer	-9.65503
▁claim	-9.65503
▁communicate	-9.65503
▁complicated	-9.65503
▁consistent	-9.65503
▁counselor	-9.65503
▁count	-9.65503
▁craft	-9.65503
▁creativity	-9.65503
▁critical	-9.65503
▁damage	-9.65503
▁damaged	-9.65503
▁dear	-9.65503
▁dick	-9.65503
▁dinner	-9.65503
▁dirty	-9.65503
▁double	-9.65503
▁drama	-9.65503
▁embarrassed	-9.65503
▁everyones	-9.65503
▁evil	-9.65503
▁exercising	-9.65503
▁false	-9.65503
▁faster	-9.65503
▁feed	-9.65503
▁finger	-9.65503
▁gained	-9.65503
▁garbage	-9.65503
▁gentle	-9.65503
▁giant	-9.65503
▁highest	-9.65503
▁hung	-9.65503
▁isolated	-9.65503
▁joined	-9.65503
▁launched	-9.65503
▁letter	-9.65503
▁limiting	-9.65503
▁magic	-9.65503
▁minimum	-9.65503
▁mix	-9.65503
▁negatively	-9.65503
▁numbness	-9.65503
▁paint	-9.65503
▁perfectly	-9.65503
▁persistence	-9.65503
▁price	-9.65503
▁provides	-9.65503
▁remind	-9.65503
▁replace	-9.65503
▁require	-9.65503
▁rock	-9.65503
▁satisfaction	-9.65503
▁scream	-9.65503
▁searching	-9.65503
▁shop	-9.65503
▁silly	-9.65503
▁streaming	-9.65503
▁street	-9.65503
▁teenage	-9.65503
▁temporary	-9.65503
▁toll	-9.65503
▁triggered	-9.65503
▁tunnel	-9.65503
▁tutorial	-9.65503
▁typing	-9.65503
▁ugh	-9.65503
▁understands	-9.65503
▁ungrateful	-9.65503
▁vibe	-9.65503
▁welcome	-9.65503
▁whilst	-9.65503
▁window	-9.65503
▁worthy	-9.65503
▁wound	-9.65503
▁absolute	-9.74204
▁accomplishment	-9.74204
▁accountability	-9.74204
▁adding	-9.74204
▁adrenaline	-9.74204
▁agreed	-9.74204
▁apps	-9.74204
▁argue	-9.74204
▁asshole	-9.74204
▁assume	-9.74204
▁ate	-9.74204
▁attempted	-9.74204
▁aunt	-9.74204
▁avoiding	-9.74204
▁awake	-9.74204
▁beauty	-9.74204
▁bedroom	-9.74204
▁beg	-9.74204
▁boost	-9.74204
▁box	-9.74204
▁bpd	-9.74204
▁burn	-9.74204
▁burning	-9.74204
▁bus	-9.74204
▁buying	-9.74204
▁chapter	-9.74204
▁cheating	-9.74204
▁checking	-9.74204
▁cleaning	-9.74204
▁clock	-9.74204
▁cognitive	-9.74204
▁continuing	-9.74204
▁corona	-9.74204
▁court	-9.74204
▁crash	-9.74204
▁cream	-9.74204
▁dedication	-9.74204
▁definition	-9.74204
▁deserves	-9.74204
▁destination	-9.74204
▁developing	-9.74204
▁diagnosis	-9.74204
▁dig	-9.74204
▁distracted	-9.74204
▁dorm	-9.74204
▁dose	-9.74204
▁dread	-9.74204
▁dude	-9.74204
▁energetic	-9.74204
▁engineering	-9.74204
▁evidence	-9.74204
▁expecting	-9.74204
▁facebook	-9.74204
▁fairly	-9.74204
▁favourite	-9.74204
▁finishing	-9.74204
▁fired	-9.74204
▁flash	-9.74204
▁forgive	-9.74204
▁forgotten	-9.74204
▁fortunate	-9.74204
▁forum	-9.74204
▁gate	-9.74204
▁grandmother	-9.74204
▁gross	-9.74204
▁hating	-9.74204
▁havent	-9.74204
▁healthcare	-9.74204
▁ideal	-9.74204
▁illusion	-9.74204
▁imagining	-9.74204
▁initially	-9.74204
▁injury	-9.74204
▁insecure	-9.74204
▁inspire	-9.74204
▁inspiring	-9.74204
▁leading	-9.74204
▁lexapro	-9.74204
▁lifestyle	-9.74204
▁locked	-9.74204
▁lowest	-9.74204
▁lung	-9.74204
▁majority	-9.74204
▁manipulate	-9.74204
▁marketing	-9.74204
▁measure	-9.74204
▁minimal	-9.74204
▁mirror	-9.74204
▁narcissistic	-9.74204
▁neck	-9.74204
▁neighbor	-9.74204
▁neurologist	-9.74204
▁neutral	-9.74204
▁ob	-9.74204
▁occasionally	-9.74204
▁optimism	-9.74204
▁organized	-9.74204
▁originally	-9.74204
▁overwhelm	-9.74204
▁owner	-9.74204
▁paranoid	-9.74204
▁patient	-9.74204
▁photo	-9.74204
▁pointless	-9.74204
▁potentially	-9.74204
▁promoted	-9.74204
▁proper	-9.74204
▁race	-9.74204
▁realistically	-9.74204
▁recipe	-9.74204
▁red	-9.74204
▁regardless	-9.74204
▁religious	-9.74204
▁reminded	-9.74204
▁remove	-9.74204
▁report	-9.74204
▁restaurant	-9.74204
▁returning	-9.74204
▁river	-9.74204
▁roommate	-9.74204
▁rope	-9.74204
▁row	-9.74204
▁schoolwork	-9.74204
▁seasonal	-9.74204
▁server	-9.74204
▁solo	-9.74204
▁stepped	-9.74204
▁strange	-9.74204
▁suggested	-9.74204
▁sunny	-9.74204
▁surely	-9.74204
▁surprise	-9.74204
▁surprised	-9.74204
▁tends	-9.74204
▁thankful	-9.74204
▁therefore	-9.74204
▁thread	-9.74204
▁trait	-9.74204
▁traumatic	-9.74204
▁underneath	-9.74204
▁unexpected	-9.74204
▁unmotivated	-9.74204
▁victim	-9.74204
▁whose	-9.74204
▁workplace	-9.74204
▁ache	-9.83735
▁activate	-9.83735
▁adderall	-9.83735
▁approval	-9.83735
▁asks	-9.83735
▁beating	-9.83735
▁belong	-9.83735
▁btw	-9.83735
▁bullied	-9.83735
▁bullying	-9.83735
▁bum	-9.83735
▁cake	-9.83735
▁cell	-9.83735
▁cheap	-9.83735
▁cicely	-9.83735
▁cigarette	-9.83735
▁color	-9.83735
▁complex	-9.83735
▁compound	-9.83735
▁concentration	-9.83735
▁consuming	-9.83735
▁continues	-9.83735
▁controlled	-9.83735
▁corner	-9.83735
▁correct	-9.83735
▁correctly	-9.83735
▁counting	-9.83735
▁creator	-9.83735
▁cross	-9.83735
▁crowd	-9.83735
▁crush	-9.83735
▁daisy	-9.83735
▁destroying	-9.83735
▁diabetes	-9.83735
▁diploma	-9.83735
▁discussion	-9.83735
▁draining	-9.83735
▁earning	-9.83735
▁eliminate	-9.83735
▁encouraged	-9.83735
▁enjoyed	-9.83735
▁excitement	-9.83735
▁exhale	-9.83735
▁expensive	-9.83735
▁expert	-9.83735
▁explode	-9.83735
▁explore	-9.83735
▁expressing	-9.83735
▁faking	-9.83735
▁fallen	-9.83735
▁favour	-9.83735
▁filling	-9.83735
▁fold	-9.83735
▁freak	-9.83735
▁freely	-9.83735
▁ghost	-9.83735
▁grad	-9.83735
▁graduation	-9.83735
▁grandpa	-9.83735
▁green	-9.83735
▁gun	-9.83735
▁hiding	-9.83735
▁highly	-9.83735
▁humanity	-9.83735
▁idiot	-9.83735
▁independent	-9.83735
▁india	-9.83735
▁instructor	-9.83735
▁intelligence	-9.83735
▁intrusive	-9.83735
▁irritated	-9.83735
▁j	-9.83735
▁jaw	-9.83735
▁jealous	-9.83735
▁ketamine	-9.83735
▁knife	-9.83735
▁limited	-9.83735
▁lo	-9.83735
▁logical	-9.83735
▁loop	-9.83735
▁lower	-9.83735
▁lunch	-9.83735
▁mailto	-9.83735
▁nervousness	-9.83735
▁numerous	-9.83735
▁obsessive	-9.83735
▁october	-9.83735
▁optimistic	-9.83735
▁participating	-9.83735
▁perseverance	-9.83735
▁picking	-9.83735
▁pound	-9.83735
▁prepare	-9.83735
▁prescription	-9.83735
▁profile	-9.83735
▁projecting	-9.83735
▁protect	-9.83735
▁questioning	-9.83735
▁racing	-9.83735
▁radio	-9.83735
▁rambling	-9.83735
▁reassure	-9.83735
▁receiving	-9.83735
▁recognizing	-9.83735
▁record	-9.83735
▁remembering	-9.83735
▁reminds	-9.83735
▁ringing	-9.83735
▁scale	-9.83735
▁security	-9.83735
▁sell	-9.83735
▁shine	-9.83735
▁shining	-9.83735
▁shy	-9.83735
▁smell	-9.83735
▁snapped	-9.83735
▁south	-9.83735
▁speaker	-9.83735
▁spread	-9.83735
▁sri	-9.83735
▁stare	-9.83735
▁storm	-9.83735
▁strongly	-9.83735
▁subconsciously	-9.83735
▁supervisor	-9.83735
▁taste	-9.83735
▁teen	-9.83735
▁threw	-9.83735
▁thrive	-9.83735
▁touched	-9.83735
▁twitch	-9.83735
▁typically	-9.83735
▁v	-9.83735
▁volunteer	-9.83735
▁wind	-9.83735
▁wished	-9.83735
▁accountable	-9.94271
▁adulthood	-9.94271
▁aim	-9.94271
▁anhedonia	-9.94271
▁answered	-9.94271
▁appearance	-9.94271
▁aspiration	-9.94271
▁associate	-9.94271
▁assumption	-9.94271
▁autistic	-9.94271
▁awhile	-9.94271
▁backwards	-9.94271
▁begun	-9.94271
▁bhagavan	-9.94271
▁bird	-9.94271
▁birth	-9.94271
▁bitter	-9.94271
▁blind	-9.94271
▁bliss	-9.94271
▁bloom	-9.94271
▁board	-9.94271
▁boat	-9.94271
▁bridge	-9.94271
▁buck	-9.94271
▁burned	-9.94271
▁burnout	-9.94271
▁cage	-9.94271
▁canada	-9.94271
▁catastrophic	-9.94271
▁celebration	-9.94271
▁centre	-9.94271
▁chair	-9.94271
▁chasing	-9.94271
▁cheated	-9.94271
▁clarity	-9.94271
▁closest	-9.94271
▁cloud	-9.94271
▁coaching	-9.94271
▁colleague	-9.94271
▁communication	-9.94271
▁commute	-9.94271
▁competition	-9.94271
▁concern	-9.94271
▁consciously	-9.94271
▁consciousness	-9.94271
▁consideration	-9.94271
▁cook	-9.94271
▁cortisol	-9.94271
▁coward	-9.94271
▁creation	-9.94271
▁delivered	-9.94271
▁demon	-9.94271
▁department	-9.94271
▁depend	-9.94271
▁devastating	-9.94271
▁disagree	-9.94271
▁discord	-9.94271
▁dopamine	-9.94271
▁dysphoria	-9.94271
▁eaten	-9.94271
▁ect	-9.94271
▁editing	-9.94271
▁employment	-9.94271
▁encounter	-9.94271
▁entered	-9.94271
▁ethic	-9.94271
▁excellent	-9.94271
▁exciting	-9.94271
▁exhaustion	-9.94271
▁exploring	-9.94271
▁extent	-9.94271
▁fade	-9.94271
▁fair	-9.94271
▁fancy	-9.94271
▁fleeting	-9.94271
▁follows	-9.94271
▁foundation	-9.94271
▁frustrating	-9.94271
▁fulfilled	-9.94271
▁fulfilling	-9.94271
▁gaming	-9.94271
▁gay	-9.94271
▁global	-9.94271
▁gt	-9.94271
▁guitar	-9.94271
▁hall	-9.94271
▁hip	-9.94271
▁hollow	-9.94271
▁hungry	-9.94271
▁hygiene	-9.94271
▁ideation	-9.94271
▁ignorance	-9.94271
▁imagined	-9.94271
▁immediate	-9.94271
▁immune	-9.94271
▁inflicted	-9.94271
▁info	-9.94271
▁irl	-9.94271
▁iron	-9.94271
▁judged	-9.94271
▁junk	-9.94271
▁knocked	-9.94271
▁larger	-9.94271
▁laughed	-9.94271
▁legit	-9.94271
▁lifetime	-9.94271
▁luckily	-9.94271
▁marathon	-9.94271
▁mark	-9.94271
▁meaningful	-9.94271
▁meaningless	-9.94271
▁minded	-9.94271
▁modern	-9.94271
▁mouth	-9.94271
▁nap	-9.94271
▁nausea	-9.94271
▁obstacle	-9.94271
▁odd	-9.94271
▁offered	-9.94271
▁oil	-9.94271
▁opposed	-9.94271
▁panicking	-9.94271
▁pass	-9.94271
▁permission	-9.94271
▁pic	-9.94271
▁playlist	-9.94271
▁poetry	-9.94271
▁positivity	-9.94271
▁productivity	-9.94271
▁progression	-9.94271
▁pulling	-9.94271
▁punishment	-9.94271
▁range	-9.94271
▁rash	-9.94271
▁relatively	-9.94271
▁reliable	-9.94271
▁religion	-9.94271
▁remembered	-9.94271
▁reminder	-9.94271
▁replaced	-9.94271
▁request	-9.94271
▁resistance	-9.94271
▁restilen	-9.94271
▁sacred	-9.94271
▁sake	-9.94271
▁scientist	-9.94271
▁screamed	-9.94271
▁screwed	-9.94271
▁search	-9.94271
▁seven	-9.94271
▁shell	-9.94271
▁shopping	-9.94271
▁shortly	-9.94271
▁significantly	-9.94271
▁silence	-9.94271
▁silent	-9.94271
▁smarter	-9.94271
▁somethings	-9.94271
▁spark	-9.94271
▁spiraling	-9.94271
▁statement	-9.94271
▁stem	-9.94271
▁succeeding	-9.94271
▁surgery	-9.94271
▁surrounding	-9.94271
▁suspect	-9.94271
▁sweat	-9.94271
▁swim	-9.94271
▁switch	-9.94271
▁tap	-9.94271
▁target	-9.94271
▁thankfully	-9.94271
▁toilet	-9.94271
▁transform	-9.94271
▁tutor	-9.94271
▁tw	-9.94271
▁uncertainty	-9.94271
▁unemployed	-9.94271
▁unlearning	-9.94271
▁user	-9.94271
▁validation	-9.94271
▁via	-9.94271
▁victory	-9.94271
▁visited	-9.94271
▁vital	-9.94271
▁vivid	-9.94271
▁warmth	-9.94271
▁abuser	-10.0605
▁according	-10.0605
▁actively	-10.0605
▁address	-10.0605
▁adopt	-10.0605
▁agony	-10.0605
▁ambition	-10.0605
▁amsterdam	-10.0605
▁ascension	-10.0605
▁assessment	-10.0605
▁attachment	-10.0605
▁attending	-10.0605
▁attract	-10.0605
▁australia	-10.0605
▁automatically	-10.0605
▁banned	-10.0605
▁bell	-10.0605
▁betrayed	-10.0605
▁bi	-10.0605
▁blocking	-10.0605
▁blown	-10.0605
▁brighter	-10.0605
▁bucket	-10.0605
▁bully	-10.0605
▁burst	-10.0605
▁caffeine	-10.0605
▁campus	-10.0605
▁cancel	-10.0605
▁ceo	-10.0605
▁certification	-10.0605
▁characteristic	-10.0605
▁charity	-10.0605
▁chase	-10.0605
▁collection	-10.0605
▁competitive	-10.0605
▁conditioning	-10.0605
▁conducting	-10.0605
▁confide	-10.0605
▁conflict	-10.0605
▁confront	-10.0605
▁consistently	-10.0605
▁consumption	-10.0605
▁contentment	-10.0605
▁counseling	-10.0605
▁creates	-10.0605
▁cruel	-10.0605
▁crushing	-10.0605
▁dance	-10.0605
▁dare	-10.0605
▁deficiency	-10.0605
▁dependent	-10.0605
▁depressant	-10.0605
▁depth	-10.0605
▁determine	-10.0605
▁device	-10.0605
▁drag	-10.0605
▁drained	-10.0605
▁drift	-10.0605
▁drove	-10.0605
▁dry	-10.0605
▁educational	-10.0605
▁effectively	-10.0605
▁elementary	-10.0605
▁emptiness	-10.0605
▁engage	-10.0605
▁engaged	-10.0605
▁enjoyment	-10.0605
▁envy	-10.0605
▁equal	-10.0605
▁error	-10.0605
▁examining	-10.0605
▁explanation	-10.0605
▁expression	-10.0605
▁faced	-10.0605
▁fantastic	-10.0605
▁faridabad	-10.0605
▁fi	-10.0605
▁firm	-10.0605
▁fish	-10.0605
▁fixing	-10.0605
▁flower	-10.0605
▁fly	-10.0605
▁fought	-10.0605
▁frequent	-10.0605
▁freshman	-10.0605
▁fruit	-10.0605
▁fuel	-10.0605
▁fulfillment	-10.0605
▁gap	-10.0605
▁goddamn	-10.0605
▁goodbye	-10.0605
▁greatness	-10.0605
▁grey	-10.0605
▁grind	-10.0605
▁grocery	-10.0605
▁grounded	-10.0605
▁gut	-10.0605
▁h	-10.0605
▁haha	-10.0605
▁happily	-10.0605
▁harmful	-10.0605
▁harming	-10.0605
▁headed	-10.0605
▁heartbroken	-10.0605
▁hence	-10.0605
▁hidden	-10.0605
▁hill	-10.0605
▁holy	-10.0605
▁hr	-10.0605
▁hughes	-10.0605
▁hundred	-10.0605
▁ignorant	-10.0605
▁ignoring	-10.0605
▁importance	-10.0605
▁infinite	-10.0605
▁ingredient	-10.0605
▁instance	-10.0605
▁interact	-10.0605
▁introverted	-10.0605
▁irritable	-10.0605
▁ishtar	-10.0605
▁item	-10.0605
▁july	-10.0605
▁language	-10.0605
▁lb	-10.0605
▁league	-10.0605
▁linear	-10.0605
▁linked	-10.0605
▁lisa	-10.0605
▁listened	-10.0605
▁literal	-10.0605
▁loose	-10.0605
▁loosing	-10.0605
▁maintaining	-10.0605
▁manageable	-10.0605
▁manner	-10.0605
▁marine	-10.0605
▁meantime	-10.0605
▁meanwhile	-10.0605
▁migraine	-10.0605
▁monthly	-10.0605
▁motion	-10.0605
▁motivational	-10.0605
▁motorcycle	-10.0605
▁netflix	-10.0605
▁noisy	-10.0605
▁november	-10.0605
▁obsessing	-10.0605
▁occasion	-10.0605
▁opened	-10.0605
▁outlet	-10.0605
▁perfectionist	-10.0605
▁pile	-10.0605
▁practical	-10.0605
▁practiced	-10.0605
▁pregnancy	-10.0605
▁previously	-10.0605
▁procrastinating	-10.0605
▁providing	-10.0605
▁psyche	-10.0605
▁pursuing	-10.0605
▁randomly	-10.0605
▁recommendation	-10.0605
▁relapse	-10.0605
▁relieving	-10.0605
▁repeating	-10.0605
▁replied	-10.0605
▁ritual	-10.0605
▁rut	-10.0605
▁screw	-10.0605
▁secure	-10.0605
▁selling	-10.0605
▁sergio	-10.0605
▁sharp	-10.0605
▁showed	-10.0605
▁size	-10.0605
▁slightly	-10.0605
▁solving	-10.0605
▁sooner	-10.0605
▁split	-10.0605
▁staring	-10.0605
▁strict	-10.0605
▁striving	-10.0605
▁structure	-10.0605
▁studied	-10.0605
▁studio	-10.0605
▁stuttering	-10.0605
▁succeeded	-10.0605
▁sucking	-10.0605
▁sunlight	-10.0605
▁suppose	-10.0605
▁technology	-10.0605
▁temporarily	-10.0605
▁theory	-10.0605
▁thesis	-10.0605
▁throat	-10.0605
▁timing	-10.0605
▁tiredness	-10.0605
▁toy	-10.0605
▁traffic	-10.0605
▁trainer	-10.0605
▁trap	-10.0605
▁tree	-10.0605
▁truck	-10.0605
▁twenty	-10.0605
▁twitter	-10.0605
▁unnecessary	-10.0605
▁unwanted	-10.0605
▁vibrating	-10.0605
▁wage	-10.0605
▁warning	-10.0605
▁wasnt	-10.0605
▁watched	-10.0605
▁web	-10.0605
▁weekly	-10.0605
▁wendy	-10.0605
▁whatsoever	-10.0605
▁writer	-10.0605
▁abundant	-10.194
▁academic	-10.194
▁ad	-10.194
▁afternoon	-10.194
▁agency	-10.194
▁alice	-10.194
▁animation	-10.194
▁appreciation	-10.194
▁arguing	-10.194
▁asap	-10.194
▁attempting	-10.194
▁audio	-10.194
▁award	-10.194
▁battling	-10.194
▁begged	-10.194
▁bless	-10.194
▁blow	-10.194
▁bone	-10.194
▁breakfast	-10.194
▁brilliant	-10.194
▁brink	-10.194
▁brush	-10.194
▁bump	-10.194
▁careful	-10.194
▁cbt	-10.194
▁challenged	-10.194
▁circle	-10.194
▁climate	-10.194
▁clinical	-10.194
▁clip	-10.194
▁code	-10.194
▁committed	-10.194
▁compassionate	-10.194
▁completing	-10.194
▁consistency	-10.194
▁controlling	-10.194
▁covered	-10.194
▁crippling	-10.194
▁cuddle	-10.194
▁cured	-10.194
▁cute	-10.194
▁dangerous	-10.194
▁dated	-10.194
▁de	-10.194
▁decides	-10.194
▁dedicated	-10.194
▁defensive	-10.194
▁demand	-10.194
▁dentist	-10.194
▁derlin	-10.194
▁described	-10.194
▁design	-10.194
▁desired	-10.194
▁destructive	-10.194
▁detached	-10.194
▁diagnose	-10.194
▁digital	-10.194
▁disabled	-10.194
▁discipline	-10.194
▁dysfunctional	-10.194
▁effexor	-10.194
▁employer	-10.194
▁enrolled	-10.194
▁entering	-10.194
▁evolving	-10.194
▁expects	-10.194
▁explained	-10.194
▁file	-10.194
▁firstly	-10.194
▁football	-10.194
▁fragile	-10.194
▁fuckin	-10.194
▁fund	-10.194
▁gaining	-10.194
▁garden	-10.194
▁generation	-10.194
▁glass	-10.194
▁grace	-10.194
▁greener	-10.194
▁grenade	-10.194
▁grieving	-10.194
▁handling	-10.194
▁hometown	-10.194
▁horny	-10.194
▁horribly	-10.194
▁hospitalized	-10.194
▁humor	-10.194
▁hunt	-10.194
▁hyper	-10.194
▁ignores	-10.194
▁importantly	-10.194
▁impressed	-10.194
▁inhale	-10.194
▁intensely	-10.194
▁intent	-10.194
▁internship	-10.194
▁involve	-10.194
▁involves	-10.194
▁ironic	-10.194
▁jennifer	-10.194
▁june	-10.194
▁justified	-10.194
▁kicked	-10.194
▁kingdom	-10.194
▁km	-10.194
▁leader	-10.194
▁lightheadedness	-10.194
▁longevity	-10.194
▁machine	-10.194
▁magically	-10.194
▁mantra	-10.194
▁meh	-10.194
▁messing	-10.194
▁meth	-10.194
▁million	-10.194
▁mixed	-10.194
▁mode	-10.194
▁momma	-10.194
▁mountain	-10.194
▁named	-10.194
▁neglected	-10.194
▁nootropic	-10.194
▁obsession	-10.194
▁occurred	-10.194
▁oneself	-10.194
▁orange	-10.194
▁orgasm	-10.194
▁original	-10.194
▁overnight	-10.194
▁overthink	-10.194
▁paranoia	-10.194
▁park	-10.194
▁pc	-10.194
▁perceived	-10.194
▁perfection	-10.194
▁perfectionism	-10.194
▁petty	-10.194
▁phrase	-10.194
▁physiological	-10.194
▁pit	-10.194
▁pity	-10.194
▁pocket	-10.194
▁pounding	-10.194
▁practise	-10.194
▁pregnant	-10.194
▁press	-10.194
▁pretended	-10.194
▁promise	-10.194
▁prompt	-10.194
▁punished	-10.194
▁purchase	-10.194
▁pussy	-10.194
▁qualified	-10.194
▁rain	-10.194
▁rajinder	-10.194
▁rapidly	-10.194
▁rapist	-10.194
▁recognise	-10.194
▁recorded	-10.194
▁recovery	-10.194
▁reducing	-10.194
▁regard	-10.194
▁rejected	-10.194
▁relapsed	-10.194
▁relearning	-10.194
▁removed	-10.194
▁researcher	-10.194
▁researching	-10.194
▁resulting	-10.194
▁romantic	-10.194
▁rushed	-10.194
▁satisfying	-10.194
▁scratch	-10.194
▁scrolling	-10.194
▁semi	-10.194
▁sending	-10.194
▁september	-10.194
▁serve	-10.194
▁settle	-10.194
▁sexuality	-10.194
▁sh	-10.194
▁shes	-10.194
▁shoe	-10.194
▁shouldnt	-10.194
▁snow	-10.194
▁socialize	-10.194
▁soft	-10.194
▁software	-10.194
▁speech	-10.194
▁spine	-10.194
▁sticking	-10.194
▁stone	-10.194
▁stood	-10.194
▁subscribe	-10.194
▁sucked	-10.194
▁suit	-10.194
▁surgeon	-10.194
▁surroundings	-10.194
▁swimming	-10.194
▁tearing	-10.194
▁tense	-10.194
▁terminal	-10.194
▁threat	-10.194
▁threatening	-10.194
▁thrown	-10.194
▁thru	-10.194
▁tied	-10.194
▁tongue	-10.194
▁trade	-10.194
▁trusted	-10.194
▁tuesday	-10.194
▁typical	-10.194
▁ultimate	-10.194
▁update	-10.194
▁upside	-10.194
▁videogames	-10.194
▁visual	-10.194
▁visualization	-10.194
▁wherever	-10.194
▁wide	-10.194
▁willpower	-10.194
▁workout	-10.194
▁www	-10.194
▁yea	-10.194
▁yo	-10.194
▁abandoned	-10.3482
▁abrupt	-10.3482
▁accidentally	-10.3482
▁acquire	-10.3482
▁addicted	-10.3482
▁affordable	-10.3482
▁agreeing	-10.3482
▁alleviate	-10.3482
▁american	-10.3482
▁announced	-10.3482
▁apologized	-10.3482
▁approved	-10.3482
▁ashwagandha	-10.3482
▁assault	-10.3482
▁associated	-10.3482
▁assuming	-10.3482
▁assure	-10.3482
▁attain	-10.3482
▁bachelor	-10.3482
▁backed	-10.3482
▁bald	-10.3482
▁barrier	-10.3482
▁base	-10.3482
▁believer	-10.3482
▁berate	-10.3482
▁betrayal	-10.3482
▁betty	-10.3482
▁binge	-10.3482
▁biological	-10.3482
▁blank	-10.3482
▁blockage	-10.3482
▁bout	-10.3482
▁bread	-10.3482
▁briefly	-10.3482
▁brushing	-10.3482
▁buddha	-10.3482
▁bug	-10.3482
▁bummed	-10.3482
▁calmness	-10.3482
▁capital	-10.3482
▁cbd	-10.3482
▁chatbot	-10.3482
▁chatting	-10.3482
▁cheat	-10.3482
▁christian	-10.3482
▁classmate	-10.3482
▁clearing	-10.3482
▁clinically	-10.3482
▁clothing	-10.3482
▁collected	-10.3482
▁confusion	-10.3482
▁cooking	-10.3482
▁copy	-10.3482
▁counsellor	-10.3482
▁crave	-10.3482
▁creep	-10.3482
▁cube	-10.3482
▁dalai	-10.3482
▁danger	-10.3482
▁davis	-10.3482
▁decrease	-10.3482
▁delhi	-10.3482
▁deny	-10.3482
▁depending	-10.3482
▁detailed	-10.3482
▁diaphram	-10.3482
▁digging	-10.3482
▁direct	-10.3482
▁director	-10.3482
▁disappoint	-10.3482
▁discussing	-10.3482
▁dislike	-10.3482
▁dissatisfied	-10.3482
▁dizziness	-10.3482
▁dna	-10.3482
▁download	-10.3482
▁downstairs	-10.3482
▁dozen	-10.3482
▁drank	-10.3482
▁dust	-10.3482
▁ebook	-10.3482
▁economy	-10.3482
▁effected	-10.3482
▁embarrassing	-10.3482
▁emits	-10.3482
▁empowerment	-10.3482
▁endure	-10.3482
▁engaging	-10.3482
▁enjoyable	-10.3482
▁ensure	-10.3482
▁eternal	-10.3482
▁evolve	-10.3482
▁excessive	-10.3482
▁exchange	-10.3482
▁expand	-10.3482
▁fame	-10.3482
▁familiar	-10.3482
▁fantasize	-10.3482
▁farther	-10.3482
▁fearful	-10.3482
▁feb	-10.3482
▁fiction	-10.3482
▁figuring	-10.3482
▁fool	-10.3482
▁forcing	-10.3482
▁formula	-10.3482
▁fortune	-10.3482
▁frankly	-10.3482
▁fred	-10.3482
▁friendly	-10.3482
▁fulfill	-10.3482
▁functional	-10.3482
▁fundraiser	-10.3482
▁genuine	-10.3482
▁germany	-10.3482
▁ghosted	-10.3482
▁gp	-10.3482
▁grand	-10.3482
▁grandfather	-10.3482
▁grass	-10.3482
▁greedy	-10.3482
▁guard	-10.3482
▁hallucination	-10.3482
▁ham	-10.3482
▁headspace	-10.3482
▁heartbreak	-10.3482
▁heat	-10.3482
▁heck	-10.3482
▁helper	-10.3482
▁hilarious	-10.3482
▁hire	-10.3482
▁hoo	-10.3482
▁hopeful	-10.3482
▁horizon	-10.3482
▁id	-10.3482
▁imagination	-10.3482
▁immense	-10.3482
▁impacting	-10.3482
▁incredible	-10.3482
▁informed	-10.3482
▁infusion	-10.3482
▁interacting	-10.3482
▁internally	-10.3482
▁invested	-10.3482
▁iq	-10.3482
▁iva	-10.3482
▁jazz	-10.3482
▁juice	-10.3482
▁junior	-10.3482
▁karma	-10.3482
▁kitchen	-10.3482
▁laid	-10.3482
▁lama	-10.3482
▁land	-10.3482
▁lash	-10.3482
▁lasting	-10.3482
▁lastly	-10.3482
▁laundry	-10.3482
▁learnt	-10.3482
▁lied	-10.3482
▁lingering	-10.3482
▁lip	-10.3482
▁listed	-10.3482
▁listens	-10.3482
▁lmk	-10.3482
▁location	-10.3482
▁lock	-10.3482
▁longest	-10.3482
▁lyme	-10.3482
▁magnesium	-10.3482
▁magnetic	-10.3482
▁manic	-10.3482
▁manifest	-10.3482
▁mariana	-10.3482
▁mastery	-10.3482
▁mccartney	-10.3482
▁mentality	-10.3482
▁messy	-10.3482
▁midterm	-10.3482
▁milk	-10.3482
▁minuscule	-10.3482
▁miriam	-10.3482
▁mission	-10.3482
▁model	-10.3482
▁monetary	-10.3482
▁national	-10.3482
▁network	-10.3482
▁neurological	-10.3482
▁notification	-10.3482
▁numbing	-10.3482
▁object	-10.3482
▁objective	-10.3482
▁occasional	-10.3482
▁oldest	-10.3482
▁ongoing	-10.3482
▁outlook	-10.3482
▁overbearing	-10.3482
▁owe	-10.3482
▁oxygen	-10.3482
▁packed	-10.3482
▁pakistan	-10.3482
▁panicked	-10.3482
▁partly	-10.3482
▁passenger	-10.3482
▁peer	-10.3482
▁permanently	-10.3482
▁plane	-10.3482
▁pleasant	-10.3482
▁po	-10.3482
▁poll	-10.3482
▁pool	-10.3482
▁positively	-10.3482
▁ppl	-10.3482
▁praying	-10.3482
▁precious	-10.3482
▁preference	-10.3482
▁preparation	-10.3482
▁preparing	-10.3482
▁primary	-10.3482
▁priority	-10.3482
▁processing	-10.3482
▁professionally	-10.3482
▁progressively	-10.3482
▁promised	-10.3482
▁proven	-10.3482
▁provider	-10.3482
▁psychotic	-10.3482
▁pursuit	-10.3482
▁puzzle	-10.3482
▁quiz	-10.3482
▁racist	-10.3482
▁ramana	-10.3482
▁raped	-10.3482
▁realign	-10.3482
▁realistic	-10.3482
▁reasonable	-10.3482
▁reckless	-10.3482
▁recording	-10.3482
▁relating	-10.3482
▁releasing	-10.3482
▁reliever	-10.3482
▁rely	-10.3482
▁remain	-10.3482
▁remote	-10.3482
▁repair	-10.3482
▁repeated	-10.3482
▁repeatedly	-10.3482
▁required	-10.3482
▁requirement	-10.3482
▁reside	-10.3482
▁responsible	-10.3482
▁resting	-10.3482
▁restless	-10.3482
▁retarded	-10.3482
▁retired	-10.3482
▁rewire	-10.3482
▁rewiring	-10.3482
▁rhythm	-10.3482
▁robert	-10.3482
▁roll	-10.3482
▁rotten	-10.3482
▁rupee	-10.3482
▁safety	-10.3482
▁samadhi	-10.3482
▁sandwich	-10.3482
▁satisfied	-10.3482
▁scene	-10.3482
▁seemingly	-10.3482
▁seizure	-10.3482
▁selfishness	-10.3482
▁sends	-10.3482
▁sens	-10.3482
▁separate	-10.3482
▁settling	-10.3482
▁shall	-10.3482
▁shallow	-10.3482
▁shocked	-10.3482
▁shooting	-10.3482
▁shorter	-10.3482
▁signing	-10.3482
▁sincerely	-10.3482
▁sing	-10.3482
▁slot	-10.3482
▁smallest	-10.3482
▁snack	-10.3482
▁sobbing	-10.3482
▁someday	-10.3482
▁sophomore	-10.3482
▁soreness	-10.3482
▁sorrow	-10.3482
▁sought	-10.3482
▁specie	-10.3482
▁square	-10.3482
▁ssri	-10.3482
▁standing	-10.3482
▁stated	-10.3482
▁status	-10.3482
▁stereotype	-10.3482
▁strain	-10.3482
▁straw	-10.3482
▁stretch	-10.3482
▁style	-10.3482
▁subjective	-10.3482
▁substance	-10.3482
▁sugar	-10.3482
▁survival	-10.3482
▁swarm	-10.3482
▁swing	-10.3482
▁tablet	-10.3482
▁tall	-10.3482
▁thigh	-10.3482
▁thinker	-10.3482
▁tie	-10.3482
▁timeline	-10.3482
▁totaled	-10.3482
▁trace	-10.3482
▁trajectory	-10.3482
▁transmitter	-10.3482
▁trend	-10.3482
▁trendy	-10.3482
▁triggering	-10.3482
▁troll	-10.3482
▁twelve	-10.3482
▁unit	-10.3482
▁unrealistic	-10.3482
▁unstable	-10.3482
▁unsure	-10.3482
▁upsetting	-10.3482
▁usu	-10.3482
▁vaccine	-10.3482
▁vehicle	-10.3482
▁venture	-10.3482
▁verbally	-10.3482
▁vibration	-10.3482
▁viewing	-10.3482
▁villain	-10.3482
▁wallow	-10.3482
▁wash	-10.3482
▁wedding	-10.3482
▁wellness	-10.3482
▁whoever	-10.3482
▁widow	-10.3482
▁wild	-10.3482
▁wrapped	-10.3482
▁wrist	-10.3482
▁yelled	-10.3482
▁yellow	-10.3482
▁yr	-10.3482
▁zoloft	-10.3482
▁abnormal	-10.5305
▁academically	-10.5305
▁acceptable	-10.5305
▁acid	-10.5305
▁acknowledging	-10.5305
▁additional	-10.5305
▁addressed	-10.5305
▁adopted	-10.5305
▁adventure	-10.5305
▁aged	-10.5305
▁aggressive	-10.5305
▁aid	-10.5305
▁aka	-10.5305
▁ally	-10.5305
▁alt	-10.5305
▁amazon	-10.5305
▁america	-10.5305
▁amplified	-10.5305
▁analogy	-10.5305
▁anyones	-10.5305
▁ap	-10.5305
▁apologise	-10.5305
▁approximately	-10.5305
▁apt	-10.5305
▁arent	-10.5305
▁arises	-10.5305
▁army	-10.5305
▁assistance	-10.5305
▁athlete	-10.5305
▁auric	-10.5305
▁avoided	-10.5305
▁baggage	-10.5305
▁balanced	-10.5305
▁baseline	-10.5305
▁bedtime	-10.5305
▁begging	-10.5305
▁beginner	-10.5305
▁belly	-10.5305
▁bio	-10.5305
▁blamed	-10.5305
▁blanket	-10.5305
▁bleeding	-10.5305
▁blessed	-10.5305
▁blurry	-10.5305
▁bombarded	-10.5305
▁bowel	-10.5305
▁brake	-10.5305
▁branch	-10.5305
▁breakup	-10.5305
▁breathwork	-10.5305
▁buddhist	-10.5305
▁budget	-10.5305
▁candle	-10.5305
▁capability	-10.5305
▁carrot	-10.5305
▁carrying	-10.5305
▁cartoon	-10.5305
▁catching	-10.5305
▁category	-10.5305
▁ceiling	-10.5305
▁celebrated	-10.5305
▁chakras	-10.5305
▁chart	-10.5305
▁cherish	-10.5305
▁chip	-10.5305
▁clarify	-10.5305
▁climbing	-10.5305
▁cluster	-10.5305
▁cocktail	-10.5305
▁comforting	-10.5305
▁complaint	-10.5305
▁compliment	-10.5305
▁concentrating	-10.5305
▁conference	-10.5305
▁confirm	-10.5305
▁conquer	-10.5305
▁contacting	-10.5305
▁contributes	-10.5305
▁contribution	-10.5305
▁cop	-10.5305
▁counselling	-10.5305
▁counter	-10.5305
▁counteract	-10.5305
▁coworkers	-10.5305
▁cracked	-10.5305
▁crashing	-10.5305
▁craving	-10.5305
▁creepy	-10.5305
▁crimsonpill	-10.5305
▁crushed	-10.5305
▁cum	-10.5305
▁curl	-10.5305
▁cuss	-10.5305
▁cutest	-10.5305
▁darkest	-10.5305
▁debate	-10.5305
▁deciding	-10.5305
▁decline	-10.5305
▁dedicate	-10.5305
▁deepest	-10.5305
▁defense	-10.5305
▁delisa	-10.5305
▁denied	-10.5305
▁depleted	-10.5305
▁deserved	-10.5305
▁desk	-10.5305
▁despair	-10.5305
▁desperation	-10.5305
▁determination	-10.5305
▁determined	-10.5305
▁determines	-10.5305
▁devere	-10.5305
▁dieing	-10.5305
▁disability	-10.5305
▁dish	-10.5305
▁disturbing	-10.5305
▁divorced	-10.5305
▁dizzy	-10.5305
▁downhill	-10.5305
▁drain	-10.5305
▁drown	-10.5305
▁dwell	-10.5305
▁dy	-10.5305
▁earn	-10.5305
▁easiest	-10.5305
▁economic	-10.5305
▁ed	-10.5305
▁edited	-10.5305
▁elevate	-10.5305
▁emailed	-10.5305
▁employed	-10.5305
▁encouragement	-10.5305
▁endeavor	-10.5305
▁engineer	-10.5305
▁enhance	-10.5305
▁enters	-10.5305
▁entrepreneurship	-10.5305
▁epilepsy	-10.5305
▁euphoric	-10.5305
▁evolution	-10.5305
▁evolved	-10.5305
▁exaggerating	-10.5305
▁excess	-10.5305
▁executive	-10.5305
▁existential	-10.5305
▁exit	-10.5305
▁exiting	-10.5305
▁explores	-10.5305
▁exposed	-10.5305
▁exposure	-10.5305
▁fan	-10.5305
▁fantasy	-10.5305
▁fellow	-10.5305
▁fewer	-10.5305
▁fitness	-10.5305
▁flake	-10.5305
▁flashback	-10.5305
▁flight	-10.5305
▁florence	-10.5305
▁foggy	-10.5305
▁follower	-10.5305
▁forehead	-10.5305
▁forest	-10.5305
▁fundamental	-10.5305
▁funeral	-10.5305
▁gather	-10.5305
▁ged	-10.5305
▁genetic	-10.5305
▁golden	-10.5305
▁granted	-10.5305
▁grasp	-10.5305
▁gravity	-10.5305
▁grieve	-10.5305
▁grinding	-10.5305
▁grows	-10.5305
▁grudge	-10.5305
▁hanged	-10.5305
▁hardworking	-10.5305
▁harsh	-10.5305
▁heath	-10.5305
▁highway	-10.5305
▁hormonal	-10.5305
▁horse	-10.5305
▁humour	-10.5305
▁image	-10.5305
▁included	-10.5305
▁increasingly	-10.5305
▁indeed	-10.5305
▁inevitably	-10.5305
▁inferior	-10.5305
▁intake	-10.5305
▁intended	-10.5305
▁intensity	-10.5305
▁intentionally	-10.5305
▁interfere	-10.5305
▁invest	-10.5305
▁iphone	-10.5305
▁irrational	-10.5305
▁island	-10.5305
▁israel	-10.5305
▁james	-10.5305
▁japanese	-10.5305
▁judgmental	-10.5305
▁julie	-10.5305
▁justify	-10.5305
▁kidney	-10.5305
▁king	-10.5305
▁kiss	-10.5305
▁kyle	-10.5305
▁lab	-10.5305
▁label	-10.5305
▁labor	-10.5305
▁landed	-10.5305
▁lane	-10.5305
▁laughter	-10.5305
▁layer	-10.5305
▁lecture	-10.5305
▁length	-10.5305
▁libido	-10.5305
▁liking	-10.5305
▁litterally	-10.5305
▁loathing	-10.5305
▁log	-10.5305
▁logically	-10.5305
▁london	-10.5305
▁lover	-10.5305
▁loyal	-10.5305
▁luxury	-10.5305
▁massage	-10.5305
▁match	-10.5305
▁mature	-10.5305
▁measurable	-10.5305
▁medically	-10.5305
▁meme	-10.5305
▁messaged	-10.5305
▁midnight	-10.5305
▁miracle	-10.5305
▁mobilize	-10.5305
▁moon	-10.5305
▁moral	-10.5305
▁moreover	-10.5305
▁mutual	-10.5305
▁narcissist	-10.5305
▁nigel	-10.5305
▁nootropics	-10.5305
▁nope	-10.5305
▁norma	-10.5305
▁normalcy	-10.5305
▁nursing	-10.5305
▁nut	-10.5305
▁nutrition	-10.5305
▁obese	-10.5305
▁occur	-10.5305
▁ofc	-10.5305
▁officer	-10.5305
▁origin	-10.5305
▁ounce	-10.5305
▁output	-10.5305
▁outstanding	-10.5305
▁outward	-10.5305
▁overseas	-10.5305
▁overweight	-10.5305
▁paced	-10.5305
▁packing	-10.5305
▁palpitation	-10.5305
▁penny	-10.5305
▁permanent	-10.5305
▁persona	-10.5305
▁personalized	-10.5305
▁ph	-10.5305
▁pipe	-10.5305
▁piss	-10.5305
▁plague	-10.5305
▁player	-10.5305
▁pointed	-10.5305
▁poisoned	-10.5305
▁poorly	-10.5305
▁prayer	-10.5305
▁prestigious	-10.5305
▁privately	-10.5305
▁privilege	-10.5305
▁privileged	-10.5305
▁pro	-10.5305
▁procrastinate	-10.5305
▁profit	-10.5305
▁profound	-10.5305
▁prolonged	-10.5305
▁property	-10.5305
▁psychiatric	-10.5305
▁pulled	-10.5305
▁pumped	-10.5305
▁punish	-10.5305
▁qualification	-10.5305
▁quest	-10.5305
▁quits	-10.5305
▁reacting	-10.5305
▁reactive	-10.5305
▁realising	-10.5305
▁recommended	-10.5305
▁reduction	-10.5305
▁reflection	-10.5305
▁rejection	-10.5305
▁relevant	-10.5305
▁relying	-10.5305
▁reset	-10.5305
▁resistant	-10.5305
▁resolution	-10.5305
▁resolved	-10.5305
▁retire	-10.5305
▁returned	-10.5305
▁ridiculous	-10.5305
▁rnb	-10.5305
▁rollercoaster	-10.5305
▁ruled	-10.5305
▁sacrifice	-10.5305
▁sane	-10.5305
▁scan	-10.5305
▁scattered	-10.5305
▁schizophrenia	-10.5305
▁scholarship	-10.5305
▁script	-10.5305
▁severity	-10.5305
▁sexually	-10.5305
▁shaky	-10.5305
▁shamble	-10.5305
▁shoot	-10.5305
▁shortage	-10.5305
▁shout	-10.5305
▁sin	-10.5305
▁singing	-10.5305
▁skillset	-10.5305
▁skinny	-10.5305
▁skipping	-10.5305
▁skull	-10.5305
▁slipping	-10.5305
▁smaller	-10.5305
▁socialise	-10.5305
▁sold	-10.5305
▁solid	-10.5305
▁spell	-10.5305
▁spotlight	-10.5305
▁star	-10.5305
▁starving	-10.5305
▁steal	-10.5305
▁stepping	-10.5305
▁stock	-10.5305
▁stream	-10.5305
▁submission	-10.5305
▁suffice	-10.5305
▁suffocating	-10.5305
▁suitable	-10.5305
▁sunday	-10.5305
▁supply	-10.5305
▁surprisingly	-10.5305
▁sustainable	-10.5305
▁sweating	-10.5305
▁tai	-10.5305
▁takeaway	-10.5305
▁tax	-10.5305
▁tedious	-10.5305
▁temp	-10.5305
▁tending	-10.5305
▁tennis	-10.5305
▁terribly	-10.5305
▁testing	-10.5305
▁texted	-10.5305
▁texting	-10.5305
▁texture	-10.5305
▁thanking	-10.5305
▁throwaway	-10.5305
▁tiktok	-10.5305
▁toast	-10.5305
▁tone	-10.5305
▁trading	-10.5305
▁tragedy	-10.5305
▁trashed	-10.5305
▁tuition	-10.5305
▁tune	-10.5305
▁un	-10.5305
▁unaware	-10.5305
▁unconditional	-10.5305
▁unfortunate	-10.5305
▁united	-10.5305
▁unlike	-10.5305
▁unproductive	-10.5305
▁unreasonable	-10.5305
▁upbeat	-10.5305
▁upcoming	-10.5305
▁valuable	-10.5305
▁vocal	-10.5305
▁vomit	-10.5305
▁warren	-10.5305
▁wet	-10.5305
▁willingly	-10.5305
▁wondered	-10.5305
▁worn	-10.5305
▁abandonment	-10.7536
▁abroad	-10.7536
▁absurd	-10.7536
▁abusing	-10.7536
▁abyss	-10.7536
▁accolade	-10.7536
▁accomplishing	-10.7536
▁accounting	-10.7536
▁accumulate	-10.7536
▁acted	-10.7536
▁adequate	-10.7536
▁adjust	-10.7536
▁admitted	-10.7536
▁adrenal	-10.7536
▁affective	-10.7536
▁agreement	-10.7536
▁alarming	-10.7536
▁alcoholic	-10.7536
▁alienated	-10.7536
▁align	-10.7536
▁aligned	-10.7536
▁amazingly	-10.7536
▁ambiguity	-10.7536
▁analysing	-10.7536
▁android	-10.7536
▁angel	-10.7536
▁apathetic	-10.7536
▁apathy	-10.7536
▁apparent	-10.7536
▁appt	-10.7536
▁arising	-10.7536
▁arrive	-10.7536
▁arrives	-10.7536
▁ashwaganda	-10.7536
▁asmi	-10.7536
▁aspergers	-10.7536
▁assigned	-10.7536
▁assist	-10.7536
▁athletic	-10.7536
▁attended	-10.7536
▁auto	-10.7536
▁automation	-10.7536
▁autopilot	-10.7536
▁badass	-10.7536
▁bahadurgarh	-10.7536
▁balcony	-10.7536
▁baseball	-10.7536
▁basketball	-10.7536
▁beatles	-10.7536
▁beer	-10.7536
▁behavioral	-10.7536
▁believing	-10.7536
▁bias	-10.7536
▁biking	-10.7536
▁billion	-10.7536
▁biology	-10.7536
▁biting	-10.7536
▁blur	-10.7536
▁boil	-10.7536
▁bold	-10.7536
▁bouncing	-10.7536
▁brazil	-10.7536
▁brazilian	-10.7536
▁bro	-10.7536
▁brushed	-10.7536
▁bubble	-10.7536
▁bubbly	-10.7536
▁buddhism	-10.7536
▁buffet	-10.7536
▁bulletin	-10.7536
▁bustling	-10.7536
▁butterfly	-10.7536
▁calculus	-10.7536
▁calmed	-10.7536
▁camera	-10.7536
▁canadian	-10.7536
▁caretaker	-10.7536
▁carlos	-10.7536
▁carolyn	-10.7536
▁cash	-10.7536
▁censored	-10.7536
▁centerforfearlessresearch	-10.7536
▁century	-10.7536
▁chain	-10.7536
▁chakra	-10.7536
▁chamomile	-10.7536
▁cheesy	-10.7536
▁chilled	-10.7536
▁chillls	-10.7536
▁chooses	-10.7536
▁chuckle	-10.7536
▁chunk	-10.7536
▁circuit	-10.7536
▁circuiting	-10.7536
▁citizen	-10.7536
▁claude	-10.7536
▁clench	-10.7536
▁clumsy	-10.7536
▁collective	-10.7536
▁comfortably	-10.7536
▁commenting	-10.7536
▁comparing	-10.7536
▁comparison	-10.7536
▁compelled	-10.7536
▁compulsive	-10.7536
▁concerning	-10.7536
▁conduct	-10.7536
▁confirming	-10.7536
▁confusing	-10.7536
▁conscience	-10.7536
▁consists	-10.7536
▁construction	-10.7536
▁contains	-10.7536
▁contemplated	-10.7536
▁continually	-10.7536
▁continuous	-10.7536
▁contract	-10.7536
▁contrary	-10.7536
▁controling	-10.7536
▁convincing	-10.7536
▁cornerstone	-10.7536
▁crappy	-10.7536
▁craves	-10.7536
▁creature	-10.7536
▁crime	-10.7536
▁critic	-10.7536
▁criticized	-10.7536
▁crucial	-10.7536
▁crutch	-10.7536
▁ct	-10.7536
▁cultivate	-10.7536
▁cunt	-10.7536
▁curiosity	-10.7536
▁cwru	-10.7536
▁cycling	-10.7536
▁daycare	-10.7536
▁deaf	-10.7536
▁debilitating	-10.7536
▁decreased	-10.7536
▁defeat	-10.7536
▁defeated	-10.7536
▁defence	-10.7536
▁defend	-10.7536
▁defined	-10.7536
▁delay	-10.7536
▁deliver	-10.7536
▁delivering	-10.7536
▁delusion	-10.7536
▁dementia	-10.7536
▁denying	-10.7536
▁depletion	-10.7536
▁deserving	-10.7536
▁despise	-10.7536
▁dessert	-10.7536
▁deteriorating	-10.7536
▁diarrhea	-10.7536
▁dictate	-10.7536
▁ding	-10.7536
▁dirt	-10.7536
▁disappeared	-10.7536
▁disappearing	-10.7536
▁disappointing	-10.7536
▁disciplined	-10.7536
▁disclaimer	-10.7536
▁discomfort	-10.7536
▁dissertation	-10.7536
▁distanced	-10.7536
▁distancing	-10.7536
▁dj	-10.7536
▁documentary	-10.7536
▁drastic	-10.7536
▁dressed	-10.7536
▁duty	-10.7536
▁dweck	-10.7536
▁earned	-10.7536
▁earpiece	-10.7536
▁easter	-10.7536
▁economics	-10.7536
▁edition	-10.7536
▁edu	-10.7536
▁eeyore	-10.7536
▁eh	-10.7536
▁eight	-10.7536
▁elsewhere	-10.7536
▁embarrassment	-10.7536
▁embraced	-10.7536
▁emergency	-10.7536
▁enable	-10.7536
▁endorphin	-10.7536
▁enhancing	-10.7536
▁enjoys	-10.7536
▁enlightenment	-10.7536
▁ent	-10.7536
▁enter	-10.7536
▁entrepreneurial	-10.7536
▁entry	-10.7536
▁er	-10.7536
▁escapism	-10.7536
▁established	-10.7536
▁evoke	-10.7536
▁excel	-10.7536
▁excluding	-10.7536
▁exempt	-10.7536
▁existed	-10.7536
▁existencial	-10.7536
▁existent	-10.7536
▁expense	-10.7536
▁exponentially	-10.7536
▁exposing	-10.7536
▁expressed	-10.7536
▁extends	-10.7536
▁extensive	-10.7536
▁exurbs	-10.7536
▁facade	-10.7536
▁failiure	-10.7536
▁fails	-10.7536
▁faint	-10.7536
▁fasting	-10.7536
▁featured	-10.7536
▁fed	-10.7536
▁fee	-10.7536
▁feminine	-10.7536
▁fence	-10.7536
▁fever	-10.7536
▁fifteen	-10.7536
▁fist	-10.7536
▁flag	-10.7536
▁flaw	-10.7536
▁flawed	-10.7536
▁flipped	-10.7536
▁flourish	-10.7536
▁flu	-10.7536
▁fomo	-10.7536
▁forgetting	-10.7536
▁formal	-10.7536
▁former	-10.7536
▁foster	-10.7536
▁fraud	-10.7536
▁frozen	-10.7536
▁gang	-10.7536
▁gland	-10.7536
▁gossip	-10.7536
▁gradually	-10.7536
▁grandparent	-10.7536
▁gratification	-10.7536
▁greed	-10.7536
▁guideline	-10.7536
▁hallway	-10.7536
▁handful	-10.7536
▁harmed	-10.7536
▁hat	-10.7536
▁hater	-10.7536
▁hatred	-10.7536
▁haunt	-10.7536
▁heavily	-10.7536
▁helicopter	-10.7536
▁highlight	-10.7536
▁himalaya	-10.7536
▁hint	-10.7536
▁homeschooling	-10.7536
▁homophobic	-10.7536
▁honesty	-10.7536
▁honour	-10.7536
▁hooker	-10.7536
▁howard	-10.7536
▁howell	-10.7536
▁hw	-10.7536
▁hydrogen	-10.7536
▁hypochondriac	-10.7536
▁illustration	-10.7536
▁imperfection	-10.7536
▁inability	-10.7536
▁inbox	-10.7536
▁incapable	-10.7536
▁independence	-10.7536
▁indian	-10.7536
▁indicated	-10.7536
▁inducing	-10.7536
▁infant	-10.7536
▁inflammation	-10.7536
▁inflatable	-10.7536
▁infront	-10.7536
▁ingrained	-10.7536
▁inherently	-10.7536
▁initial	-10.7536
▁initiate	-10.7536
▁innovate	-10.7536
▁input	-10.7536
▁inquiry	-10.7536
▁inspired	-10.7536
▁instinct	-10.7536
▁instrumental	-10.7536
▁intellectual	-10.7536
▁intend	-10.7536
▁interactive	-10.7536
▁international	-10.7536
▁interpretation	-10.7536
▁interruption	-10.7536
▁intimacy	-10.7536
▁intimidating	-10.7536
▁introduce	-10.7536
▁intuitive	-10.7536
▁investment	-10.7536
▁invitation	-10.7536
▁inwards	-10.7536
▁io	-10.7536
▁iowa	-10.7536
▁irritating	-10.7536
▁ish	-10.7536
▁ivy	-10.7536
▁jayne	-10.7536
▁jealousy	-10.7536
▁jeremyhughes	-10.7536
▁jim	-10.7536
▁joint	-10.7536
▁jolene	-10.7536
▁joyfully	-10.7536
▁jp	-10.7536
▁judgemental	-10.7536
▁judgment	-10.7536
▁jukebox	-10.7536
▁jumped	-10.7536
▁junky	-10.7536
▁k	-10.7536
▁ka	-10.7536
▁keen	-10.7536
▁kickboxing	-10.7536
▁kicking	-10.7536
▁kilometer	-10.7536
▁kindly	-10.7536
▁lap	-10.7536
▁largely	-10.7536
▁largest	-10.7536
▁lawyer	-10.7536
▁lethal	-10.7536
▁liberate	-10.7536
▁lifestories	-10.7536
▁lifting	-10.7536
▁lightheaded	-10.7536
▁lillie	-10.7536
▁lily	-10.7536
▁lined	-10.7536
▁lionsheartlifestyle	-10.7536
▁locking	-10.7536
▁logic	-10.7536
▁lois	-10.7536
▁lucrative	-10.7536
▁lust	-10.7536
▁mabye	-10.7536
▁makeup	-10.7536
▁manga	-10.7536
▁manipulative	-10.7536
▁mastermind	-10.7536
▁masturbate	-10.7536
▁mate	-10.7536
▁meat	-10.7536
▁mega	-10.7536
▁messaging	-10.7536
▁mft	-10.7536
▁millennials	-10.7536
▁millionaire	-10.7536
▁modeling	-10.7536
▁moderate	-10.7536
▁monumental	-10.7536
▁mooji	-10.7536
▁motif	-10.7536
▁msc	-10.7536
▁multi	-10.7536
▁musician	-10.7536
▁n	-10.7536
▁nail	-10.7536
▁narrative	-10.7536
▁narrow	-10.7536
▁nde	-10.7536
▁nearby	-10.7536
▁nearing	-10.7536
▁needing	-10.7536
▁netherlands	-10.7536
▁nicely	-10.7536
▁niche	-10.7536
▁nobel	-10.7536
▁noble	-10.7536
▁nonetheless	-10.7536
▁noone	-10.7536
▁normalize	-10.7536
▁nurture	-10.7536
▁obedient	-10.7536
▁objectively	-10.7536
▁obsessed	-10.7536
▁occupied	-10.7536
▁officially	-10.7536
▁op	-10.7536
▁ordinary	-10.7536
▁outdoor	-10.7536
▁outright	-10.7536
▁outwardly	-10.7536
▁overcoming	-10.7536
▁overlooked	-10.7536
▁overreacting	-10.7536
▁pace	-10.7536
▁painter	-10.7536
▁palm	-10.7536
▁papaw	-10.7536
▁paralysis	-10.7536
▁parking	-10.7536
▁patch	-10.7536
▁pausing	-10.7536
▁payed	-10.7536
▁peek	-10.7536
▁penis	-10.7536
▁permit	-10.7536
▁persevere	-10.7536
▁photographer	-10.7536
▁physic	-10.7536
▁pillow	-10.7536
▁pivot	-10.7536
▁plab	-10.7536
▁playground	-10.7536
▁pleasanton	-10.7536
▁plodding	-10.7536
▁poisoning	-10.7536
▁polish	-10.7536
▁politely	-10.7536
▁popping	-10.7536
▁popularity	-10.7536
▁poverty	-10.7536
▁prefer	-10.7536
▁pressured	-10.7536
▁preventing	-10.7536
▁principal	-10.7536
▁prioritised	-10.7536
▁prison	-10.7536
▁prize	-10.7536
▁probability	-10.7536
▁procrastination	-10.7536
▁production	-10.7536
▁profoundly	-10.7536
▁programme	-10.7536
▁programming	-10.7536
▁progressing	-10.7536
▁promising	-10.7536
▁promos	-10.7536
▁protecting	-10.7536
▁provided	-10.7536
▁prozac	-10.7536
▁puppy	-10.7536
▁quietly	-10.7536
▁raffle	-10.7536
▁rainbow	-10.7536
▁rainy	-10.7536
▁raisedbynarcissists	-10.7536
▁raising	-10.7536
▁rake	-10.7536
▁rank	-10.7536
▁rational	-10.7536
▁rationally	-10.7536
▁ray	-10.7536
▁reader	-10.7536
▁realisation	-10.7536
▁recognized	-10.7536
▁reference	-10.7536
▁reflecting	-10.7536
▁regaining	-10.7536
▁register	-10.7536
▁reinvent	-10.7536
▁relates	-10.7536
▁relative	-10.7536
▁relearn	-10.7536
▁relive	-10.7536
▁reluctant	-10.7536
▁remains	-10.7536
▁replacement	-10.7536
▁repressed	-10.7536
▁repressing	-10.7536
▁resentment	-10.7536
▁reserve	-10.7536
▁reserving	-10.7536
▁residential	-10.7536
▁resisting	-10.7536
▁responding	-10.7536
▁restful	-10.7536
▁restroom	-10.7536
▁resume	-10.7536
▁reveals	-10.7536
▁reverse	-10.7536
▁rewriting	-10.7536
▁riding	-10.7536
▁ripped	-10.7536
▁rlly	-10.7536
▁rocky	-10.7536
▁rot	-10.7536
▁round	-10.7536
▁route	-10.7536
▁ruining	-10.7536
▁rupert	-10.7536
▁salary	-10.7536
▁sample	-10.7536
▁sansation	-10.7536
▁satisfy	-10.7536
▁scenery	-10.7536
▁schollarship	-10.7536
▁scrolled	-10.7536
▁sea	-10.7536
▁searched	-10.7536
▁secondly	-10.7536
▁seminar	-10.7536
▁served	-10.7536
▁setback	-10.7536
▁shattered	-10.7536
▁shed	-10.7536
▁sheep	-10.7536
▁sheet	-10.7536
▁ship	-10.7536
▁shortened	-10.7536
▁shortness	-10.7536
▁showered	-10.7536
▁shrug	-10.7536
▁shuts	-10.7536
▁shutting	-10.7536
▁sided	-10.7536
▁sight	-10.7536
▁signal	-10.7536
▁simultaneously	-10.7536
▁sincero	-10.7536
▁sink	-10.7536
▁sinking	-10.7536
▁ski	-10.7536
▁skip	-10.7536
▁slamming	-10.7536
▁slap	-10.7536
▁slightest	-10.7536
▁snapchat	-10.7536
▁solace	-10.7536
▁soldier	-10.7536
▁sole	-10.7536
▁somtimes	-10.7536
▁sonething	-10.7536
▁sooo	-10.7536
▁sorta	-10.7536
▁sounded	-10.7536
▁specialized	-10.7536
▁spectrum	-10.7536
▁spiritually	-10.7536
▁spreadsheet	-10.7536
▁squeeze	-10.7536
▁stabbed	-10.7536
▁stall	-10.7536
▁station	-10.7536
▁stats	-10.7536
▁steady	-10.7536
▁stepmom	-10.7536
▁stigma	-10.7536
▁stillness	-10.7536
▁stoic	-10.7536
▁strained	-10.7536
▁stretching	-10.7536
▁string	-10.7536
▁stroll	-10.7536
▁submit	-10.7536
▁submitted	-10.7536
▁subsided	-10.7536
▁successfully	-10.7536
▁sum	-10.7536
▁surpass	-10.7536
▁surround	-10.7536
▁survived	-10.7536
▁surviving	-10.7536
▁suspicion	-10.7536
▁suspicious	-10.7536
▁swallow	-10.7536
▁switzerland	-10.7536
▁synthesis	-10.7536
▁talented	-10.7536
▁technical	-10.7536
▁tent	-10.7536
▁terrifies	-10.7536
▁thiamine	-10.7536
▁tidy	-10.7536
▁tiniest	-10.7536
▁tinnitus	-10.7536
▁tire	-10.7536
▁toddler	-10.7536
▁tolerate	-10.7536
▁tomato	-10.7536
▁torment	-10.7536
▁torrent	-10.7536
▁torture	-10.7536
▁tracker	-10.7536
▁tradition	-10.7536
▁translation	-10.7536
▁transness	-10.7536
▁transportation	-10.7536
▁travelling	-10.7536
▁treacherous	-10.7536
▁treating	-10.7536
▁tremendous	-10.7536
▁trusting	-10.7536
▁tumour	-10.7536
▁uh	-10.7536
▁um	-10.7536
▁uncertain	-10.7536
▁uncover	-10.7536
▁underage	-10.7536
▁unfold	-10.7536
▁unlearn	-10.7536
▁unlikely	-10.7536
▁unlock	-10.7536
▁unloved	-10.7536
▁unpaid	-10.7536
▁unplanned	-10.7536
▁unpleasant	-10.7536
▁unprecedented	-10.7536
▁unresolved	-10.7536
▁uplifting	-10.7536
▁upper	-10.7536
▁ur	-10.7536
▁us	-10.7536
▁utility	-10.7536
▁utter	-10.7536
▁valdez	-10.7536
▁valentine	-10.7536
▁valerian	-10.7536
▁validated	-10.7536
▁veggie	-10.7536
▁versa	-10.7536
▁vessel	-10.7536
▁vibrant	-10.7536
▁viewpoint	-10.7536
▁visiting	-10.7536
▁visualize	-10.7536
▁void	-10.7536
▁volunteering	-10.7536
▁w	-10.7536
▁waited	-10.7536
▁wallet	-10.7536
▁wan	-10.7536
▁washing	-10.7536
▁welcomed	-10.7536
▁whine	-10.7536
▁wine	-10.7536
▁wing	-10.7536
▁wit	-10.7536
▁wolf	-10.7536
▁wore	-10.7536
▁workflow	-10.7536
▁worsens	-10.7536
▁writes	-10.7536
▁wwii	-10.7536
▁xx	-10.7536
▁ya	-10.7536
▁yall	-10.7536
▁yard	-10.7536
▁yay	-10.7536
▁yogi	-10.7536
▁yogic	-10.7536
▁abandon	-11.0413
▁abiding	-11.0413
▁abilify	-11.0413
▁abortion	-11.0413
▁absence	-11.0413
▁absent	-11.0413
▁academy	-11.0413
▁accused	-11.0413
▁achievable	-11.0413
▁aching	-11.0413
▁acidic	-11.0413
▁acoustic	-11.0413
▁acquaintance	-11.0413
▁acquiring	-11.0413
▁actor	-11.0413
▁adamant	-11.0413
▁adapt	-11.0413
▁adapting	-11.0413
▁adequately	-11.0413
▁adhere	-11.0413
▁admission	-11.0413
▁admittedly	-11.0413
▁adolescent	-11.0413
▁adorable	-11.0413
▁adversity	-11.0413
▁advertising	-11.0413
▁advise	-11.0413
▁african	-11.0413
▁afterward	-11.0413
▁agenda	-11.0413
▁agent	-11.0413
▁agitated	-11.0413
▁agonizing	-11.0413
▁ah	-11.0413
▁ai	-11.0413
▁al	-11.0413
▁alert	-11.0413
▁aligning	-11.0413
▁alkaline	-11.0413
▁alongside	-11.0413
▁alpha	-11.0413
▁altruism	-11.0413
▁ancient	-11.0413
▁anemia	-11.0413
▁angle	-11.0413
▁anniversary	-11.0413
▁annoy	-11.0413
▁anonymously	-11.0413
▁ant	-11.0413
▁antisocial	-11.0413
▁anxiousness	-11.0413
▁applies	-11.0413
▁appreciative	-11.0413
▁approached	-11.0413
▁approve	-11.0413
▁approving	-11.0413
▁argues	-11.0413
▁artwork	-11.0413
▁astonishing	-11.0413
▁atheist	-11.0413
▁atmosphere	-11.0413
▁attach	-11.0413
▁attacked	-11.0413
▁attainable	-11.0413
▁attribute	-11.0413
▁auditory	-11.0413
▁autumn	-11.0413
▁awaits	-11.0413
▁axis	-11.0413
▁ba	-11.0413
▁babe	-11.0413
▁backup	-11.0413
▁bang	-11.0413
▁banging	-11.0413
▁bare	-11.0413
▁barley	-11.0413
▁basement	-11.0413
▁bat	-11.0413
▁bath	-11.0413
▁bay	-11.0413
▁beach	-11.0413
▁bead	-11.0413
▁beam	-11.0413
▁bearable	-11.0413
▁behave	-11.0413
▁behold	-11.0413
▁belonged	-11.0413
▁belt	-11.0413
▁benefited	-11.0413
▁berating	-11.0413
▁billie	-11.0413
▁blah	-11.0413
▁bleed	-11.0413
▁blonded	-11.0413
▁bloody	-11.0413
▁blooming	-11.0413
▁blowing	-11.0413
▁blueberry	-11.0413
▁bond	-11.0413
▁bonus	-11.0413
▁boo	-11.0413
▁boom	-11.0413
▁border	-11.0413
▁borderline	-11.0413
▁bore	-11.0413
▁boredom	-11.0413
▁breakthrough	-11.0413
▁breeze	-11.0413
▁brick	-11.0413
▁broadly	-11.0413
▁browsing	-11.0413
▁brunch	-11.0413
▁burger	-11.0413
▁butt	-11.0413
▁buzzing	-11.0413
▁byproduct	-11.0413
▁cabin	-11.0413
▁calc	-11.0413
▁calmly	-11.0413
▁cambodia	-11.0413
▁campaign	-11.0413
▁canceled	-11.0413
▁cancelled	-11.0413
▁candidate	-11.0413
▁captain	-11.0413
▁capture	-11.0413
▁cardiologist	-11.0413
▁caregiver	-11.0413
▁carried	-11.0413
▁carter	-11.0413
▁catastrophe	-11.0413
▁cave	-11.0413
▁cease	-11.0413
▁celebrating	-11.0413
▁certificate	-11.0413
▁certified	-11.0413
▁charm	-11.0413
▁chatted	-11.0413
▁chatter	-11.0413
▁cheaper	-11.0413
▁chef	-11.0413
▁chem	-11.0413
▁chemistry	-11.0413
▁chicken	-11.0413
▁childish	-11.0413
▁chin	-11.0413
▁choking	-11.0413
▁civil	-11.0413
▁classic	-11.0413
▁cleared	-11.0413
▁climax	-11.0413
▁climb	-11.0413
▁climbed	-11.0413
▁cling	-11.0413
▁closing	-11.0413
▁clout	-11.0413
▁cocoon	-11.0413
▁collapse	-11.0413
▁column	-11.0413
▁combine	-11.0413
▁comedian	-11.0413
▁commented	-11.0413
▁commited	-11.0413
▁committee	-11.0413
▁committing	-11.0413
▁component	-11.0413
▁composure	-11.0413
▁compromise	-11.0413
▁concerta	-11.0413
▁concrete	-11.0413
▁conforming	-11.0413
▁consent	-11.0413
▁consist	-11.0413
▁consultation	-11.0413
▁consumed	-11.0413
▁container	-11.0413
▁contend	-11.0413
▁contradictory	-11.0413
▁contributing	-11.0413
▁conventionally	-11.0413
▁convert	-11.0413
▁convincingly	-11.0413
▁cooked	-11.0413
▁corporate	-11.0413
▁corrupted	-11.0413
▁cosmic	-11.0413
▁couch	-11.0413
▁county	-11.0413
▁coupled	-11.0413
▁covidya	-11.0413
▁cow	-11.0413
▁crack	-11.0413
▁crashed	-11.0413
▁craze	-11.0413
▁criminal	-11.0413
▁criticised	-11.0413
▁crossing	-11.0413
▁crowded	-11.0413
▁crumble	-11.0413
▁crypto	-11.0413
▁cultivating	-11.0413
▁daddy	-11.0413
▁damaging	-11.0413
▁damned	-11.0413
▁david	-11.0413
▁daydream	-11.0413
▁dearly	-11.0413
▁definite	-11.0413
▁delayed	-11.0413
▁deleted	-11.0413
▁deliberately	-11.0413
▁delirious	-11.0413
▁denial	-11.0413
▁describes	-11.0413
▁destiny	-11.0413
▁destress	-11.0413
▁deteriorated	-11.0413
▁detox	-11.0413
▁dev	-11.0413
▁devastated	-11.0413
▁developmental	-11.0413
▁devise	-11.0413
▁devoid	-11.0413
▁devotion	-11.0413
▁diego	-11.0413
▁dieting	-11.0413
▁digestion	-11.0413
▁diminished	-11.0413
▁diminishing	-11.0413
▁disagreement	-11.0413
▁disconnected	-11.0413
▁disengagement	-11.0413
▁disguise	-11.0413
▁disney	-11.0413
▁disregarded	-11.0413
▁dissapointed	-11.0413
▁dissonance	-11.0413
▁distracts	-11.0413
▁distressed	-11.0413
▁division	-11.0413
▁doc	-11.0413
▁donate	-11.0413
▁donating	-11.0413
▁dot	-11.0413
▁downfall	-11.0413
▁downtown	-11.0413
▁downward	-11.0413
▁dragged	-11.0413
▁drastically	-11.0413
▁dreadful	-11.0413
▁dress	-11.0413
▁dropping	-11.0413
▁drtlab	-11.0413
▁duh	-11.0413
▁dunno	-11.0413
▁dwelling	-11.0413
▁dynamic	-11.0413
▁eager	-11.0413
▁eased	-11.0413
▁eats	-11.0413
▁editor	-11.0413
▁efficiently	-11.0413
▁effortless	-11.0413
▁effortlessly	-11.0413
▁eilish	-11.0413
▁eith	-11.0413
▁elaborate	-11.0413
▁electricity	-11.0413
▁electromagnetic	-11.0413
▁element	-11.0413
▁eli	-11.0413
▁elite	-11.0413
▁empathetic	-11.0413
▁empower	-11.0413
▁encourage	-11.0413
▁endeavour	-11.0413
▁endured	-11.0413
▁england	-11.0413
▁ensuring	-11.0413
▁entail	-11.0413
▁entirety	-11.0413
▁entity	-11.0413
▁equally	-11.0413
▁errand	-11.0413
▁esc	-11.0413
▁escaped	-11.0413
▁escaping	-11.0413
▁essence	-11.0413
▁eternally	-11.0413
▁europe	-11.0413
▁evaluate	-11.0413
▁eventual	-11.0413
▁everthing	-11.0413
▁evolutionary	-11.0413
▁evolves	-11.0413
▁exceptionally	-11.0413
▁exists	-11.0413
▁experimented	-11.0413
▁explicit	-11.0413
▁exploding	-11.0413
▁exploit	-11.0413
▁fabricated	-11.0413
▁facial	-11.0413
▁factory	-11.0413
▁fading	-11.0413
▁farm	-11.0413
▁fate	-11.0413
▁fb	-11.0413
▁fck	-11.0413
▁fearing	-11.0413
▁feat	-11.0413
▁feeding	-11.0413
▁feminist	-11.0413
▁fiance	-11.0413
▁fifth	-11.0413
▁fixating	-11.0413
▁flatmate	-11.0413
▁fling	-11.0413
▁flood	-11.0413
▁flowing	-11.0413
▁fluctuated	-11.0413
▁fluent	-11.0413
▁foe	-11.0413
▁folded	-11.0413
▁folder	-11.0413
▁forbid	-11.0413
▁foreign	-11.0413
▁forgets	-11.0413
▁formatting	-11.0413
▁formed	-11.0413
▁founder	-11.0413
▁fourteen	-11.0413
▁fractured	-11.0413
▁frame	-11.0413
▁framed	-11.0413
▁freaked	-11.0413
▁french	-11.0413
▁fried	-11.0413
▁frisson	-11.0413
▁froze	-11.0413
▁ft	-11.0413
▁ftm	-11.0413
▁fucken	-11.0413
▁fulfilment	-11.0413
▁fulfils	-11.0413
▁fundamentally	-11.0413
▁funniest	-11.0413
▁futile	-11.0413
▁gaba	-11.0413
▁gallbladder	-11.0413
▁gambling	-11.0413
▁garage	-11.0413
▁gatekeeper	-11.0413
▁gathered	-11.0413
▁gear	-11.0413
▁generous	-11.0413
▁genetics	-11.0413
▁genre	-11.0413
▁geographic	-11.0413
▁german	-11.0413
▁gesture	-11.0413
▁gloomy	-11.0413
▁gold	-11.0413
▁graciously	-11.0413
▁grain	-11.0413
▁grammy	-11.0413
▁grant	-11.0413
▁graph	-11.0413
▁grit	-11.0413
▁groundbreaking	-11.0413
▁grounding	-11.0413
▁grueling	-11.0413
▁handled	-11.0413
▁hangout	-11.0413
▁harassment	-11.0413
▁harbor	-11.0413
▁hardcore	-11.0413
▁harmony	-11.0413
▁haunted	-11.0413
▁headline	-11.0413
▁healer	-11.0413
▁healthiest	-11.0413
▁heartbeat	-11.0413
▁heated	-11.0413
▁heave	-11.0413
▁heaven	-11.0413
▁heavenly	-11.0413
▁hectic	-11.0413
▁height	-11.0413
▁hella	-11.0413
▁herb	-11.0413
▁herbal	-11.0413
▁hid	-11.0413
▁hike	-11.0413
▁hindsight	-11.0413
▁hired	-11.0413
▁hiring	-11.0413
▁hive	-11.0413
▁homeschooled	-11.0413
▁honor	-11.0413
▁hook	-11.0413
▁host	-11.0413
▁housemate	-11.0413
▁hugged	-11.0413
▁humility	-11.0413
▁humored	-11.0413
▁husk	-11.0413
▁idle	-11.0413
▁ig	-11.0413
▁imaginary	-11.0413
▁imbalance	-11.0413
▁immigrated	-11.0413
▁immunity	-11.0413
▁impress	-11.0413
▁inbreath	-11.0413
▁incident	-11.0413
▁incorporate	-11.0413
▁increasing	-11.0413
▁indicator	-11.0413
▁individually	-11.0413
▁indoors	-11.0413
▁induce	-11.0413
▁indulge	-11.0413
▁infected	-11.0413
▁influenced	-11.0413
▁injustice	-11.0413
▁insidious	-11.0413
▁inspirational	-11.0413
▁instability	-11.0413
▁instrument	-11.0413
▁insufficient	-11.0413
▁insult	-11.0413
▁integrity	-11.0413
▁intelligent	-11.0413
▁intersection	-11.0413
▁intimate	-11.0413
▁intro	-11.0413
▁intuition	-11.0413
▁invalidated	-11.0413
▁inventory	-11.0413
▁investing	-11.0413
▁involvement	-11.0413
▁ip	-11.0413
▁itll	-11.0413
▁iv	-11.0413
▁jan	-11.0413
▁jewish	-11.0413
▁jittery	-11.0413
▁joe	-11.0413
▁joining	-11.0413
▁joking	-11.0413
▁joyful	-11.0413
▁jumbled	-11.0413
▁jus	-11.0413
▁ki	-11.0413
▁klaus	-11.0413
▁la	-11.0413
▁lacking	-11.0413
▁landlord	-11.0413
▁latter	-11.0413
▁launch	-11.0413
▁leaning	-11.0413
▁lease	-11.0413
▁lesbian	-11.0413
▁lessen	-11.0413
▁leveled	-11.0413
▁levin	-11.0413
▁lgbtq	-11.0413
▁liar	-11.0413
▁library	-11.0413
▁licorice	-11.0413
▁lighting	-11.0413
▁lightly	-11.0413
▁limitation	-11.0413
▁lionel	-11.0413
▁listing	-11.0413
▁lit	-11.0413
▁litteraly	-11.0413
▁lively	-11.0413
▁liver	-11.0413
▁loaded	-11.0413
▁loathe	-11.0413
▁lord	-11.0413
▁lori	-11.0413
▁lotta	-11.0413
▁louder	-11.0413
▁lowered	-11.0413
▁lurking	-11.0413
▁mae	-11.0413
▁magazine	-11.0413
▁magnitude	-11.0413
▁maharshi	-11.0413
▁mall	-11.0413
▁manages	-11.0413
▁mania	-11.0413
▁manipulated	-11.0413
▁manipulating	-11.0413
▁marijuana	-11.0413
▁marry	-11.0413
▁martin	-11.0413
▁masking	-11.0413
▁massaging	-11.0413
▁masturbating	-11.0413
▁masturbation	-11.0413
▁matured	-11.0413
▁mayo	-11.0413
▁mbct	-11.0413
▁mcdonald	-11.0413
▁medicated	-11.0413
▁meditated	-11.0413
▁mentioning	-11.0413
▁mere	-11.0413
▁merely	-11.0413
▁metabolism	-11.0413
▁metal	-11.0413
▁meteor	-11.0413
▁military	-11.0413
▁mill	-11.0413
▁mindedness	-11.0413
▁mindless	-11.0413
▁mindlessly	-11.0413
▁minimalism	-11.0413
▁misinterpret	-11.0413
▁moderator	-11.0413
▁molested	-11.0413
▁morale	-11.0413
▁mount	-11.0413
▁mundane	-11.0413
▁mystery	-11.0413
▁myth	-11.0413
▁namely	-11.0413
▁napoleon	-11.0413
▁native	-11.0413
▁nauseated	-11.0413
▁nealy	-11.0413
▁necessity	-11.0413
▁neuralgia	-11.0413
▁neuro	-11.0413
▁neuropathy	-11.0413
▁neurotransmitter	-11.0413
▁newspaper	-11.0413
▁nihilist	-11.0413
▁nit	-11.0413
▁nod	-11.0413
▁nonchalantly	-11.0413
▁nonstop	-11.0413
▁nostril	-11.0413
▁nothingness	-11.0413
▁notified	-11.0413
▁novelty	-11.0413
▁ny	-11.0413
▁nyc	-11.0413
▁occurrence	-11.0413
▁odds	-11.0413
▁offense	-11.0413
▁official	-11.0413
▁omg	-11.0413
▁ops	-11.0413
▁optimal	-11.0413
▁orb	-11.0413
▁organised	-11.0413
▁organize	-11.0413
▁orientation	-11.0413
▁ought	-11.0413
▁outbreath	-11.0413
▁outburst	-11.0413
▁outta	-11.0413
▁overrated	-11.0413
▁overtime	-11.0413
▁overwork	-11.0413
▁owned	-11.0413
▁ownership	-11.0413
▁pack	-11.0413
▁painfully	-11.0413
▁pan	-11.0413
▁pant	-11.0413
▁papa	-11.0413
▁paralyzed	-11.0413
▁partial	-11.0413
▁participated	-11.0413
▁partnership	-11.0413
▁pat	-11.0413
▁pathway	-11.0413
▁perceive	-11.0413
▁percent	-11.0413
▁periodically	-11.0413
▁persistent	-11.0413
▁pharma	-11.0413
▁phd	-11.0413
▁phenomenon	-11.0413
▁phobia	-11.0413
▁physicist	-11.0413
▁picky	-11.0413
▁picnic	-11.0413
▁piling	-11.0413
▁pissing	-11.0413
▁pitch	-11.0413
▁pituitary	-11.0413
▁planting	-11.0413
▁platonic	-11.0413
▁plot	-11.0413
▁pls	-11.0413
▁poem	-11.0413
▁poet	-11.0413
▁poison	-11.0413
▁policy	-11.0413
▁politician	-11.0413
▁pond	-11.0413
▁posse	-11.0413
▁postgraduate	-11.0413
▁potato	-11.0413
▁pouring	-11.0413
▁powerhouse	-11.0413
▁powerless	-11.0413
▁practically	-11.0413
▁predator	-11.0413
▁predicting	-11.0413
▁prepares	-11.0413
▁prescribe	-11.0413
▁presently	-11.0413
▁president	-11.0413
▁prevention	-11.0413
▁prevents	-11.0413
▁prioritise	-11.0413
▁prioritize	-11.0413
▁privacy	-11.0413
▁probable	-11.0413
▁proceed	-11.0413
▁prof	-11.0413
▁programmer	-11.0413
▁projected	-11.0413
▁promote	-11.0413
▁promoting	-11.0413
▁propelled	-11.0413
▁protected	-11.0413
▁province	-11.0413
▁pry	-11.0413
▁psychologically	-11.0413
▁published	-11.0413
▁punishing	-11.0413
▁pursued	-11.0413
▁quickest	-11.0413
▁rabbit	-11.0413
▁rage	-11.0413
▁raining	-11.0413
▁ramble	-11.0413
▁rapid	-11.0413
▁reacts	-11.0413
▁realigned	-11.0413
▁realignment	-11.0413
▁reasoning	-11.0413
▁reassurance	-11.0413
▁recall	-11.0413
▁receives	-11.0413
▁recognition	-11.0413
▁reconnect	-11.0413
▁recurrent	-11.0413
▁recurring	-11.0413
▁reduced	-11.0413
▁reduces	-11.0413
▁redundant	-11.0413
▁reel	-11.0413
▁referring	-11.0413
▁refresh	-11.0413
▁refusal	-11.0413
▁refused	-11.0413
▁regain	-11.0413
▁region	-11.0413
▁regretted	-11.0413
▁regretting	-11.0413
▁rehab	-11.0413
▁reject	-11.0413
▁relies	-11.0413
▁reminding	-11.0413
▁replaceable	-11.0413
▁replacing	-11.0413
▁replay	-11.0413
▁reported	-11.0413
▁representative	-11.0413
▁requesting	-11.0413
▁resent	-11.0413
▁resented	-11.0413
▁resilient	-11.0413
▁resist	-11.0413
▁resort	-11.0413
▁responder	-11.0413
▁responds	-11.0413
▁restart	-11.0413
▁restlessness	-11.0413
▁retard	-11.0413
▁rethink	-11.0413
▁revenue	-11.0413
▁reverts	-11.0413
▁reviewed	-11.0413
▁rightfully	-11.0413
▁ring	-11.0413
▁rip	-11.0413
▁rob	-11.0413
▁rocket	-11.0413
▁roomie	-11.0413
▁roughly	-11.0413
▁rug	-11.0413
▁rumination	-11.0413
▁sack	-11.0413
▁salt	-11.0413
▁sam	-11.0413
▁sanity	-11.0413
▁sarcastic	-11.0413
▁satan	-11.0413
▁savior	-11.0413
▁scam	-11.0413
▁scar	-11.0413
▁scheduled	-11.0413
▁scheduling	-11.0413
▁scratched	-11.0413
▁seat	-11.0413
▁seed	-11.0413
▁semblance	-11.0413
▁sensory	-11.0413
▁separated	-11.0413
▁serenity	-11.0413
▁seroquel	-11.0413
▁settled	-11.0413
▁shelter	-11.0413
▁shirt	-11.0413
▁shock	-11.0413
▁showering	-11.0413
▁silently	-11.0413
▁simplest	-11.0413
▁singh	-11.0413
▁sits	-11.0413
▁skipped	-11.0413
▁skydiving	-11.0413
▁skyrocketed	-11.0413
▁slammed	-11.0413
▁slave	-11.0413
▁sleeper	-11.0413
▁sleepless	-11.0413
▁sluggish	-11.0413
▁smiled	-11.0413
▁smooth	-11.0413
▁smoothly	-11.0413
▁smth	-11.0413
▁sob	-11.0413
▁socialising	-11.0413
▁socializing	-11.0413
▁soil	-11.0413
▁solitary	-11.0413
▁solitude	-11.0413
▁sounding	-11.0413
▁spaced	-11.0413
▁spiraled	-11.0413
▁spiralling	-11.0413
▁spoon	-11.0413
▁stab	-11.0413
▁stability	-11.0413
▁staff	-11.0413
▁staircase	-11.0413
▁stalking	-11.0413
▁stating	-11.0413
▁stepfather	-11.0413
▁stephen	-11.0413
▁stepmother	-11.0413
▁stiffness	-11.0413
▁stimulated	-11.0413
▁stray	-11.0413
▁streak	-11.0413
▁strike	-11.0413
▁strive	-11.0413
▁strongest	-11.0413
▁structured	-11.0413
▁stubborn	-11.0413
▁subscriber	-11.0413
▁suffocated	-11.0413
▁suggests	-11.0413
▁summary	-11.0413
▁sunrise	-11.0413
▁supervisory	-11.0413
▁supporting	-11.0413
▁suppress	-11.0413
▁survivor	-11.0413
▁sway	-11.0413
▁sweaty	-11.0413
▁switched	-11.0413
▁swore	-11.0413
▁sympathetic	-11.0413
▁sympathy	-11.0413
▁tad	-11.0413
▁taylor	-11.0413
▁tech	-11.0413
▁ted	-11.0413
▁temptation	-11.0413
▁terrifying	-11.0413
▁testosterone	-11.0413
▁texas	-11.0413
▁thanksgiving	-11.0413
▁theanine	-11.0413
▁thelma	-11.0413
▁therapeutic	-11.0413
▁thereby	-11.0413
▁thin	-11.0413
▁thirty	-11.0413
▁thoughs	-11.0413
▁threaten	-11.0413
▁threshold	-11.0413
▁thrust	-11.0413
▁tht	-11.0413
▁thursday	-11.0413
▁tia	-11.0413
▁tick	-11.0413
▁tightly	-11.0413
▁timer	-11.0413
▁tinder	-11.0413
▁tingling	-11.0413
▁tipping	-11.0413
▁titled	-11.0413
▁toe	-11.0413
▁tolerance	-11.0413
▁toothache	-11.0413
▁toronto	-11.0413
▁torturous	-11.0413
▁toxicity	-11.0413
▁transformation	-11.0413
▁transitioning	-11.0413
▁transport	-11.0413
▁traumatized	-11.0413
▁traveling	-11.0413
▁tremendously	-11.0413
▁trending	-11.0413
▁tribe	-11.0413
▁trigeminal	-11.0413
▁trivial	-11.0413
▁trough	-11.0413
▁trustworthy	-11.0413
▁tummy	-11.0413
▁turkey	-11.0413
▁turmeric	-11.0413
▁twin	-11.0413
▁twist	-11.0413
▁twitching	-11.0413
▁ub	-11.0413
▁uc	-11.0413
▁ukraine	-11.0413
▁unconscious	-11.0413
▁unconsciously	-11.0413
▁underlying	-11.0413
▁undiagnosed	-11.0413
▁unfair	-11.0413
▁unfamiliar	-11.0413
▁unintelligent	-11.0413
▁uninterrupted	-11.0413
▁unlucky	-11.0413
▁unnoticed	-11.0413
▁unpacking	-11.0413
▁unpopular	-11.0413
▁unprepared	-11.0413
▁unsuccessfully	-11.0413
▁unwell	-11.0413
▁urged	-11.0413
▁urgent	-11.0413
▁utterly	-11.0413
▁vaping	-11.0413
▁variety	-11.0413
▁veg	-11.0413
▁verge	-11.0413
▁verification	-11.0413
▁visible	-11.0413
▁visually	-11.0413
▁vocabulary	-11.0413
▁voiced	-11.0413
▁volume	-11.0413
▁vomiting	-11.0413
▁vote	-11.0413
▁wander	-11.0413
▁wandering	-11.0413
▁warehouse	-11.0413
▁warmer	-11.0413
▁wealthy	-11.0413
▁weapon	-11.0413
▁weighing	-11.0413
▁weirdly	-11.0413
▁wellbutrin	-11.0413
▁whereas	-11.0413
▁wholesome	-11.0413
▁wich	-11.0413
▁wire	-11.0413
▁woken	-11.0413
▁woozy	-11.0413
▁worldly	-11.0413
▁wouldnt	-11.0413
▁wouldve	-11.0413
▁wreck	-11.0413
▁writting	-11.0413
▁wtf	-11.0413
▁xr	-11.0413
▁yale	-11.0413
▁abdomen	-11.4468
▁abject	-11.4468
▁abolishing	-11.4468
▁abrasion	-11.4468
▁absorb	-11.4468
▁abstract	-11.4468
▁ac	-11.4468
▁accessible	-11.4468
▁accompany	-11.4468
▁accompanying	-11.4468
▁accordingly	-11.4468
▁accurate	-11.4468
▁accurately	-11.4468
▁accustomed	-11.4468
▁acknowledged	-11.4468
▁acne	-11.4468
▁activation	-11.4468
▁actualize	-11.4468
▁actualized	-11.4468
▁acute	-11.4468
▁adaptable	-11.4468
▁adaptive	-11.4468
▁additionally	-11.4468
▁addressing	-11.4468
▁adhering	-11.4468
▁adjusting	-11.4468
▁admin	-11.4468
▁admired	-11.4468
▁admitting	-11.4468
▁adopting	-11.4468
▁adoptive	-11.4468
▁adore	-11.4468
▁advanced	-11.4468
▁advantageous	-11.4468
▁adversely	-11.4468
▁advocate	-11.4468
▁aesthetic	-11.4468
▁af	-11.4468
▁afar	-11.4468
▁afect	-11.4468
▁affable	-11.4468
▁afterthought	-11.4468
▁aggiemail	-11.4468
▁aging	-11.4468
▁agrees	-11.4468
▁agressive	-11.4468
▁aha	-11.4468
▁aide	-11.4468
▁ailment	-11.4468
▁aimless	-11.4468
▁alarmingly	-11.4468
▁alaska	-11.4468
▁aliveness	-11.4468
▁aliviate	-11.4468
▁alllll	-11.4468
▁alopecia	-11.4468
▁alprazolam	-11.4468
▁alteration	-11.4468
▁alternate	-11.4468
▁altogether	-11.4468
▁altough	-11.4468
▁alveolus	-11.4468
▁alzheimer	-11.4468
▁amaal	-11.4468
▁amazed	-11.4468
▁amazings	-11.4468
▁ambulance	-11.4468
▁amid	-11.4468
▁ammount	-11.4468
▁amongst	-11.4468
▁amorphous	-11.4468
▁amphetamine	-11.4468
▁ample	-11.4468
▁analysis	-11.4468
▁ancien	-11.4468
▁andew	-11.4468
▁androgenetic	-11.4468
▁aneurism	-11.4468
▁angrier	-11.4468
▁angst	-11.4468
▁anguished	-11.4468
▁animalistic	-11.4468
▁anime	-11.4468
▁anorexia	-11.4468
▁anthropoligist	-11.4468
▁antibody	-11.4468
▁antidote	-11.4468
▁antipsychotic	-11.4468
▁aphatic	-11.4468
▁apology	-11.4468
▁appalled	-11.4468
▁appealing	-11.4468
▁appearence	-11.4468
▁appears	-11.4468
▁appreciating	-11.4468
▁apprenticeship	-11.4468
▁appropriate	-11.4468
▁approves	-11.4468
▁aptitude	-11.4468
▁arbitrary	-11.4468
▁argued	-11.4468
▁armed	-11.4468
▁arranged	-11.4468
▁arrest	-11.4468
▁arrived	-11.4468
▁arrogant	-11.4468
▁artery	-11.4468
▁arthritis	-11.4468
▁articulate	-11.4468
▁artistic	-11.4468
▁ascensionmeditation	-11.4468
▁asd	-11.4468
▁asf	-11.4468
▁asfff	-11.4468
▁asian	-11.4468
▁asperger	-11.4468
▁aspire	-11.4468
▁ass	-11.4468
▁asskisser	-11.4468
▁atlas	-11.4468
▁atm	-11.4468
▁atmospheric	-11.4468
▁atom	-11.4468
▁attaching	-11.4468
▁attracted	-11.4468
▁audience	-11.4468
▁audition	-11.4468
▁authorattn	-11.4468
▁automated	-11.4468
▁automatic	-11.4468
▁avail	-11.4468
▁awakening	-11.4468
▁awarded	-11.4468
▁awry	-11.4468
▁backfire	-11.4468
▁backpack	-11.4468
▁backspaced	-11.4468
▁backstory	-11.4468
▁bail	-11.4468
▁bait	-11.4468
▁bake	-11.4468
▁balancing	-11.4468
▁bankrupt	-11.4468
▁bar	-11.4468
▁barbiee	-11.4468
▁barefoot	-11.4468
▁bathe	-11.4468
▁bathing	-11.4468
▁batting	-11.4468
▁battlefield	-11.4468
▁bawling	-11.4468
▁bbq	-11.4468
▁beachside	-11.4468
▁beacuse	-11.4468
▁beaten	-11.4468
▁bedding	-11.4468
▁bee	-11.4468
▁beed	-11.4468
▁beep	-11.4468
▁befriend	-11.4468
▁beggining	-11.4468
▁behavioural	-11.4468
▁beige	-11.4468
▁belated	-11.4468
▁belgium	-11.4468
▁bemindfulonline	-11.4468
▁bench	-11.4468
▁bender	-11.4468
▁beneath	-11.4468
▁beneficial	-11.4468
▁bestseller	-11.4468
▁bestselling	-11.4468
▁bettering	-11.4468
▁bfa	-11.4468
▁bible	-11.4468
▁biggies	-11.4468
▁binary	-11.4468
▁biologically	-11.4468
▁biostatistics	-11.4468
▁bitterness	-11.4468
▁blacked	-11.4468
▁blatantly	-11.4468
▁bleak	-11.4468
▁blip	-11.4468
▁boarding	-11.4468
▁boiled	-11.4468
▁boiling	-11.4468
▁bombed	-11.4468
▁bombing	-11.4468
▁boops	-11.4468
▁boosted	-11.4468
▁boosting	-11.4468
▁boot	-11.4468
▁booth	-11.4468
▁booze	-11.4468
▁boss	-11.4468
▁bossa	-11.4468
▁bottled	-11.4468
▁bowl	-11.4468
▁boxing	-11.4468
▁bragging	-11.4468
▁brat	-11.4468
▁breast	-11.4468
▁bricker	-11.4468
▁bridging	-11.4468
▁brien	-11.4468
▁brighten	-11.4468
▁britain	-11.4468
▁british	-11.4468
▁bronson	-11.4468
▁bros	-11.4468
▁bruise	-11.4468
▁bruised	-11.4468
▁budding	-11.4468
▁buddy	-11.4468
▁buggy	-11.4468
▁bulking	-11.4468
▁bullet	-11.4468
▁bumpy	-11.4468
▁bungee	-11.4468
▁burdening	-11.4468
▁burg	-11.4468
▁buried	-11.4468
▁buttered	-11.4468
▁bye	-11.4468
▁bystander	-11.4468
▁cafe	-11.4468
▁cafeteria	-11.4468
▁cafine	-11.4468
▁cal	-11.4468
▁caller	-11.4468
▁calmer	-11.4468
▁calorie	-11.4468
▁camel	-11.4468
▁candy	-11.4468
▁cannabis	-11.4468
▁canton	-11.4468
▁capitalism	-11.4468
▁capstone	-11.4468
▁capsule	-11.4468
▁captaindepression	-11.4468
▁cardio	-11.4468
▁careerwise	-11.4468
▁carol	-11.4468
▁carve	-11.4468
▁casual	-11.4468
▁casually	-11.4468
▁catastrophize	-11.4468
▁cater	-11.4468
▁cavity	-11.4468
▁cbc	-11.4468
▁ccertain	-11.4468
▁ccna	-11.4468
▁ceased	-11.4468
▁cec	-11.4468
▁celexa	-11.4468
▁cemetery	-11.4468
▁cent	-11.4468
▁centered	-11.4468
▁centering	-11.4468
▁cert	-11.4468
▁certainty	-11.4468
▁certify	-11.4468
▁cf	-11.4468
▁challeged	-11.4468
▁challeges	-11.4468
▁chaotic	-11.4468
▁characterize	-11.4468
▁charismatic	-11.4468
▁charitable	-11.4468
▁charming	-11.4468
▁chastise	-11.4468
▁chated	-11.4468
▁chattering	-11.4468
▁cheerful	-11.4468
▁cherry	-11.4468
▁chester	-11.4468
▁chevrolet	-11.4468
▁chew	-11.4468
▁chewed	-11.4468
▁chillllll	-11.4468
▁chime	-11.4468
▁china	-11.4468
▁chiropractor	-11.4468
▁chirping	-11.4468
▁chocolate	-11.4468
▁chord	-11.4468
▁christ	-11.4468
▁chromebook	-11.4468
▁chtbl	-11.4468
▁ci	-11.4468
▁ciggarettes	-11.4468
▁cinematic	-11.4468
▁circulating	-11.4468
▁claimed	-11.4468
▁clairvoyance	-11.4468
▁clamp	-11.4468
▁clash	-11.4468
▁classical	-11.4468
▁classify	-11.4468
▁classroom	-11.4468
▁cleaned	-11.4468
▁cleft	-11.4468
▁clenched	-11.4468
▁clever	-11.4468
▁clicked	-11.4468
▁clinging	-11.4468
▁clingy	-11.4468
▁cloak	-11.4468
▁clonazepam	-11.4468
▁closure	-11.4468
▁clueless	-11.4468
▁clutter	-11.4468
▁cocky	-11.4468
▁coco	-11.4468
▁coding	-11.4468
▁coffin	-11.4468
▁cognitively	-11.4468
▁coin	-11.4468
▁coincidence	-11.4468
▁collins	-11.4468
▁colon	-11.4468
▁colorful	-11.4468
▁colouring	-11.4468
▁combat	-11.4468
▁combating	-11.4468
▁combining	-11.4468
▁comedy	-11.4468
▁comfy	-11.4468
▁comic	-11.4468
▁commends	-11.4468
▁commiserating	-11.4468
▁communicating	-11.4468
▁commuter	-11.4468
▁compatible	-11.4468
▁compensation	-11.4468
▁compete	-11.4468
▁compulsion	-11.4468
▁conceptualization	-11.4468
▁confidential	-11.4468
▁confined	-11.4468
▁confines	-11.4468
▁conflicting	-11.4468
▁conform	-11.4468
▁congratulation	-11.4468
▁congressional	-11.4468
▁consequently	-11.4468
▁considerable	-11.4468
▁consitent	-11.4468
▁console	-11.4468
▁constraint	-11.4468
▁construct	-11.4468
▁constructing	-11.4468
▁constructively	-11.4468
▁consumes	-11.4468
▁contacted	-11.4468
▁contain	-11.4468
▁contained	-11.4468
▁contemptible	-11.4468
▁continent	-11.4468
▁continously	-11.4468
▁continued	-11.4468
▁contributed	-11.4468
▁controllable	-11.4468
▁controller	-11.4468
▁convenience	-11.4468
▁convenient	-11.4468
▁conventional	-11.4468
▁conversion	-11.4468
▁converted	-11.4468
▁conveyer	-11.4468
▁conviced	-11.4468
▁cooky	-11.4468
▁cooping	-11.4468
▁coordination	-11.4468
▁coordinator	-11.4468
▁coped	-11.4468
▁copious	-11.4468
▁corey	-11.4468
▁corneal	-11.4468
▁corp	-11.4468
▁correlation	-11.4468
▁costly	-11.4468
▁couldnt	-11.4468
▁courthouse	-11.4468
▁coverage	-11.4468
▁coz	-11.4468
▁cozy	-11.4468
▁cpa	-11.4468
▁crab	-11.4468
▁crackhead	-11.4468
▁cramped	-11.4468
▁crawlies	-11.4468
▁creek	-11.4468
▁crew	-11.4468
▁criterion	-11.4468
▁critically	-11.4468
▁criticizes	-11.4468
▁critter	-11.4468
▁crowed	-11.4468
▁crumbling	-11.4468
▁cruz	-11.4468
▁crystal	-11.4468
▁crystallizes	-11.4468
▁cuddling	-11.4468
▁culmination	-11.4468
▁cumming	-11.4468
▁cupboard	-11.4468
▁cuppa	-11.4468
▁curating	-11.4468
▁curve	-11.4468
▁curving	-11.4468
▁cutler	-11.4468
▁cymbalta	-11.4468
▁cynical	-11.4468
▁da	-11.4468
▁dagger	-11.4468
▁dan	-11.4468
▁dancing	-11.4468
▁dangerously	-11.4468
▁dared	-11.4468
▁darker	-11.4468
▁darn	-11.4468
▁daytime	-11.4468
▁deadbeat	-11.4468
▁deadlift	-11.4468
▁debated	-11.4468
▁decency	-11.4468
▁deception	-11.4468
▁declined	-11.4468
▁declining	-11.4468
▁declutter	-11.4468
▁decoration	-11.4468
▁dedicating	-11.4468
▁deductable	-11.4468
▁deem	-11.4468
▁deemed	-11.4468
▁default	-11.4468
▁defending	-11.4468
▁defination	-11.4468
▁defines	-11.4468
▁deflect	-11.4468
▁defy	-11.4468
▁delaying	-11.4468
▁deliberate	-11.4468
▁delicious	-11.4468
▁delight	-11.4468
▁delivery	-11.4468
▁demanding	-11.4468
▁demotivated	-11.4468
▁demotivation	-11.4468
▁dense	-11.4468
▁densest	-11.4468
▁dental	-11.4468
▁depends	-11.4468
▁depersnalization	-11.4468
▁depersonalization	-11.4468
▁deprivation	-11.4468
▁derive	-11.4468
▁dermatologist	-11.4468
▁describing	-11.4468
▁designated	-11.4468
▁desktop	-11.4468
▁desmotivated	-11.4468
▁despaired	-11.4468
▁destined	-11.4468
▁destroy	-11.4468
▁destructed	-11.4468
▁destruction	-11.4468
▁detailing	-11.4468
▁detect	-11.4468
▁deter	-11.4468
▁detract	-11.4468
▁detriment	-11.4468
▁devastate	-11.4468
▁developemental	-11.4468
▁developer	-11.4468
▁devil	-11.4468
▁diafram	-11.4468
▁diametrically	-11.4468
▁dicided	-11.4468
▁dictator	-11.4468
▁differ	-11.4468
▁dilation	-11.4468
▁dildo	-11.4468
▁dilemma	-11.4468
▁dimension	-11.4468
▁disappointement	-11.4468
▁disapproved	-11.4468
▁disapproving	-11.4468
▁disaster	-11.4468
▁disconnect	-11.4468
▁discouragement	-11.4468
▁disfunctional	-11.4468
▁disgusted	-11.4468
▁disingenuous	-11.4468
▁dismiss	-11.4468
▁disordered	-11.4468
▁disowned	-11.4468
▁disposition	-11.4468
▁disrespecting	-11.4468
▁disrupt	-11.4468
▁dissappear	-11.4468
▁dissatisfaction	-11.4468
▁dissociate	-11.4468
▁dissociating	-11.4468
▁distortion	-11.4468
▁distracting	-11.4468
▁distraught	-11.4468
▁distressing	-11.4468
▁disturb	-11.4468
▁ditch	-11.4468
▁divide	-11.4468
▁divisional	-11.4468
▁divorce	-11.4468
▁dizzyness	-11.4468
▁doable	-11.4468
▁documantaries	-11.4468
▁document	-11.4468
▁documenting	-11.4468
▁doll	-11.4468
▁dominate	-11.4468
▁doom	-11.4468
▁doomed	-11.4468
▁doordash	-11.4468
▁doosie	-11.4468
▁dopa	-11.4468
▁dope	-11.4468
▁dos	-11.4468
▁dosage	-11.4468
▁downplays	-11.4468
▁downsize	-11.4468
▁downwards	-11.4468
▁dragging	-11.4468
▁dragon	-11.4468
▁dramatically	-11.4468
▁drawn	-11.4468
▁dreading	-11.4468
▁dreamed	-11.4468
▁dreaming	-11.4468
▁drill	-11.4468
▁drivign	-11.4468
▁drone	-11.4468
▁drool	-11.4468
▁drowsy	-11.4468
▁drugged	-11.4468
▁drum	-11.4468
▁drunken	-11.4468
▁dt	-11.4468
▁dual	-11.4468
▁duck	-11.4468
▁duffle	-11.4468
▁dug	-11.4468
▁dumbass	-11.4468
▁dump	-11.4468
▁dumped	-11.4468
▁dysfunction	-11.4468
▁dysthimia	-11.4468
▁dysthymia	-11.4468
▁earliest	-11.4468
▁earthquake	-11.4468
▁eastern	-11.4468
▁ebony	-11.4468
▁edgy	-11.4468
▁eeg	-11.4468
▁effecting	-11.4468
▁efficient	-11.4468
▁eg	-11.4468
▁egotistical	-11.4468
▁egypt	-11.4468
▁eighth	-11.4468
▁ekg	-11.4468
▁el	-11.4468
▁elated	-11.4468
▁elation	-11.4468
▁electric	-11.4468
▁electrical	-11.4468
▁electrocute	-11.4468
▁electrode	-11.4468
▁electronics	-11.4468
▁eliminating	-11.4468
▁elixir	-11.4468
▁elon	-11.4468
▁elope	-11.4468
▁em	-11.4468
▁emailing	-11.4468
▁embarassed	-11.4468
▁embarrass	-11.4468
▁emerged	-11.4468
▁emit	-11.4468
▁emo	-11.4468
▁empathize	-11.4468
▁emphaising	-11.4468
▁emphasize	-11.4468
▁emphasized	-11.4468
▁empowered	-11.4468
▁enabled	-11.4468
▁enables	-11.4468
▁encompassing	-11.4468
▁encourages	-11.4468
▁encouraging	-11.4468
▁endeavoured	-11.4468
▁enhances	-11.4468
▁enlighten	-11.4468
▁enlivened	-11.4468
▁enormous	-11.4468
▁enroll	-11.4468
▁ensures	-11.4468
▁enthusiasm	-11.4468
▁entourage	-11.4468
▁entreprener	-11.4468
▁envelope	-11.4468
▁envied	-11.4468
▁envious	-11.4468
▁epiphany	-11.4468
▁equality	-11.4468
▁equate	-11.4468
▁equation	-11.4468
▁eradicated	-11.4468
▁erect	-11.4468
▁erection	-11.4468
▁ergo	-11.4468
▁eric	-11.4468
▁escalate	-11.4468
▁escalated	-11.4468
▁escort	-11.4468
▁est	-11.4468
▁estate	-11.4468
▁ethical	-11.4468
▁ethnicity	-11.4468
▁eudaimonia	-11.4468
▁euthanasia	-11.4468
▁euthanized	-11.4468
▁eventhough	-11.4468
▁everlasting	-11.4468
▁everyon	-11.4468
▁everythings	-11.4468
▁evicted	-11.4468
▁excercises	-11.4468
▁exclusive	-11.4468
▁exclusively	-11.4468
▁exhaust	-11.4468
▁exhibition	-11.4468
▁existance	-11.4468
▁expanded	-11.4468
▁expanding	-11.4468
▁expands	-11.4468
▁expansion	-11.4468
▁experiment	-11.4468
▁expired	-11.4468
▁exploded	-11.4468
▁exploited	-11.4468
▁explosion	-11.4468
▁expose	-11.4468
▁expound	-11.4468
▁extend	-11.4468
▁extensively	-11.4468
▁extinguish	-11.4468
▁extract	-11.4468
▁extraoedinary	-11.4468
▁extremly	-11.4468
▁eyed	-11.4468
▁facet	-11.4468
▁facilitate	-11.4468
▁faded	-11.4468
▁failling	-11.4468
▁fairness	-11.4468
▁falcon	-11.4468
▁falsely	-11.4468
▁fantasized	-11.4468
▁fantasizing	-11.4468
▁fase	-11.4468
▁fastest	-11.4468
▁fatigued	-11.4468
▁fatty	-11.4468
▁favor	-11.4468
▁faze	-11.4468
▁fcking	-11.4468
▁fearlessness	-11.4468
▁feasible	-11.4468
▁feather	-11.4468
▁feild	-11.4468
▁fellowship	-11.4468
▁femboy	-11.4468
▁ferriss	-11.4468
▁feverish	-11.4468
▁figment	-11.4468
▁fin	-11.4468
▁financials	-11.4468
▁fir	-11.4468
▁fireplace	-11.4468
▁firmly	-11.4468
▁fishing	-11.4468
▁fittest	-11.4468
▁fk	-11.4468
▁flair	-11.4468
▁flammable	-11.4468
▁flare	-11.4468
▁flatsharing	-11.4468
▁flavour	-11.4468
▁flea	-11.4468
▁fleeing	-11.4468
▁flinching	-11.4468
▁flipping	-11.4468
▁flooding	-11.4468
▁floof	-11.4468
▁flossing	-11.4468
▁fluid	-11.4468
▁fluoxetine	-11.4468
▁fml	-11.4468
▁fond	-11.4468
▁ford	-11.4468
▁forgiveness	-11.4468
▁format	-11.4468
▁formative	-11.4468
▁formidable	-11.4468
▁forming	-11.4468
▁formulate	-11.4468
▁forsee	-11.4468
▁fortunately	-11.4468
▁foul	-11.4468
▁fox	-11.4468
▁frail	-11.4468
▁frank	-11.4468
▁freeing	-11.4468
▁freeze	-11.4468
▁fremont	-11.4468
▁fridaymorning	-11.4468
▁fridaymotivation	-11.4468
▁fridaythoughts	-11.4468
▁fridge	-11.4468
▁friendzoned	-11.4468
▁frightened	-11.4468
▁frightening	-11.4468
▁frisky	-11.4468
▁frizz	-11.4468
▁frizzle	-11.4468
▁frontline	-11.4468
▁fruitless	-11.4468
▁fullest	-11.4468
▁fulltime	-11.4468
▁functionally	-11.4468
▁funnest	-11.4468
▁fuq	-11.4468
▁furious	-11.4468
▁furloughed	-11.4468
▁furniture	-11.4468
▁furry	-11.4468
▁fusion	-11.4468
▁fuvking	-11.4468
▁fwd	-11.4468
▁gabriel	-11.4468
▁gage	-11.4468
▁gambino	-11.4468
▁gamble	-11.4468
▁gardening	-11.4468
▁garyvee	-11.4468
▁gaslight	-11.4468
▁gaslighting	-11.4468
▁gastroenterologist	-11.4468
▁gauge	-11.4468
▁gaze	-11.4468
▁gene	-11.4468
▁generate	-11.4468
▁generic	-11.4468
▁genius	-11.4468
▁gently	-11.4468
▁genuity	-11.4468
▁getaway	-11.4468
▁ghetto	-11.4468
▁ghosting	-11.4468
▁gifted	-11.4468
▁giggle	-11.4468
▁gimmick	-11.4468
▁ginseng	-11.4468
▁gladness	-11.4468
▁glance	-11.4468
▁glandular	-11.4468
▁gleaned	-11.4468
▁glimmer	-11.4468
▁globally	-11.4468
▁glorified	-11.4468
▁glory	-11.4468
▁glow	-11.4468
▁glowing	-11.4468
▁glued	-11.4468
▁goodnight	-11.4468
▁googled	-11.4468
▁gosh	-11.4468
▁gotteb	-11.4468
▁gps	-11.4468
▁grabbing	-11.4468
▁graced	-11.4468
▁gradual	-11.4468
▁grammar	-11.4468
▁granddaughter	-11.4468
▁grandiose	-11.4468
▁grandkids	-11.4468
▁granphater	-11.4468
▁gratefulness	-11.4468
▁graying	-11.4468
▁grazed	-11.4468
▁graziosi	-11.4468
▁grease	-11.4468
▁greg	-11.4468
▁grid	-11.4468
▁grinded	-11.4468
▁groin	-11.4468
▁groom	-11.4468
▁grouched	-11.4468
▁grunt	-11.4468
▁guaranteed	-11.4468
▁guardian	-11.4468
▁guardianship	-11.4468
▁guessed	-11.4468
▁guest	-11.4468
▁guidedmeditation	-11.4468
▁guilted	-11.4468
▁gum	-11.4468
▁guru	-11.4468
▁gymnastics	-11.4468
▁gynaecologist	-11.4468
▁habbit	-11.4468
▁hack	-11.4468
▁hahah	-11.4468
▁hahahahahah	-11.4468
▁hahhaa	-11.4468
▁halfway	-11.4468
▁halloween	-11.4468
▁halt	-11.4468
▁halted	-11.4468
▁handbook	-11.4468
▁handed	-11.4468
▁handgun	-11.4468
▁handy	-11.4468
▁hangover	-11.4468
▁hannah	-11.4468
▁happend	-11.4468
▁happinessnowchannel	-11.4468
▁harbored	-11.4468
▁harpreet	-11.4468
▁haryana	-11.4468
▁hasnt	-11.4468
▁hassle	-11.4468
▁hatched	-11.4468
▁haunting	-11.4468
▁haze	-11.4468
▁healed	-11.4468
▁heatlh	-11.4468
▁hedonic	-11.4468
▁heed	-11.4468
▁heir	-11.4468
▁hereafter	-11.4468
▁hernia	-11.4468
▁hero	-11.4468
▁hesitate	-11.4468
▁hesitating	-11.4468
▁heyejehowh	-11.4468
▁hh	-11.4468
▁hiatal	-11.4468
▁hightail	-11.4468
▁hilding	-11.4468
▁himan	-11.4468
▁hindi	-11.4468
▁hindu	-11.4468
▁hmm	-11.4468
▁hmmm	-11.4468
▁ho	-11.4468
▁hoax	-11.4468
▁hobble	-11.4468
▁hobies	-11.4468
▁holistic	-11.4468
▁homeschool	-11.4468
▁homophobia	-11.4468
▁honey	-11.4468
▁hood	-11.4468
▁hop	-11.4468
▁horde	-11.4468
▁horrific	-11.4468
▁hostile	-11.4468
▁hosting	-11.4468
▁hourglass	-11.4468
▁household	-11.4468
▁housing	-11.4468
▁howtomeditate	-11.4468
▁htp	-11.4468
▁huberman	-11.4468
▁hugely	-11.4468
▁huh	-11.4468
▁huhu	-11.4468
▁hunger	-11.4468
▁hunting	-11.4468
▁hurricane	-11.4468
▁hussle	-11.4468
▁hustle	-11.4468
▁hustlin	-11.4468
▁hyperventilating	-11.4468
▁hypocrite	-11.4468
▁ibs	-11.4468
▁icing	-11.4468
▁icon	-11.4468
▁identified	-11.4468
▁identifying	-11.4468
▁idgaf	-11.4468
▁idiotic	-11.4468
▁iii	-11.4468
▁ik	-11.4468
▁illinois	-11.4468
▁illogical	-11.4468
▁illustrate	-11.4468
▁imaginative	-11.4468
▁immensely	-11.4468
▁immersed	-11.4468
▁imo	-11.4468
▁impactful	-11.4468
▁impartial	-11.4468
▁impatient	-11.4468
▁implant	-11.4468
▁implying	-11.4468
▁impression	-11.4468
▁impressive	-11.4468
▁impulse	-11.4468
▁inappropriate	-11.4468
▁inattention	-11.4468
▁incarnation	-11.4468
▁inch	-11.4468
▁incompetence	-11.4468
▁inconsiderate	-11.4468
▁incontinent	-11.4468
▁inconvenience	-11.4468
▁incurable	-11.4468
▁indication	-11.4468
▁indirectly	-11.4468
▁indomitable	-11.4468
▁ineffective	-11.4468
▁infatuated	-11.4468
▁infection	-11.4468
▁inflation	-11.4468
▁influencers	-11.4468
▁influential	-11.4468
▁inhabilitating	-11.4468
▁inherits	-11.4468
▁inhibit	-11.4468
▁inimitable	-11.4468
▁initiative	-11.4468
▁inject	-11.4468
▁injured	-11.4468
▁inlove	-11.4468
▁innate	-11.4468
▁innocent	-11.4468
▁insanity	-11.4468
▁insist	-11.4468
▁insists	-11.4468
▁insomniac	-11.4468
▁instantaneous	-11.4468
▁instantaneously	-11.4468
▁instigator	-11.4468
▁instruction	-11.4468
▁instructs	-11.4468
▁insulting	-11.4468
▁integrate	-11.4468
▁integrated	-11.4468
▁intending	-11.4468
▁intercourse	-11.4468
▁intern	-11.4468
▁internalised	-11.4468
▁internalized	-11.4468
▁interrupt	-11.4468
▁intersex	-11.4468
▁interst	-11.4468
▁interval	-11.4468
▁intrigued	-11.4468
▁introduced	-11.4468
▁introduces	-11.4468
▁introvert	-11.4468
▁invades	-11.4468
▁invalidating	-11.4468
▁invasive	-11.4468
▁inventing	-11.4468
▁invisibility	-11.4468
▁invisible	-11.4468
▁involving	-11.4468
▁irb	-11.4468
▁ireland	-11.4468
▁irreparable	-11.4468
▁irresponsibility	-11.4468
▁irritability	-11.4468
▁ishayas	-11.4468
▁ishtarhowell	-11.4468
▁isolate	-11.4468
▁isolating	-11.4468
▁issued	-11.4468
▁italy	-11.4468
▁itd	-11.4468
▁iteration	-11.4468
▁iu	-11.4468
▁jack	-11.4468
▁jaded	-11.4468
▁jail	-11.4468
▁jakepreddy	-11.4468
▁jar	-11.4468
▁je	-11.4468
▁jelly	-11.4468
▁jelous	-11.4468
▁jen	-11.4468
▁jenkins	-11.4468
▁jerking	-11.4468
▁jiggle	-11.4468
▁jkz	-11.4468
▁jonathan	-11.4468
▁joyous	-11.4468
▁judaism	-11.4468
▁juggle	-11.4468
▁jumb	-11.4468
▁justice	-11.4468
▁kawasaki	-11.4468
▁keystone	-11.4468
▁killer	-11.4468
▁kinder	-11.4468
▁knocking	-11.4468
▁korean	-11.4468
▁korn	-11.4468
▁labelled	-11.4468
▁lachesism	-11.4468
▁lady	-11.4468
▁lake	-11.4468
▁lame	-11.4468
▁lamp	-11.4468
▁lapdog	-11.4468
▁lastyear	-11.4468
▁latch	-11.4468
▁latuda	-11.4468
▁laughted	-11.4468
▁launching	-11.4468
▁lawn	-11.4468
▁laziness	-11.4468
▁leafing	-11.4468
▁leaked	-11.4468
▁lean	-11.4468
▁leap	-11.4468
▁learnd	-11.4468
▁learner	-11.4468
▁lecturing	-11.4468
▁leech	-11.4468
▁leftover	-11.4468
▁legacy	-11.4468
▁legally	-11.4468
▁legend	-11.4468
▁legitimate	-11.4468
▁lemmy	-11.4468
▁lend	-11.4468
▁lender	-11.4468
▁lesons	-11.4468
▁lesser	-11.4468
▁lethargic	-11.4468
▁liberal	-11.4468
▁liberation	-11.4468
▁licence	-11.4468
▁lick	-11.4468
▁lifelong	-11.4468
▁lifted	-11.4468
▁lighty	-11.4468
▁limb	-11.4468
▁limitless	-11.4468
▁lingers	-11.4468
▁lingo	-11.4468
▁linkedin	-11.4468
▁linking	-11.4468
▁listener	-11.4468
▁littlest	-11.4468
▁liverpool	-11.4468
▁livinginthemoment	-11.4468
▁lmao	-11.4468
▁loathed	-11.4468
▁logging	-11.4468
▁logo	-11.4468
▁looknat	-11.4468
▁loom	-11.4468
▁loophole	-11.4468
▁losserrrrrrr	-11.4468
▁lovable	-11.4468
▁lsd	-11.4468
▁lullaby	-11.4468
▁lupien	-11.4468
▁luxurious	-11.4468
▁lymphoma	-11.4468
▁madness	-11.4468
▁magical	-11.4468
▁maia	-11.4468
▁maid	-11.4468
▁maintains	-11.4468
▁malfunction	-11.4468
▁malibu	-11.4468
▁managment	-11.4468
▁manchester	-11.4468
▁mandatory	-11.4468
▁maneuver	-11.4468
▁manifesting	-11.4468
▁manipualtive	-11.4468
▁mannerism	-11.4468
▁mansion	-11.4468
▁marble	-11.4468
▁marketplace	-11.4468
▁marred	-11.4468
▁marrying	-11.4468
▁marvelous	-11.4468
▁mass	-11.4468
▁masterful	-11.4468
▁mastering	-11.4468
▁masturbated	-11.4468
▁matched	-11.4468
▁materialistic	-11.4468
▁mathernal	-11.4468
▁matted	-11.4468
▁mattered	-11.4468
▁maturely	-11.4468
▁maturing	-11.4468
▁maximise	-11.4468
▁maximum	-11.4468
▁mba	-11.4468
▁mcdonalds	-11.4468
▁mci	-11.4468
▁mckeown	-11.4468
▁mcu	-11.4468
▁mdd	-11.4468
▁mealplan	-11.4468
▁measurement	-11.4468
▁measuring	-11.4468
▁mechanical	-11.4468
▁medal	-11.4468
▁mediation	-11.4468
▁mediavine	-11.4468
▁mediocre	-11.4468
▁melatonin	-11.4468
▁melbourne	-11.4468
▁mellow	-11.4468
▁melt	-11.4468
▁meltdown	-11.4468
▁melted	-11.4468
▁memorized	-11.4468
▁mendes	-11.4468
▁mending	-11.4468
▁meniscus	-11.4468
▁merciful	-11.4468
▁mercilessly	-11.4468
▁mercurial	-11.4468
▁meridian	-11.4468
▁metaphorically	-11.4468
▁methodology	-11.4468
▁mexico	-11.4468
▁michaeljames	-11.4468
▁michigan	-11.4468
▁micromanaged	-11.4468
▁microphone	-11.4468
▁mike	-11.4468
▁mildly	-11.4468
▁milestone	-11.4468
▁milla	-11.4468
▁mineral	-11.4468
▁mini	-11.4468
▁minority	-11.4468
▁misanthrope	-11.4468
▁misbehaves	-11.4468
▁misfit	-11.4468
▁misfortune	-11.4468
▁mistaken	-11.4468
▁mixture	-11.4468
▁moan	-11.4468
▁moaning	-11.4468
▁mod	-11.4468
▁modt	-11.4468
▁molecular	-11.4468
▁molecule	-11.4468
▁monastic	-11.4468
▁monitor	-11.4468
▁monk	-11.4468
▁monkey	-11.4468
▁moody	-11.4468
▁mope	-11.4468
▁morgan	-11.4468
▁moron	-11.4468
▁morphed	-11.4468
▁mortal	-11.4468
▁mortgage	-11.4468
▁motor	-11.4468
▁motorhead	-11.4468
▁mouthful	-11.4468
▁mouthguards	-11.4468
▁mph	-11.4468
▁mr	-11.4468
▁mra	-11.4468
▁mrv	-11.4468
▁mug	-11.4468
▁multifaceted	-11.4468
▁mumbai	-11.4468
▁murdered	-11.4468
▁musk	-11.4468
▁muslim	-11.4468
▁muted	-11.4468
▁mutually	-11.4468
▁muvespace	-11.4468
▁mxf	-11.4468
▁myriad	-11.4468
▁mystic	-11.4468
▁mystical	-11.4468
▁nagging	-11.4468
▁naive	-11.4468
▁naked	-11.4468
▁nanci	-11.4468
▁narcisisstic	-11.4468
▁narcissism	-11.4468
▁narrowing	-11.4468
▁nasal	-11.4468
▁nasty	-11.4468
▁nat	-11.4468
▁nation	-11.4468
▁navigate	-11.4468
▁nazi	-11.4468
▁nearest	-11.4468
▁needle	-11.4468
▁needy	-11.4468
▁neglectful	-11.4468
▁neice	-11.4468
▁neighborhood	-11.4468
▁neighborly	-11.4468
▁neighbour	-11.4468
▁nepal	-11.4468
▁nephew	-11.4468
▁newbie	-11.4468
▁newsflash	-11.4468
▁nexplanon	-11.4468
▁nico	-11.4468
▁nicotine	-11.4468
▁niece	-11.4468
▁nighttime	-11.4468
▁nightwish	-11.4468
▁nitpicks	-11.4468
▁nj	-11.4468
▁nocturnal	-11.4468
▁nofap	-11.4468
▁noida	-11.4468
▁nomination	-11.4468
▁nonexistent	-11.4468
▁nonsense	-11.4468
▁noregrets	-11.4468
▁norepinephrine	-11.4468
▁norm	-11.4468
▁north	-11.4468
▁nose	-11.4468
▁nosedive	-11.4468
▁nothin	-11.4468
▁noticeable	-11.4468
▁noticeably	-11.4468
▁noting	-11.4468
▁nour	-11.4468
▁nova	-11.4468
▁nurtureshock	-11.4468
▁nutella	-11.4468
▁obesity	-11.4468
▁obligated	-11.4468
▁obligation	-11.4468
▁oblivion	-11.4468
▁observant	-11.4468
▁obstetric	-11.4468
▁obstetrics	-11.4468
▁obtain	-11.4468
▁obtaining	-11.4468
▁obv	-11.4468
▁ocassionally	-11.4468
▁occurence	-11.4468
▁occurs	-11.4468
▁oct	-11.4468
▁oe	-11.4468
▁ofcourse	-11.4468
▁offender	-11.4468
▁offensive	-11.4468
▁offload	-11.4468
▁ohhh	-11.4468
▁ohhhh	-11.4468
▁oit	-11.4468
▁olympic	-11.4468
▁oncoming	-11.4468
▁openly	-11.4468
▁operates	-11.4468
▁operating	-11.4468
▁operation	-11.4468
▁operator	-11.4468
▁oppinion	-11.4468
▁optional	-11.4468
▁orchestrate	-11.4468
▁ordeal	-11.4468
▁ordered	-11.4468
▁oriented	-11.4468
▁orleans	-11.4468
▁ourworld	-11.4468
▁outa	-11.4468
▁outgoing	-11.4468
▁outing	-11.4468
▁outsider	-11.4468
▁ovary	-11.4468
▁oven	-11.4468
▁overanalyze	-11.4468
▁overate	-11.4468
▁overdosing	-11.4468
▁overdrive	-11.4468
▁overeating	-11.4468
▁overflowing	-11.4468
▁overhwelmed	-11.4468
▁overloaded	-11.4468
▁overly	-11.4468
▁overpaying	-11.4468
▁overplan	-11.4468
▁overpower	-11.4468
▁overthinks	-11.4468
▁overview	-11.4468
▁overwhelmingly	-11.4468
▁overworked	-11.4468
▁owning	-11.4468
▁oy	-11.4468
▁paddle	-11.4468
▁pageviews	-11.4468
▁paintbrush	-11.4468
▁painted	-11.4468
▁pairing	-11.4468
▁paltry	-11.4468
▁paperwork	-11.4468
▁paradoxically	-11.4468
▁paragraph	-11.4468
▁paralyzing	-11.4468
▁parenting	-11.4468
▁partially	-11.4468
▁passive	-11.4468
▁password	-11.4468
▁pastry	-11.4468
▁pathology	-11.4468
▁payback	-11.4468
▁payer	-11.4468
▁pcp	-11.4468
▁peacefully	-11.4468
▁pearl	-11.4468
▁peice	-11.4468
▁pepper	-11.4468
▁peppermint	-11.4468
▁perceivable	-11.4468
▁perfecting	-11.4468
▁performed	-11.4468
▁performer	-11.4468
▁performing	-11.4468
▁personnally	-11.4468
▁persuasive	-11.4468
▁pessimistic	-11.4468
▁petal	-11.4468
▁phaternal	-11.4468
▁phenomenal	-11.4468
▁philadelphia	-11.4468
▁philippine	-11.4468
▁philosopher	-11.4468
▁photography	-11.4468
▁photoshoots	-11.4468
▁physique	-11.4468
▁pianist	-11.4468
▁pie	-11.4468
▁piggyback	-11.4468
▁pilot	-11.4468
▁pinterest	-11.4468
▁pitched	-11.4468
▁piteous	-11.4468
▁pitfall	-11.4468
▁pitying	-11.4468
▁pivoting	-11.4468
▁pizza	-11.4468
▁placed	-11.4468
▁placing	-11.4468
▁plasma	-11.4468
▁pleased	-11.4468
▁plp	-11.4468
▁plum	-11.4468
▁plunged	-11.4468
▁pointing	-11.4468
▁pointlessness	-11.4468
▁poking	-11.4468
▁politics	-11.4468
▁poly	-11.4468
▁pony	-11.4468
▁poof	-11.4468
▁popsugar	-11.4468
▁population	-11.4468
▁portion	-11.4468
▁portrayed	-11.4468
▁posponing	-11.4468
▁possession	-11.4468
▁poster	-11.4468
▁posttraumatic	-11.4468
▁posture	-11.4468
▁pouch	-11.4468
▁pr	-11.4468
▁practicality	-11.4468
▁praise	-11.4468
▁pranayama	-11.4468
▁prayed	-11.4468
▁precaution	-11.4468
▁precise	-11.4468
▁precursor	-11.4468
▁predestined	-11.4468
▁predicament	-11.4468
▁predict	-11.4468
▁predictable	-11.4468
▁preform	-11.4468
▁prejudice	-11.4468
▁preoccupied	-11.4468
▁presentation	-11.4468
▁presented	-11.4468
▁preservation	-11.4468
▁pressing	-11.4468
▁prestige	-11.4468
▁pretents	-11.4468
▁prevalent	-11.4468
▁prey	-11.4468
▁pricing	-11.4468
▁pride	-11.4468
▁prime	-11.4468
▁print	-11.4468
▁probation	-11.4468
▁problematic	-11.4468
▁producing	-11.4468
▁programmed	-11.4468
▁progressed	-11.4468
▁projection	-11.4468
▁prolongs	-11.4468
▁prominent	-11.4468
▁promo	-11.4468
▁pronoun	-11.4468
▁pronounce	-11.4468
▁proof	-11.4468
▁proposal	-11.4468
▁prospect	-11.4468
▁prosperity	-11.4468
▁protein	-11.4468
▁proudly	-11.4468
▁proved	-11.4468
▁provoking	-11.4468
▁prude	-11.4468
▁psychic	-11.4468
▁psychopath	-11.4468
▁psychopathic	-11.4468
▁psychosis	-11.4468
▁publicly	-11.4468
▁publish	-11.4468
▁pump	-11.4468
▁pup	-11.4468
▁purifier	-11.4468
▁pyramid	-11.4468
▁q	-11.4468
▁qhat	-11.4468
▁qualify	-11.4468
▁quantifiable	-11.4468
▁query	-11.4468
▁questionable	-11.4468
▁quicker	-11.4468
▁quo	-11.4468
▁racism	-11.4468
▁racking	-11.4468
▁rajasthan	-11.4468
▁randomised	-11.4468
▁randomized	-11.4468
▁ranting	-11.4468
▁rape	-11.4468
▁rapper	-11.4468
▁rapport	-11.4468
▁rat	-11.4468
▁rationalize	-11.4468
▁raver	-11.4468
▁razor	-11.4468
▁reacted	-11.4468
▁realy	-11.4468
▁reap	-11.4468
▁rearrange	-11.4468
▁reasonably	-11.4468
▁rebirth	-11.4468
▁rebutted	-11.4468
▁receiver	-11.4468
▁receptor	-11.4468
▁recession	-11.4468
▁reciprocate	-11.4468
▁recommending	-11.4468
▁reconciling	-11.4468
▁recruitment	-11.4468
▁redraw	-11.4468
▁redundancy	-11.4468
▁reef	-11.4468
▁refer	-11.4468
▁referral	-11.4468
▁referred	-11.4468
▁refinance	-11.4468
▁registered	-11.4468
▁regulate	-11.4468
▁reinforces	-11.4468
▁reinterpretation	-11.4468
▁rejoined	-11.4468
▁relashionship	-11.4468
▁relatable	-11.4468
▁relation	-11.4468
▁releaseyouranxietymonster	-11.4468
▁relieved	-11.4468
▁relish	-11.4468
▁remained	-11.4468
▁remark	-11.4468
▁remarkable	-11.4468
▁remarry	-11.4468
▁reminisce	-11.4468
▁remodel	-11.4468
▁remorse	-11.4468
▁render	-11.4468
▁rendering	-11.4468
▁rendition	-11.4468
▁renowned	-11.4468
▁rented	-11.4468
▁reopened	-11.4468
▁rep	-11.4468
▁repairing	-11.4468
▁repayment	-11.4468
▁repetition	-11.4468
▁repetitive	-11.4468
▁repetitiveness	-11.4468
▁replicate	-11.4468
▁repop	-11.4468
▁repost	-11.4468
▁repurpose	-11.4468
▁requested	-11.4468
▁requires	-11.4468
▁rescue	-11.4468
▁resignedwithoutajob	-11.4468
▁resigning	-11.4468
▁resolving	-11.4468
▁resonate	-11.4468
▁resonated	-11.4468
▁resonates	-11.4468
▁responded	-11.4468
▁restarted	-11.4468
▁rested	-11.4468
▁restored	-11.4468
▁restructure	-11.4468
▁resulted	-11.4468
▁retake	-11.4468
▁retiree	-11.4468
▁retirement	-11.4468
▁retort	-11.4468
▁reveal	-11.4468
▁revelation	-11.4468
▁revenge	-11.4468
▁revolutionary	-11.4468
▁revolve	-11.4468
▁revolved	-11.4468
▁revolves	-11.4468
▁rewarded	-11.4468
▁rewatch	-11.4468
▁rhis	-11.4468
▁ridden	-11.4468
▁rider	-11.4468
▁rigid	-11.4468
▁rigorous	-11.4468
▁risked	-11.4468
▁risky	-11.4468
▁ritalin	-11.4468
▁riveter	-11.4468
▁rmd	-11.4468
▁roadblock	-11.4468
▁robbed	-11.4468
▁robbing	-11.4468
▁robin	-11.4468
▁rocking	-11.4468
▁rolled	-11.4468
▁romance	-11.4468
▁rose	-11.4468
▁rosie	-11.4468
▁royally	-11.4468
▁rudeness	-11.4468
▁rx	-11.4468
▁sabotaged	-11.4468
▁sabotaging	-11.4468
▁sacrificing	-11.4468
▁saddest	-11.4468
▁safeguard	-11.4468
▁safer	-11.4468
▁sailing	-11.4468
▁salesman	-11.4468
▁sally	-11.4468
▁sanctuary	-11.4468
▁sand	-11.4468
▁sandwhich	-11.4468
▁santa	-11.4468
▁santani	-11.4468
▁sapphire	-11.4468
▁sas	-11.4468
▁satisficing	-11.4468
▁scammed	-11.4468
▁scammer	-11.4468
▁scarce	-11.4468
▁schizophrenic	-11.4468
▁scholar	-11.4468
▁schoolbook	-11.4468
▁schooler	-11.4468
▁scientific	-11.4468
▁scientifically	-11.4468
▁scolded	-11.4468
▁scored	-11.4468
▁scrap	-11.4468
▁scrawny	-11.4468
▁screened	-11.4468
▁screwing	-11.4468
▁scriptural	-11.4468
▁se	-11.4468
▁seance	-11.4468
▁secreted	-11.4468
▁secretion	-11.4468
▁sedated	-11.4468
▁seeping	-11.4468
▁seize	-11.4468
▁sended	-11.4468
▁sensed	-11.4468
▁senseless	-11.4468
▁sensitivity	-11.4468
▁sentimental	-11.4468
▁sept	-11.4468
▁serotonin	-11.4468
▁servant	-11.4468
▁serving	-11.4468
▁setup	-11.4468
▁sever	-11.4468
▁sew	-11.4468
▁sexist	-11.4468
▁sexy	-11.4468
▁shabby	-11.4468
▁shaving	-11.4468
▁shaw	-11.4468
▁shedding	-11.4468
▁shelf	-11.4468
▁shifted	-11.4468
▁shifting	-11.4468
▁shittless	-11.4468
▁shitton	-11.4468
▁shivering	-11.4468
▁shocking	-11.4468
▁shook	-11.4468
▁shotgun	-11.4468
▁shouted	-11.4468
▁shouting	-11.4468
▁shove	-11.4468
▁shoved	-11.4468
▁showbiz	-11.4468
▁showcase	-11.4468
▁shrinking	-11.4468
▁shutdown	-11.4468
▁si	-11.4468
▁sideline	-11.4468
▁sigh	-11.4468
▁signaling	-11.4468
▁signed	-11.4468
▁sikh	-11.4468
▁simplicity	-11.4468
▁simplified	-11.4468
▁simplify	-11.4468
▁sjsu	-11.4468
▁skeleton	-11.4468
▁skyball	-11.4468
▁skype	-11.4468
▁sl	-11.4468
▁slasher	-11.4468
▁sleepwalking	-11.4468
▁sleeve	-11.4468
▁slice	-11.4468
▁slipknot	-11.4468
▁slipped	-11.4468
▁slit	-11.4468
▁slo	-11.4468
▁slob	-11.4468
▁slothish	-11.4468
▁slows	-11.4468
▁sludge	-11.4468
▁smam	-11.4468
▁smartphone	-11.4468
▁smash	-11.4468
▁smashed	-11.4468
▁smelled	-11.4468
▁smelling	-11.4468
▁smirking	-11.4468
▁smith	-11.4468
▁smoked	-11.4468
▁snapping	-11.4468
▁snappy	-11.4468
▁sniffle	-11.4468
▁snowing	-11.4468
▁snowstorm	-11.4468
▁snri	-11.4468
▁sobriety	-11.4468
▁soccer	-11.4468
▁sociable	-11.4468
▁societal	-11.4468
▁sociopath	-11.4468
▁solar	-11.4468
▁solidity	-11.4468
▁somedays	-11.4468
▁sonia	-11.4468
▁soo	-11.4468
▁sooooo	-11.4468
▁soriano	-11.4468
▁soulful	-11.4468
▁soulless	-11.4468
▁soundproofing	-11.4468
▁soup	-11.4468
▁soviet	-11.4468
▁sow	-11.4468
▁sp	-11.4468
▁spanish	-11.4468
▁spanked	-11.4468
▁sparked	-11.4468
▁spasm	-11.4468
▁specialty	-11.4468
▁speeding	-11.4468
▁spelled	-11.4468
▁spewing	-11.4468
▁spike	-11.4468
▁spilling	-11.4468
▁spitting	-11.4468
▁splint	-11.4468
▁spoiling	-11.4468
▁spontaneity	-11.4468
▁spontaneously	-11.4468
▁spouse	-11.4468
▁spreader	-11.4468
▁spreading	-11.4468
▁squeezing	-11.4468
▁sriramana	-11.4468
▁stabilized	-11.4468
▁stack	-11.4468
▁stain	-11.4468
▁stair	-11.4468
▁stalker	-11.4468
▁stance	-11.4468
▁standyby	-11.4468
▁stanford	-11.4468
▁stared	-11.4468
▁starred	-11.4468
▁startet	-11.4468
▁startup	-11.4468
▁statesman	-11.4468
▁steam	-11.4468
▁steered	-11.4468
▁steering	-11.4468
▁stemming	-11.4468
▁stereotyped	-11.4468
▁stereotypical	-11.4468
▁sternberg	-11.4468
▁stew	-11.4468
▁stiff	-11.4468
▁stimulating	-11.4468
▁stimulation	-11.4468
▁stimulis	-11.4468
▁stirring	-11.4468
▁stole	-11.4468
▁stomp	-11.4468
▁stopppef	-11.4468
▁stored	-11.4468
▁straighten	-11.4468
▁straightforward	-11.4468
▁strand	-11.4468
▁strategic	-11.4468
▁stricly	-11.4468
▁stride	-11.4468
▁stroking	-11.4468
▁struggledto	-11.4468
▁stumbling	-11.4468
▁stunted	-11.4468
▁stupidly	-11.4468
▁stupor	-11.4468
▁stuttered	-11.4468
▁subscription	-11.4468
▁subsequent	-11.4468
▁subsequently	-11.4468
▁subtance	-11.4468
▁subtle	-11.4468
▁succes	-11.4468
▁sucky	-11.4468
▁suffers	-11.4468
▁suggestible	-11.4468
▁suicidewatch	-11.4468
▁suitcase	-11.4468
▁sulpiride	-11.4468
▁sumedh	-11.4468
▁summarise	-11.4468
▁summoning	-11.4468
▁sunflower	-11.4468
▁superb	-11.4468
▁supercharge	-11.4468
▁superior	-11.4468
▁superpower	-11.4468
▁suppressed	-11.4468
▁sur	-11.4468
▁surge	-11.4468
▁surprising	-11.4468
▁surrender	-11.4468
▁swaying	-11.4468
▁swell	-11.4468
▁symtoms	-11.4468
▁synonymous	-11.4468
▁tab	-11.4468
▁tackle	-11.4468
▁taco	-11.4468
▁tacoma	-11.4468
▁taichi	-11.4468
▁tailspin	-11.4468
▁taiwan	-11.4468
▁talentless	-11.4468
▁technically	-11.4468
▁teddy	-11.4468
▁teething	-11.4468
▁television	-11.4468
▁telltale	-11.4468
▁temporal	-11.4468
▁tenfold	-11.4468
▁terminating	-11.4468
▁terror	-11.4468
▁terrorist	-11.4468
▁testis	-11.4468
▁tf	-11.4468
▁thay	-11.4468
▁theatrics	-11.4468
▁theoretical	-11.4468
▁thereafter	-11.4468
▁thermometer	-11.4468
▁theyve	-11.4468
▁thingy	-11.4468
▁thlught	-11.4468
▁thoughtctrl	-11.4468
▁thoughtful	-11.4468
▁thrilled	-11.4468
▁thriving	-11.4468
▁thug	-11.4468
▁thunderstorm	-11.4468
▁thy	-11.4468
▁tibet	-11.4468
▁tier	-11.4468
▁tiger	-11.4468
▁til	-11.4468
▁tim	-11.4468
▁timeframe	-11.4468
▁tina	-11.4468
▁toiled	-11.4468
▁toiling	-11.4468
▁tom	-11.4468
▁tommorow	-11.4468
▁toolset	-11.4468
▁torn	-11.4468
▁tortured	-11.4468
▁tougher	-11.4468
▁tought	-11.4468
▁tour	-11.4468
▁touring	-11.4468
▁tourist	-11.4468
▁traced	-11.4468
▁tranquillity	-11.4468
▁transcendence	-11.4468
▁transferable	-11.4468
▁transformed	-11.4468
▁translate	-11.4468
▁transmit	-11.4468
▁transmits	-11.4468
▁transmitted	-11.4468
▁transmitting	-11.4468
▁transphobic	-11.4468
▁trapping	-11.4468
▁travail	-11.4468
▁trazodone	-11.4468
▁treading	-11.4468
▁triathlete	-11.4468
▁tribulation	-11.4468
▁triumph	-11.4468
▁triumphant	-11.4468
▁tropical	-11.4468
▁troubled	-11.4468
▁troubling	-11.4468
▁truely	-11.4468
▁truer	-11.4468
▁trump	-11.4468
▁truthful	-11.4468
▁truthfully	-11.4468
▁tryptophan	-11.4468
▁tub	-11.4468
▁tumbleweed	-11.4468
▁tumbling	-11.4468
▁tumblr	-11.4468
▁tumor	-11.4468
▁tweak	-11.4468
▁twisting	-11.4468
▁tycoon	-11.4468
▁typo	-11.4468
▁tyson	-11.4468
▁uglier	-11.4468
▁ugliness	-11.4468
▁umm	-11.4468
▁unappealing	-11.4468
▁unappreciative	-11.4468
▁unattractive	-11.4468
▁unavoidable	-11.4468
▁unbearably	-11.4468
▁unbelievable	-11.4468
▁uncaring	-11.4468
▁unconditionally	-11.4468
▁uncontrolled	-11.4468
▁uncoordinated	-11.4468
▁uncovering	-11.4468
▁uncreadible	-11.4468
▁undateable	-11.4468
▁underemployment	-11.4468
▁underestimate	-11.4468
▁undergoing	-11.4468
▁undermined	-11.4468
▁understandable	-11.4468
▁underwent	-11.4468
▁undisputed	-11.4468
▁undo	-11.4468
▁undoing	-11.4468
▁uneasiness	-11.4468
▁uneasy	-11.4468
▁unemployment	-11.4468
▁unenthusiastic	-11.4468
▁unequal	-11.4468
▁unexpectedly	-11.4468
▁unfairly	-11.4468
▁unfollowed	-11.4468
▁unfriended	-11.4468
▁unfulfilled	-11.4468
▁unhappiness	-11.4468
▁unimaginable	-11.4468
▁unity	-11.4468
▁unlovable	-11.4468
▁unmatchable	-11.4468
▁unorganised	-11.4468
▁unorganized	-11.4468
▁unreal	-11.4468
▁unrelated	-11.4468
▁unreleased	-11.4468
▁unrepresentative	-11.4468
▁unseen	-11.4468
▁unsuccessful	-11.4468
▁unsupervised	-11.4468
▁untangle	-11.4468
▁untill	-11.4468
▁untrained	-11.4468
▁unusual	-11.4468
▁unwilling	-11.4468
▁unwise	-11.4468
▁upbringing	-11.4468
▁updated	-11.4468
▁uplifted	-11.4468
▁uploaded	-11.4468
▁upperside	-11.4468
▁upscale	-11.4468
▁upvotes	-11.4468
▁uselessness	-11.4468
▁utilizing	-11.4468
▁utm	-11.4468
▁vacant	-11.4468
▁vaccinated	-11.4468
▁valium	-11.4468
▁vancouver	-11.4468
▁vape	-11.4468
▁variable	-11.4468
▁variating	-11.4468
▁varying	-11.4468
▁vaso	-11.4468
▁vba	-11.4468
▁vegus	-11.4468
▁venezuela	-11.4468
▁verbal	-11.4468
▁verve	-11.4468
▁viable	-11.4468
▁vibrate	-11.4468
▁vibrator	-11.4468
▁vicious	-11.4468
▁vigorus	-11.4468
▁vigour	-11.4468
▁village	-11.4468
▁viral	-11.4468
▁virgin	-11.4468
▁virginity	-11.4468
▁virtue	-11.4468
▁viscous	-11.4468
▁vocalise	-11.4468
▁voiceless	-11.4468
▁voicemail	-11.4468
▁volatility	-11.4468
▁volontarily	-11.4468
▁vortex	-11.4468
▁wailing	-11.4468
▁wallowing	-11.4468
▁wandsworth	-11.4468
▁wannabe	-11.4468
▁warming	-11.4468
▁warrant	-11.4468
▁warzones	-11.4468
▁watery	-11.4468
▁wavy	-11.4468
▁wazoo	-11.4468
▁weaker	-11.4468
▁weakling	-11.4468
▁webinar	-11.4468
▁wednesday	-11.4468
▁weighs	-11.4468
▁weirder	-11.4468
▁western	-11.4468
▁wether	-11.4468
▁wfh	-11.4468
▁wheter	-11.4468
▁whim	-11.4468
▁whining	-11.4468
▁whirling	-11.4468
▁whisper	-11.4468
▁wholeheartedly	-11.4468
▁whoo	-11.4468
▁wiki	-11.4468
▁wikipedia	-11.4468
▁wilderness	-11.4468
▁wilson	-11.4468
▁wiriter	-11.4468
▁withdrawn	-11.4468
▁witness	-11.4468
▁witnessed	-11.4468
▁woe	-11.4468
▁woeful	-11.4468
▁wonderland	-11.4468
▁wonna	-11.4468
▁wood	-11.4468
▁wooded	-11.4468
▁wooden	-11.4468
▁worldwide	-11.4468
▁worm	-11.4468
▁worsened	-11.4468
▁worsening	-11.4468
▁worthwhile	-11.4468
▁wrecked	-11.4468
▁wrinkle	-11.4468
▁wronged	-11.4468
▁wven	-11.4468
▁xan	-11.4468
▁xy	-11.4468
▁yearns	-11.4468
▁yikies	-11.4468
▁youngster	-11.4468
▁youre	-11.4468
▁youtuber	-11.4468
▁yummy	-11.4468
▁zealand	-11.4468
▁zen	-11.4468
▁zombie	-11.4468
▁aaoa	-12.1399
▁aarrrrggghhh	-12.1399
▁aau	-12.1399
▁ab	-12.1399
▁abdomin	-12.1399
▁abide	-12.1399
▁abnormality	-12.1399
▁aborigine	-12.1399
▁aborted	-12.1399
▁abotu	-12.1399
▁abruptly	-12.1399
▁abscess	-12.1399
▁absorbing	-12.1399
▁abuela	-12.1399
▁accelerated	-12.1399
▁accepts	-12.1399
▁accidental	-12.1399
▁accidently	-12.1399
▁acclimated	-12.1399
▁accommodate	-12.1399
▁accommodating	-12.1399
▁accompanied	-12.1399
▁accomplice	-12.1399
▁accordance	-12.1399
▁accountant	-12.1399
▁accumulated	-12.1399
▁accumulation	-12.1399
▁accusation	-12.1399
▁accusing	-12.1399
▁accusion	-12.1399
▁achieves	-12.1399
▁acquired	-12.1399
▁acrid	-12.1399
▁acronym	-12.1399
▁actionable	-12.1399
▁activated	-12.1399
▁activism	-12.1399
▁activist	-12.1399
▁adam	-12.1399
▁adaptability	-12.1399
▁adaptation	-12.1399
▁adapted	-12.1399
▁adaptogen	-12.1399
▁adept	-12.1399
▁adjusted	-12.1399
▁administration	-12.1399
▁admins	-12.1399
▁admirable	-12.1399
▁admiration	-12.1399
▁admire	-12.1399
▁adoptdontshop	-12.1399
▁adoration	-12.1399
▁adrenalin	-12.1399
▁adsense	-12.1399
▁adventurous	-12.1399
▁advert	-12.1399
▁aerobic	-12.1399
▁aeronautical	-12.1399
▁affair	-12.1399
▁affectionate	-12.1399
▁affiliate	-12.1399
▁affiliation	-12.1399
▁affirming	-12.1399
▁afflicted	-12.1399
▁affords	-12.1399
▁affraid	-12.1399
▁afghanistan	-12.1399
▁afloat	-12.1399
▁aforementioned	-12.1399
▁afriad	-12.1399
▁africa	-12.1399
▁afterlife	-12.1399
▁afterschool	-12.1399
▁aggressively	-12.1399
▁aggrieved	-12.1399
▁agressively	-12.1399
▁agressvely	-12.1399
▁agrophobic	-12.1399
▁ahhh	-12.1399
▁ahold	-12.1399
▁aiding	-12.1399
▁aimed	-12.1399
▁aiming	-12.1399
▁aimlessness	-12.1399
▁aircraft	-12.1399
▁airline	-12.1399
▁airport	-12.1399
▁aisle	-12.1399
▁akhiles	-12.1399
▁akhilesarmyofawesome	-12.1399
▁akin	-12.1399
▁aknowledged	-12.1399
▁alabama	-12.1399
▁albania	-12.1399
▁alberto	-12.1399
▁alchemy	-12.1399
▁alchohol	-12.1399
▁alci	-12.1399
▁alcoholism	-12.1399
▁alcolism	-12.1399
▁alexa	-12.1399
▁algebra	-12.1399
▁alien	-12.1399
▁alienating	-12.1399
▁alienation	-12.1399
▁aligns	-12.1399
▁allergic	-12.1399
▁allocated	-12.1399
▁allotted	-12.1399
▁allowance	-12.1399
▁allways	-12.1399
▁aloofness	-12.1399
▁aloud	-12.1399
▁alphonse	-12.1399
▁alrealdy	-12.1399
▁alter	-12.1399
▁alters	-12.1399
▁amaalzaza	-12.1399
▁ambiance	-12.1399
▁amend	-12.1399
▁amends	-12.1399
▁amenity	-12.1399
▁amidst	-12.1399
▁aminobutyric	-12.1399
▁ammal	-12.1399
▁amorphousness	-12.1399
▁amounting	-12.1399
▁amplify	-12.1399
▁amputation	-12.1399
▁amusement	-12.1399
▁analogously	-12.1399
▁analyse	-12.1399
▁analytical	-12.1399
▁analyze	-12.1399
▁anata	-12.1399
▁anatomy	-12.1399
▁anchor	-12.1399
▁andrea	-12.1399
▁andrew	-12.1399
▁andy	-12.1399
▁anecdote	-12.1399
▁anew	-12.1399
▁ang	-12.1399
▁angelic	-12.1399
▁angsty	-12.1399
▁anhedonic	-12.1399
▁animated	-12.1399
▁animating	-12.1399
▁anki	-12.1399
▁ankle	-12.1399
▁ann	-12.1399
▁anngel	-12.1399
▁announcement	-12.1399
▁annoyance	-12.1399
▁annoys	-12.1399
▁annual	-12.1399
▁antacid	-12.1399
▁anthropology	-12.1399
▁anticipate	-12.1399
▁anticipation	-12.1399
▁antioxidant	-12.1399
▁antonia	-12.1399
▁antything	-12.1399
▁anuthing	-12.1399
▁anwsers	-12.1399
▁anxiolytic	-12.1399
▁anyday	-12.1399
▁anyhow	-12.1399
▁anythings	-12.1399
▁anywho	-12.1399
▁apnea	-12.1399
▁apocalyptic	-12.1399
▁apolitical	-12.1399
▁apologised	-12.1399
▁appaling	-12.1399
▁apparel	-12.1399
▁appart	-12.1399
▁appeal	-12.1399
▁appearing	-12.1399
▁apperenrly	-12.1399
▁appetizer	-12.1399
▁appliance	-12.1399
▁apppreactied	-12.1399
▁appraisal	-12.1399
▁appreciates	-12.1399
▁appreicated	-12.1399
▁arabic	-12.1399
▁arby	-12.1399
▁ard	-12.1399
▁arduous	-12.1399
▁arguably	-12.1399
▁arhan	-12.1399
▁arizona	-12.1399
▁arleady	-12.1399
▁armchair	-12.1399
▁armenia	-12.1399
▁arnold	-12.1399
▁aroma	-12.1399
▁aromatherapy	-12.1399
▁arrange	-12.1399
▁arrh	-12.1399
▁arriving	-12.1399
▁arrogantly	-12.1399
▁artistry	-12.1399
▁ascending	-12.1399
▁asexual	-12.1399
▁ash	-12.1399
▁ashed	-12.1399
▁ashore	-12.1399
▁asocially	-12.1399
▁aspen	-12.1399
▁assaulted	-12.1399
▁assed	-12.1399
▁assert	-12.1399
▁assertiveness	-12.1399
▁assisted	-12.1399
▁assortment	-12.1399
▁assumed	-12.1399
▁asthma	-12.1399
▁astonishment	-12.1399
▁astral	-12.1399
▁astrology	-12.1399
▁astronomical	-12.1399
▁aswel	-12.1399
▁aswell	-12.1399
▁atomoxetine	-12.1399
▁atpeace	-12.1399
▁atrittion	-12.1399
▁attacking	-12.1399
▁attractiveness	-12.1399
▁attuned	-12.1399
▁audacity	-12.1399
▁aunti	-12.1399
▁aussie	-12.1399
▁australian	-12.1399
▁austria	-12.1399
▁authenticity	-12.1399
▁authority	-12.1399
▁authorized	-12.1399
▁autocad	-12.1399
▁autopsy	-12.1399
▁availability	-12.1399
▁avalanche	-12.1399
▁avatar	-12.1399
▁aversion	-12.1399
▁avoidance	-12.1399
▁avoids	-12.1399
▁avoir	-12.1399
▁awaited	-12.1399
▁aways	-12.1399
▁awe	-12.1399
▁awkwardly	-12.1399
▁awnser	-12.1399
▁awww	-12.1399
▁axiety	-12.1399
▁ayurvedic	-12.1399
▁aztec	-12.1399
▁babbling	-12.1399
▁backbone	-12.1399
▁backing	-12.1399
▁backsliding	-12.1399
▁backyard	-12.1399
▁badge	-12.1399
▁badminton	-12.1399
▁baffled	-12.1399
▁baffling	-12.1399
▁baggier	-12.1399
▁bailed	-12.1399
▁balantly	-12.1399
▁balding	-12.1399
▁baldness	-12.1399
▁baldy	-12.1399
▁balles	-12.1399
▁bam	-12.1399
▁ban	-12.1399
▁bandaid	-12.1399
▁banger	-12.1399
▁bangladesh	-12.1399
▁bankruptcy	-12.1399
▁barr	-12.1399
▁barrel	-12.1399
▁barren	-12.1399
▁barricade	-12.1399
▁basicly	-12.1399
▁basket	-12.1399
▁batch	-12.1399
▁battery	-12.1399
▁bawl	-12.1399
▁bcak	-12.1399
▁beabadoobee	-12.1399
▁bearing	-12.1399
▁bearly	-12.1399
▁beast	-12.1399
▁beautifully	-12.1399
▁becausw	-12.1399
▁beckons	-12.1399
▁becouse	-12.1399
▁bedwetting	-12.1399
▁beeing	-12.1399
▁beem	-12.1399
▁befor	-12.1399
▁beforehand	-12.1399
▁beforelife	-12.1399
▁beggar	-12.1399
▁begs	-12.1399
▁behalf	-12.1399
▁behaved	-12.1399
▁behavoir	-12.1399
▁beholder	-12.1399
▁belching	-12.1399
▁beleicve	-12.1399
▁beleive	-12.1399
▁belittle	-12.1399
▁belittling	-12.1399
▁belive	-12.1399
▁bella	-12.1399
▁belligerently	-12.1399
▁bellow	-12.1399
▁belonging	-12.1399
▁belongs	-12.1399
▁benadryl	-12.1399
▁benchmark	-12.1399
▁bending	-12.1399
▁bengaluru	-12.1399
▁benzo	-12.1399
▁beside	-12.1399
▁bestfriends	-12.1399
▁besties	-12.1399
▁beta	-12.1399
▁betray	-12.1399
▁betraying	-12.1399
▁beverage	-12.1399
▁bff	-12.1399
▁bhe	-12.1399
▁bhramari	-12.1399
▁biafra	-12.1399
▁biased	-12.1399
▁bigoted	-12.1399
▁billing	-12.1399
▁bin	-12.1399
▁binding	-12.1399
▁binging	-12.1399
▁biography	-12.1399
▁birthed	-12.1399
▁bisexual	-12.1399
▁bitcoin	-12.1399
▁bitten	-12.1399
▁blackpillers	-12.1399
▁blanchard	-12.1399
▁bland	-12.1399
▁blankly	-12.1399
▁blasted	-12.1399
▁blasting	-12.1399
▁blemish	-12.1399
▁blindsided	-12.1399
▁blinking	-12.1399
▁blissfully	-12.1399
▁blm	-12.1399
▁bloated	-12.1399
▁blocker	-12.1399
▁blogger	-12.1399
▁blogging	-12.1399
▁bloodstream	-12.1399
▁blossom	-12.1399
▁blundell	-12.1399
▁blunt	-12.1399
▁blurred	-12.1399
▁bnot	-12.1399
▁bodybuilding	-12.1399
▁boeing	-12.1399
▁bogus	-12.1399
▁bombard	-12.1399
▁bomber	-12.1399
▁bona	-12.1399
▁bonded	-12.1399
▁bonjour	-12.1399
▁bookcase	-12.1399
▁booked	-12.1399
▁boomer	-12.1399
▁booster	-12.1399
▁bootstrap	-12.1399
▁boris	-12.1399
▁borough	-12.1399
▁borrow	-12.1399
▁borrowed	-12.1399
▁botched	-12.1399
▁botswana	-12.1399
▁bottling	-12.1399
▁bounce	-12.1399
▁bound	-12.1399
▁bow	-12.1399
▁bpm	-12.1399
▁brace	-12.1399
▁bracket	-12.1399
▁braid	-12.1399
▁braincells	-12.1399
▁brainfog	-12.1399
▁brainpower	-12.1399
▁brainwashing	-12.1399
▁branding	-12.1399
▁brandish	-12.1399
▁brave	-12.1399
▁breakneck	-12.1399
▁breakout	-12.1399
▁breathed	-12.1399
▁breathtaking	-12.1399
▁brew	-12.1399
▁bribe	-12.1399
▁brightening	-12.1399
▁britney	-12.1399
▁broadcast	-12.1399
▁broadway	-12.1399
▁broccoli	-12.1399
▁brokenness	-12.1399
▁brotherelisoriano	-12.1399
▁brow	-12.1399
▁browse	-12.1399
▁browser	-12.1399
▁brunt	-12.1399
▁brutal	-12.1399
▁bud	-12.1399
▁budda	-12.1399
▁budge	-12.1399
▁buffett	-12.1399
▁bugging	-12.1399
▁buisiness	-12.1399
▁buisness	-12.1399
▁bull	-12.1399
▁bulletproof	-12.1399
▁bummer	-12.1399
▁bumping	-12.1399
▁bungalow	-12.1399
▁burdnern	-12.1399
▁burkina	-12.1399
▁burping	-12.1399
▁burshed	-12.1399
▁burundi	-12.1399
▁bury	-12.1399
▁busier	-12.1399
▁bust	-12.1399
▁bustedandblack	-12.1399
▁busyness	-12.1399
▁butter	-12.1399
▁buttock	-12.1399
▁button	-12.1399
▁byw	-12.1399
▁ca	-12.1399
▁cab	-12.1399
▁cabinet	-12.1399
▁cable	-12.1399
▁cacophony	-12.1399
▁cagegory	-12.1399
▁calculated	-12.1399
▁calf	-12.1399
▁caliber	-12.1399
▁cam	-12.1399
▁camp	-12.1399
▁campground	-12.1399
▁candid	-12.1399
▁candor	-12.1399
▁canoe	-12.1399
▁canola	-12.1399
▁canopy	-12.1399
▁captioned	-12.1399
▁capturing	-12.1399
▁caracterized	-12.1399
▁caravan	-12.1399
▁carbongrit	-12.1399
▁cardiac	-12.1399
▁cardiovascular	-12.1399
▁carefree	-12.1399
▁caregiving	-12.1399
▁careless	-12.1399
▁carer	-12.1399
▁carl	-12.1399
▁carnivorous	-12.1399
▁carpet	-12.1399
▁carreer	-12.1399
▁cart	-12.1399
▁cascade	-12.1399
▁caster	-12.1399
▁casting	-12.1399
▁catacholamines	-12.1399
▁catalyst	-12.1399
▁caterpillar	-12.1399
▁catharsis	-12.1399
▁catherine	-12.1399
▁cattle	-12.1399
▁caving	-12.1399
▁cedar	-12.1399
▁celeb	-12.1399
▁celebrity	-12.1399
▁cellphone	-12.1399
▁cellular	-12.1399
▁central	-12.1399
▁centralised	-12.1399
▁cerebral	-12.1399
▁cerified	-12.1399
▁cfts	-12.1399
▁chad	-12.1399
▁chalked	-12.1399
▁chamber	-12.1399
▁champion	-12.1399
▁channeling	-12.1399
▁chanting	-12.1399
▁charactestic	-12.1399
▁charged	-12.1399
▁charging	-12.1399
▁charles	-12.1399
▁charlotte	-12.1399
▁chased	-12.1399
▁chattanooga	-12.1399
▁cheapskate	-12.1399
▁checkout	-12.1399
▁cheered	-12.1399
▁cheerleader	-12.1399
▁chegg	-12.1399
▁chemo	-12.1399
▁chennai	-12.1399
▁cherished	-12.1399
▁cherokee	-12.1399
▁chewing	-12.1399
▁chez	-12.1399
▁chickened	-12.1399
▁childless	-12.1399
▁chinese	-12.1399
▁chipping	-12.1399
▁cholesterol	-12.1399
▁chooser	-12.1399
▁choosing	-12.1399
▁chop	-12.1399
▁chopstick	-12.1399
▁christianity	-12.1399
▁chromebooks	-12.1399
▁chronicly	-12.1399
▁chuckled	-12.1399
▁cinnamon	-12.1399
▁circuitry	-12.1399
▁circus	-12.1399
▁citizenship	-12.1399
▁civic	-12.1399
▁civilization	-12.1399
▁claiming	-12.1399
▁claivoyance	-12.1399
▁clambering	-12.1399
▁clamped	-12.1399
▁clapping	-12.1399
▁clarifying	-12.1399
▁claustrophobic	-12.1399
▁clay	-12.1399
▁cleaner	-12.1399
▁cleanning	-12.1399
▁cleanse	-12.1399
▁clearer	-12.1399
▁clerical	-12.1399
▁clerk	-12.1399
▁clique	-12.1399
▁clocked	-12.1399
▁clocking	-12.1399
▁clonazapam	-12.1399
▁clone	-12.1399
▁closely	-12.1399
▁cloth	-12.1399
▁clouding	-12.1399
▁clump	-12.1399
▁clutching	-12.1399
▁cmo	-12.1399
▁cna	-12.1399
▁cnn	-12.1399
▁coast	-12.1399
▁coaster	-12.1399
▁coaxing	-12.1399
▁coconut	-12.1399
▁codo	-12.1399
▁coelho	-12.1399
▁coerce	-12.1399
▁coeval	-12.1399
▁coexistence	-12.1399
▁cog	-12.1399
▁coherent	-12.1399
▁coinbase	-12.1399
▁coivd	-12.1399
▁colder	-12.1399
▁collaborating	-12.1399
▁collaboration	-12.1399
▁collantes	-12.1399
▁collapsed	-12.1399
▁collar	-12.1399
▁collateral	-12.1399
▁collobaration	-12.1399
▁colombo	-12.1399
▁colour	-12.1399
▁colourless	-12.1399
▁combined	-12.1399
▁combustion	-12.1399
▁comeback	-12.1399
▁comeing	-12.1399
▁comfortability	-12.1399
▁comforted	-12.1399
▁comma	-12.1399
▁commerce	-12.1399
▁comming	-12.1399
▁commiserate	-12.1399
▁commission	-12.1399
▁commiting	-12.1399
▁commonality	-12.1399
▁commonly	-12.1399
▁commonplace	-12.1399
▁communicated	-12.1399
▁comorbid	-12.1399
▁comoros	-12.1399
▁companionship	-12.1399
▁competency	-12.1399
▁competent	-12.1399
▁competes	-12.1399
▁competing	-12.1399
▁compiled	-12.1399
▁complained	-12.1399
▁compliance	-12.1399
▁complicate	-12.1399
▁complicating	-12.1399
▁complication	-12.1399
▁complied	-12.1399
▁compose	-12.1399
▁composition	-12.1399
▁compounding	-12.1399
▁comprehend	-12.1399
▁comprehensive	-12.1399
▁conceivable	-12.1399
▁concentrated	-12.1399
▁concert	-12.1399
▁conclude	-12.1399
▁concur	-12.1399
▁condemn	-12.1399
▁condemned	-12.1399
▁condescending	-12.1399
▁cone	-12.1399
▁conecernkng	-12.1399
▁confessed	-12.1399
▁confidently	-12.1399
▁confirmation	-12.1399
▁conflicted	-12.1399
▁conformity	-12.1399
▁confrontation	-12.1399
▁confronted	-12.1399
▁confronting	-12.1399
▁confuzzle	-12.1399
▁congo	-12.1399
▁congratulate	-12.1399
▁congratulated	-12.1399
▁conjunction	-12.1399
▁consedring	-12.1399
▁considers	-12.1399
▁consisentcy	-12.1399
▁consisting	-12.1399
▁consolidate	-12.1399
▁conspiring	-12.1399
▁constally	-12.1399
▁constipation	-12.1399
▁constituted	-12.1399
▁constructive	-12.1399
▁consult	-12.1399
▁consultant	-12.1399
▁consumerism	-12.1399
▁contaminated	-12.1399
▁contaminating	-12.1399
▁contemplating	-12.1399
▁contemporary	-12.1399
▁continuously	-12.1399
▁continuousness	-12.1399
▁contradicted	-12.1399
▁contradiction	-12.1399
▁contradicts	-12.1399
▁contrast	-12.1399
▁controversy	-12.1399
▁convalescing	-12.1399
▁converse	-12.1399
▁conversing	-12.1399
▁converstation	-12.1399
▁converting	-12.1399
▁convict	-12.1399
▁conviction	-12.1399
▁convo	-12.1399
▁convos	-12.1399
▁convulsive	-12.1399
▁coolcatwon	-12.1399
▁coolio	-12.1399
▁coolness	-12.1399
▁cooped	-12.1399
▁cooperate	-12.1399
▁cooperative	-12.1399
▁copd	-12.1399
▁coral	-12.1399
▁cord	-12.1399
▁corrected	-12.1399
▁corrective	-12.1399
▁correlate	-12.1399
▁correlated	-12.1399
▁correspondence	-12.1399
▁cortex	-12.1399
▁costa	-12.1399
▁costing	-12.1399
▁cough	-12.1399
▁councilor	-12.1399
▁countdown	-12.1399
▁countenance	-12.1399
▁countryside	-12.1399
▁courted	-12.1399
▁courteous	-12.1399
▁courtroom	-12.1399
▁coveted	-12.1399
▁cowardly	-12.1399
▁cower	-12.1399
▁cptsd	-12.1399
▁cracking	-12.1399
▁cram	-12.1399
▁cramed	-12.1399
▁cramming	-12.1399
▁cramp	-12.1399
▁crankier	-12.1399
▁crawl	-12.1399
▁crawled	-12.1399
▁crawling	-12.1399
▁creatively	-12.1399
▁creatives	-12.1399
▁creeped	-12.1399
▁creeping	-12.1399
▁crf	-12.1399
▁crier	-12.1399
▁cringey	-12.1399
▁crinkled	-12.1399
▁criticise	-12.1399
▁criticize	-12.1399
▁critiquing	-12.1399
▁croaking	-12.1399
▁crown	-12.1399
▁crude	-12.1399
▁crumbled	-12.1399
▁crushingly	-12.1399
▁crybaby	-12.1399
▁csep	-12.1399
▁csikszentmihalyi	-12.1399
▁cth	-12.1399
▁ctrl	-12.1399
▁cu	-12.1399
▁culminated	-12.1399
▁cult	-12.1399
▁cultivated	-12.1399
▁cultural	-12.1399
▁cumbersome	-12.1399
▁curb	-12.1399
▁curcumin	-12.1399
▁curling	-12.1399
▁curly	-12.1399
▁curse	-12.1399
▁curvy	-12.1399
▁custody	-12.1399
▁customized	-12.1399
▁cutlivate	-12.1399
▁cutted	-12.1399
▁cv	-12.1399
▁cw	-12.1399
▁cya	-12.1399
▁cyberstalk	-12.1399
▁cyberstalker	-12.1399
▁cylinder	-12.1399
▁czechia	-12.1399
▁daan	-12.1399
▁dairy	-12.1399
▁dalio	-12.1399
▁dalliance	-12.1399
▁dang	-12.1399
▁dangle	-12.1399
▁dar	-12.1399
▁darkly	-12.1399
▁darwinian	-12.1399
▁daryl	-12.1399
▁dashed	-12.1399
▁daugther	-12.1399
▁davinciresolve	-12.1399
▁daw	-12.1399
▁dawn	-12.1399
▁dawned	-12.1399
▁daybreaker	-12.1399
▁daydreaming	-12.1399
▁daze	-12.1399
▁dbt	-12.1399
▁dcim	-12.1399
▁deactivated	-12.1399
▁dearest	-12.1399
▁deathbed	-12.1399
▁deault	-12.1399
▁debit	-12.1399
▁dec	-12.1399
▁decayed	-12.1399
▁decease	-12.1399
▁deceit	-12.1399
▁deceptive	-12.1399
▁decimal	-12.1399
▁declaration	-12.1399
▁decorative	-12.1399
▁decreasing	-12.1399
▁deed	-12.1399
▁deems	-12.1399
▁deepen	-12.1399
▁defaulted	-12.1399
▁defect	-12.1399
▁defiantly	-12.1399
▁definetely	-12.1399
▁definetly	-12.1399
▁deflated	-12.1399
▁deformed	-12.1399
▁defragged	-12.1399
▁degeneracy	-12.1399
▁degrading	-12.1399
▁dehydrated	-12.1399
▁delegate	-12.1399
▁deliberation	-12.1399
▁delicate	-12.1399
▁delisabranchnealy	-12.1399
▁delta	-12.1399
▁deluding	-12.1399
▁delusional	-12.1399
▁deluxe	-12.1399
▁demean	-12.1399
▁democracy	-12.1399
▁demonstrate	-12.1399
▁demonstrated	-12.1399
▁deniability	-12.1399
▁denmark	-12.1399
▁denounce	-12.1399
▁denton	-12.1399
▁departing	-12.1399
▁dependable	-12.1399
▁dependant	-12.1399
▁depended	-12.1399
▁deplete	-12.1399
▁deploying	-12.1399
▁deposit	-12.1399
▁deposited	-12.1399
▁depressingly	-12.1399
▁deprived	-12.1399
▁depriving	-12.1399
▁deression	-12.1399
▁description	-12.1399
▁desensitized	-12.1399
▁desi	-12.1399
▁designer	-12.1399
▁designing	-12.1399
▁despressed	-12.1399
▁destroys	-12.1399
▁detach	-12.1399
▁detachment	-12.1399
▁detector	-12.1399
▁detects	-12.1399
▁determining	-12.1399
▁detestable	-12.1399
▁devalues	-12.1399
▁develops	-12.1399
▁deviation	-12.1399
▁devides	-12.1399
▁devine	-12.1399
▁devistating	-12.1399
▁devoted	-12.1399
▁devoting	-12.1399
▁dialed	-12.1399
▁diaper	-12.1399
▁diaphragm	-12.1399
▁diary	-12.1399
▁dictated	-12.1399
▁differnet	-12.1399
▁differs	-12.1399
▁digest	-12.1399
▁digestive	-12.1399
▁dilution	-12.1399
▁dilutional	-12.1399
▁dimattina	-12.1399
▁dime	-12.1399
▁diminish	-12.1399
▁diminishes	-12.1399
▁dining	-12.1399
▁dint	-12.1399
▁dipping	-12.1399
▁directed	-12.1399
▁directionless	-12.1399
▁directs	-12.1399
▁disagreed	-12.1399
▁disassembling	-12.1399
▁disassociated	-12.1399
▁disassociation	-12.1399
▁discard	-12.1399
▁discharged	-12.1399
▁disciple	-12.1399
▁disclosed	-12.1399
▁disclosure	-12.1399
▁discontentment	-12.1399
▁discontinued	-12.1399
▁discontinuing	-12.1399
▁discounting	-12.1399
▁discovering	-12.1399
▁discovery	-12.1399
▁discussed	-12.1399
▁disdain	-12.1399
▁diseased	-12.1399
▁disgust	-12.1399
▁dishonest	-12.1399
▁dishonesty	-12.1399
▁dishwasher	-12.1399
▁disinterest	-12.1399
▁disinterested	-12.1399
▁disliking	-12.1399
▁dismissed	-12.1399
▁disorganized	-12.1399
▁dispair	-12.1399
▁dispel	-12.1399
▁dispelled	-12.1399
▁dispellingmyths	-12.1399
▁display	-12.1399
▁displayed	-12.1399
▁displeasure	-12.1399
▁disposable	-12.1399
▁dispraxic	-12.1399
▁disproportionate	-12.1399
▁disregarding	-12.1399
▁disrespect	-12.1399
▁disrupted	-12.1399
▁disrupting	-12.1399
▁disruption	-12.1399
▁dissapear	-12.1399
▁dissapoint	-12.1399
▁dissect	-12.1399
▁disserve	-12.1399
▁dissociated	-12.1399
▁disstress	-12.1399
▁distaste	-12.1399
▁distinction	-12.1399
▁distributed	-12.1399
▁distribution	-12.1399
▁dive	-12.1399
▁diverse	-12.1399
▁divided	-12.1399
▁divinely	-12.1399
▁dming	-12.1399
▁dnd	-12.1399
▁documentation	-12.1399
▁doeasn	-12.1399
▁doer	-12.1399
▁doggy	-12.1399
▁dollop	-12.1399
▁dom	-12.1399
▁dominant	-12.1399
▁domino	-12.1399
▁donald	-12.1399
▁donation	-12.1399
▁donkey	-12.1399
▁donovan	-12.1399
▁doorway	-12.1399
▁dorky	-12.1399
▁doubting	-12.1399
▁douchebag	-12.1399
▁douchebags	-12.1399
▁dough	-12.1399
▁downer	-12.1399
▁downloaded	-12.1399
▁downloads	-12.1399
▁downplay	-12.1399
▁downplayed	-12.1399
▁downshift	-12.1399
▁downvoting	-12.1399
▁dozing	-12.1399
▁dreamt	-12.1399
▁dredge	-12.1399
▁drenched	-12.1399
▁dried	-12.1399
▁drier	-12.1399
▁drifted	-12.1399
▁drifting	-12.1399
▁drinker	-12.1399
▁drowned	-12.1399
▁drunkenness	-12.1399
▁dryer	-12.1399
▁duathlon	-12.1399
▁ducey	-12.1399
▁ducking	-12.1399
▁dulled	-12.1399
▁dullness	-12.1399
▁duly	-12.1399
▁dumbed	-12.1399
▁dumbells	-12.1399
▁dumber	-12.1399
▁dumbest	-12.1399
▁dumbfounded	-12.1399
▁dumping	-12.1399
▁dumspter	-12.1399
▁duy	-12.1399
▁dysphoric	-12.1399
▁eachother	-12.1399
▁eachothers	-12.1399
▁earbuds	-12.1399
▁earlyaccess	-12.1399
▁earphone	-12.1399
▁earring	-12.1399
▁earthy	-12.1399
▁eas	-12.1399
▁easterlin	-12.1399
▁eater	-12.1399
▁eather	-12.1399
▁ebb	-12.1399
▁ebtey	-12.1399
▁echo	-12.1399
▁ecosystem	-12.1399
▁ecstatic	-12.1399
▁edith	-12.1399
▁educate	-12.1399
▁ee	-12.1399
▁effed	-12.1399
▁effervescent	-12.1399
▁egg	-12.1399
▁eggshell	-12.1399
▁egocentric	-12.1399
▁eheh	-12.1399
▁einstein	-12.1399
▁elbert	-12.1399
▁elbow	-12.1399
▁election	-12.1399
▁electrician	-12.1399
▁electro	-12.1399
▁electrocuted	-12.1399
▁electron	-12.1399
▁electrotechnic	-12.1399
▁elemental	-12.1399
▁elephant	-12.1399
▁elevator	-12.1399
▁elicit	-12.1399
▁elles	-12.1399
▁elliott	-12.1399
▁emancipate	-12.1399
▁embarassing	-12.1399
▁embark	-12.1399
▁embarrassingly	-12.1399
▁emdr	-12.1399
▁emerges	-12.1399
▁eminence	-12.1399
▁emitting	-12.1399
▁emojis	-12.1399
▁emotionless	-12.1399
▁empahisise	-12.1399
▁empath	-12.1399
▁empathised	-12.1399
▁employ	-12.1399
▁employing	-12.1399
▁empowering	-12.1399
▁en	-12.1399
▁endangering	-12.1399
▁endgame	-12.1399
▁endocrine	-12.1399
▁endogenously	-12.1399
▁endrant	-12.1399
▁endures	-12.1399
▁enduring	-12.1399
▁engagement	-12.1399
▁engulfed	-12.1399
▁enlightens	-12.1399
▁enourmous	-12.1399
▁enquiry	-12.1399
▁enriching	-12.1399
▁enrolling	-12.1399
▁entertain	-12.1399
▁entertaining	-12.1399
▁entertainment	-12.1399
▁enthrall	-12.1399
▁enthusiastic	-12.1399
▁entitlement	-12.1399
▁entrance	-12.1399
▁entrapped	-12.1399
▁enunciating	-12.1399
▁enveloped	-12.1399
▁environmental	-12.1399
▁envisioned	-12.1399
▁enyone	-12.1399
▁epa	-12.1399
▁epidemic	-12.1399
▁equates	-12.1399
▁equip	-12.1399
▁equipped	-12.1399
▁equivalent	-12.1399
▁erase	-12.1399
▁erasing	-12.1399
▁ericfreeman	-12.1399
▁erm	-12.1399
▁ernestine	-12.1399
▁escapist	-12.1399
▁esophagus	-12.1399
▁espn	-12.1399
▁establish	-12.1399
▁estes	-12.1399
▁estranged	-12.1399
▁estrogen	-12.1399
▁eswatini	-12.1399
▁et	-12.1399
▁eternity	-12.1399
▁ethiopia	-12.1399
▁eu	-12.1399
▁eunuch	-12.1399
▁euphemism	-12.1399
▁evade	-12.1399
▁evaluating	-12.1399
▁evangelism	-12.1399
▁evangelist	-12.1399
▁evaporate	-12.1399
▁evasive	-12.1399
▁eventho	-12.1399
▁everythi	-12.1399
▁everyting	-12.1399
▁eveyday	-12.1399
▁eveyrhting	-12.1399
▁eveything	-12.1399
▁evict	-12.1399
▁evoking	-12.1399
▁exacerbate	-12.1399
▁exacerbating	-12.1399
▁exacting	-12.1399
▁examination	-12.1399
▁exceedingly	-12.1399
▁exceeds	-12.1399
▁excelling	-12.1399
▁exceptional	-12.1399
▁excercising	-12.1399
▁excitation	-12.1399
▁excite	-12.1399
▁exclaimed	-12.1399
▁excluded	-12.1399
▁excruciating	-12.1399
▁excusing	-12.1399
▁execution	-12.1399
▁exemple	-12.1399
▁exemplifying	-12.1399
▁exited	-12.1399
▁expendable	-12.1399
▁experimental	-12.1399
▁expertise	-12.1399
▁expierenced	-12.1399
▁expierencing	-12.1399
▁expires	-12.1399
▁expoused	-12.1399
▁exquisite	-12.1399
▁externalize	-12.1399
▁externally	-12.1399
▁extinct	-12.1399
▁extolled	-12.1399
▁extort	-12.1399
▁extracurriculars	-12.1399
▁extraordinary	-12.1399
▁extroverted	-12.1399
▁eyebrow	-12.1399
▁eyeing	-12.1399
▁eyelid	-12.1399
▁eyyyy	-12.1399
▁faceless	-12.1399
▁facetimed	-12.1399
▁facility	-12.1399
▁factual	-12.1399
▁fainter	-12.1399
▁faithful	-12.1399
▁faked	-12.1399
▁falre	-12.1399
▁fam	-12.1399
▁familiarized	-12.1399
▁familly	-12.1399
▁famously	-12.1399
▁fanaticism	-12.1399
▁fanboy	-12.1399
▁fantastical	-12.1399
▁fap	-12.1399
▁farmer	-12.1399
▁farthest	-12.1399
▁fascinating	-12.1399
▁fashion	-12.1399
▁faso	-12.1399
▁fatal	-12.1399
▁fatherless	-12.1399
▁fathom	-12.1399
▁fauna	-12.1399
▁fawk	-12.1399
▁feared	-12.1399
▁fearless	-12.1399
▁federal	-12.1399
▁feeing	-12.1399
▁feellucky	-12.1399
▁felipe	-12.1399
▁felix	-12.1399
▁fella	-12.1399
▁felon	-12.1399
▁femenine	-12.1399
▁feminism	-12.1399
▁femoral	-12.1399
▁fertility	-12.1399
▁festive	-12.1399
▁festivity	-12.1399
▁fetish	-12.1399
▁fibromyalga	-12.1399
▁fictional	-12.1399
▁fide	-12.1399
▁fidgety	-12.1399
▁fiend	-12.1399
▁fierce	-12.1399
▁fiercely	-12.1399
▁fiery	-12.1399
▁figths	-12.1399
▁fiji	-12.1399
▁filed	-12.1399
▁filmmaker	-12.1399
▁finalised	-12.1399
▁financed	-12.1399
▁findinghappiness	-12.1399
▁finest	-12.1399
▁finland	-12.1399
▁firearm	-12.1399
▁firefighter	-12.1399
▁firstborn	-12.1399
▁fitful	-12.1399
▁fixated	-12.1399
▁fizzle	-12.1399
▁fizzled	-12.1399
▁flagged	-12.1399
▁flashing	-12.1399
▁flatlines	-12.1399
▁flatlining	-12.1399
▁flattened	-12.1399
▁flatulence	-12.1399
▁flaunting	-12.1399
▁flavor	-12.1399
▁flawlessly	-12.1399
▁fled	-12.1399
▁fledged	-12.1399
▁flew	-12.1399
▁flex	-12.1399
▁flexibility	-12.1399
▁flexible	-12.1399
▁flimsy	-12.1399
▁flinch	-12.1399
▁flippantly	-12.1399
▁flirty	-12.1399
▁float	-12.1399
▁floated	-12.1399
▁floating	-12.1399
▁flooded	-12.1399
▁floored	-12.1399
▁flora	-12.1399
▁flourishing	-12.1399
▁fluctuates	-12.1399
▁fluff	-12.1399
▁flunked	-12.1399
▁flushed	-12.1399
▁fluting	-12.1399
▁flutter	-12.1399
▁flyer	-12.1399
▁flying	-12.1399
▁fo	-12.1399
▁fogged	-12.1399
▁fondest	-12.1399
▁fooling	-12.1399
▁foolish	-12.1399
▁forcefully	-12.1399
▁foreigner	-12.1399
▁forgein	-12.1399
▁forging	-12.1399
▁forgiven	-12.1399
▁formally	-12.1399
▁formation	-12.1399
▁forsaken	-12.1399
▁forty	-12.1399
▁fourth	-12.1399
▁foward	-12.1399
▁fpv	-12.1399
▁fr	-12.1399
▁fraction	-12.1399
▁fracture	-12.1399
▁framework	-12.1399
▁franc	-12.1399
▁frankie	-12.1399
▁fraternal	-12.1399
▁fraught	-12.1399
▁frayed	-12.1399
▁freacking	-12.1399
▁freelance	-12.1399
▁freelancer	-12.1399
▁freeman	-12.1399
▁freeness	-12.1399
▁freestyle	-12.1399
▁freezing	-12.1399
▁freindly	-12.1399
▁freinds	-12.1399
▁fricken	-12.1399
▁fridayfeeling	-12.1399
▁friggin	-12.1399
▁fringe	-12.1399
▁frisbee	-12.1399
▁frontend	-12.1399
▁fronting	-12.1399
▁frosting	-12.1399
▁frusterated	-12.1399
▁fsh	-12.1399
▁fucker	-12.1399
▁fuckign	-12.1399
▁fuelled	-12.1399
▁ful	-12.1399
▁fulfil	-12.1399
▁fuller	-12.1399
▁fundamentalist	-12.1399
▁fuqn	-12.1399
▁fur	-12.1399
▁fyi	-12.1399
▁g	-12.1399
▁gabapentin	-12.1399
▁gabrielshaw	-12.1399
▁gacha	-12.1399
▁gag	-12.1399
▁gainful	-12.1399
▁gal	-12.1399
▁gale	-12.1399
▁gallon	-12.1399
▁gallstone	-12.1399
▁gambia	-12.1399
▁gamechanger	-12.1399
▁gamma	-12.1399
▁gangmembers	-12.1399
▁garcia	-12.1399
▁garmin	-12.1399
▁gary	-12.1399
▁gasoline	-12.1399
▁gasping	-12.1399
▁gateway	-12.1399
▁gatherer	-12.1399
▁geared	-12.1399
▁gen	-12.1399
▁generalized	-12.1399
▁generated	-12.1399
▁generosity	-12.1399
▁genuinenly	-12.1399
▁george	-12.1399
▁georgia	-12.1399
▁getsmartebooks	-12.1399
▁gi	-12.1399
▁giddy	-12.1399
▁gifting	-12.1399
▁gigantic	-12.1399
▁giggled	-12.1399
▁giggling	-12.1399
▁gimpy	-12.1399
▁girly	-12.1399
▁gist	-12.1399
▁givebooks	-12.1399
▁gliding	-12.1399
▁glock	-12.1399
▁glove	-12.1399
▁glucocorticoid	-12.1399
▁glue	-12.1399
▁gnaw	-12.1399
▁goddamb	-12.1399
▁goer	-12.1399
▁gogetfunding	-12.1399
▁goldfish	-12.1399
▁golf	-12.1399
▁gonit	-12.1399
▁goodwill	-12.1399
▁goofy	-12.1399
▁goose	-12.1399
▁gorgeous	-12.1399
▁governed	-12.1399
▁gracefully	-12.1399
▁gracious	-12.1399
▁gram	-12.1399
▁gras	-12.1399
▁grasped	-12.1399
▁grasping	-12.1399
▁graveled	-12.1399
▁gravely	-12.1399
▁gravitate	-12.1399
▁gravitating	-12.1399
▁greatfull	-12.1399
▁greet	-12.1399
▁greeting	-12.1399
▁greets	-12.1399
▁gretchen	-12.1399
▁grim	-12.1399
▁grin	-12.1399
▁grinch	-12.1399
▁grindr	-12.1399
▁grip	-12.1399
▁grouchy	-12.1399
▁groupon	-12.1399
▁growl	-12.1399
▁grp	-12.1399
▁gruesome	-12.1399
▁grumpy	-12.1399
▁guarantee	-12.1399
▁guarded	-12.1399
▁guiding	-12.1399
▁guinea	-12.1399
▁guinness	-12.1399
▁gulp	-12.1399
▁gunsmithing	-12.1399
▁gurgling	-12.1399
▁gush	-12.1399
▁gutted	-12.1399
▁gymnast	-12.1399
▁habitat	-12.1399
▁hacked	-12.1399
▁hahaha	-12.1399
▁hahahah	-12.1399
▁hahahaha	-12.1399
▁hairline	-12.1399
▁hairstylist	-12.1399
▁haiti	-12.1399
▁hammering	-12.1399
▁handicapped	-12.1399
▁handing	-12.1399
▁handsome	-12.1399
▁hanger	-12.1399
▁hanh	-12.1399
▁happg	-12.1399
▁happybucketlife	-12.1399
▁hapy	-12.1399
▁harassed	-12.1399
▁harassing	-12.1399
▁hardwork	-12.1399
▁harley	-12.1399
▁harmonising	-12.1399
▁harmonized	-12.1399
▁harping	-12.1399
▁harpreetsandhu	-12.1399
▁harr	-12.1399
▁harris	-12.1399
▁harshly	-12.1399
▁harshness	-12.1399
▁hart	-12.1399
▁hartford	-12.1399
▁harvey	-12.1399
▁hastily	-12.1399
▁hateful	-12.1399
▁havnt	-12.1399
▁havve	-12.1399
▁haw	-12.1399
▁hawk	-12.1399
▁hazy	-12.1399
▁hd	-12.1399
▁header	-12.1399
▁heading	-12.1399
▁healthline	-12.1399
▁heartache	-12.1399
▁heartbreaking	-12.1399
▁hearted	-12.1399
▁heater	-12.1399
▁heavier	-12.1399
▁hebrew	-12.1399
▁heel	-12.1399
▁hehn	-12.1399
▁heightened	-12.1399
▁heinous	-12.1399
▁hellhole	-12.1399
▁helmet	-12.1399
▁helplessness	-12.1399
▁helpline	-12.1399
▁henderson	-12.1399
▁herd	-12.1399
▁hereunder	-12.1399
▁hermit	-12.1399
▁heroin	-12.1399
▁hesitant	-12.1399
▁hesitation	-12.1399
▁heuristic	-12.1399
▁hever	-12.1399
▁hfa	-12.1399
▁hiatus	-12.1399
▁highbrow	-12.1399
▁highlighting	-12.1399
▁hii	-12.1399
▁hiked	-12.1399
▁hind	-12.1399
▁hinder	-12.1399
▁hindering	-12.1399
▁hinduism	-12.1399
▁hippocampus	-12.1399
▁hitted	-12.1399
▁hiv	-12.1399
▁hnd	-12.1399
▁hoarding	-12.1399
▁holiness	-12.1399
▁hollowed	-12.1399
▁homemaker	-12.1399
▁homescreen	-12.1399
▁honed	-12.1399
▁hong	-12.1399
▁honorary	-12.1399
▁honored	-12.1399
▁hooked	-12.1399
▁hookup	-12.1399
▁hopping	-12.1399
▁horrendous	-12.1399
▁horrified	-12.1399
▁horrifying	-12.1399
▁horticulture	-12.1399
▁hospitalization	-12.1399
▁hostel	-12.1399
▁hotel	-12.1399
▁hotline	-12.1399
▁hotlines	-12.1399
▁hounslow	-12.1399
▁housewife	-12.1399
▁howtobehappy	-12.1399
▁http	-12.1399
▁hubby	-12.1399
▁huffing	-12.1399
▁huma	-12.1399
▁humanely	-12.1399
▁humanism	-12.1399
▁humanness	-12.1399
▁humbled	-12.1399
▁humbly	-12.1399
▁humid	-12.1399
▁humiliated	-12.1399
▁humilliations	-12.1399
▁humming	-12.1399
▁hunch	-12.1399
▁hunched	-12.1399
▁hunter	-12.1399
▁hurdle	-12.1399
▁hurry	-12.1399
▁hurtful	-12.1399
▁hut	-12.1399
▁hydroxyzine	-12.1399
▁hype	-12.1399
▁hyperawareness	-12.1399
▁hypersensitive	-12.1399
▁hypocritical	-12.1399
▁hypomanic	-12.1399
▁hypothalamic	-12.1399
▁hypothalamus	-12.1399
▁hypothermia	-12.1399
▁hysterectomy	-12.1399
▁hysterical	-12.1399
▁hysterically	-12.1399
▁ibuprophen	-12.1399
▁ic	-12.1399
▁icahn	-12.1399
▁icecream	-12.1399
▁iceland	-12.1399
▁icu	-12.1399
▁idek	-12.1399
▁identical	-12.1399
▁identifies	-12.1399
▁idiocy	-12.1399
▁idol	-12.1399
▁idolise	-12.1399
▁idw	-12.1399
▁ignite	-12.1399
▁illegal	-12.1399
▁illegally	-12.1399
▁illumination	-12.1399
▁illusionary	-12.1399
▁illustrated	-12.1399
▁illustrates	-12.1399
▁ima	-12.1399
▁imagery	-12.1399
▁imaginings	-12.1399
▁imalive	-12.1399
▁immature	-12.1399
▁immaturity	-12.1399
▁immidiatly	-12.1399
▁immoral	-12.1399
▁immunocompromised	-12.1399
▁imnotevenstressedanymore	-12.1399
▁impasse	-12.1399
▁impeccable	-12.1399
▁imperative	-12.1399
▁imperfect	-12.1399
▁implement	-12.1399
▁implementation	-12.1399
▁implemented	-12.1399
▁implementing	-12.1399
▁implied	-12.1399
▁imply	-12.1399
▁imposed	-12.1399
▁imposition	-12.1399
▁impossibility	-12.1399
▁impotent	-12.1399
▁improbable	-12.1399
▁impulsively	-12.1399
▁inadequate	-12.1399
▁inadvertently	-12.1399
▁inanimate	-12.1399
▁inaya	-12.1399
▁inayaconnect	-12.1399
▁inbetween	-12.1399
▁incapacitates	-12.1399
▁incase	-12.1399
▁incel	-12.1399
▁incels	-12.1399
▁inclined	-12.1399
▁includes	-12.1399
▁inclusively	-12.1399
▁incompetent	-12.1399
▁inconcenience	-12.1399
▁inconsistent	-12.1399
▁inconvenienced	-12.1399
▁inconvenient	-12.1399
▁incorrect	-12.1399
▁incorrectly	-12.1399
▁incremental	-12.1399
▁incrementally	-12.1399
▁incroyables	-12.1399
▁indebted	-12.1399
▁indecision	-12.1399
▁independently	-12.1399
▁indgenous	-12.1399
▁indie	-12.1399
▁indifference	-12.1399
▁indifferent	-12.1399
▁indulgent	-12.1399
▁inevitability	-12.1399
▁inexpensive	-12.1399
▁inexplicably	-12.1399
▁infancy	-12.1399
▁infectious	-12.1399
▁infinitely	-12.1399
▁inflammatory	-12.1399
▁inflated	-12.1399
▁inflexible	-12.1399
▁influencefull	-12.1399
▁inform	-12.1399
▁informative	-12.1399
▁infuriate	-12.1399
▁infused	-12.1399
▁inhabit	-12.1399
▁inhabiting	-12.1399
▁inherent	-12.1399
▁inhumane	-12.1399
▁initiated	-12.1399
▁innitially	-12.1399
▁innocence	-12.1399
▁innocently	-12.1399
▁innovation	-12.1399
▁inquisitive	-12.1399
▁insensitive	-12.1399
▁inserted	-12.1399
▁insider	-12.1399
▁insightful	-12.1399
▁insignificant	-12.1399
▁insisted	-12.1399
▁insistent	-12.1399
▁inspected	-12.1399
▁instilled	-12.1399
▁instilling	-12.1399
▁instinctive	-12.1399
▁institute	-12.1399
▁institution	-12.1399
▁institutionalised	-12.1399
▁instructional	-12.1399
▁insulted	-12.1399
▁intel	-12.1399
▁intends	-12.1399
▁interconnectivity	-12.1399
▁interdependence	-12.1399
▁interesed	-12.1399
▁intermittent	-12.1399
▁internalizes	-12.1399
▁interverence	-12.1399
▁interviewed	-12.1399
▁interviewing	-12.1399
▁introduction	-12.1399
▁introductory	-12.1399
▁invalid	-12.1399
▁invariably	-12.1399
▁investigate	-12.1399
▁investigating	-12.1399
▁investigation	-12.1399
▁investigator	-12.1399
▁inviting	-12.1399
▁involuntary	-12.1399
▁iop	-12.1399
▁iran	-12.1399
▁iraq	-12.1399
▁irish	-12.1399
▁irishman	-12.1399
▁ironically	-12.1399
▁irregularly	-12.1399
▁irrelevant	-12.1399
▁irrespective	-12.1399
▁irresponsible	-12.1399
▁irreversible	-12.1399
▁irritant	-12.1399
▁irs	-12.1399
▁ishaan	-12.1399
▁isoleted	-12.1399
▁itchy	-12.1399
▁ixl	-12.1399
▁jab	-12.1399
▁jackbox	-12.1399
▁jacked	-12.1399
▁jacket	-12.1399
▁jackpot	-12.1399
▁jackshit	-12.1399
▁jacobson	-12.1399
▁jagged	-12.1399
▁jake	-12.1399
▁jakeducey	-12.1399
▁jamaican	-12.1399
▁jana	-12.1399
▁japan	-12.1399
▁jazzed	-12.1399
▁jeaousy	-12.1399
▁jee	-12.1399
▁jehovah	-12.1399
▁jello	-12.1399
▁jeopardizing	-12.1399
▁jerk	-12.1399
▁jet	-12.1399
▁jj	-12.1399
▁jme	-12.1399
▁joked	-12.1399
▁joleneobrien	-12.1399
▁jon	-12.1399
▁jot	-12.1399
▁journalism	-12.1399
▁journalist	-12.1399
▁journalling	-12.1399
▁joyless	-12.1399
▁joyously	-12.1399
▁judt	-12.1399
▁jumbo	-12.1399
▁jumpy	-12.1399
▁jung	-12.1399
▁juno	-12.1399
▁justifiably	-12.1399
▁juvenile	-12.1399
▁katakana	-12.1399
▁kava	-12.1399
▁kckb	-12.1399
▁ked	-12.1399
▁kennel	-12.1399
▁kent	-12.1399
▁kenya	-12.1399
▁kharrazinaturalhealth	-12.1399
▁kicker	-12.1399
▁kidnapped	-12.1399
▁kife	-12.1399
▁kindergarden	-12.1399
▁kinesiologist	-12.1399
▁kinky	-12.1399
▁kissed	-12.1399
▁kist	-12.1399
▁knee	-12.1399
▁knit	-12.1399
▁knkw	-12.1399
▁kno	-12.1399
▁knock	-12.1399
▁knot	-12.1399
▁knowledgeable	-12.1399
▁kolonopin	-12.1399
▁kong	-12.1399
▁krier	-12.1399
▁kumusha	-12.1399
▁kumushafoundation	-12.1399
▁kylehilding	-12.1399
▁labour	-12.1399
▁ladder	-12.1399
▁lall	-12.1399
▁lamenting	-12.1399
▁landlady	-12.1399
▁landscaping	-12.1399
▁lanka	-12.1399
▁lasagna	-12.1399
▁lashed	-12.1399
▁lashing	-12.1399
▁lastnight	-12.1399
▁lather	-12.1399
▁latley	-12.1399
▁laughably	-12.1399
▁laundromat	-12.1399
▁laurie	-12.1399
▁lavish	-12.1399
▁lawson	-12.1399
▁layed	-12.1399
▁layoff	-12.1399
▁lazier	-12.1399
▁lcd	-12.1399
▁leaking	-12.1399
▁leash	-12.1399
▁lectured	-12.1399
▁leeds	-12.1399
▁legal	-12.1399
▁legality	-12.1399
▁legitimately	-12.1399
▁leisure	-12.1399
▁lemon	-12.1399
▁lending	-12.1399
▁lengthy	-12.1399
▁leone	-12.1399
▁lesotho	-12.1399
▁leukemia	-12.1399
▁leverage	-12.1399
▁lewd	-12.1399
▁liberated	-12.1399
▁liberating	-12.1399
▁liberia	-12.1399
▁licensed	-12.1399
▁licensing	-12.1399
▁licking	-12.1399
▁liege	-12.1399
▁lifecoach	-12.1399
▁lifeless	-12.1399
▁lifelessly	-12.1399
▁lightbulb	-12.1399
▁lighter	-12.1399
▁liife	-12.1399
▁likelihood	-12.1399
▁likewise	-12.1399
▁likwise	-12.1399
▁lil	-12.1399
▁limbo	-12.1399
▁lining	-12.1399
▁lionelwilson	-12.1399
▁liqour	-12.1399
▁liquid	-12.1399
▁liquor	-12.1399
▁lisabergstrom	-12.1399
▁lisence	-12.1399
▁lite	-12.1399
▁liter	-12.1399
▁literary	-12.1399
▁literature	-12.1399
▁llama	-12.1399
▁lmfao	-12.1399
▁lne	-12.1399
▁loath	-12.1399
▁lobster	-12.1399
▁locate	-12.1399
▁located	-12.1399
▁locus	-12.1399
▁lofi	-12.1399
▁loiter	-12.1399
▁lollipop	-12.1399
▁longed	-12.1399
▁lookkng	-12.1399
▁looser	-12.1399
▁lorde	-12.1399
▁loses	-12.1399
▁lottery	-12.1399
▁loudness	-12.1399
▁loveless	-12.1399
▁lowering	-12.1399
▁lube	-12.1399
▁lucid	-12.1399
▁lump	-12.1399
▁lurker	-12.1399
▁luxembourg	-12.1399
▁lyon	-12.1399
▁lyrical	-12.1399
▁macho	-12.1399
▁madagascar	-12.1399
▁maddening	-12.1399
▁maharishi	-12.1399
▁mail	-12.1399
▁mailed	-12.1399
▁maintained	-12.1399
▁maintining	-12.1399
▁majorly	-12.1399
▁makefun	-12.1399
▁maker	-12.1399
▁malawi	-12.1399
▁maldives	-12.1399
▁malfunctioning	-12.1399
▁mali	-12.1399
▁mam	-12.1399
▁mama	-12.1399
▁manda	-12.1399
▁maniac	-12.1399
▁manifestation	-12.1399
▁manifested	-12.1399
▁manipulation	-12.1399
▁mankind	-12.1399
▁manly	-12.1399
▁mannequin	-12.1399
▁manson	-12.1399
▁manu	-12.1399
▁manual	-12.1399
▁manualized	-12.1399
▁manufacturing	-12.1399
▁manyyy	-12.1399
▁marc	-12.1399
▁marchwicki	-12.1399
▁marginal	-12.1399
▁maried	-12.1399
▁mariljuana	-12.1399
▁marker	-12.1399
▁marketer	-12.1399
▁marx	-12.1399
▁mary	-12.1399
▁masculine	-12.1399
▁masculinity	-12.1399
▁masked	-12.1399
▁maskless	-12.1399
▁massager	-12.1399
▁massively	-12.1399
▁masterclass	-12.1399
▁mater	-12.1399
▁maternal	-12.1399
▁maternity	-12.1399
▁mathematical	-12.1399
▁mathematically	-12.1399
▁matthew	-12.1399
▁mattmark	-12.1399
▁mattress	-12.1399
▁matures	-12.1399
▁mauritania	-12.1399
▁max	-12.1399
▁maxed	-12.1399
▁maximize	-12.1399
▁mayan	-12.1399
▁mayor	-12.1399
▁mcauliffe	-12.1399
▁mcconaughey	-12.1399
▁mdma	-12.1399
▁meagrely	-12.1399
▁meaninglessly	-12.1399
▁meaninglessness	-12.1399
▁mechanic	-12.1399
▁mechatronics	-12.1399
▁medicating	-12.1399
▁mediocrity	-12.1399
▁meditationteacher	-12.1399
▁medular	-12.1399
▁medulla	-12.1399
▁melancholic	-12.1399
▁melancholy	-12.1399
▁memoir	-12.1399
▁memorable	-12.1399
▁memorize	-12.1399
▁memoryh	-12.1399
▁menace	-12.1399
▁mend	-12.1399
▁menopause	-12.1399
▁menstrual	-12.1399
▁mentallity	-12.1399
▁mentaly	-12.1399
▁meowing	-12.1399
▁mercy	-12.1399
▁merge	-12.1399
▁merry	-12.1399
▁mesopotamia	-12.1399
▁messenger	-12.1399
▁metaphor	-12.1399
▁metric	-12.1399
▁mexican	-12.1399
▁mf	-12.1399
▁mia	-12.1399
▁michaelfox	-12.1399
▁micro	-12.1399
▁microwave	-12.1399
▁mics	-12.1399
▁midday	-12.1399
▁middling	-12.1399
▁midst	-12.1399
▁midwestern	-12.1399
▁migrain	-12.1399
▁mihaly	-12.1399
▁mil	-12.1399
▁milder	-12.1399
▁miller	-12.1399
▁millionth	-12.1399
▁mindsetmastery	-12.1399
▁mindspace	-12.1399
▁minimize	-12.1399
▁minimized	-12.1399
▁ministry	-12.1399
▁ministryofpoetry	-12.1399
▁minus	-12.1399
▁miscarriage	-12.1399
▁misdiagnosed	-12.1399
▁miserably	-12.1399
▁misgendered	-12.1399
▁misguided	-12.1399
▁misinterpreting	-12.1399
▁misogynist	-12.1399
▁misogynistic	-12.1399
▁misremembered	-12.1399
▁missery	-12.1399
▁missionary	-12.1399
▁mistakenly	-12.1399
▁misunderstanding	-12.1399
▁mitigate	-12.1399
▁mitigates	-12.1399
▁mitt	-12.1399
▁mitty	-12.1399
▁mixer	-12.1399
▁mixing	-12.1399
▁mo	-12.1399
▁mob	-12.1399
▁mocked	-12.1399
▁moderation	-12.1399
▁modest	-12.1399
▁modesty	-12.1399
▁module	-12.1399
▁molesting	-12.1399
▁momentarily	-12.1399
▁momentary	-12.1399
▁mommy	-12.1399
▁mon	-12.1399
▁monitoring	-12.1399
▁monogamous	-12.1399
▁monogamy	-12.1399
▁monotonous	-12.1399
▁mooded	-12.1399
▁moonlight	-12.1399
▁moonshine	-12.1399
▁moonshot	-12.1399
▁mopey	-12.1399
▁morbid	-12.1399
▁morbidly	-12.1399
▁moreso	-12.1399
▁mormon	-12.1399
▁morose	-12.1399
▁morsel	-12.1399
▁mosque	-12.1399
▁mostlyyy	-12.1399
▁motel	-12.1399
▁motivates	-12.1399
▁motivating	-12.1399
▁motive	-12.1399
▁moto	-12.1399
▁mourns	-12.1399
▁mouse	-12.1399
▁mover	-12.1399
▁mozambique	-12.1399
▁mt	-12.1399
▁mtv	-12.1399
▁muffled	-12.1399
▁mullet	-12.1399
▁multimillionaires	-12.1399
▁multitasking	-12.1399
▁multivitamin	-12.1399
▁mumbling	-12.1399
▁mumbo	-12.1399
▁muruganar	-12.1399
▁mush	-12.1399
▁mushroom	-12.1399
▁musical	-12.1399
▁musing	-12.1399
▁muster	-12.1399
▁mustered	-12.1399
▁mutism	-12.1399
▁muttered	-12.1399
▁myanmar	-12.1399
▁mythology	-12.1399
▁nada	-12.1399
▁nah	-12.1399
▁nailed	-12.1399
▁namaskar	-12.1399
▁nameless	-12.1399
▁namibia	-12.1399
▁nana	-12.1399
▁napkin	-12.1399
▁narly	-12.1399
▁narrcisim	-12.1399
▁narrcists	-12.1399
▁narrowest	-12.1399
▁narsassistic	-12.1399
▁nasa	-12.1399
▁nationalist	-12.1399
▁navigating	-12.1399
▁naw	-12.1399
▁neat	-12.1399
▁nebours	-12.1399
▁necklace	-12.1399
▁nectar	-12.1399
▁needes	-12.1399
▁neediness	-12.1399
▁neet	-12.1399
▁negating	-12.1399
▁negotiation	-12.1399
▁nepotism	-12.1399
▁nest	-12.1399
▁net	-12.1399
▁neuroscientist	-12.1399
▁neurotic	-12.1399
▁nevertheless	-12.1399
▁newey	-12.1399
▁newfound	-12.1399
▁nft	-12.1399
▁ng	-12.1399
▁nge	-12.1399
▁ngo	-12.1399
▁nhat	-12.1399
▁nicer	-12.1399
▁nickname	-12.1399
▁nicodimattina	-12.1399
▁niger	-12.1399
▁nigh	-12.1399
▁nighter	-12.1399
▁nightingale	-12.1399
▁nihilism	-12.1399
▁nine	-12.1399
▁ninth	-12.1399
▁nix	-12.1399
▁nonjudgmental	-12.1399
▁nonprofit	-12.1399
▁nonsensical	-12.1399
▁noodle	-12.1399
▁noon	-12.1399
▁nootralize	-12.1399
▁nora	-12.1399
▁noradrenaline	-12.1399
▁normalized	-12.1399
▁norway	-12.1399
▁nostalgic	-12.1399
▁nosy	-12.1399
▁notch	-12.1399
▁notifies	-12.1399
▁notoriously	-12.1399
▁nottingham	-12.1399
▁nourishing	-12.1399
▁nov	-12.1399
▁ntohing	-12.1399
▁nude	-12.1399
▁nuh	-12.1399
▁nutrient	-12.1399
▁nutritional	-12.1399
▁nutritionally	-12.1399
▁nyquil	-12.1399
▁obermeyer	-12.1399
▁objected	-12.1399
▁obligatory	-12.1399
▁obliges	-12.1399
▁oblivious	-12.1399
▁obnoxious	-12.1399
▁obscenely	-12.1399
▁observation	-12.1399
▁observer	-12.1399
▁observing	-12.1399
▁obsolete	-12.1399
▁occupation	-12.1399
▁occupy	-12.1399
▁occurring	-12.1399
▁octavia	-12.1399
▁ode	-12.1399
▁offchance	-12.1399
▁offed	-12.1399
▁offence	-12.1399
▁offended	-12.1399
▁offsite	-12.1399
▁ofmy	-12.1399
▁okayish	-12.1399
▁okey	-12.1399
▁olympics	-12.1399
▁om	-12.1399
▁onedollarhappiness	-12.1399
▁onlinesuccesgroup	-12.1399
▁onlt	-12.1399
▁onset	-12.1399
▁opiate	-12.1399
▁oppose	-12.1399
▁optimist	-12.1399
▁optimize	-12.1399
▁opting	-12.1399
▁ordering	-12.1399
▁organ	-12.1399
▁organically	-12.1399
▁organisation	-12.1399
▁organise	-12.1399
▁organiser	-12.1399
▁organizational	-12.1399
▁organizing	-12.1399
▁orientated	-12.1399
▁originating	-12.1399
▁ormond	-12.1399
▁orthogonal	-12.1399
▁oscar	-12.1399
▁ot	-12.1399
▁otc	-12.1399
▁otherway	-12.1399
▁outbreak	-12.1399
▁outcast	-12.1399
▁outer	-12.1399
▁outline	-12.1399
▁outraged	-12.1399
▁outset	-12.1399
▁outsmart	-12.1399
▁outweighs	-12.1399
▁overachievement	-12.1399
▁overachiever	-12.1399
▁overconsumption	-12.1399
▁overdose	-12.1399
▁overdosed	-12.1399
▁overdoses	-12.1399
▁overdramatic	-12.1399
▁overeat	-12.1399
▁overflood	-12.1399
▁overflooding	-12.1399
▁overhead	-12.1399
▁overload	-12.1399
▁overreact	-12.1399
▁overshadowed	-12.1399
▁overstretch	-12.1399
▁overthought	-12.1399
▁overtook	-12.1399
▁overwatch	-12.1399
▁overweigh	-12.1399
▁overworker	-12.1399
▁overworking	-12.1399
▁owes	-12.1399
▁owi	-12.1399
▁owl	-12.1399
▁owns	-12.1399
▁ox	-12.1399
▁oxytocin	-12.1399
▁pacing	-12.1399
▁painkiller	-12.1399
▁pair	-12.1399
▁paired	-12.1399
▁pakistani	-12.1399
▁pal	-12.1399
▁palestinian	-12.1399
▁palete	-12.1399
▁palette	-12.1399
▁paliperidone	-12.1399
▁pallet	-12.1399
▁palsy	-12.1399
▁pam	-12.1399
▁pandora	-12.1399
▁pang	-12.1399
▁panick	-12.1399
▁panicky	-12.1399
▁pansexual	-12.1399
▁paradigm	-12.1399
▁paradox	-12.1399
▁paralized	-12.1399
▁paranormal	-12.1399
▁paraphrasing	-12.1399
▁parental	-12.1399
▁parked	-12.1399
▁partnered	-12.1399
▁passionately	-12.1399
▁passionflower	-12.1399
▁passively	-12.1399
▁passivity	-12.1399
▁pasta	-12.1399
▁paste	-12.1399
▁patched	-12.1399
▁patrol	-12.1399
▁patronizing	-12.1399
▁paulo	-12.1399
▁paulson	-12.1399
▁paving	-12.1399
▁paycheck	-12.1399
▁payout	-12.1399
▁pdf	-12.1399
▁peaceandlove	-12.1399
▁peachy	-12.1399
▁pedal	-12.1399
▁pedo	-12.1399
▁pedophilia	-12.1399
▁pedos	-12.1399
▁pee	-12.1399
▁pen	-12.1399
▁pencil	-12.1399
▁pensez	-12.1399
▁pensum	-12.1399
▁pepe	-12.1399
▁perceives	-12.1399
▁perceiving	-12.1399
▁perk	-12.1399
▁perpetually	-12.1399
▁perpetuating	-12.1399
▁persecuted	-12.1399
▁personalize	-12.1399
▁personhood	-12.1399
▁pesky	-12.1399
▁pessimism	-12.1399
▁pessimist	-12.1399
▁pest	-12.1399
▁petrified	-12.1399
▁pfts	-12.1399
▁pharmaceutical	-12.1399
▁phoniness	-12.1399
▁phoning	-12.1399
▁phony	-12.1399
▁php	-12.1399
▁phsyical	-12.1399
▁physicaly	-12.1399
▁physician	-12.1399
▁physiologist	-12.1399
▁physiotherapist	-12.1399
▁physiotherapy	-12.1399
▁pierced	-12.1399
▁pinched	-12.1399
▁pincher	-12.1399
▁pine	-12.1399
▁pink	-12.1399
▁pinpoint	-12.1399
▁pitching	-12.1399
▁piti	-12.1399
▁pittance	-12.1399
▁pivotal	-12.1399
▁pjs	-12.1399
▁placebo	-12.1399
▁placement	-12.1399
▁plagiarized	-12.1399
▁planner	-12.1399
▁plantation	-12.1399
▁platitude	-12.1399
▁platoon	-12.1399
▁plausible	-12.1399
▁playtime	-12.1399
▁plea	-12.1399
▁pleaded	-12.1399
▁pleading	-12.1399
▁pleaser	-12.1399
▁pleasurable	-12.1399
▁plumber	-12.1399
▁plumits	-12.1399
▁plushie	-12.1399
▁pmdd	-12.1399
▁podcasters	-12.1399
▁poetic	-12.1399
▁pogrom	-12.1399
▁pointings	-12.1399
▁poisonous	-12.1399
▁poky	-12.1399
▁pole	-12.1399
▁polite	-12.1399
▁polka	-12.1399
▁pollard	-12.1399
▁ponders	-12.1399
▁pooh	-12.1399
▁poop	-12.1399
▁poorer	-12.1399
▁poorest	-12.1399
▁poptartfriday	-12.1399
▁popularly	-12.1399
▁pornhub	-12.1399
▁pornography	-12.1399
▁portfolio	-12.1399
▁portrait	-12.1399
▁portray	-12.1399
▁portrays	-12.1399
▁portsmouth	-12.1399
▁pose	-12.1399
▁posing	-12.1399
▁positing	-12.1399
▁pot	-12.1399
▁potent	-12.1399
▁pounce	-12.1399
▁poured	-12.1399
▁powdered	-12.1399
▁powered	-12.1399
▁powfu	-12.1399
▁praised	-12.1399
▁preached	-12.1399
▁preacher	-12.1399
▁preaching	-12.1399
▁preceded	-12.1399
▁predental	-12.1399
▁predictably	-12.1399
▁prediction	-12.1399
▁preemptively	-12.1399
▁preface	-12.1399
▁preferable	-12.1399
▁preferably	-12.1399
▁prefers	-12.1399
▁preffered	-12.1399
▁premed	-12.1399
▁prep	-12.1399
▁prepackaged	-12.1399
▁preparedness	-12.1399
▁prequisites	-12.1399
▁prerequisite	-12.1399
▁prescriber	-12.1399
▁presenting	-12.1399
▁presentmoment	-12.1399
▁preserve	-12.1399
▁preserving	-12.1399
▁pression	-12.1399
▁pressuring	-12.1399
▁pressurized	-12.1399
▁prettiest	-12.1399
▁prevailed	-12.1399
▁prevented	-12.1399
▁primed	-12.1399
▁priming	-12.1399
▁princess	-12.1399
▁printables	-12.1399
▁printed	-12.1399
▁prioritized	-12.1399
▁prioritizes	-12.1399
▁prision	-12.1399
▁prisoner	-12.1399
▁proactive	-12.1399
▁prob	-12.1399
▁procastinating	-12.1399
▁procedure	-12.1399
▁proceeds	-12.1399
▁processed	-12.1399
▁proclaim	-12.1399
▁prodded	-12.1399
▁prodding	-12.1399
▁prodigy	-12.1399
▁producer	-12.1399
▁profusely	-12.1399
▁prompting	-12.1399
▁prone	-12.1399
▁pronounced	-12.1399
▁proofed	-12.1399
▁propably	-12.1399
▁proposing	-12.1399
▁propped	-12.1399
▁prosper	-12.1399
▁prosthetics	-12.1399
▁prostitute	-12.1399
▁protective	-12.1399
▁protest	-12.1399
▁protocol	-12.1399
▁prozosin	-12.1399
▁prudent	-12.1399
▁psats	-12.1399
▁pshyical	-12.1399
▁pssd	-12.1399
▁psychedelics	-12.1399
▁psycho	-12.1399
▁psychoanalysis	-12.1399
▁psychotherapy	-12.1399
▁pua	-12.1399
▁puas	-12.1399
▁puberty	-12.1399
▁publicspeaking	-12.1399
▁puddle	-12.1399
▁puffy	-12.1399
▁puke	-12.1399
▁puking	-12.1399
▁puller	-12.1399
▁pulsifer	-12.1399
▁punching	-12.1399
▁punchline	-12.1399
▁purely	-12.1399
▁purgatory	-12.1399
▁purifying	-12.1399
▁purposefully	-12.1399
▁purposeless	-12.1399
▁purposelessness	-12.1399
▁putrid	-12.1399
▁pyschopath	-12.1399
▁pysiotherapist	-12.1399
▁quad	-12.1399
▁quadmester	-12.1399
▁quarantined	-12.1399
▁quarrel	-12.1399
▁que	-12.1399
▁queen	-12.1399
▁quelques	-12.1399
▁questioned	-12.1399
▁quilting	-12.1399
▁quin	-12.1399
▁quiplash	-12.1399
▁quitted	-12.1399
▁racial	-12.1399
▁racketball	-12.1399
▁radar	-12.1399
▁radiant	-12.1399
▁radiate	-12.1399
▁radiates	-12.1399
▁radiation	-12.1399
▁radicalize	-12.1399
▁radiohead	-12.1399
▁raging	-12.1399
▁rainfall	-12.1399
▁ralated	-12.1399
▁ram	-12.1399
▁ramp	-12.1399
▁ranch	-12.1399
▁randomness	-12.1399
▁ranked	-12.1399
▁rap	-12.1399
▁raping	-12.1399
▁ratio	-12.1399
▁reactionary	-12.1399
▁readily	-12.1399
▁realll	-12.1399
▁realm	-12.1399
▁realtionships	-12.1399
▁realtor	-12.1399
▁reappear	-12.1399
▁rebuild	-12.1399
▁recalling	-12.1399
▁receptionist	-12.1399
▁recess	-12.1399
▁recharge	-12.1399
▁recieved	-12.1399
▁reckon	-12.1399
▁recognizably	-12.1399
▁recognizes	-12.1399
▁recruiting	-12.1399
▁rectified	-12.1399
▁recycled	-12.1399
▁redditors	-12.1399
▁redeem	-12.1399
▁redeemed	-12.1399
▁redefine	-12.1399
▁redemption	-12.1399
▁redo	-12.1399
▁reevaluating	-12.1399
▁referencing	-12.1399
▁refers	-12.1399
▁refined	-12.1399
▁reflected	-12.1399
▁reflux	-12.1399
▁refocus	-12.1399
▁reframing	-12.1399
▁refreshing	-12.1399
▁regained	-12.1399
▁regenerate	-12.1399
▁regressing	-12.1399
▁regression	-12.1399
▁regrettable	-12.1399
▁regularity	-12.1399
▁regulation	-12.1399
▁rehabilitated	-12.1399
▁rehearse	-12.1399
▁reign	-12.1399
▁reincarnation	-12.1399
▁reinforce	-12.1399
▁reinforced	-12.1399
▁reinforcing	-12.1399
▁reiterate	-12.1399
▁rejecter	-12.1399
▁rejecting	-12.1399
▁relaying	-12.1399
▁relentless	-12.1399
▁relentlessly	-12.1399
▁relied	-12.1399
▁religiously	-12.1399
▁relinquish	-12.1399
▁relocate	-12.1399
▁relocating	-12.1399
▁remainder	-12.1399
▁remaining	-12.1399
▁remdies	-12.1399
▁remedy	-12.1399
▁remission	-12.1399
▁remorseful	-12.1399
▁removal	-12.1399
▁removing	-12.1399
▁rendered	-12.1399
▁renew	-12.1399
▁renewal	-12.1399
▁renovation	-12.1399
▁rental	-12.1399
▁renting	-12.1399
▁repaid	-12.1399
▁replaying	-12.1399
▁replying	-12.1399
▁reporting	-12.1399
▁represent	-12.1399
▁represented	-12.1399
▁represents	-12.1399
▁reprieve	-12.1399
▁reprised	-12.1399
▁reprogram	-12.1399
▁republic	-12.1399
▁repulsive	-12.1399
▁repurposed	-12.1399
▁reputable	-12.1399
▁reputation	-12.1399
▁reschedule	-12.1399
▁researched	-12.1399
▁reselling	-12.1399
▁resemble	-12.1399
▁resentful	-12.1399
▁resents	-12.1399
▁resetting	-12.1399
▁resident	-12.1399
▁resides	-12.1399
▁residing	-12.1399
▁resigned	-12.1399
▁resiliency	-12.1399
▁reskilling	-12.1399
▁resonova	-12.1399
▁respected	-12.1399
▁respectful	-12.1399
▁respective	-12.1399
▁respidone	-12.1399
▁respiratory	-12.1399
▁respondent	-12.1399
▁responsive	-12.1399
▁restore	-12.1399
▁restoring	-12.1399
▁restrain	-12.1399
▁restrained	-12.1399
▁restraining	-12.1399
▁restraint	-12.1399
▁restylene	-12.1399
▁resurface	-12.1399
▁resurfacing	-12.1399
▁retaining	-12.1399
▁retention	-12.1399
▁rethinking	-12.1399
▁retiring	-12.1399
▁retrain	-12.1399
▁retreat	-12.1399
▁retribution	-12.1399
▁retroactively	-12.1399
▁reunion	-12.1399
▁reunited	-12.1399
▁revealed	-12.1399
▁reveled	-12.1399
▁reversed	-12.1399
▁reversing	-12.1399
▁revise	-12.1399
▁revising	-12.1399
▁revisited	-12.1399
▁revive	-12.1399
▁reviving	-12.1399
▁revolt	-12.1399
▁revolution	-12.1399
▁revolving	-12.1399
▁rexulti	-12.1399
▁rf	-12.1399
▁rhe	-12.1399
▁rhyming	-12.1399
▁rica	-12.1399
▁richer	-12.1399
▁richest	-12.1399
▁riddled	-12.1399
▁ridiculously	-12.1399
▁rigged	-12.1399
▁righteous	-12.1399
▁righteousness	-12.1399
▁ringer	-12.1399
▁rinse	-12.1399
▁ripe	-12.1399
▁rly	-12.1399
▁roap	-12.1399
▁roast	-12.1399
▁robbins	-12.1399
▁robot	-12.1399
▁rodeo	-12.1399
▁roker	-12.1399
▁roleplaying	-12.1399
▁roller	-12.1399
▁rolling	-12.1399
▁roman	-12.1399
▁romanian	-12.1399
▁rooftop	-12.1399
▁roomate	-12.1399
▁roomates	-12.1399
▁roomy	-12.1399
▁rooted	-12.1399
▁rooting	-12.1399
▁rosies	-12.1399
▁rotates	-12.1399
▁rotation	-12.1399
▁rotted	-12.1399
▁routinely	-12.1399
▁rowan	-12.1399
▁ruaridh	-12.1399
▁rub	-12.1399
▁rubbish	-12.1399
▁rubin	-12.1399
▁rugby	-12.1399
▁ruminate	-12.1399
▁ruminating	-12.1399
▁runaway	-12.1399
▁runner	-12.1399
▁rural	-12.1399
▁russian	-12.1399
▁rustling	-12.1399
▁rwanda	-12.1399
▁sa	-12.1399
▁sadder	-12.1399
▁sadhu	-12.1399
▁saffron	-12.1399
▁sailboat	-12.1399
▁sallust	-12.1399
▁salute	-12.1399
▁salvation	-12.1399
▁sandhu	-12.1399
▁sank	-12.1399
▁sanskrit	-12.1399
▁santayana	-12.1399
▁santos	-12.1399
▁sappy	-12.1399
▁sarah	-12.1399
▁saturated	-12.1399
▁saturday	-12.1399
▁saver	-12.1399
▁savor	-12.1399
▁savory	-12.1399
▁savransky	-12.1399
▁sb	-12.1399
▁sbout	-12.1399
▁scab	-12.1399
▁scalp	-12.1399
▁scanning	-12.1399
▁scarborough	-12.1399
▁scarcity	-12.1399
▁scariest	-12.1399
▁scarificed	-12.1399
▁scaring	-12.1399
▁scarred	-12.1399
▁scent	-12.1399
▁scented	-12.1399
▁schooling	-12.1399
▁schoonmaker	-12.1399
▁schopenhauer	-12.1399
▁schreiber	-12.1399
▁schwarzenegger	-12.1399
▁sci	-12.1399
▁scoffing	-12.1399
▁scoring	-12.1399
▁scorn	-12.1399
▁scorsese	-12.1399
▁scramble	-12.1399
▁scrape	-12.1399
▁scraping	-12.1399
▁screenshots	-12.1399
