▁like	-4.43608
<s>	0
</s>	0
<unk>	0
▁feel	-4.44433
▁wa	-4.5238
▁time	-4.72149
▁life	-4.73925
▁get	-4.79452
▁know	-4.79845
▁want	-4.87898
▁thing	-4.97828
▁day	-5.02323
▁people	-5.12513
▁even	-5.13426
▁year	-5.1688
▁one	-5.27701
▁make	-5.29086
▁really	-5.30818
▁help	-5.31365
▁work	-5.32137
▁ha	-5.32691
▁think	-5.35283
▁stress	-5.36662
▁would	-5.42624
▁going	-5.48832
▁go	-5.51347
▁something	-5.55592
▁much	-5.60758
▁way	-5.62541
▁friend	-5.63747
▁feeling	-5.6605
▁always	-5.66986
▁love	-5.69365
▁thought	-5.70495
▁never	-5.72132
▁everything	-5.72297
▁need	-5.74469
▁take	-5.76001
▁keep	-5.7967
▁u	-5.80026
▁back	-5.81284
▁also	-5.8201
▁still	-5.84406
▁good	-5.8478
▁job	-5.88597
▁new	-5.89772
▁right	-5.90761
▁depression	-5.9096
▁every	-5.93175
▁anxiety	-5.93379
▁better	-5.93584
▁could	-5.96068
▁anything	-5.97759
▁week	-5.99697
▁someone	-5.99915
▁happy	-6.00133
▁anyone	-6.0057
▁say	-6.03689
▁lot	-6.05746
▁month	-6.10233
▁start	-6.11693
▁hard	-6.12678
▁got	-6.13175
▁school	-6.13424
▁try	-6.13673
▁well	-6.14175
▁see	-6.14678
▁trying	-6.14678
▁family	-6.15694
▁amp	-6.15949
▁bad	-6.16462
▁find	-6.16462
▁come	-6.16719
▁happiness	-6.17236
▁everyone	-6.18278
▁moment	-6.1854
▁many	-6.2093
▁nothing	-6.2093
▁since	-6.22284
▁self	-6.22556
▁anymore	-6.2283
▁first	-6.24766
▁today	-6.25608
▁give	-6.26173
▁live	-6.29632
▁person	-6.31706
▁mind	-6.34745
▁last	-6.35676
▁getting	-6.35988
▁hate	-6.35988
▁mental	-6.36615
▁end	-6.3693
▁else	-6.37563
▁long	-6.37563
▁best	-6.3884
▁point	-6.3884
▁ever	-6.39163
▁sleep	-6.40135
▁health	-6.40789
▁past	-6.41446
▁sometimes	-6.42109
▁im	-6.43784
▁stressed	-6.44122
▁world	-6.44122
▁made	-6.44803
▁around	-6.46177
▁problem	-6.46524
▁care	-6.47221
▁stop	-6.47221
▁let	-6.48275
▁started	-6.48629
▁home	-6.48984
▁tell	-6.49341
▁doe	-6.50418
▁change	-6.5078
▁pain	-6.5078
▁depressed	-6.51143
▁felt	-6.52978
▁please	-6.52978
▁others	-6.53721
▁thinking	-6.53721
▁fucking	-6.5447
▁away	-6.55604
▁talk	-6.55604
▁parent	-6.56752
▁hour	-6.57912
▁tired	-6.57912
▁hope	-6.58302
▁different	-6.58693
▁look	-6.59086
▁without	-6.62287
▁though	-6.62694
▁used	-6.63514
▁maybe	-6.64756
▁done	-6.65593
▁told	-6.65593
▁experience	-6.66014
▁said	-6.66437
▁put	-6.69885
▁might	-6.70325
▁ago	-6.70766
▁shit	-6.70766
▁working	-6.7121
▁reason	-6.72103
▁little	-6.73003
▁living	-6.73003
▁part	-6.73003
▁two	-6.73457
▁enough	-6.75756
▁taking	-6.76222
▁wish	-6.76691
▁cry	-6.77161
▁dont	-6.77161
▁place	-6.77161
▁focus	-6.77634
▁remember	-6.78109
▁worse	-6.79066
▁able	-6.80032
▁actually	-6.81008
▁body	-6.81008
▁guy	-6.81499
▁may	-6.81993
▁sad	-6.81993
▁wanted	-6.82489
▁emotion	-6.82988
▁wrong	-6.83993
▁mom	-6.84499
▁head	-6.85008
▁alone	-6.8552
▁situation	-6.8552
▁high	-6.86034
▁goal	-6.86551
▁making	-6.86551
▁night	-6.86551
▁tried	-6.86551
▁etc	-6.8707
▁looking	-6.87592
▁step	-6.87592
▁video	-6.87592
▁already	-6.89709
▁another	-6.89709
▁college	-6.89709
▁constantly	-6.89709
▁listen	-6.91326
▁idea	-6.92419
▁anxious	-6.94081
▁hurt	-6.94081
▁money	-6.94081
▁relationship	-6.94641
▁everyday	-6.95205
▁issue	-6.95205
▁great	-6.95771
▁mother	-6.95771
▁energy	-6.96914
▁mean	-6.96914
▁normal	-6.96914
▁study	-6.96914
▁heart	-6.97491
▁important	-6.97491
▁future	-6.9807
▁question	-6.98653
▁success	-6.98653
▁therapy	-6.98653
▁lost	-6.9924
▁lt	-6.9924
▁kind	-7.00423
▁went	-7.00423
▁understand	-7.0102
▁move	-7.01621
▁left	-7.02225
▁minute	-7.02225
▁post	-7.02833
▁learn	-7.03445
▁class	-7.05302
▁fear	-7.05302
▁die	-7.0656
▁old	-7.0656
▁whole	-7.0656
▁found	-7.07195
▁drey	-7.07834
▁use	-7.08477
▁covid	-7.09125
▁brain	-7.09776
▁happen	-7.09776
▁deal	-7.10432
▁positive	-7.10432
▁almost	-7.11092
▁sure	-7.11092
▁ask	-7.11756
▁leave	-7.11756
▁recently	-7.11756
▁talking	-7.11756
▁stuff	-7.12425
▁course	-7.13099
▁daily	-7.13099
▁next	-7.13099
▁human	-7.13776
▁matter	-7.13776
▁share	-7.14459
▁become	-7.15146
▁due	-7.15146
▁free	-7.15838
▁often	-7.15838
▁pretty	-7.15838
▁cause	-7.17237
▁social	-7.17237
▁advice	-7.17944
▁house	-7.17944
▁seems	-7.17944
▁present	-7.18656
▁inside	-7.19372
▁word	-7.20094
▁yet	-7.20094
▁bed	-7.20822
▁believe	-7.21554
▁call	-7.21554
▁le	-7.21554
▁least	-7.21554
▁bit	-7.23036
▁music	-7.23036
▁break	-7.23785
▁enjoy	-7.253
▁scared	-7.253
▁support	-7.253
▁meditation	-7.26066
▁either	-7.26839
▁gonna	-7.26839
▁real	-7.26839
▁difficult	-7.27617
▁push	-7.27617
▁read	-7.27617
▁second	-7.28401
▁thats	-7.29192
▁medication	-7.29988
▁online	-7.29988
▁forward	-7.30792
▁needed	-7.30792
▁state	-7.30792
▁together	-7.30792
▁guess	-7.31601
▁suffering	-7.31601
▁writing	-7.31601
▁completely	-7.32418
▁dream	-7.32418
▁finally	-7.32418
▁fuck	-7.32418
▁level	-7.32418
▁stay	-7.32418
▁thank	-7.33241
▁happened	-7.34071
▁control	-7.34907
▁ok	-7.34907
▁probably	-7.35751
▁seem	-7.35751
▁hi	-7.36602
▁kid	-7.36602
▁doctor	-7.38327
▁full	-7.38327
▁small	-7.392
▁close	-7.40081
▁couple	-7.40081
▁rather	-7.40081
▁story	-7.40081
▁learning	-7.41867
▁peace	-7.41867
▁took	-7.41867
▁starting	-7.42772
▁dad	-7.43685
▁outside	-7.43685
▁child	-7.44607
▁pandemic	-7.44607
▁age	-7.45537
▁cant	-7.45537
▁later	-7.45537
▁symptom	-7.45537
▁currently	-7.46476
▁motivation	-7.46476
▁saying	-7.46476
▁usually	-7.46476
▁wanna	-7.46476
▁sorry	-7.47424
▁god	-7.48381
▁sense	-7.48381
▁especially	-7.49347
▁plan	-7.49347
▁truly	-7.50322
▁turn	-7.50322
▁worst	-7.50322
▁basically	-7.51308
▁grade	-7.51308
▁literally	-7.51308
▁stressful	-7.51308
▁book	-7.52303
▁deep	-7.52303
▁low	-7.52303
▁wake	-7.52303
▁successful	-7.53308
▁suicide	-7.53308
▁whatever	-7.53308
▁car	-7.54323
▁emotional	-7.54323
▁fact	-7.54323
▁man	-7.54323
▁true	-7.54323
▁face	-7.55349
▁handle	-7.55349
▁interview	-7.55349
▁open	-7.55349
▁attack	-7.56385
▁easy	-7.56385
▁habit	-7.56385
▁student	-7.56385
▁cannot	-7.57432
▁morning	-7.57432
▁pressure	-7.57432
▁big	-7.5849
▁eat	-7.5849
▁eye	-7.5849
▁struggling	-7.5849
▁top	-7.5849
▁whenever	-7.5849
▁given	-7.5956
▁hey	-7.5956
▁negative	-7.5956
▁set	-7.5956
▁meet	-7.60641
▁room	-7.60641
▁tip	-7.60641
▁group	-7.61734
▁honestly	-7.61734
▁memory	-7.61734
▁rest	-7.61734
▁therapist	-7.61734
▁behind	-7.62839
▁came	-7.62839
▁coming	-7.62839
▁far	-7.62839
▁pay	-7.62839
▁possible	-7.62839
▁show	-7.62839
▁super	-7.62839
▁university	-7.62839
▁career	-7.63956
▁fine	-7.63956
▁learned	-7.63956
▁mistake	-7.63956
▁soon	-7.63956
▁worry	-7.63956
▁personal	-7.65086
▁supposed	-7.65086
▁gone	-7.66229
▁light	-7.66229
▁country	-7.67385
▁hand	-7.67385
▁healthy	-7.67385
▁kill	-7.67385
▁survey	-7.67385
▁test	-7.67385
▁reading	-7.68555
▁research	-7.68555
▁sick	-7.68555
▁worried	-7.68555
▁constant	-7.69738
▁drive	-7.69738
▁exercise	-7.69738
▁happening	-7.69738
▁panic	-7.69738
▁phone	-7.69738
▁physical	-7.69738
▁proud	-7.69738
▁thanks	-7.69738
▁treatment	-7.69738
▁answer	-7.70936
▁aware	-7.70936
▁happens	-7.70936
▁instead	-7.70936
▁sadness	-7.70936
▁suicidal	-7.70936
▁asked	-7.72148
▁lead	-7.72148
▁okay	-7.72148
▁universe	-7.72148
▁worked	-7.72148
▁write	-7.72148
▁angry	-7.73375
▁calm	-7.73375
▁girl	-7.73375
▁lately	-7.73375
▁short	-7.73375
▁space	-7.73375
▁teacher	-7.73375
▁called	-7.74617
▁choice	-7.74617
▁mindset	-7.74617
▁towards	-7.74617
▁early	-7.75875
▁game	-7.75875
▁healing	-7.75875
▁hear	-7.75875
▁helped	-7.75875
▁seeing	-7.75875
▁seen	-7.75875
▁three	-7.75875
▁create	-7.77149
▁moving	-7.77149
▁nice	-7.77149
▁result	-7.77149
▁sound	-7.77149
▁along	-7.78439
▁amount	-7.78439
▁decided	-7.78439
▁follow	-7.78439
▁journey	-7.78439
▁single	-7.78439
▁spent	-7.78439
▁stuck	-7.78439
▁taken	-7.78439
▁worth	-7.78439
▁based	-7.79746
▁brother	-7.79746
▁extremely	-7.79746
▁hit	-7.79746
▁idk	-7.79746
▁must	-7.79746
▁quite	-7.79746
▁spend	-7.79746
▁action	-7.81071
▁asking	-7.81071
▁breathe	-7.81071
▁broke	-7.81071
▁interested	-7.81071
▁joy	-7.81071
▁path	-7.81071
▁process	-7.81071
▁side	-7.81071
▁sit	-7.81071
▁alive	-7.82413
▁boyfriend	-7.82413
▁continue	-7.82413
▁forget	-7.82413
▁grateful	-7.82413
▁however	-7.82413
▁name	-7.82413
▁realize	-7.82413
▁struggle	-7.82413
▁bring	-7.83774
▁fun	-7.83774
▁giving	-7.83774
▁hello	-7.83774
▁lived	-7.83774
▁loved	-7.83774
▁play	-7.83774
▁attention	-7.85153
▁food	-7.85153
▁hold	-7.85153
▁knew	-7.85153
▁link	-7.85153
▁purpose	-7.85153
▁pushing	-7.85153
▁waiting	-7.85153
▁youtube	-7.85153
▁accept	-7.86552
▁certain	-7.86552
▁effect	-7.86552
▁knowing	-7.86552
▁nobody	-7.86552
▁telling	-7.86552
▁within	-7.86552
▁afraid	-7.8797
▁event	-7.8797
▁experienced	-7.8797
▁stupid	-7.8797
▁awareness	-7.89409
▁death	-7.89409
▁example	-7.89409
▁figure	-7.89409
▁half	-7.89409
▁late	-7.89409
▁passion	-7.89409
▁yes	-7.89409
▁expectation	-7.90869
▁individual	-7.90869
▁information	-7.90869
▁lonely	-7.90869
▁walk	-7.90869
▁wanting	-7.90869
▁disorder	-7.9235
▁drug	-7.9235
▁eventually	-7.9235
▁failure	-7.9235
▁lie	-7.9235
▁meant	-7.9235
▁reality	-7.9235
▁whether	-7.9235
▁dealing	-7.93854
▁longer	-7.93854
▁major	-7.93854
▁reddit	-7.93854
▁young	-7.93854
▁achieve	-7.95381
▁allow	-7.95381
▁check	-7.95381
▁complete	-7.95381
▁fill	-7.95381
▁kept	-7.95381
▁watch	-7.95381
▁weird	-7.95381
▁company	-7.96931
▁entire	-7.96931
▁finding	-7.96931
▁reach	-7.96931
▁sleeping	-7.96931
▁exam	-7.98506
▁girlfriend	-7.98506
▁losing	-7.98506
▁project	-7.98506
▁run	-7.98506
▁sister	-7.98506
▁sort	-7.98506
▁soul	-7.98506
▁wife	-7.98506
▁activity	-8.00106
▁article	-8.00106
▁assignment	-8.00106
▁breath	-8.00106
▁huge	-8.00106
▁improve	-8.00106
▁practice	-8.00106
▁stopped	-8.00106
▁suck	-8.00106
▁truth	-8.00106
▁diagnosed	-8.01732
▁eating	-8.01732
▁focusing	-8.01732
▁impact	-8.01732
▁medium	-8.01732
▁quit	-8.01732
▁severe	-8.01732
▁suffer	-8.01732
▁trust	-8.01732
▁woman	-8.01732
▁absolutely	-8.03385
▁act	-8.03385
▁became	-8.03385
▁degree	-8.03385
▁empty	-8.03385
▁father	-8.03385
▁helping	-8.03385
▁kinda	-8.03385
▁technique	-8.03385
▁type	-8.03385
▁episode	-8.05066
▁four	-8.05066
▁miss	-8.05066
▁using	-8.05066
▁fail	-8.06775
▁heard	-8.06775
▁med	-8.06775
▁sitting	-8.06775
▁wondering	-8.06775
▁adult	-8.08515
▁cut	-8.08515
▁gratitude	-8.08515
▁mood	-8.08515
▁period	-8.08515
▁several	-8.08515
▁strong	-8.08515
▁terrible	-8.08515
▁amazing	-8.10285
▁business	-8.10285
▁changed	-8.10285
▁choose	-8.10285
▁condition	-8.10285
▁cope	-8.10285
▁easier	-8.10285
▁fight	-8.10285
▁lack	-8.10285
▁lose	-8.10285
▁met	-8.10285
▁movie	-8.10285
▁simple	-8.10285
▁beautiful	-8.12086
▁conversation	-8.12086
▁current	-8.12086
▁dead	-8.12086
▁dying	-8.12086
▁fast	-8.12086
▁form	-8.12086
▁mentally	-8.12086
▁opportunity	-8.12086
▁power	-8.12086
▁putting	-8.12086
▁straight	-8.12086
▁turned	-8.12086
▁across	-8.13921
▁anger	-8.13921
▁apart	-8.13921
▁decision	-8.13921
▁dog	-8.13921
▁following	-8.13921
▁force	-8.13921
▁headache	-8.13921
▁related	-8.13921
▁simply	-8.13921
▁somehow	-8.13921
▁understanding	-8.13921
▁comment	-8.15791
▁desire	-8.15791
▁driving	-8.15791
▁exactly	-8.15791
▁expect	-8.15791
▁explain	-8.15791
▁list	-8.15791
▁management	-8.15791
▁moved	-8.15791
▁pas	-8.15791
▁watching	-8.15791
▁barely	-8.17695
▁detail	-8.17695
▁fall	-8.17695
▁gotten	-8.17695
▁greater	-8.17695
▁hell	-8.17695
▁killing	-8.17695
▁manage	-8.17695
▁member	-8.17695
▁message	-8.17695
▁mine	-8.17695
▁option	-8.17695
▁participant	-8.17695
▁realized	-8.17695
▁tomorrow	-8.17695
▁trauma	-8.17695
▁upset	-8.17695
▁wait	-8.17695
▁whats	-8.17695
▁anybody	-8.19637
▁anyway	-8.19637
▁appreciated	-8.19637
▁born	-8.19637
▁hospital	-8.19637
▁internet	-8.19637
▁known	-8.19637
▁saw	-8.19637
▁son	-8.19637
▁stand	-8.19637
▁studying	-8.19637
▁yesterday	-8.19637
▁account	-8.21618
▁comfort	-8.21618
▁failed	-8.21618
▁ive	-8.21618
▁notice	-8.21618
▁opinion	-8.21618
▁order	-8.21618
▁physically	-8.21618
▁society	-8.21618
▁term	-8.21618
▁breathing	-8.23638
▁caused	-8.23638
▁chest	-8.23638
▁ex	-8.23638
▁knowledge	-8.23638
▁overwhelmed	-8.23638
▁questionnaire	-8.23638
▁wave	-8.23638
▁balance	-8.257
▁died	-8.257
▁hoping	-8.257
▁miserable	-8.257
▁progress	-8.257
▁release	-8.257
▁challenge	-8.27805
▁dark	-8.27805
▁deserve	-8.27805
▁eligible	-8.27805
▁grow	-8.27805
▁hair	-8.27805
▁mostly	-8.27805
▁perfect	-8.27805
▁perspective	-8.27805
▁reduce	-8.27805
▁session	-8.27805
▁tension	-8.27805
▁awful	-8.29956
▁belief	-8.29956
▁birthday	-8.29956
▁brief	-8.29956
▁contact	-8.29956
▁emotionally	-8.29956
▁ended	-8.29956
▁fix	-8.29956
▁growth	-8.29956
▁hobby	-8.29956
▁horrible	-8.29956
▁mad	-8.29956
▁method	-8.29956
▁missing	-8.29956
▁podcasts	-8.29956
▁ready	-8.29956
▁sign	-8.29956
▁slowly	-8.29956
▁art	-8.32154
▁benefit	-8.32154
▁breakdown	-8.32154
▁burden	-8.32154
▁cost	-8.32154
▁cycle	-8.32154
▁front	-8.32154
▁general	-8.32154
▁happier	-8.32154
▁keeping	-8.32154
▁multiple	-8.32154
▁nature	-8.32154
▁receive	-8.32154
▁sharing	-8.32154
▁similar	-8.32154
▁smile	-8.32154
▁useless	-8.32154
▁begin	-8.34401
▁breaking	-8.34401
▁cold	-8.34401
▁comfortable	-8.34401
▁finish	-8.34401
▁illness	-8.34401
▁line	-8.34401
▁listening	-8.34401
▁mess	-8.34401
▁numb	-8.34401
▁overcome	-8.34401
▁playing	-8.34401
▁speak	-8.34401
▁strength	-8.34401
▁visit	-8.34401
▁appreciate	-8.367
▁blood	-8.367
▁broken	-8.367
▁busy	-8.367
▁despite	-8.367
▁easily	-8.367
▁harder	-8.367
▁paying	-8.367
▁stressing	-8.367
▁weight	-8.367
▁app	-8.39053
▁buy	-8.39053
▁circumstance	-8.39053
▁drink	-8.39053
▁interesting	-8.39053
▁loser	-8.39053
▁oh	-8.39053
▁relate	-8.39053
▁relief	-8.39053
▁response	-8.39053
▁source	-8.39053
▁weak	-8.39053
▁abuse	-8.41463
▁add	-8.41463
▁allowed	-8.41463
▁causing	-8.41463
▁chance	-8.41463
▁chill	-8.41463
▁crazy	-8.41463
▁fault	-8.41463
▁final	-8.41463
▁forced	-8.41463
▁including	-8.41463
▁lazy	-8.41463
▁poor	-8.41463
▁program	-8.41463
▁serious	-8.41463
▁spiritual	-8.41463
▁talked	-8.41463
▁task	-8.41463
▁waste	-8.41463
▁weekend	-8.41463
▁afford	-8.43932
▁anywhere	-8.43932
▁attempt	-8.43932
▁beginning	-8.43932
▁content	-8.43932
▁creating	-8.43932
▁date	-8.43932
▁exhausted	-8.43932
▁falling	-8.43932
▁fully	-8.43932
▁goosebump	-8.43932
▁growing	-8.43932
▁main	-8.43932
▁none	-8.43932
▁noticed	-8.43932
▁relax	-8.43932
▁safe	-8.43932
▁shitty	-8.43932
▁skill	-8.43932
▁special	-8.43932
▁supplement	-8.43932
▁tend	-8.43932
▁ups	-8.43932
▁vent	-8.43932
▁walking	-8.43932
▁b	-8.46464
▁build	-8.46464
▁building	-8.46464
▁city	-8.46464
▁community	-8.46464
▁drinking	-8.46464
▁email	-8.46464
▁focused	-8.46464
▁gave	-8.46464
▁mention	-8.46464
▁relaxing	-8.46464
▁schedule	-8.46464
▁screen	-8.46464
▁seemed	-8.46464
▁semester	-8.46464
▁specific	-8.46464
▁system	-8.46464
▁tool	-8.46464
▁tv	-8.46464
▁water	-8.46464
▁wonder	-8.46464
▁ability	-8.49061
▁area	-8.49061
▁case	-8.49061
▁computer	-8.49061
▁coping	-8.49061
▁darkness	-8.49061
▁fit	-8.49061
▁ill	-8.49061
▁meaning	-8.49061
▁platform	-8.49061
▁skin	-8.49061
▁solution	-8.49061
▁suddenly	-8.49061
▁avoid	-8.51728
▁bc	-8.51728
▁beat	-8.51728
▁becoming	-8.51728
▁consider	-8.51728
▁damn	-8.51728
▁depressive	-8.51728
▁effort	-8.51728
▁failing	-8.51728
▁honest	-8.51728
▁nearly	-8.51728
▁number	-8.51728
▁quick	-8.51728
▁rate	-8.51728
▁relieve	-8.51728
▁sex	-8.51728
▁staying	-8.51728
▁topic	-8.51728
▁treat	-8.51728
▁uni	-8.51728
▁unless	-8.51728
▁waking	-8.51728
▁yeah	-8.51728
▁actual	-8.54468
▁affect	-8.54468
▁alcohol	-8.54468
▁although	-8.54468
▁antidepressant	-8.54468
▁bill	-8.54468
▁chronic	-8.54468
▁experiencing	-8.54468
▁faith	-8.54468
▁field	-8.54468
▁fucked	-8.54468
▁impossible	-8.54468
▁increase	-8.54468
▁insecurity	-8.54468
▁interest	-8.54468
▁laugh	-8.54468
▁manager	-8.54468
▁men	-8.54468
▁office	-8.54468
▁passed	-8.54468
▁quote	-8.54468
▁random	-8.54468
▁reaction	-8.54468
▁shift	-8.54468
▁shut	-8.54468
▁stomach	-8.54468
▁sun	-8.54468
▁text	-8.54468
▁totally	-8.54468
▁win	-8.54468
▁brings	-8.57285
▁card	-8.57285
▁clear	-8.57285
▁direction	-8.57285
▁feedback	-8.57285
▁fighting	-8.57285
▁five	-8.57285
▁hole	-8.57285
▁hopefully	-8.57285
▁leaving	-8.57285
▁lol	-8.57285
▁non	-8.57285
▁older	-8.57285
▁rush	-8.57285
▁seriously	-8.57285
▁struggled	-8.57285
▁tough	-8.57285
▁unable	-8.57285
▁worrying	-8.57285
▁apartment	-8.60184
▁except	-8.60184
▁gift	-8.60184
▁guilty	-8.60184
▁hurting	-8.60184
▁immediately	-8.60184
▁key	-8.60184
▁letting	-8.60184
▁obviously	-8.60184
▁paid	-8.60184
▁personality	-8.60184
▁pill	-8.60184
▁pretending	-8.60184
▁r	-8.60184
▁running	-8.60184
▁somewhere	-8.60184
▁training	-8.60184
▁voice	-8.60184
▁yoga	-8.60184
▁anyways	-8.63169
▁apple	-8.63169
▁changing	-8.63169
▁clean	-8.63169
▁com	-8.63169
▁common	-8.63169
▁develop	-8.63169
▁heal	-8.63169
▁helpful	-8.63169
▁husband	-8.63169
▁incredibly	-8.63169
▁joke	-8.63169
▁loss	-8.63169
▁medical	-8.63169
▁natural	-8.63169
▁partner	-8.63169
▁seeking	-8.63169
▁trouble	-8.63169
▁boundary	-8.66246
▁confidence	-8.66246
▁credit	-8.66246
▁door	-8.66246
▁doubt	-8.66246
▁earth	-8.66246
▁excited	-8.66246
▁exist	-8.66246
▁genuinely	-8.66246
▁greatly	-8.66246
▁guide	-8.66246
▁harm	-8.66246
▁lay	-8.66246
▁meditate	-8.66246
▁otherwise	-8.66246
▁piece	-8.66246
▁psychiatrist	-8.66246
▁regret	-8.66246
▁six	-8.66246
▁spotify	-8.66246
▁subject	-8.66246
▁tear	-8.66246
▁throughout	-8.66246
▁track	-8.66246
▁twice	-8.66246
▁value	-8.66246
▁beyond	-8.69421
▁bullshit	-8.69421
▁caught	-8.69421
▁concentrate	-8.69421
▁cried	-8.69421
▁driven	-8.69421
▁drop	-8.69421
▁existence	-8.69421
▁google	-8.69421
▁held	-8.69421
▁homework	-8.69421
▁insomnia	-8.69421
▁nightmare	-8.69421
▁offer	-8.69421
▁onto	-8.69421
▁painful	-8.69421
▁podcast	-8.69421
▁presence	-8.69421
▁quickly	-8.69421
▁role	-8.69421
▁seek	-8.69421
▁touch	-8.69421
▁toxic	-8.69421
▁uncomfortable	-8.69421
▁view	-8.69421
▁younger	-8.69421
▁air	-8.727
▁battle	-8.727
▁compassion	-8.727
▁concept	-8.727
▁connect	-8.727
▁difference	-8.727
▁dr	-8.727
▁dropped	-8.727
▁embrace	-8.727
▁escape	-8.727
▁exact	-8.727
▁financial	-8.727
▁forever	-8.727
▁frequency	-8.727
▁fresh	-8.727
▁ground	-8.727
▁higher	-8.727
▁holding	-8.727
▁inner	-8.727
▁liked	-8.727
▁looked	-8.727
▁mum	-8.727
▁position	-8.727
▁psychology	-8.727
▁reply	-8.727
▁scary	-8.727
▁sent	-8.727
▁stage	-8.727
▁syndrome	-8.727
▁travel	-8.727
▁trigger	-8.727
▁unhappy	-8.727
▁bathroom	-8.7609
▁blame	-8.7609
▁catch	-8.7609
▁closer	-8.7609
▁didnt	-8.7609
▁distress	-8.7609
▁divine	-8.7609
▁extra	-8.7609
▁fatigue	-8.7609
▁filled	-8.7609
▁leg	-8.7609
▁loneliness	-8.7609
▁married	-8.7609
▁meeting	-8.7609
▁middle	-8.7609
▁mindfulness	-8.7609
▁posting	-8.7609
▁quality	-8.7609
▁rant	-8.7609
▁routine	-8.7609
▁send	-8.7609
▁strategy	-8.7609
▁suggestion	-8.7609
▁summer	-8.7609
▁wall	-8.7609
▁wear	-8.7609
▁annoying	-8.79599
▁appointment	-8.79599
▁baby	-8.79599
▁badly	-8.79599
▁began	-8.79599
▁bos	-8.79599
▁created	-8.79599
▁creative	-8.79599
▁decide	-8.79599
▁deeper	-8.79599
▁dumb	-8.79599
▁edge	-8.79599
▁education	-8.79599
▁ending	-8.79599
▁environment	-8.79599
▁factor	-8.79599
▁hated	-8.79599
▁hopeless	-8.79599
▁join	-8.79599
▁law	-8.79599
▁luck	-8.79599
▁male	-8.79599
▁math	-8.79599
▁naturally	-8.79599
▁offering	-8.79599
▁possibly	-8.79599
▁rent	-8.79599
▁road	-8.79599
▁selfish	-8.79599
▁sexual	-8.79599
▁sibling	-8.79599
▁trained	-8.79599
▁asleep	-8.83236
▁aspect	-8.83236
▁bought	-8.83236
▁brought	-8.83236
▁cared	-8.83236
▁confused	-8.83236
▁coronavirus	-8.83236
▁dating	-8.83236
▁earlier	-8.83236
▁effective	-8.83236
▁empathy	-8.83236
▁everytime	-8.83236
▁excuse	-8.83236
▁hug	-8.83236
▁imagine	-8.83236
▁internal	-8.83236
▁invited	-8.83236
▁motivated	-8.83236
▁normally	-8.83236
▁overwhelming	-8.83236
▁productive	-8.83236
▁pull	-8.83236
▁rich	-8.83236
▁rule	-8.83236
▁slow	-8.83236
▁speaking	-8.83236
▁teach	-8.83236
▁wont	-8.83236
▁worthless	-8.83236
▁york	-8.83236
▁accomplish	-8.8701
▁alot	-8.8701
▁attitude	-8.8701
▁available	-8.8701
▁bunch	-8.8701
▁cancer	-8.8701
▁certainly	-8.8701
▁coach	-8.8701
▁considering	-8.8701
▁facing	-8.8701
▁female	-8.8701
▁figured	-8.8701
▁foot	-8.8701
▁heavy	-8.8701
▁intention	-8.8701
▁material	-8.8701
▁mobile	-8.8701
▁ourself	-8.8701
▁page	-8.8701
▁participate	-8.8701
▁patience	-8.8701
▁popular	-8.8701
▁pushed	-8.8701
▁realised	-8.8701
▁resource	-8.8701
▁respect	-8.8701
▁responsibility	-8.8701
▁science	-8.8701
▁screaming	-8.8701
▁series	-8.8701
▁smart	-8.8701
▁smoking	-8.8701
▁store	-8.8701
▁suffered	-8.8701
▁ugly	-8.8701
▁animal	-8.90932
▁applied	-8.90932
▁arm	-8.90932
▁basic	-8.90932
▁biggest	-8.90932
▁bother	-8.90932
▁bottom	-8.90932
▁center	-8.90932
▁christmas	-8.90932
▁cool	-8.90932
▁dealt	-8.90932
▁development	-8.90932
▁ease	-8.90932
▁explains	-8.90932
▁managed	-8.90932
▁note	-8.90932
▁opposite	-8.90932
▁picture	-8.90932
▁planet	-8.90932
▁pleasure	-8.90932
▁powerful	-8.90932
▁pre	-8.90932
▁professional	-8.90932
▁provide	-8.90932
▁public	-8.90932
▁raise	-8.90932
▁recent	-8.90932
▁regularly	-8.90932
▁respond	-8.90932
▁scare	-8.90932
▁separately	-8.90932
▁significant	-8.90932
▁stranger	-8.90932
▁team	-8.90932
▁title	-8.90932
▁train	-8.90932
▁various	-8.90932
▁agree	-8.95014
▁alternative	-8.95014
▁apply	-8.95014
▁click	-8.95014
▁client	-8.95014
▁clinician	-8.95014
▁coffee	-8.95014
▁columbia	-8.95014
▁courage	-8.95014
▁decade	-8.95014
▁disappointed	-8.95014
▁existing	-8.95014
▁film	-8.95014
▁frustrated	-8.95014
▁frustration	-8.95014
▁function	-8.95014
▁graduate	-8.95014
▁graduated	-8.95014
▁holiday	-8.95014
▁improvement	-8.95014
▁influence	-8.95014
▁latest	-8.95014
▁loud	-8.95014
▁novel	-8.95014
▁overthinking	-8.95014
▁particularly	-8.95014
▁passionate	-8.95014
▁principle	-8.95014
▁psychological	-8.95014
▁realise	-8.95014
▁rid	-8.95014
▁shoulder	-8.95014
▁slept	-8.95014
▁solve	-8.95014
▁specially	-8.95014
▁spending	-8.95014
▁spirit	-8.95014
▁tho	-8.95014
▁trash	-8.95014
▁unfortunately	-8.95014
▁worker	-8.95014
▁zone	-8.95014
▁allows	-8.9927
▁anti	-8.9927
▁chat	-8.9927
▁childhood	-8.9927
▁compare	-8.9927
▁debt	-8.9927
▁deeply	-8.9927
▁definitely	-8.9927
▁english	-8.9927
▁everybody	-8.9927
▁hang	-8.9927
▁identity	-8.9927
▁jump	-8.9927
▁killed	-8.9927
▁led	-8.9927
▁likely	-8.9927
▁master	-8.9927
▁nowhere	-8.9927
▁outcome	-8.9927
▁overall	-8.9927
▁properly	-8.9927
▁ptsd	-8.9927
▁realizing	-8.9927
▁refuse	-8.9927
▁shower	-8.9927
▁shown	-8.9927
▁somewhat	-8.9927
▁supportive	-8.9927
▁surface	-8.9927
▁throw	-8.9927
▁wasted	-8.9927
▁willing	-8.9927
▁abusive	-9.03716
▁accepted	-9.03716
▁acting	-9.03716
▁addiction	-9.03716
▁among	-9.03716
▁besides	-9.03716
▁blue	-9.03716
▁calling	-9.03716
▁commit	-9.03716
▁compared	-9.03716
▁compensated	-9.03716
▁connected	-9.03716
▁crap	-9.03716
▁cutting	-9.03716
▁defining	-9.03716
▁dollar	-9.03716
▁enjoying	-9.03716
▁everywhere	-9.03716
▁extreme	-9.03716
▁feature	-9.03716
▁history	-9.03716
▁imposter	-9.03716
▁lesson	-9.03716
▁load	-9.03716
▁loving	-9.03716
▁managing	-9.03716
▁missed	-9.03716
▁near	-9.03716
▁pick	-9.03716
▁prove	-9.03716
▁recognize	-9.03716
▁released	-9.03716
▁repeat	-9.03716
▁season	-9.03716
▁service	-9.03716
▁sky	-9.03716
▁sober	-9.03716
▁terrified	-9.03716
▁till	-9.03716
▁useful	-9.03716
▁valid	-9.03716
▁wealth	-9.03716
▁achieving	-9.08368
▁affection	-9.08368
▁application	-9.08368
▁argument	-9.08368
▁calming	-9.08368
▁checked	-9.08368
▁cover	-9.08368
▁customer	-9.08368
▁define	-9.08368
▁discus	-9.08368
▁disease	-9.08368
▁ego	-9.08368
▁embracing	-9.08368
▁evening	-9.08368
▁finished	-9.08368
▁folk	-9.08368
▁gf	-9.08368
▁hide	-9.08368
▁hitting	-9.08368
▁innovative	-9.08368
▁judgement	-9.08368
▁lockdown	-9.08368
▁lying	-9.08368
▁march	-9.08368
▁meal	-9.08368
▁medicine	-9.08368
▁monster	-9.08368
▁nervous	-9.08368
▁news	-9.08368
▁pathetic	-9.08368
▁prior	-9.08368
▁product	-9.08368
▁relaxation	-9.08368
▁root	-9.08368
▁sensation	-9.08368
▁shared	-9.08368
▁showing	-9.08368
▁song	-9.08368
▁stick	-9.08368
▁telehealth	-9.08368
▁thousand	-9.08368
▁thus	-9.08368
▁trans	-9.08368
▁trick	-9.08368
▁unique	-9.08368
▁utilize	-9.08368
▁wellbeing	-9.08368
▁yorkers	-9.08368
▁accepting	-9.13247
▁accident	-9.13247
▁advance	-9.13247
▁aside	-9.13247
▁attractive	-9.13247
▁author	-9.13247
▁average	-9.13247
▁blessing	-9.13247
▁blog	-9.13247
▁bright	-9.13247
▁considered	-9.13247
▁disappointment	-9.13247
▁discover	-9.13247
▁e	-9.13247
▁edit	-9.13247
▁esteem	-9.13247
▁fake	-9.13247
▁fell	-9.13247
▁fire	-9.13247
▁forgot	-9.13247
▁frequently	-9.13247
▁generally	-9.13247
▁gmail	-9.13247
▁income	-9.13247
▁involved	-9.13247
▁isolation	-9.13247
▁loan	-9.13247
▁lucky	-9.13247
▁mask	-9.13247
▁mechanism	-9.13247
▁minor	-9.13247
▁painting	-9.13247
▁passing	-9.13247
▁perform	-9.13247
▁pm	-9.13247
▁previous	-9.13247
▁professor	-9.13247
▁psychologist	-9.13247
▁rare	-9.13247
▁reached	-9.13247
▁ride	-9.13247
▁saving	-9.13247
▁secret	-9.13247
▁shake	-9.13247
▁shape	-9.13247
▁smoke	-9.13247
▁stable	-9.13247
▁stressor	-9.13247
▁succeed	-9.13247
▁table	-9.13247
▁teaching	-9.13247
▁tl	-9.13247
▁tonight	-9.13247
▁ultimately	-9.13247
▁venting	-9.13247
▁war	-9.13247
▁absolute	-9.18376
▁abundance	-9.18376
▁apparently	-9.18376
▁attraction	-9.18376
▁background	-9.18376
▁bf	-9.18376
▁celebrate	-9.18376
▁channel	-9.18376
▁chemical	-9.18376
▁closed	-9.18376
▁conclusion	-9.18376
▁connection	-9.18376
▁convince	-9.18376
▁crisis	-9.18376
▁daughter	-9.18376
▁depressing	-9.18376
▁express	-9.18376
▁fog	-9.18376
▁friendship	-9.18376
▁funny	-9.18376
▁grandma	-9.18376
▁greatest	-9.18376
▁gym	-9.18376
▁happinessnow	-9.18376
▁hardly	-9.18376
▁judge	-9.18376
▁judging	-9.18376
▁kindness	-9.18376
▁min	-9.18376
▁misery	-9.18376
▁monday	-9.18376
▁noise	-9.18376
▁paper	-9.18376
▁participation	-9.18376
▁party	-9.18376
▁per	-9.18376
▁perhaps	-9.18376
▁planning	-9.18376
▁plus	-9.18376
▁pretend	-9.18376
▁private	-9.18376
▁regular	-9.18376
▁rise	-9.18376
▁rising	-9.18376
▁ruined	-9.18376
▁save	-9.18376
▁site	-9.18376
▁snap	-9.18376
▁sport	-9.18376
▁subconscious	-9.18376
▁taught	-9.18376
▁teeth	-9.18376
▁third	-9.18376
▁ton	-9.18376
▁treated	-9.18376
▁turning	-9.18376
▁uk	-9.18376
▁vacation	-9.18376
▁vision	-9.18376
▁vulnerable	-9.18376
▁abused	-9.23783
▁access	-9.23783
▁acknowledge	-9.23783
▁anytime	-9.23783
▁atleast	-9.23783
▁boring	-9.23783
▁cat	-9.23783
▁consequence	-9.23783
▁countless	-9.23783
▁curious	-9.23783
▁december	-9.23783
▁diary	-9.23783
▁distance	-9.23783
▁doesnt	-9.23783
▁drawing	-9.23783
▁exhausting	-9.23783
▁famous	-9.23783
▁favorite	-9.23783
▁financially	-9.23783
▁floor	-9.23783
▁followed	-9.23783
▁graduating	-9.23783
▁highschool	-9.23783
▁ignore	-9.23783
▁industry	-9.23783
▁insane	-9.23783
▁local	-9.23783
▁lovely	-9.23783
▁maintain	-9.23783
▁messed	-9.23783
▁mid	-9.23783
▁mindful	-9.23783
▁motivate	-9.23783
▁mri	-9.23783
▁nerve	-9.23783
▁ocd	-9.23783
▁particular	-9.23783
▁payment	-9.23783
▁pet	-9.23783
▁political	-9.23783
▁pop	-9.23783
▁posted	-9.23783
▁pursue	-9.23783
▁quiet	-9.23783
▁regarding	-9.23783
▁return	-9.23783
▁risk	-9.23783
▁soothing	-9.23783
▁specifically	-9.23783
▁spoken	-9.23783
▁stutter	-9.23783
▁talent	-9.23783
▁teenager	-9.23783
▁trip	-9.23783
▁wonderful	-9.23783
▁zoom	-9.23783
▁acceptance	-9.29498
▁adhd	-9.29498
▁alice	-9.29498
▁allowing	-9.29498
▁annoyed	-9.29498
▁bank	-9.29498
▁block	-9.29498
▁blocked	-9.29498
▁bringing	-9.29498
▁burnt	-9.29498
▁capable	-9.29498
▁caring	-9.29498
▁challenging	-9.29498
▁character	-9.29498
▁chose	-9.29498
▁clothes	-9.29498
▁clue	-9.29498
▁completed	-9.29498
▁concerned	-9.29498
▁conditioned	-9.29498
▁connecting	-9.29498
▁conscious	-9.29498
▁contribute	-9.29498
▁decent	-9.29498
▁diet	-9.29498
▁directly	-9.29498
▁disappear	-9.29498
▁draw	-9.29498
▁drunk	-9.29498
▁expected	-9.29498
▁gotta	-9.29498
▁guilt	-9.29498
▁healthier	-9.29498
▁hormone	-9.29498
▁include	-9.29498
▁instagram	-9.29498
▁intense	-9.29498
▁invite	-9.29498
▁large	-9.29498
▁leaf	-9.29498
▁limit	-9.29498
▁mainly	-9.29498
▁muscle	-9.29498
▁neither	-9.29498
▁perception	-9.29498
▁performance	-9.29498
▁personally	-9.29498
▁plant	-9.29498
▁plenty	-9.29498
▁porn	-9.29498
▁produce	-9.29498
▁promotion	-9.29498
▁quarantine	-9.29498
▁quitting	-9.29498
▁react	-9.29498
▁retail	-9.29498
▁roommate	-9.29498
▁roosh	-9.29498
▁sensitive	-9.29498
▁sentence	-9.29498
▁stopping	-9.29498
▁subreddit	-9.29498
▁sudden	-9.29498
▁surrounded	-9.29498
▁tea	-9.29498
▁tendency	-9.29498
▁understood	-9.29498
▁unhealthy	-9.29498
▁warm	-9.29498
▁weed	-9.29498
▁white	-9.29498
▁yelling	-9.29498
▁zero	-9.29498
▁achieved	-9.35561
▁achievement	-9.35561
▁added	-9.35561
▁addition	-9.35561
▁affected	-9.35561
▁approach	-9.35561
▁artist	-9.35561
▁becomes	-9.35561
▁behaviour	-9.35561
▁bottle	-9.35561
▁brand	-9.35561
▁built	-9.35561
▁chi	-9.35561
▁chore	-9.35561
▁clearly	-9.35561
▁co	-9.35561
▁convinced	-9.35561
▁data	-9.35561
▁deadline	-9.35561
▁desperately	-9.35561
▁developed	-9.35561
▁differently	-9.35561
▁explaining	-9.35561
▁external	-9.35561
▁freaking	-9.35561
▁gas	-9.35561
▁gender	-9.35561
▁gentle	-9.35561
▁grown	-9.35561
▁homeless	-9.35561
▁hot	-9.35561
▁improved	-9.35561
▁instant	-9.35561
▁january	-9.35561
▁laying	-9.35561
▁license	-9.35561
▁lift	-9.35561
▁majority	-9.35561
▁mg	-9.35561
▁mode	-9.35561
▁negativity	-9.35561
▁pattern	-9.35561
▁piano	-9.35561
▁police	-9.35561
▁practicing	-9.35561
▁pray	-9.35561
▁prevent	-9.35561
▁radical	-9.35561
▁realization	-9.35561
▁relaxed	-9.35561
▁rude	-9.35561
▁saved	-9.35561
▁score	-9.35561
▁scream	-9.35561
▁smiling	-9.35561
▁spare	-9.35561
▁stronger	-9.35561
▁sunshine	-9.35561
▁supported	-9.35561
▁town	-9.35561
▁vitamin	-9.35561
▁website	-9.35561
▁wisdom	-9.35561
▁withdrawal	-9.35561
▁wow	-9.35561
▁wrote	-9.35561
▁admit	-9.42015
▁affecting	-9.42015
▁affirmation	-9.42015
▁ahead	-9.42015
▁album	-9.42015
▁alright	-9.42015
▁anonymous	-9.42015
▁appetite	-9.42015
▁april	-9.42015
▁authentic	-9.42015
▁bear	-9.42015
▁claim	-9.42015
▁club	-9.42015
▁context	-9.42015
▁count	-9.42015
▁cup	-9.42015
▁cure	-9.42015
▁damage	-9.42015
▁distant	-9.42015
▁employee	-9.42015
▁essay	-9.42015
▁guidance	-9.42015
▁gun	-9.42015
▁hardship	-9.42015
▁hearing	-9.42015
▁helpless	-9.42015
▁improving	-9.42015
▁isnt	-9.42015
▁journaling	-9.42015
▁kick	-9.42015
▁lasted	-9.42015
▁leading	-9.42015
▁lo	-9.42015
▁mentioned	-9.42015
▁michael	-9.42015
▁neglect	-9.42015
▁nowadays	-9.42015
▁p	-9.42015
▁pissed	-9.42015
▁plate	-9.42015
▁played	-9.42015
▁pleasing	-9.42015
▁prepared	-9.42015
▁reaching	-9.42015
▁recommend	-9.42015
▁review	-9.42015
▁rn	-9.42015
▁rock	-9.42015
▁senior	-9.42015
▁severely	-9.42015
▁shame	-9.42015
▁somebody	-9.42015
▁sometime	-9.42015
▁speed	-9.42015
▁spoke	-9.42015
▁spot	-9.42015
▁spring	-9.42015
▁sweet	-9.42015
▁ten	-9.42015
▁touched	-9.42015
▁tunnel	-9.42015
▁upon	-9.42015
▁urge	-9.42015
▁usual	-9.42015
▁ward	-9.42015
▁weakness	-9.42015
▁wind	-9.42015
▁winner	-9.42015
▁yell	-9.42015
▁youth	-9.42015
▁accomplished	-9.48914
▁alarm	-9.48914
▁attached	-9.48914
▁believed	-9.48914
▁beloved	-9.48914
▁bigger	-9.48914
▁black	-9.48914
▁calendar	-9.48914
▁chaos	-9.48914
▁cognitive	-9.48914
▁combination	-9.48914
▁commitment	-9.48914
▁complain	-9.48914
▁complex	-9.48914
▁confident	-9.48914
▁consume	-9.48914
▁core	-9.48914
▁craft	-9.48914
▁critical	-9.48914
▁cuz	-9.48914
▁desperate	-9.48914
▁diagnosis	-9.48914
▁dick	-9.48914
▁dinner	-9.48914
▁distract	-9.48914
▁drag	-9.48914
▁dramatic	-9.48914
▁ear	-9.48914
▁ecstasy	-9.48914
▁emptiness	-9.48914
▁entirely	-9.48914
▁essentially	-9.48914
▁everyones	-9.48914
▁extended	-9.48914
▁f	-9.48914
▁fat	-9.48914
▁forth	-9.48914
▁fortunate	-9.48914
▁gained	-9.48914
▁happiest	-9.48914
▁highly	-9.48914
▁hung	-9.48914
▁impacted	-9.48914
▁increased	-9.48914
▁independent	-9.48914
▁insurance	-9.48914
▁jesus	-9.48914
▁jumping	-9.48914
▁laughing	-9.48914
▁letter	-9.48914
▁lifestyle	-9.48914
▁meditating	-9.48914
▁necessary	-9.48914
▁overwhelm	-9.48914
▁peaceful	-9.48914
▁planned	-9.48914
▁possibility	-9.48914
▁received	-9.48914
▁reflect	-9.48914
▁request	-9.48914
▁resilience	-9.48914
▁restriction	-9.48914
▁roof	-9.48914
▁rough	-9.48914
▁ruin	-9.48914
▁searching	-9.48914
▁slip	-9.48914
▁socially	-9.48914
▁street	-9.48914
▁sub	-9.48914
▁swear	-9.48914
▁tbh	-9.48914
▁tested	-9.48914
▁tiny	-9.48914
▁trapped	-9.48914
▁trial	-9.48914
▁triggered	-9.48914
▁violent	-9.48914
▁vulnerability	-9.48914
▁walked	-9.48914
▁wasting	-9.48914
▁wise	-9.48914
▁ache	-9.56325
▁addict	-9.56325
▁advantage	-9.56325
▁afterwards	-9.56325
▁asshole	-9.56325
▁aura	-9.56325
▁autism	-9.56325
▁bipolar	-9.56325
▁blind	-9.56325
▁bothered	-9.56325
▁bothering	-9.56325
▁boy	-9.56325
▁c	-9.56325
▁capacity	-9.56325
▁cleaning	-9.56325
▁complaining	-9.56325
▁consistent	-9.56325
▁continues	-9.56325
▁criticism	-9.56325
▁culture	-9.56325
▁dedication	-9.56325
▁describe	-9.56325
▁developing	-9.56325
▁distraction	-9.56325
▁dm	-9.56325
▁driver	-9.56325
▁endless	-9.56325
▁euphoria	-9.56325
▁facebook	-9.56325
▁fi	-9.56325
▁finance	-9.56325
▁fired	-9.56325
▁fkn	-9.56325
▁flip	-9.56325
▁flow	-9.56325
▁fold	-9.56325
▁functioning	-9.56325
▁gathering	-9.56325
▁gpa	-9.56325
▁grew	-9.56325
▁guided	-9.56325
▁hardest	-9.56325
▁identify	-9.56325
▁ielts	-9.56325
▁ignored	-9.56325
▁induced	-9.56325
▁injury	-9.56325
▁john	-9.56325
▁joined	-9.56325
▁judged	-9.56325
▁language	-9.56325
▁linear	-9.56325
▁map	-9.56325
▁mild	-9.56325
▁mile	-9.56325
▁minimum	-9.56325
▁mirror	-9.56325
▁mouth	-9.56325
▁nurse	-9.56325
▁ocean	-9.56325
▁paranoid	-9.56325
▁pause	-9.56325
▁perfectly	-9.56325
▁phase	-9.56325
▁potential	-9.56325
▁pure	-9.56325
▁raised	-9.56325
▁record	-9.56325
▁recovered	-9.56325
▁remove	-9.56325
▁reward	-9.56325
▁section	-9.56325
▁setting	-9.56325
▁shot	-9.56325
▁smell	-9.56325
▁solely	-9.56325
▁spark	-9.56325
▁stayed	-9.56325
▁streaming	-9.56325
▁surely	-9.56325
▁swept	-9.56325
▁taste	-9.56325
▁toll	-9.56325
▁total	-9.56325
▁tracking	-9.56325
▁twitch	-9.56325
▁unbearable	-9.56325
▁understands	-9.56325
▁ungrateful	-9.56325
▁unit	-9.56325
▁voluntary	-9.56325
▁wearing	-9.56325
▁winning	-9.56325
▁worthy	-9.56325
▁wound	-9.56325
▁abby	-9.64329
▁accountability	-9.64329
▁apologize	-9.64329
▁appear	-9.64329
▁assumption	-9.64329
▁awake	-9.64329
▁awhile	-9.64329
▁beauty	-9.64329
▁behavior	-9.64329
▁bitch	-9.64329
▁boost	-9.64329
▁bored	-9.64329
▁burning	-9.64329
▁buying	-9.64329
▁charge	-9.64329
▁cheap	-9.64329
▁clock	-9.64329
▁cloud	-9.64329
▁communicate	-9.64329
▁creation	-9.64329
▁creator	-9.64329
▁crowd	-9.64329
▁demon	-9.64329
▁destination	-9.64329
▁difficulty	-9.64329
▁dirty	-9.64329
▁discovered	-9.64329
▁disgusting	-9.64329
▁drama	-9.64329
▁drowning	-9.64329
▁effectively	-9.64329
▁encouraged	-9.64329
▁entrepreneur	-9.64329
▁exercising	-9.64329
▁explode	-9.64329
▁expressing	-9.64329
▁faster	-9.64329
▁fixed	-9.64329
▁freedom	-9.64329
▁fundraiser	-9.64329
▁gate	-9.64329
▁graduation	-9.64329
▁grief	-9.64329
▁hanging	-9.64329
▁helper	-9.64329
▁highest	-9.64329
▁ideal	-9.64329
▁idiot	-9.64329
▁infinite	-9.64329
▁info	-9.64329
▁initially	-9.64329
▁insight	-9.64329
▁inspiration	-9.64329
▁inspiring	-9.64329
▁interaction	-9.64329
▁intervention	-9.64329
▁isolated	-9.64329
▁jealous	-9.64329
▁jeremy	-9.64329
▁journal	-9.64329
▁launched	-9.64329
▁magic	-9.64329
▁mana	-9.64329
▁market	-9.64329
▁marriage	-9.64329
▁melody	-9.64329
▁mix	-9.64329
▁necessarily	-9.64329
▁negatively	-9.64329
▁neurologist	-9.64329
▁noticing	-9.64329
▁observe	-9.64329
▁obvious	-9.64329
▁occasionally	-9.64329
▁patient	-9.64329
▁photo	-9.64329
▁pillar	-9.64329
▁prana	-9.64329
▁prescription	-9.64329
▁psych	-9.64329
▁receiving	-9.64329
▁recipe	-9.64329
▁recovering	-9.64329
▁remind	-9.64329
▁reminded	-9.64329
▁require	-9.64329
▁resolve	-9.64329
▁sale	-9.64329
▁shining	-9.64329
▁silence	-9.64329
▁smarter	-9.64329
▁snapped	-9.64329
▁standard	-9.64329
▁storm	-9.64329
▁suggest	-9.64329
▁supervisor	-9.64329
▁survive	-9.64329
▁thankful	-9.64329
▁throwing	-9.64329
▁tight	-9.64329
▁tiring	-9.64329
▁tldr	-9.64329
▁toward	-9.64329
▁underneath	-9.64329
▁unexpected	-9.64329
▁vice	-9.64329
▁victory	-9.64329
▁virtual	-9.64329
▁welcome	-9.64329
▁wheel	-9.64329
▁whilst	-9.64329
▁window	-9.64329
▁woke	-9.64329
▁workload	-9.64329
▁workout	-9.64329
▁xanax	-9.64329
▁accomplishment	-9.7303
▁accountable	-9.7303
▁active	-9.7303
▁ambitious	-9.7303
▁applying	-9.7303
▁approval	-9.7303
▁apps	-9.7303
▁argue	-9.7303
▁ashamed	-9.7303
▁awesome	-9.7303
▁ball	-9.7303
▁band	-9.7303
▁basis	-9.7303
▁bridge	-9.7303
▁burn	-9.7303
▁burned	-9.7303
▁bus	-9.7303
▁carry	-9.7303
▁cell	-9.7303
▁chase	-9.7303
▁chasing	-9.7303
▁chosen	-9.7303
▁clarity	-9.7303
▁climbing	-9.7303
▁concentration	-9.7303
▁concern	-9.7303
▁continuing	-9.7303
▁counseling	-9.7303
▁counselor	-9.7303
▁court	-9.7303
▁damaged	-9.7303
▁dear	-9.7303
▁department	-9.7303
▁deserves	-9.7303
▁designed	-9.7303
▁despair	-9.7303
▁dig	-9.7303
▁discord	-9.7303
▁discussion	-9.7303
▁dorm	-9.7303
▁ethic	-9.7303
▁evil	-9.7303
▁excitement	-9.7303
▁extent	-9.7303
▁fairly	-9.7303
▁fallen	-9.7303
▁false	-9.7303
▁finger	-9.7303
▁forgive	-9.7303
▁forgotten	-9.7303
▁gay	-9.7303
▁government	-9.7303
▁grab	-9.7303
▁green	-9.7303
▁gross	-9.7303
▁hiding	-9.7303
▁humanity	-9.7303
▁ignoring	-9.7303
▁immune	-9.7303
▁india	-9.7303
▁inevitable	-9.7303
▁insanely	-9.7303
▁inspire	-9.7303
▁instantly	-9.7303
▁intrusive	-9.7303
▁irl	-9.7303
▁laptop	-9.7303
▁longevity	-9.7303
▁loop	-9.7303
▁mark	-9.7303
▁meaningful	-9.7303
▁nephesch	-9.7303
▁obstacle	-9.7303
▁october	-9.7303
▁optimistic	-9.7303
▁organization	-9.7303
▁organized	-9.7303
▁paint	-9.7303
▁paul	-9.7303
▁permission	-9.7303
▁pile	-9.7303
▁playlist	-9.7303
▁price	-9.7303
▁proper	-9.7303
▁qi	-9.7303
▁race	-9.7303
▁radio	-9.7303
▁rapture	-9.7303
▁rarely	-9.7303
▁realistically	-9.7303
▁recover	-9.7303
▁remembering	-9.7303
▁returning	-9.7303
▁ruah	-9.7303
▁scale	-9.7303
▁scenario	-9.7303
▁screamed	-9.7303
▁search	-9.7303
▁selling	-9.7303
▁silent	-9.7303
▁stepped	-9.7303
▁stroke	-9.7303
▁subconsciously	-9.7303
▁sucking	-9.7303
▁suggested	-9.7303
▁sunny	-9.7303
▁surprise	-9.7303
▁teenage	-9.7303
▁temporary	-9.7303
▁thankfully	-9.7303
▁traumatic	-9.7303
▁typically	-9.7303
▁via	-9.7303
▁vibe	-9.7303
▁whose	-9.7303
▁winter	-9.7303
▁wishing	-9.7303
▁writer	-9.7303
▁actively	-9.82561
▁adding	-9.82561
▁agreed	-9.82561
▁ambition	-9.82561
▁anhedonia	-9.82561
▁answered	-9.82561
▁answering	-9.82561
▁appearance	-9.82561
▁approved	-9.82561
▁asks	-9.82561
▁associate	-9.82561
▁assume	-9.82561
▁attend	-9.82561
▁aunt	-9.82561
▁bag	-9.82561
▁bald	-9.82561
▁beating	-9.82561
▁begun	-9.82561
▁birth	-9.82561
▁bite	-9.82561
▁bloom	-9.82561
▁burst	-9.82561
▁challenged	-9.82561
▁chapter	-9.82561
▁charity	-9.82561
▁church	-9.82561
▁cicely	-9.82561
▁clinic	-9.82561
▁coaching	-9.82561
▁colleague	-9.82561
▁communication	-9.82561
▁competition	-9.82561
▁complicated	-9.82561
▁consciously	-9.82561
▁consistently	-9.82561
▁controlled	-9.82561
▁cook	-9.82561
▁counting	-9.82561
▁coward	-9.82561
▁coworker	-9.82561
▁crush	-9.82561
▁dance	-9.82561
▁dedicate	-9.82561
▁depressant	-9.82561
▁determine	-9.82561
▁devastating	-9.82561
▁distracted	-9.82561
▁draining	-9.82561
▁dread	-9.82561
▁dry	-9.82561
▁earning	-9.82561
▁educational	-9.82561
▁eliminate	-9.82561
▁enemy	-9.82561
▁energetic	-9.82561
▁engage	-9.82561
▁essential	-9.82561
▁evidence	-9.82561
▁excellent	-9.82561
▁excess	-9.82561
▁expecting	-9.82561
▁expert	-9.82561
▁explore	-9.82561
▁exploring	-9.82561
▁faced	-9.82561
▁feed	-9.82561
▁flash	-9.82561
▁flat	-9.82561
▁freely	-9.82561
▁frustrating	-9.82561
▁fulfilling	-9.82561
▁fund	-9.82561
▁gain	-9.82561
▁garbage	-9.82561
▁goodbye	-9.82561
▁grandmother	-9.82561
▁haha	-9.82561
▁havent	-9.82561
▁healthcare	-9.82561
▁hill	-9.82561
▁hoped	-9.82561
▁hungry	-9.82561
▁illusion	-9.82561
▁imagining	-9.82561
▁importance	-9.82561
▁insecure	-9.82561
▁instance	-9.82561
▁interact	-9.82561
▁internship	-9.82561
▁jaw	-9.82561
▁kicked	-9.82561
▁knocked	-9.82561
▁l	-9.82561
▁lasting	-9.82561
▁lexapro	-9.82561
▁limited	-9.82561
▁limiting	-9.82561
▁lowest	-9.82561
▁lung	-9.82561
▁lyme	-9.82561
▁mailto	-9.82561
▁maintaining	-9.82561
▁massive	-9.82561
▁mentor	-9.82561
▁migraine	-9.82561
▁minded	-9.82561
▁named	-9.82561
▁narcissistic	-9.82561
▁neck	-9.82561
▁nervousness	-9.82561
▁november	-9.82561
▁numerous	-9.82561
▁ob	-9.82561
▁odd	-9.82561
▁offered	-9.82561
▁opening	-9.82561
▁opposed	-9.82561
▁optimism	-9.82561
▁originally	-9.82561
▁pass	-9.82561
▁philosophy	-9.82561
▁picked	-9.82561
▁pointless	-9.82561
▁potentially	-9.82561
▁ppl	-9.82561
▁prepare	-9.82561
▁prescribed	-9.82561
▁probability	-9.82561
▁productivity	-9.82561
▁progression	-9.82561
▁psyche	-9.82561
▁punch	-9.82561
▁punishment	-9.82561
▁questioning	-9.82561
▁rambling	-9.82561
▁ran	-9.82561
▁range	-9.82561
▁recognizing	-9.82561
▁regardless	-9.82561
▁reminds	-9.82561
▁restaurant	-9.82561
▁rushing	-9.82561
▁sat	-9.82561
▁satisfaction	-9.82561
▁scientist	-9.82561
▁screw	-9.82561
▁security	-9.82561
▁shine	-9.82561
▁silly	-9.82561
▁slightly	-9.82561
▁snow	-9.82561
▁south	-9.82561
▁specialist	-9.82561
▁spiral	-9.82561
▁split	-9.82561
▁sri	-9.82561
▁statement	-9.82561
▁strange	-9.82561
▁strongly	-9.82561
▁surrounding	-9.82561
▁switch	-9.82561
▁tends	-9.82561
▁thrive	-9.82561
▁trait	-9.82561
▁tutor	-9.82561
▁tw	-9.82561
▁typing	-9.82561
▁ugh	-9.82561
▁unemployed	-9.82561
▁unlearning	-9.82561
▁user	-9.82561
▁v	-9.82561
▁version	-9.82561
▁warning	-9.82561
▁weather	-9.82561
▁wedding	-9.82561
▁x	-9.82561
▁abrupt	-9.93097
▁adopt	-9.93097
▁adrenaline	-9.93097
▁adulthood	-9.93097
▁alleviate	-9.93097
▁ate	-9.93097
▁attempted	-9.93097
▁august	-9.93097
▁australia	-9.93097
▁autopilot	-9.93097
▁award	-9.93097
▁bedroom	-9.93097
▁beg	-9.93097
▁begged	-9.93097
▁belong	-9.93097
▁bhagavan	-9.93097
▁bi	-9.93097
▁bike	-9.93097
▁bird	-9.93097
▁bitter	-9.93097
▁blaming	-9.93097
▁brighter	-9.93097
▁bucket	-9.93097
▁bullied	-9.93097
▁bullying	-9.93097
▁burnout	-9.93097
▁cage	-9.93097
▁cake	-9.93097
▁catastrophic	-9.93097
▁centre	-9.93097
▁characteristic	-9.93097
▁cheating	-9.93097
▁checking	-9.93097
▁clinical	-9.93097
▁confide	-9.93097
▁confusion	-9.93097
▁consideration	-9.93097
▁consuming	-9.93097
▁corner	-9.93097
▁corona	-9.93097
▁correct	-9.93097
▁creativity	-9.93097
▁crippling	-9.93097
▁cross	-9.93097
▁crushing	-9.93097
▁davis	-9.93097
▁design	-9.93097
▁destroyed	-9.93097
▁destructive	-9.93097
▁double	-9.93097
▁drained	-9.93097
▁dude	-9.93097
▁dull	-9.93097
▁editing	-9.93097
▁embarrassed	-9.93097
▁engaged	-9.93097
▁enjoyed	-9.93097
▁enjoyment	-9.93097
▁entering	-9.93097
▁equal	-9.93097
▁ether	-9.93097
▁exhaustion	-9.93097
▁explanation	-9.93097
▁fair	-9.93097
▁filling	-9.93097
▁finishing	-9.93097
▁fleeting	-9.93097
▁forum	-9.93097
▁fragile	-9.93097
▁friendly	-9.93097
▁fulfillment	-9.93097
▁functional	-9.93097
▁gaming	-9.93097
▁greatness	-9.93097
▁hall	-9.93097
▁harming	-9.93097
▁hr	-9.93097
▁hundred	-9.93097
▁id	-9.93097
▁ideation	-9.93097
▁ignorance	-9.93097
▁ignorant	-9.93097
▁imagination	-9.93097
▁immediate	-9.93097
▁inflicted	-9.93097
▁ingredient	-9.93097
▁irritable	-9.93097
▁irritated	-9.93097
▁item	-9.93097
▁j	-9.93097
▁july	-9.93097
▁legit	-9.93097
▁lover	-9.93097
▁lower	-9.93097
▁manifest	-9.93097
▁marathon	-9.93097
▁marketing	-9.93097
▁mixed	-9.93097
▁movement	-9.93097
▁nauseous	-9.93097
▁neighbor	-9.93097
▁neutral	-9.93097
▁numbness	-9.93097
▁obsessive	-9.93097
▁occasion	-9.93097
▁opened	-9.93097
▁outlet	-9.93097
▁participating	-9.93097
▁pic	-9.93097
▁pit	-9.93097
▁pregnant	-9.93097
▁profile	-9.93097
▁projecting	-9.93097
▁provides	-9.93097
▁randomly	-9.93097
▁rash	-9.93097
▁realisation	-9.93097
▁reassure	-9.93097
▁recognise	-9.93097
▁recorded	-9.93097
▁recording	-9.93097
▁red	-9.93097
▁relearning	-9.93097
▁reliable	-9.93097
▁religion	-9.93097
▁replace	-9.93097
▁replied	-9.93097
▁report	-9.93097
▁resistance	-9.93097
▁restilen	-9.93097
▁resulting	-9.93097
▁ringing	-9.93097
▁river	-9.93097
▁rnb	-9.93097
▁rut	-9.93097
▁sacred	-9.93097
▁sake	-9.93097
▁scene	-9.93097
▁secure	-9.93097
▁sell	-9.93097
▁shaking	-9.93097
▁shorter	-9.93097
▁shy	-9.93097
▁significantly	-9.93097
▁solo	-9.93097
▁sooner	-9.93097
▁sore	-9.93097
▁speaker	-9.93097
▁spirituality	-9.93097
▁stare	-9.93097
▁staring	-9.93097
▁strict	-9.93097
▁structure	-9.93097
▁sunlight	-9.93097
▁surgery	-9.93097
▁sweat	-9.93097
▁therefore	-9.93097
▁timing	-9.93097
▁tongue	-9.93097
▁toy	-9.93097
▁transform	-9.93097
▁trap	-9.93097
▁truck	-9.93097
▁tutorial	-9.93097
▁ultimate	-9.93097
▁uncertainty	-9.93097
▁unmotivated	-9.93097
▁validation	-9.93097
▁vayu	-9.93097
▁victim	-9.93097
▁virus	-9.93097
▁wage	-9.93097
▁watched	-9.93097
▁web	-9.93097
▁written	-9.93097
▁yelled	-9.93097
▁academic	-10.0488
▁according	-10.0488
▁activate	-10.0488
▁aim	-10.0488
▁alcoholic	-10.0488
▁animation	-10.0488
▁arguing	-10.0488
▁arise	-10.0488
▁associated	-10.0488
▁assuming	-10.0488
▁autistic	-10.0488
▁avoiding	-10.0488
▁awkward	-10.0488
▁backwards	-10.0488
▁battling	-10.0488
▁blamed	-10.0488
▁blow	-10.0488
▁boat	-10.0488
▁box	-10.0488
▁bpd	-10.0488
▁breathwork	-10.0488
▁brink	-10.0488
▁btw	-10.0488
▁campus	-10.0488
▁canada	-10.0488
▁capital	-10.0488
▁cheated	-10.0488
▁color	-10.0488
▁commute	-10.0488
▁compassionate	-10.0488
▁competitive	-10.0488
▁completing	-10.0488
▁compound	-10.0488
▁conducting	-10.0488
▁confront	-10.0488
▁consistency	-10.0488
▁controlling	-10.0488
▁correctly	-10.0488
▁cortisol	-10.0488
▁coworkers	-10.0488
▁creates	-10.0488
▁cruel	-10.0488
▁cured	-10.0488
▁definition	-10.0488
▁delivered	-10.0488
▁denied	-10.0488
▁depend	-10.0488
▁described	-10.0488
▁detached	-10.0488
▁detailed	-10.0488
▁device	-10.0488
▁diploma	-10.0488
▁disabled	-10.0488
▁dose	-10.0488
▁drove	-10.0488
▁dysfunctional	-10.0488
▁encounter	-10.0488
▁engineering	-10.0488
▁entered	-10.0488
▁envy	-10.0488
▁evolving	-10.0488
▁exciting	-10.0488
▁executive	-10.0488
▁exhale	-10.0488
▁faking	-10.0488
▁fame	-10.0488
▁faridabad	-10.0488
▁favourite	-10.0488
▁firstly	-10.0488
▁follows	-10.0488
▁forcing	-10.0488
▁former	-10.0488
▁fought	-10.0488
▁foundation	-10.0488
▁friday	-10.0488
▁gaining	-10.0488
▁gap	-10.0488
▁goddamn	-10.0488
▁grad	-10.0488
▁grandpa	-10.0488
▁gravity	-10.0488
▁gut	-10.0488
▁hallucination	-10.0488
▁happily	-10.0488
▁harmed	-10.0488
▁harmful	-10.0488
▁headed	-10.0488
▁hence	-10.0488
▁hyper	-10.0488
▁imagined	-10.0488
▁incredible	-10.0488
▁instructor	-10.0488
▁involves	-10.0488
▁jolene	-10.0488
▁june	-10.0488
▁ketamine	-10.0488
▁knife	-10.0488
▁laid	-10.0488
▁landed	-10.0488
▁larger	-10.0488
▁lb	-10.0488
▁leader	-10.0488
▁league	-10.0488
▁lecture	-10.0488
▁linked	-10.0488
▁lisa	-10.0488
▁lock	-10.0488
▁locked	-10.0488
▁loose	-10.0488
▁luckily	-10.0488
▁lunch	-10.0488
▁machine	-10.0488
▁mantra	-10.0488
▁marine	-10.0488
▁mastery	-10.0488
▁minimal	-10.0488
▁model	-10.0488
▁modern	-10.0488
▁motorcycle	-10.0488
▁nausea	-10.0488
▁netflix	-10.0488
▁obsession	-10.0488
▁occasional	-10.0488
▁occurred	-10.0488
▁op	-10.0488
▁owner	-10.0488
▁oxygen	-10.0488
▁paranoia	-10.0488
▁peer	-10.0488
▁perseverance	-10.0488
▁physiological	-10.0488
▁picking	-10.0488
▁pocket	-10.0488
▁poisoned	-10.0488
▁practical	-10.0488
▁praying	-10.0488
▁pregnancy	-10.0488
▁previously	-10.0488
▁privately	-10.0488
▁promoted	-10.0488
▁providing	-10.0488
▁psychotic	-10.0488
▁pulling	-10.0488
▁purchase	-10.0488
▁rain	-10.0488
▁releasing	-10.0488
▁relieving	-10.0488
▁religious	-10.0488
▁remain	-10.0488
▁reminding	-10.0488
▁replaced	-10.0488
▁requirement	-10.0488
▁researcher	-10.0488
▁reset	-10.0488
▁ritual	-10.0488
▁rollercoaster	-10.0488
▁romantic	-10.0488
▁rope	-10.0488
▁row	-10.0488
▁sadly	-10.0488
▁safety	-10.0488
▁schoolwork	-10.0488
▁seasonal	-10.0488
▁semi	-10.0488
▁sending	-10.0488
▁sergio	-10.0488
▁seven	-10.0488
▁shall	-10.0488
▁sharp	-10.0488
▁shell	-10.0488
▁shop	-10.0488
▁shopping	-10.0488
▁showed	-10.0488
▁simultaneously	-10.0488
▁smallest	-10.0488
▁soft	-10.0488
▁solving	-10.0488
▁speech	-10.0488
▁spiraling	-10.0488
▁spread	-10.0488
▁studied	-10.0488
▁studio	-10.0488
▁stuttering	-10.0488
▁subscribe	-10.0488
▁succeeding	-10.0488
▁sucked	-10.0488
▁supporting	-10.0488
▁suspect	-10.0488
▁target	-10.0488
▁teen	-10.0488
▁thesis	-10.0488
▁thread	-10.0488
▁threatening	-10.0488
▁trainer	-10.0488
▁trajectory	-10.0488
▁twenty	-10.0488
▁unknown	-10.0488
▁unnecessary	-10.0488
▁vibration	-10.0488
▁vital	-10.0488
▁wendy	-10.0488
▁wide	-10.0488
▁willingly	-10.0488
▁wished	-10.0488
▁workplace	-10.0488
▁yr	-10.0488
▁abundant	-10.1823
▁accidentally	-10.1823
▁addicted	-10.1823
▁address	-10.1823
▁agony	-10.1823
▁arrive	-10.1823
▁asap	-10.1823
▁aspiration	-10.1823
▁assessment	-10.1823
▁attain	-10.1823
▁attempting	-10.1823
▁attending	-10.1823
▁attract	-10.1823
▁audio	-10.1823
▁automatically	-10.1823
▁bachelor	-10.1823
▁barrier	-10.1823
▁beginner	-10.1823
▁betty	-10.1823
▁bliss	-10.1823
▁blocking	-10.1823
▁bout	-10.1823
▁branch	-10.1823
▁bully	-10.1823
▁candle	-10.1823
▁careful	-10.1823
▁cbt	-10.1823
▁celebration	-10.1823
▁cheer	-10.1823
▁collection	-10.1823
▁committed	-10.1823
▁conflict	-10.1823
▁consciousness	-10.1823
▁contacting	-10.1823
▁contentment	-10.1823
▁cousin	-10.1823
▁cute	-10.1823
▁danger	-10.1823
▁dangerous	-10.1823
▁decides	-10.1823
▁deciding	-10.1823
▁decrease	-10.1823
▁deepest	-10.1823
▁deficiency	-10.1823
▁delay	-10.1823
▁derlin	-10.1823
▁determined	-10.1823
▁diego	-10.1823
▁digging	-10.1823
▁digital	-10.1823
▁director	-10.1823
▁disagree	-10.1823
▁download	-10.1823
▁drank	-10.1823
▁dress	-10.1823
▁drown	-10.1823
▁dunno	-10.1823
▁dysphoria	-10.1823
▁eaten	-10.1823
▁economic	-10.1823
▁ect	-10.1823
▁embarrassing	-10.1823
▁employment	-10.1823
▁enrolled	-10.1823
▁ensure	-10.1823
▁error	-10.1823
▁examining	-10.1823
▁expects	-10.1823
▁expensive	-10.1823
▁explained	-10.1823
▁exposed	-10.1823
▁fade	-10.1823
▁familiar	-10.1823
▁fantasize	-10.1823
▁fantastic	-10.1823
▁fellow	-10.1823
▁fitness	-10.1823
▁flight	-10.1823
▁flower	-10.1823
▁fool	-10.1823
▁forgetting	-10.1823
▁formula	-10.1823
▁freak	-10.1823
▁frequent	-10.1823
▁fuel	-10.1823
▁fulfilled	-10.1823
▁giant	-10.1823
▁glass	-10.1823
▁gp	-10.1823
▁grace	-10.1823
▁greener	-10.1823
▁grenade	-10.1823
▁grey	-10.1823
▁grieving	-10.1823
▁grind	-10.1823
▁grocery	-10.1823
▁grounded	-10.1823
▁guitar	-10.1823
▁h	-10.1823
▁hamster	-10.1823
▁hating	-10.1823
▁heck	-10.1823
▁hire	-10.1823
▁holy	-10.1823
▁hoo	-10.1823
▁horribly	-10.1823
▁hospitalized	-10.1823
▁hygiene	-10.1823
▁immense	-10.1823
▁impacting	-10.1823
▁impressed	-10.1823
▁intelligence	-10.1823
▁intensely	-10.1823
▁intent	-10.1823
▁introverted	-10.1823
▁invested	-10.1823
▁ironic	-10.1823
▁jennifer	-10.1823
▁junk	-10.1823
▁karma	-10.1823
▁kingdom	-10.1823
▁lash	-10.1823
▁learnt	-10.1823
▁lifetime	-10.1823
▁literal	-10.1823
▁location	-10.1823
▁logical	-10.1823
▁longest	-10.1823
▁loosing	-10.1823
▁magically	-10.1823
▁manageable	-10.1823
▁manic	-10.1823
▁massage	-10.1823
▁meantime	-10.1823
▁measurable	-10.1823
▁measure	-10.1823
▁messing	-10.1823
▁messy	-10.1823
▁mission	-10.1823
▁moral	-10.1823
▁motion	-10.1823
▁motivational	-10.1823
▁mountain	-10.1823
▁mud	-10.1823
▁national	-10.1823
▁neglected	-10.1823
▁nootropic	-10.1823
▁nutrition	-10.1823
▁objective	-10.1823
▁obsessing	-10.1823
▁oil	-10.1823
▁overcoming	-10.1823
▁panicking	-10.1823
▁patch	-10.1823
▁perfection	-10.1823
▁persistence	-10.1823
▁positivity	-10.1823
▁pound	-10.1823
▁pounding	-10.1823
▁practise	-10.1823
▁prayer	-10.1823
▁pretended	-10.1823
▁preventing	-10.1823
▁pro	-10.1823
▁processing	-10.1823
▁procrastination	-10.1823
▁property	-10.1823
▁protect	-10.1823
▁punished	-10.1823
▁pursuing	-10.1823
▁rajinder	-10.1823
▁raped	-10.1823
▁rapist	-10.1823
▁recommendation	-10.1823
▁recovery	-10.1823
▁reducing	-10.1823
▁regard	-10.1823
▁relative	-10.1823
▁relatively	-10.1823
▁relevant	-10.1823
▁rely	-10.1823
▁removed	-10.1823
▁repeatedly	-10.1823
▁repressed	-10.1823
▁researching	-10.1823
▁retired	-10.1823
▁route	-10.1823
▁scan	-10.1823
▁scenery	-10.1823
▁scratch	-10.1823
▁scrolling	-10.1823
▁september	-10.1823
▁sexuality	-10.1823
▁shes	-10.1823
▁shocked	-10.1823
▁shoot	-10.1823
▁shortly	-10.1823
▁signing	-10.1823
▁sin	-10.1823
▁slot	-10.1823
▁socialising	-10.1823
▁software	-10.1823
▁sold	-10.1823
▁solid	-10.1823
▁somethings	-10.1823
▁sophomore	-10.1823
▁sought	-10.1823
▁stated	-10.1823
▁status	-10.1823
▁stereotype	-10.1823
▁stillness	-10.1823
▁strain	-10.1823
▁style	-10.1823
▁suit	-10.1823
▁sunday	-10.1823
▁swallow	-10.1823
▁swarm	-10.1823
▁swimming	-10.1823
▁tearing	-10.1823
▁technology	-10.1823
▁terribly	-10.1823
▁theory	-10.1823
▁threat	-10.1823
▁threw	-10.1823
▁timeline	-10.1823
▁trade	-10.1823
▁troll	-10.1823
▁typical	-10.1823
▁uncle	-10.1823
▁unstable	-10.1823
▁unwanted	-10.1823
▁verbally	-10.1823
▁vibrating	-10.1823
▁visual	-10.1823
▁vocal	-10.1823
▁void	-10.1823
▁warmth	-10.1823
▁wasnt	-10.1823
▁weekly	-10.1823
▁wellness	-10.1823
▁whoever	-10.1823
▁wondered	-10.1823
▁wrist	-10.1823
▁yea	-10.1823
▁acid	-10.3364
▁acted	-10.3364
▁ad	-10.3364
▁adderall	-10.3364
▁afternoon	-10.3364
▁agency	-10.3364
▁aggressive	-10.3364
▁agreement	-10.3364
▁aligned	-10.3364
▁aligning	-10.3364
▁american	-10.3364
▁amsterdam	-10.3364
▁announced	-10.3364
▁apologise	-10.3364
▁apologized	-10.3364
▁arises	-10.3364
▁assault	-10.3364
▁attachment	-10.3364
▁attacked	-10.3364
▁avoided	-10.3364
▁backed	-10.3364
▁balanced	-10.3364
▁base	-10.3364
▁behavioral	-10.3364
▁believer	-10.3364
▁believing	-10.3364
▁bell	-10.3364
▁betrayal	-10.3364
▁betrayed	-10.3364
▁bleeding	-10.3364
▁bless	-10.3364
▁blockage	-10.3364
▁board	-10.3364
▁bone	-10.3364
▁breakfast	-10.3364
▁breakup	-10.3364
▁brushing	-10.3364
▁bug	-10.3364
▁bum	-10.3364
▁bump	-10.3364
▁caffeine	-10.3364
▁calmed	-10.3364
▁cancel	-10.3364
▁candy	-10.3364
▁capability	-10.3364
▁caretaker	-10.3364
▁carrying	-10.3364
▁catching	-10.3364
▁cbd	-10.3364
▁chair	-10.3364
▁cheat	-10.3364
▁cherish	-10.3364
▁chicken	-10.3364
▁circle	-10.3364
▁classmate	-10.3364
▁clip	-10.3364
▁clothing	-10.3364
▁committee	-10.3364
▁conditioning	-10.3364
▁construction	-10.3364
▁contribution	-10.3364
▁cooking	-10.3364
▁cop	-10.3364
▁copy	-10.3364
▁counter	-10.3364
▁covered	-10.3364
▁coz	-10.3364
▁crash	-10.3364
▁crashing	-10.3364
▁creep	-10.3364
▁crimsonpill	-10.3364
▁ct	-10.3364
▁cuddle	-10.3364
▁dalai	-10.3364
▁dare	-10.3364
▁dated	-10.3364
▁de	-10.3364
▁dedicated	-10.3364
▁delhi	-10.3364
▁demand	-10.3364
▁deny	-10.3364
▁depth	-10.3364
▁desired	-10.3364
▁desperation	-10.3364
▁destroying	-10.3364
▁determination	-10.3364
▁diabetes	-10.3364
▁diagnose	-10.3364
▁discussing	-10.3364
▁dish	-10.3364
▁dislike	-10.3364
▁dissatisfied	-10.3364
▁disturbing	-10.3364
▁divorced	-10.3364
▁dizziness	-10.3364
▁dizzy	-10.3364
▁dna	-10.3364
▁dopamine	-10.3364
▁downstairs	-10.3364
▁dozen	-10.3364
▁drift	-10.3364
▁easter	-10.3364
▁elementary	-10.3364
▁emergency	-10.3364
▁emits	-10.3364
▁employed	-10.3364
▁employer	-10.3364
▁endure	-10.3364
▁engaging	-10.3364
▁enhance	-10.3364
▁enjoyable	-10.3364
▁ent	-10.3364
▁entrepreneurship	-10.3364
▁er	-10.3364
▁esc	-10.3364
▁evolve	-10.3364
▁evolved	-10.3364
▁excessive	-10.3364
▁exchange	-10.3364
▁explores	-10.3364
▁expression	-10.3364
▁facet	-10.3364
▁fancy	-10.3364
▁fantasy	-10.3364
▁farther	-10.3364
▁fasting	-10.3364
▁favour	-10.3364
▁fearful	-10.3364
▁fewer	-10.3364
▁fiction	-10.3364
▁file	-10.3364
▁fixing	-10.3364
▁fly	-10.3364
▁forest	-10.3364
▁foster	-10.3364
▁fred	-10.3364
▁fruit	-10.3364
▁fulfill	-10.3364
▁fundamental	-10.3364
▁garden	-10.3364
▁gather	-10.3364
▁generation	-10.3364
▁germany	-10.3364
▁ghost	-10.3364
▁glad	-10.3364
▁global	-10.3364
▁golden	-10.3364
▁grasp	-10.3364
▁grows	-10.3364
▁gt	-10.3364
▁handling	-10.3364
▁hat	-10.3364
▁headspace	-10.3364
▁heat	-10.3364
▁hidden	-10.3364
▁hollow	-10.3364
▁hopeful	-10.3364
▁horizon	-10.3364
▁horny	-10.3364
▁horse	-10.3364
▁hughes	-10.3364
▁humour	-10.3364
▁hunt	-10.3364
▁importantly	-10.3364
▁inability	-10.3364
▁inhale	-10.3364
▁innovate	-10.3364
▁inspired	-10.3364
▁interacting	-10.3364
▁internally	-10.3364
▁invest	-10.3364
▁investment	-10.3364
▁invitation	-10.3364
▁involve	-10.3364
▁iphone	-10.3364
▁iq	-10.3364
▁iva	-10.3364
▁jazz	-10.3364
▁jealousy	-10.3364
▁junior	-10.3364
▁kicking	-10.3364
▁kitchen	-10.3364
▁lab	-10.3364
▁lama	-10.3364
▁lane	-10.3364
▁laughed	-10.3364
▁laundry	-10.3364
▁lightheadedness	-10.3364
▁lined	-10.3364
▁lingering	-10.3364
▁lip	-10.3364
▁listened	-10.3364
▁listens	-10.3364
▁london	-10.3364
▁loyal	-10.3364
▁luxury	-10.3364
▁magnesium	-10.3364
▁magnetic	-10.3364
▁manipulate	-10.3364
▁manner	-10.3364
▁mariana	-10.3364
▁mature	-10.3364
▁mccartney	-10.3364
▁meanwhile	-10.3364
▁meh	-10.3364
▁messaged	-10.3364
▁midterm	-10.3364
▁military	-10.3364
▁million	-10.3364
▁minimalism	-10.3364
▁miracle	-10.3364
▁miriam	-10.3364
▁moderate	-10.3364
▁monthly	-10.3364
▁network	-10.3364
▁numbing	-10.3364
▁nut	-10.3364
▁obese	-10.3364
▁obsessed	-10.3364
▁oneself	-10.3364
▁ongoing	-10.3364
▁ops	-10.3364
▁orgasm	-10.3364
▁original	-10.3364
▁overnight	-10.3364
▁overreacting	-10.3364
▁overseas	-10.3364
▁overthink	-10.3364
▁owe	-10.3364
▁paced	-10.3364
▁panicked	-10.3364
▁partly	-10.3364
▁pat	-10.3364
▁perceived	-10.3364
▁perfectionism	-10.3364
▁perfectionist	-10.3364
▁personalized	-10.3364
▁petty	-10.3364
▁philip	-10.3364
▁pls	-10.3364
▁poll	-10.3364
▁positively	-10.3364
▁precious	-10.3364
▁preference	-10.3364
▁procrastinating	-10.3364
▁progressing	-10.3364
▁promise	-10.3364
▁promised	-10.3364
▁provider	-10.3364
▁pursuit	-10.3364
▁pussy	-10.3364
▁qualified	-10.3364
▁quietly	-10.3364
▁racing	-10.3364
▁ramana	-10.3364
▁realistic	-10.3364
▁reasoning	-10.3364
▁recognized	-10.3364
▁reduction	-10.3364
▁rejection	-10.3364
▁relapsed	-10.3364
▁reminder	-10.3364
▁remote	-10.3364
▁repeated	-10.3364
▁repeating	-10.3364
▁resistant	-10.3364
▁responder	-10.3364
▁restless	-10.3364
▁reverse	-10.3364
▁roll	-10.3364
▁rotten	-10.3364
▁rupee	-10.3364
▁sea	-10.3364
▁seed	-10.3364
▁seemingly	-10.3364
▁sends	-10.3364
▁sens	-10.3364
▁separate	-10.3364
▁serve	-10.3364
▁settle	-10.3364
▁sh	-10.3364
▁shoe	-10.3364
▁shooting	-10.3364
▁shouldnt	-10.3364
▁sing	-10.3364
▁size	-10.3364
▁socialize	-10.3364
▁soreness	-10.3364
▁ssri	-10.3364
▁steal	-10.3364
▁stem	-10.3364
▁stepping	-10.3364
▁sticking	-10.3364
▁stone	-10.3364
▁stood	-10.3364
▁stream	-10.3364
▁subjective	-10.3364
▁suffocating	-10.3364
▁surprised	-10.3364
▁surroundings	-10.3364
▁takeaway	-10.3364
▁temporarily	-10.3364
▁tense	-10.3364
▁testing	-10.3364
▁therapeutic	-10.3364
▁thinker	-10.3364
▁throat	-10.3364
▁thrown	-10.3364
▁tied	-10.3364
▁tiredness	-10.3364
▁toilet	-10.3364
▁traffic	-10.3364
▁transmitter	-10.3364
▁tree	-10.3364
▁trendy	-10.3364
▁trusted	-10.3364
▁tuesday	-10.3364
▁unfortunate	-10.3364
▁uplifting	-10.3364
▁upper	-10.3364
▁upsetting	-10.3364
▁usu	-10.3364
▁utter	-10.3364
▁variety	-10.3364
▁venture	-10.3364
▁villain	-10.3364
▁visited	-10.3364
▁vivid	-10.3364
▁volunteer	-10.3364
▁wash	-10.3364
▁wherever	-10.3364
▁willpower	-10.3364
▁www	-10.3364
▁yo	-10.3364
▁acceptable	-10.5188
▁accomplishing	-10.5188
▁aching	-10.5188
▁acknowledging	-10.5188
▁acoustic	-10.5188
▁actor	-10.5188
▁addressed	-10.5188
▁adventure	-10.5188
▁affectionate	-10.5188
▁agreeing	-10.5188
▁aka	-10.5188
▁alarming	-10.5188
▁alienated	-10.5188
▁alignment	-10.5188
▁ally	-10.5188
▁alt	-10.5188
▁america	-10.5188
▁analogy	-10.5188
▁ancient	-10.5188
▁appreciation	-10.5188
▁approximately	-10.5188
▁apt	-10.5188
▁assistance	-10.5188
▁assure	-10.5188
▁athlete	-10.5188
▁attainable	-10.5188
▁auditory	-10.5188
▁automation	-10.5188
▁awaits	-10.5188
▁baggage	-10.5188
▁balancing	-10.5188
▁bang	-10.5188
▁baseline	-10.5188
▁basketball	-10.5188
▁bawling	-10.5188
▁beach	-10.5188
▁belly	-10.5188
▁berate	-10.5188
▁biological	-10.5188
▁blanket	-10.5188
▁blessed	-10.5188
▁blonded	-10.5188
▁blown	-10.5188
▁blurry	-10.5188
▁border	-10.5188
▁brake	-10.5188
▁brilliant	-10.5188
▁bro	-10.5188
▁brush	-10.5188
▁buddha	-10.5188
▁buddhist	-10.5188
▁bulletin	-10.5188
▁bummed	-10.5188
▁calmer	-10.5188
▁calmness	-10.5188
▁cardiologist	-10.5188
▁carrot	-10.5188
▁category	-10.5188
▁celebrating	-10.5188
▁ceo	-10.5188
▁chakras	-10.5188
▁chatting	-10.5188
▁childish	-10.5188
▁cigarette	-10.5188
▁clearing	-10.5188
▁climate	-10.5188
▁clinically	-10.5188
▁closest	-10.5188
▁comforting	-10.5188
▁committing	-10.5188
▁comparing	-10.5188
▁complaint	-10.5188
▁compulsive	-10.5188
▁conference	-10.5188
▁confirm	-10.5188
▁conquer	-10.5188
▁consumed	-10.5188
▁consumption	-10.5188
▁continually	-10.5188
▁contrary	-10.5188
▁convincing	-10.5188
▁corporate	-10.5188
▁counselling	-10.5188
▁counteract	-10.5188
▁county	-10.5188
▁crappy	-10.5188
▁craving	-10.5188
▁creepy	-10.5188
▁crime	-10.5188
▁crushed	-10.5188
▁cube	-10.5188
▁cuss	-10.5188
▁daisy	-10.5188
▁decline	-10.5188
▁defence	-10.5188
▁defense	-10.5188
▁defensive	-10.5188
▁delayed	-10.5188
▁delete	-10.5188
▁deliberately	-10.5188
▁delisa	-10.5188
▁delusion	-10.5188
▁dementia	-10.5188
▁dentist	-10.5188
▁desk	-10.5188
▁determines	-10.5188
▁dictate	-10.5188
▁dieing	-10.5188
▁ding	-10.5188
▁direct	-10.5188
▁disability	-10.5188
▁disappoint	-10.5188
▁disappointing	-10.5188
▁disciplined	-10.5188
▁downhill	-10.5188
▁drain	-10.5188
▁drastically	-10.5188
▁dust	-10.5188
▁dy	-10.5188
▁earned	-10.5188
▁ebook	-10.5188
▁edited	-10.5188
▁effected	-10.5188
▁empowerment	-10.5188
▁encouragement	-10.5188
▁enthusiasm	-10.5188
▁entry	-10.5188
▁epilepsy	-10.5188
▁established	-10.5188
▁eternal	-10.5188
▁evaluate	-10.5188
▁evolution	-10.5188
▁excel	-10.5188
▁existential	-10.5188
▁exiting	-10.5188
▁exposure	-10.5188
▁fan	-10.5188
▁fate	-10.5188
▁featured	-10.5188
▁february	-10.5188
▁felon	-10.5188
▁firm	-10.5188
▁florence	-10.5188
▁fluent	-10.5188
▁follower	-10.5188
▁fortune	-10.5188
▁founder	-10.5188
▁frankly	-10.5188
▁fuckin	-10.5188
▁funeral	-10.5188
▁gallbladder	-10.5188
▁gathered	-10.5188
▁generous	-10.5188
▁genuine	-10.5188
▁gradually	-10.5188
▁grand	-10.5188
▁grandfather	-10.5188
▁grass	-10.5188
▁guard	-10.5188
▁han	-10.5188
▁hardworking	-10.5188
▁harsh	-10.5188
▁hater	-10.5188
▁hatred	-10.5188
▁heartbreak	-10.5188
▁heartbroken	-10.5188
▁heaven	-10.5188
▁highway	-10.5188
▁hip	-10.5188
▁ice	-10.5188
▁included	-10.5188
▁indeed	-10.5188
▁inevitably	-10.5188
▁infected	-10.5188
▁infection	-10.5188
▁ingrained	-10.5188
▁initiate	-10.5188
▁input	-10.5188
▁intake	-10.5188
▁intelligent	-10.5188
▁intensity	-10.5188
▁intentionally	-10.5188
▁international	-10.5188
▁iron	-10.5188
▁ish	-10.5188
▁island	-10.5188
▁iv	-10.5188
▁james	-10.5188
▁juice	-10.5188
▁julie	-10.5188
▁justified	-10.5188
▁justify	-10.5188
▁kiss	-10.5188
▁kyle	-10.5188
▁land	-10.5188
▁largely	-10.5188
▁lastly	-10.5188
▁libido	-10.5188
▁lightheaded	-10.5188
▁liking	-10.5188
▁litterally	-10.5188
▁lmao	-10.5188
▁lmk	-10.5188
▁loathing	-10.5188
▁logic	-10.5188
▁manipulative	-10.5188
▁mastermind	-10.5188
▁mate	-10.5188
▁meme	-10.5188
▁mentality	-10.5188
▁midnight	-10.5188
▁minuscule	-10.5188
▁mobilize	-10.5188
▁moderator	-10.5188
▁monumental	-10.5188
▁mutual	-10.5188
▁n	-10.5188
▁narrow	-10.5188
▁needing	-10.5188
▁nigel	-10.5188
▁noisy	-10.5188
▁nootropics	-10.5188
▁norma	-10.5188
▁normalcy	-10.5188
▁nyc	-10.5188
▁object	-10.5188
▁ofc	-10.5188
▁officer	-10.5188
▁oldest	-10.5188
▁orange	-10.5188
▁ordinary	-10.5188
▁overbearing	-10.5188
▁overlooked	-10.5188
▁overweight	-10.5188
▁packed	-10.5188
▁palm	-10.5188
▁pan	-10.5188
▁partnership	-10.5188
▁penny	-10.5188
▁permanently	-10.5188
▁phrase	-10.5188
▁pipe	-10.5188
▁pity	-10.5188
▁pivot	-10.5188
▁plane	-10.5188
▁player	-10.5188
▁po	-10.5188
▁poorly	-10.5188
▁popularity	-10.5188
▁posse	-10.5188
▁postgraduate	-10.5188
▁powerhouse	-10.5188
▁practiced	-10.5188
▁prefer	-10.5188
▁preparation	-10.5188
▁press	-10.5188
▁primary	-10.5188
▁privilege	-10.5188
▁privileged	-10.5188
▁procrastinate	-10.5188
▁production	-10.5188
▁profit	-10.5188
▁progressively	-10.5188
▁prompt	-10.5188
▁provided	-10.5188
▁psychiatric	-10.5188
▁pulled	-10.5188
▁puppy	-10.5188
▁puzzle	-10.5188
▁qualification	-10.5188
▁quits	-10.5188
▁quiz	-10.5188
▁racist	-10.5188
▁rage	-10.5188
▁raising	-10.5188
▁rapidly	-10.5188
▁ray	-10.5188
▁reacting	-10.5188
▁realign	-10.5188
▁reasonable	-10.5188
▁reckless	-10.5188
▁recommended	-10.5188
▁reference	-10.5188
▁reflection	-10.5188
▁rejected	-10.5188
▁relying	-10.5188
▁remains	-10.5188
▁requested	-10.5188
▁resentment	-10.5188
▁reserving	-10.5188
▁resolved	-10.5188
▁responsible	-10.5188
▁resting	-10.5188
▁riding	-10.5188
▁robert	-10.5188
▁rushed	-10.5188
▁satisfied	-10.5188
▁satisfy	-10.5188
▁satisfying	-10.5188
▁scattered	-10.5188
▁screwed	-10.5188
▁script	-10.5188
▁searched	-10.5188
▁separated	-10.5188
▁serenity	-10.5188
▁server	-10.5188
▁settling	-10.5188
▁severity	-10.5188
▁sexually	-10.5188
▁shallow	-10.5188
▁shed	-10.5188
▁singing	-10.5188
▁sink	-10.5188
▁skipping	-10.5188
▁snack	-10.5188
▁sobbing	-10.5188
▁socialise	-10.5188
▁soldier	-10.5188
▁sole	-10.5188
▁sooo	-10.5188
▁sorrow	-10.5188
▁spell	-10.5188
▁spine	-10.5188
▁spotlight	-10.5188
▁star	-10.5188
▁station	-10.5188
▁stepmom	-10.5188
▁stiff	-10.5188
▁stretch	-10.5188
▁striving	-10.5188
▁submit	-10.5188
▁subsided	-10.5188
▁substance	-10.5188
▁succeeded	-10.5188
▁suffice	-10.5188
▁sugar	-10.5188
▁suitable	-10.5188
▁suppose	-10.5188
▁surgeon	-10.5188
▁survived	-10.5188
▁sustainable	-10.5188
▁sweating	-10.5188
▁tap	-10.5188
▁technical	-10.5188
▁ted	-10.5188
▁temp	-10.5188
▁texted	-10.5188
▁thanking	-10.5188
▁thigh	-10.5188
▁throwaway	-10.5188
▁thru	-10.5188
▁tolerance	-10.5188
▁totaled	-10.5188
▁trashed	-10.5188
▁tremendous	-10.5188
▁triggering	-10.5188
▁tuition	-10.5188
▁turkey	-10.5188
▁twin	-10.5188
▁twitter	-10.5188
▁unaware	-10.5188
▁unconscious	-10.5188
▁unemployment	-10.5188
▁united	-10.5188
▁unlike	-10.5188
▁unrealistic	-10.5188
▁upbeat	-10.5188
▁update	-10.5188
▁upside	-10.5188
▁ur	-10.5188
▁us	-10.5188
▁vaccine	-10.5188
▁vehicle	-10.5188
▁versus	-10.5188
▁videogames	-10.5188
▁viewing	-10.5188
▁viscous	-10.5188
▁visualization	-10.5188
▁volunteering	-10.5188
▁wade	-10.5188
▁wallow	-10.5188
▁wet	-10.5188
▁whatsoever	-10.5188
▁wild	-10.5188
▁wouldnt	-10.5188
▁wrapped	-10.5188
▁ya	-10.5188
▁yall	-10.5188
▁yellow	-10.5188
▁abandoned	-10.7419
▁abiding	-10.7419
▁abnormal	-10.7419
▁abroad	-10.7419
▁abuser	-10.7419
▁abyss	-10.7419
▁accessible	-10.7419
▁accolade	-10.7419
▁accounting	-10.7419
▁accused	-10.7419
▁acquiring	-10.7419
▁adamant	-10.7419
▁additional	-10.7419
▁adjust	-10.7419
▁admission	-10.7419
▁admitted	-10.7419
▁adolescent	-10.7419
▁adopted	-10.7419
▁adrenal	-10.7419
▁affordable	-10.7419
▁aforementioned	-10.7419
▁agenda	-10.7419
▁agitated	-10.7419
▁aid	-10.7419
▁align	-10.7419
▁altruism	-10.7419
▁amazingly	-10.7419
▁ambiguity	-10.7419
▁amongst	-10.7419
▁amplified	-10.7419
▁android	-10.7419
▁angel	-10.7419
▁angst	-10.7419
▁ap	-10.7419
▁apathy	-10.7419
▁apparent	-10.7419
▁applies	-10.7419
▁arising	-10.7419
▁army	-10.7419
▁arthritis	-10.7419
▁ashwagandha	-10.7419
▁asmi	-10.7419
▁aspergers	-10.7419
▁assigned	-10.7419
▁atlas	-10.7419
▁atm	-10.7419
▁awakening	-10.7419
▁ba	-10.7419
▁backstory	-10.7419
▁bahadurgarh	-10.7419
▁beam	-10.7419
▁bearable	-10.7419
▁bedtime	-10.7419
▁begging	-10.7419
▁beneath	-10.7419
▁bias	-10.7419
▁billion	-10.7419
▁binge	-10.7419
▁biology	-10.7419
▁biting	-10.7419
▁blur	-10.7419
▁bob	-10.7419
▁bold	-10.7419
▁bombarded	-10.7419
▁bore	-10.7419
▁boss	-10.7419
▁bowel	-10.7419
▁brazil	-10.7419
▁brazilian	-10.7419
▁brick	-10.7419
▁brien	-10.7419
▁bubble	-10.7419
▁bubbly	-10.7419
▁buddhism	-10.7419
▁budget	-10.7419
▁bumpy	-10.7419
▁butterfly	-10.7419
▁caller	-10.7419
▁calmly	-10.7419
▁camera	-10.7419
▁cancelled	-10.7419
▁candidate	-10.7419
▁captain	-10.7419
▁cardiovascular	-10.7419
▁carolyn	-10.7419
▁cash	-10.7419
▁centerforfearlessresearch	-10.7419
▁century	-10.7419
▁certification	-10.7419
▁chain	-10.7419
▁chakra	-10.7419
▁chamomile	-10.7419
▁chastise	-10.7419
▁chiropractor	-10.7419
▁chooses	-10.7419
▁christian	-10.7419
▁chunk	-10.7419
▁circuit	-10.7419
▁circuiting	-10.7419
▁citizen	-10.7419
▁claimed	-10.7419
▁classic	-10.7419
▁claude	-10.7419
▁clench	-10.7419
▁cluster	-10.7419
▁code	-10.7419
▁collapse	-10.7419
▁collected	-10.7419
▁collective	-10.7419
▁column	-10.7419
▁compelled	-10.7419
▁compliment	-10.7419
▁compromise	-10.7419
▁concentrating	-10.7419
▁concerning	-10.7419
▁conduct	-10.7419
▁confirming	-10.7419
▁confronting	-10.7419
▁contacted	-10.7419
▁contains	-10.7419
▁contemplated	-10.7419
▁continuous	-10.7419
▁contract	-10.7419
▁convert	-10.7419
▁crack	-10.7419
▁cracked	-10.7419
▁crave	-10.7419
▁criminal	-10.7419
▁critic	-10.7419
▁crucial	-10.7419
▁crutch	-10.7419
▁cum	-10.7419
▁cwru	-10.7419
▁cycling	-10.7419
▁dancing	-10.7419
▁darkest	-10.7419
▁daycare	-10.7419
▁defeat	-10.7419
▁defend	-10.7419
▁deleted	-10.7419
▁deliberate	-10.7419
▁deliver	-10.7419
▁delivering	-10.7419
▁denying	-10.7419
▁dependent	-10.7419
▁depending	-10.7419
▁depleted	-10.7419
▁depletion	-10.7419
▁deserved	-10.7419
▁deserving	-10.7419
▁destroy	-10.7419
▁deteriorating	-10.7419
▁devere	-10.7419
▁devise	-10.7419
▁diamond	-10.7419
▁diarrhea	-10.7419
▁dilemma	-10.7419
▁dirt	-10.7419
▁discipline	-10.7419
▁disclaimer	-10.7419
▁discomfort	-10.7419
▁disconnected	-10.7419
▁distanced	-10.7419
▁distancing	-10.7419
▁distressed	-10.7419
▁doll	-10.7419
▁donate	-10.7419
▁downfall	-10.7419
▁drawn	-10.7419
▁dreaming	-10.7419
▁drill	-10.7419
▁dropping	-10.7419
▁earn	-10.7419
▁easiest	-10.7419
▁edition	-10.7419
▁edu	-10.7419
▁eeyore	-10.7419
▁efficient	-10.7419
▁eg	-10.7419
▁eight	-10.7419
▁elevate	-10.7419
▁elon	-10.7419
▁emailed	-10.7419
▁empathetic	-10.7419
▁enable	-10.7419
▁encompassing	-10.7419
▁endeavor	-10.7419
▁endeavour	-10.7419
▁engineer	-10.7419
▁enhancing	-10.7419
▁enters	-10.7419
▁escapism	-10.7419
▁euphoric	-10.7419
▁everlasting	-10.7419
▁exaggerating	-10.7419
▁existencial	-10.7419
▁exists	-10.7419
▁exit	-10.7419
▁exploit	-10.7419
▁expressed	-10.7419
▁extensive	-10.7419
▁exurbs	-10.7419
▁facade	-10.7419
▁facial	-10.7419
▁factory	-10.7419
▁fed	-10.7419
▁fee	-10.7419
▁feminine	-10.7419
▁figuring	-10.7419
▁fish	-10.7419
▁flag	-10.7419
▁flare	-10.7419
▁flaw	-10.7419
▁flawed	-10.7419
▁flipped	-10.7419
▁foggy	-10.7419
▁fomo	-10.7419
▁football	-10.7419
▁forehead	-10.7419
▁fraud	-10.7419
▁freshman	-10.7419
▁gang	-10.7419
▁ged	-10.7419
▁genetic	-10.7419
▁ghosted	-10.7419
▁gland	-10.7419
▁gold	-10.7419
▁gossip	-10.7419
▁granddaughter	-10.7419
▁grant	-10.7419
▁greedy	-10.7419
▁grieve	-10.7419
▁grit	-10.7419
▁grudge	-10.7419
▁guideline	-10.7419
▁hallway	-10.7419
▁handbook	-10.7419
▁handful	-10.7419
▁handled	-10.7419
▁hangout	-10.7419
▁haunted	-10.7419
▁hectic	-10.7419
▁highlight	-10.7419
▁hint	-10.7419
▁hired	-10.7419
▁homeschooling	-10.7419
▁homophobic	-10.7419
▁honesty	-10.7419
▁honor	-10.7419
▁honour	-10.7419
▁hooker	-10.7419
▁hormonal	-10.7419
▁howard	-10.7419
▁hugged	-10.7419
▁humor	-10.7419
▁hydrogen	-10.7419
▁hypochondriac	-10.7419
▁hypocrite	-10.7419
▁icu	-10.7419
▁ig	-10.7419
▁ik	-10.7419
▁illustration	-10.7419
▁image	-10.7419
▁imperfection	-10.7419
▁inbox	-10.7419
▁incident	-10.7419
▁increasingly	-10.7419
▁indian	-10.7419
▁indoors	-10.7419
▁infant	-10.7419
▁inferior	-10.7419
▁inflammation	-10.7419
▁infront	-10.7419
▁infusion	-10.7419
▁inquiry	-10.7419
▁instinct	-10.7419
▁instrument	-10.7419
▁instrumental	-10.7419
▁insult	-10.7419
▁integrity	-10.7419
▁intend	-10.7419
▁intended	-10.7419
▁interactive	-10.7419
▁intro	-10.7419
▁investing	-10.7419
▁inwards	-10.7419
▁io	-10.7419
▁iowa	-10.7419
▁irrational	-10.7419
▁israel	-10.7419
▁ivy	-10.7419
▁jail	-10.7419
▁jayne	-10.7419
▁jim	-10.7419
▁joining	-10.7419
▁joint	-10.7419
▁joyfully	-10.7419
▁jp	-10.7419
▁jus	-10.7419
▁keen	-10.7419
▁kilometer	-10.7419
▁king	-10.7419
▁la	-10.7419
▁lacking	-10.7419
▁lady	-10.7419
▁lap	-10.7419
▁laughter	-10.7419
▁lecturing	-10.7419
▁length	-10.7419
▁liberate	-10.7419
▁lied	-10.7419
▁lifestories	-10.7419
▁lifting	-10.7419
▁lighting	-10.7419
▁lillie	-10.7419
▁lily	-10.7419
▁limitless	-10.7419
▁lionsheartlifestyle	-10.7419
▁listed	-10.7419
▁log	-10.7419
▁mabye	-10.7419
▁makeup	-10.7419
▁manga	-10.7419
▁manipulated	-10.7419
▁masking	-10.7419
▁mass	-10.7419
▁mastering	-10.7419
▁masturbate	-10.7419
▁match	-10.7419
▁meat	-10.7419
▁medically	-10.7419
▁mega	-10.7419
▁mft	-10.7419
▁milk	-10.7419
▁millionaire	-10.7419
▁mindedness	-10.7419
▁mindless	-10.7419
▁mindlessly	-10.7419
▁modeling	-10.7419
▁monetary	-10.7419
▁mooji	-10.7419
▁moon	-10.7419
▁moreover	-10.7419
▁mortgage	-10.7419
▁mra	-10.7419
▁mrv	-10.7419
▁msc	-10.7419
▁multi	-10.7419
▁musician	-10.7419
▁musk	-10.7419
▁nail	-10.7419
▁nap	-10.7419
▁napoleon	-10.7419
▁narcissist	-10.7419
▁narrative	-10.7419
▁neurological	-10.7419
▁nicely	-10.7419
▁niche	-10.7419
▁nico	-10.7419
▁nit	-10.7419
▁nobel	-10.7419
▁nonetheless	-10.7419
▁noone	-10.7419
▁nope	-10.7419
▁normalize	-10.7419
▁nothingness	-10.7419
▁notification	-10.7419
▁nursing	-10.7419
▁obedient	-10.7419
▁officially	-10.7419
▁organize	-10.7419
▁ought	-10.7419
▁ounce	-10.7419
▁outdoor	-10.7419
▁outlook	-10.7419
▁output	-10.7419
▁outright	-10.7419
▁outta	-10.7419
▁pace	-10.7419
▁packing	-10.7419
▁painter	-10.7419
▁pant	-10.7419
▁papaw	-10.7419
▁parenting	-10.7419
▁participated	-10.7419
▁passive	-10.7419
▁pathway	-10.7419
▁pausing	-10.7419
▁peek	-10.7419
▁percent	-10.7419
▁performing	-10.7419
▁permit	-10.7419
▁persona	-10.7419
▁pete	-10.7419
▁ph	-10.7419
▁phd	-10.7419
▁phobia	-10.7419
▁photographer	-10.7419
▁physique	-10.7419
▁pillow	-10.7419
▁piss	-10.7419
▁pitch	-10.7419
▁plab	-10.7419
▁pleasant	-10.7419
▁plp	-10.7419
▁pointed	-10.7419
▁polish	-10.7419
▁politely	-10.7419
▁pool	-10.7419
▁preparing	-10.7419
▁presentation	-10.7419
▁president	-10.7419
▁pressured	-10.7419
▁prevention	-10.7419
▁principal	-10.7419
▁priority	-10.7419
▁prison	-10.7419
▁privacy	-10.7419
▁prize	-10.7419
▁professionally	-10.7419
▁profound	-10.7419
▁programme	-10.7419
▁programming	-10.7419
▁prolonged	-10.7419
▁promising	-10.7419
▁promos	-10.7419
▁promoting	-10.7419
▁proven	-10.7419
▁prozac	-10.7419
▁publicly	-10.7419
▁published	-10.7419
▁punish	-10.7419
▁punishing	-10.7419
▁pursued	-10.7419
▁quo	-10.7419
▁raffle	-10.7419
▁ramble	-10.7419
▁rank	-10.7419
▁rapid	-10.7419
▁rational	-10.7419
▁reassurance	-10.7419
▁reel	-10.7419
▁reflecting	-10.7419
▁refresh	-10.7419
▁regaining	-10.7419
▁region	-10.7419
▁register	-10.7419
▁relating	-10.7419
▁reluctant	-10.7419
▁repair	-10.7419
▁replacement	-10.7419
▁representative	-10.7419
▁repressing	-10.7419
▁requires	-10.7419
▁reside	-10.7419
▁residential	-10.7419
▁resilient	-10.7419
▁resisting	-10.7419
▁resolution	-10.7419
▁resume	-10.7419
▁returned	-10.7419
▁rhythm	-10.7419
▁rightfully	-10.7419
▁ring	-10.7419
▁ripped	-10.7419
▁rocky	-10.7419
▁rolled	-10.7419
▁rot	-10.7419
▁round	-10.7419
▁ruining	-10.7419
▁sacrifice	-10.7419
▁safer	-10.7419
▁sample	-10.7419
▁sane	-10.7419
▁sansation	-10.7419
▁sapphire	-10.7419
▁sarcastic	-10.7419
▁scar	-10.7419
▁schizophrenia	-10.7419
▁scholarship	-10.7419
▁schollarship	-10.7419
▁screwing	-10.7419
▁secondly	-10.7419
▁seizure	-10.7419
▁selfishness	-10.7419
▁sertraline	-10.7419
▁setback	-10.7419
▁shaky	-10.7419
▁sheet	-10.7419
▁ship	-10.7419
▁shortness	-10.7419
▁shout	-10.7419
▁shuts	-10.7419
▁sided	-10.7419
▁silently	-10.7419
▁sincerely	-10.7419
▁skinny	-10.7419
▁skip	-10.7419
▁skull	-10.7419
▁slave	-10.7419
▁slightest	-10.7419
▁slipping	-10.7419
▁smaller	-10.7419
▁smooth	-10.7419
▁snapchat	-10.7419
▁someday	-10.7419
▁somtimes	-10.7419
▁sonething	-10.7419
▁sorta	-10.7419
▁sounded	-10.7419
▁specie	-10.7419
▁spike	-10.7419
▁spouse	-10.7419
▁square	-10.7419
▁stab	-10.7419
▁stall	-10.7419
▁standing	-10.7419
▁stats	-10.7419
▁stock	-10.7419
▁stored	-10.7419
▁straw	-10.7419
▁stretching	-10.7419
▁stroll	-10.7419
▁submission	-10.7419
▁submitted	-10.7419
▁summary	-10.7419
▁survival	-10.7419
▁surviving	-10.7419
▁suspicion	-10.7419
▁suspicious	-10.7419
▁swim	-10.7419
▁swing	-10.7419
▁switzerland	-10.7419
▁sympathy	-10.7419
▁tab	-10.7419
▁tai	-10.7419
▁tax	-10.7419
▁tech	-10.7419
▁tennis	-10.7419
▁terrifies	-10.7419
▁terrifying	-10.7419
▁texture	-10.7419
▁theanine	-10.7419
▁thiamine	-10.7419
▁tidy	-10.7419
▁tie	-10.7419
▁tiktok	-10.7419
▁timer	-10.7419
▁tiniest	-10.7419
▁tinnitus	-10.7419
▁tipping	-10.7419
▁tire	-10.7419
▁tom	-10.7419
▁tomato	-10.7419
▁tone	-10.7419
▁torrent	-10.7419
▁trace	-10.7419
▁tracker	-10.7419
▁trading	-10.7419
▁tradition	-10.7419
▁transformation	-10.7419
▁translation	-10.7419
▁transness	-10.7419
▁travelling	-10.7419
▁trend	-10.7419
▁troubling	-10.7419
▁trump	-10.7419
▁tumour	-10.7419
▁tune	-10.7419
▁twelve	-10.7419
▁twist	-10.7419
▁uh	-10.7419
▁un	-10.7419
▁uncertain	-10.7419
▁unconditionally	-10.7419
▁underlying	-10.7419
▁unfair	-10.7419
▁uninterrupted	-10.7419
▁unlearn	-10.7419
▁unlikely	-10.7419
▁unpaid	-10.7419
▁unplanned	-10.7419
▁unpleasant	-10.7419
▁unproductive	-10.7419
▁unreasonable	-10.7419
▁unresolved	-10.7419
▁unsure	-10.7419
▁upcoming	-10.7419
▁utility	-10.7419
▁valdez	-10.7419
▁valerian	-10.7419
▁valuable	-10.7419
▁vessel	-10.7419
▁vicious	-10.7419
▁visible	-10.7419
▁visiting	-10.7419
▁vomit	-10.7419
▁w	-10.7419
▁wallet	-10.7419
▁washing	-10.7419
▁wealthy	-10.7419
▁webinar	-10.7419
▁welcomed	-10.7419
▁wellbutrin	-10.7419
▁whereas	-10.7419
▁whisper	-10.7419
▁wiki	-10.7419
▁wing	-10.7419
▁wire	-10.7419
▁wit	-10.7419
▁wolf	-10.7419
▁worn	-10.7419
▁writes	-10.7419
▁wwii	-10.7419
▁yale	-10.7419
▁yogic	-10.7419
▁zoloft	-10.7419
▁abandonment	-11.0296
▁abilify	-11.0296
▁abortion	-11.0296
▁absence	-11.0296
▁absent	-11.0296
▁absorb	-11.0296
▁abstract	-11.0296
▁absurd	-11.0296
▁academically	-11.0296
▁academy	-11.0296
▁accepts	-11.0296
▁accountant	-11.0296
▁accumulate	-11.0296
▁accurately	-11.0296
▁achievable	-11.0296
▁acquire	-11.0296
▁actualized	-11.0296
▁adapt	-11.0296
▁adapting	-11.0296
▁adaptive	-11.0296
▁additionally	-11.0296
▁adequately	-11.0296
▁adhere	-11.0296
▁adorable	-11.0296
▁advanced	-11.0296
▁adversity	-11.0296
▁advertising	-11.0296
▁affair	-11.0296
▁afterthought	-11.0296
▁aged	-11.0296
▁agonizing	-11.0296
▁ah	-11.0296
▁al	-11.0296
▁alert	-11.0296
▁alien	-11.0296
▁alkaline	-11.0296
▁alpha	-11.0296
▁altogether	-11.0296
▁amazed	-11.0296
▁amazon	-11.0296
▁ambrosio	-11.0296
▁analysing	-11.0296
▁analyze	-11.0296
▁anemia	-11.0296
▁animating	-11.0296
▁anniversary	-11.0296
▁annoy	-11.0296
▁anonymously	-11.0296
▁anorexia	-11.0296
▁ant	-11.0296
▁anxiousness	-11.0296
▁apology	-11.0296
▁appears	-11.0296
▁approached	-11.0296
▁approve	-11.0296
▁arbitrary	-11.0296
▁arent	-11.0296
▁argues	-11.0296
▁arrives	-11.0296
▁articulate	-11.0296
▁ashwaganda	-11.0296
▁asian	-11.0296
▁assist	-11.0296
▁attended	-11.0296
▁attribute	-11.0296
▁audition	-11.0296
▁auto	-11.0296
▁automatic	-11.0296
▁axis	-11.0296
▁aziz	-11.0296
▁backup	-11.0296
▁balcony	-11.0296
▁barefoot	-11.0296
▁barley	-11.0296
▁baseball	-11.0296
▁basement	-11.0296
▁bat	-11.0296
▁bay	-11.0296
▁beatles	-11.0296
▁bee	-11.0296
▁behave	-11.0296
▁behold	-11.0296
▁belgium	-11.0296
▁belonged	-11.0296
▁belt	-11.0296
▁beneficial	-11.0296
▁benefited	-11.0296
▁berating	-11.0296
▁beta	-11.0296
▁billie	-11.0296
▁bio	-11.0296
▁blah	-11.0296
▁blank	-11.0296
▁bleach	-11.0296
▁bleed	-11.0296
▁blooming	-11.0296
▁blossom	-11.0296
▁blueberry	-11.0296
▁boil	-11.0296
▁boiled	-11.0296
▁bombing	-11.0296
▁bond	-11.0296
▁bonus	-11.0296
▁boom	-11.0296
▁boot	-11.0296
▁borderline	-11.0296
▁boxing	-11.0296
▁brat	-11.0296
▁bread	-11.0296
▁breeze	-11.0296
▁briefly	-11.0296
▁bros	-11.0296
▁browsing	-11.0296
▁brunch	-11.0296
▁brushed	-11.0296
▁buck	-11.0296
▁bumping	-11.0296
▁burger	-11.0296
▁butt	-11.0296
▁buzzing	-11.0296
▁byproduct	-11.0296
▁calc	-11.0296
▁calculus	-11.0296
▁canadian	-11.0296
▁canceled	-11.0296
▁cannabis	-11.0296
▁capitalism	-11.0296
▁capture	-11.0296
▁caregiver	-11.0296
▁carried	-11.0296
▁carter	-11.0296
▁casual	-11.0296
▁catastrophe	-11.0296
▁ceiling	-11.0296
▁cent	-11.0296
▁certificate	-11.0296
▁certified	-11.0296
▁charm	-11.0296
▁charming	-11.0296
▁chart	-11.0296
▁chatted	-11.0296
▁cheaper	-11.0296
▁chem	-11.0296
▁chemistry	-11.0296
▁chin	-11.0296
▁china	-11.0296
▁chip	-11.0296
▁chipping	-11.0296
▁choking	-11.0296
▁chuckle	-11.0296
▁cinematic	-11.0296
▁civil	-11.0296
▁clarify	-11.0296
▁classify	-11.0296
▁cleaned	-11.0296
▁cleared	-11.0296
▁clout	-11.0296
▁clumsy	-11.0296
▁cocoon	-11.0296
▁coding	-11.0296
▁coin	-11.0296
▁coincidence	-11.0296
▁colorful	-11.0296
▁combat	-11.0296
▁combining	-11.0296
▁comedian	-11.0296
▁comedy	-11.0296
▁comfortably	-11.0296
▁comfy	-11.0296
▁commented	-11.0296
▁comparison	-11.0296
▁compiled	-11.0296
▁composure	-11.0296
▁concerta	-11.0296
▁confined	-11.0296
▁conforming	-11.0296
▁confusing	-11.0296
▁conscience	-11.0296
▁consent	-11.0296
▁consist	-11.0296
▁consists	-11.0296
▁constraint	-11.0296
▁consultation	-11.0296
▁contend	-11.0296
▁continued	-11.0296
▁contradictory	-11.0296
▁contributes	-11.0296
▁conventionally	-11.0296
▁conversion	-11.0296
▁convincingly	-11.0296
▁cooked	-11.0296
▁coordinator	-11.0296
▁cornerstone	-11.0296
▁correlation	-11.0296
▁couch	-11.0296
▁covidya	-11.0296
▁cow	-11.0296
▁cramming	-11.0296
▁craze	-11.0296
▁creature	-11.0296
▁criticised	-11.0296
▁criticized	-11.0296
▁crowded	-11.0296
▁crown	-11.0296
▁crumble	-11.0296
▁crumbling	-11.0296
▁crypto	-11.0296
▁cultivate	-11.0296
▁cunt	-11.0296
▁curiosity	-11.0296
▁curl	-11.0296
▁cutest	-11.0296
▁dagger	-11.0296
▁damaging	-11.0296
▁dampens	-11.0296
▁david	-11.0296
▁deaf	-11.0296
▁debate	-11.0296
▁decreased	-11.0296
▁defeated	-11.0296
▁definite	-11.0296
▁delight	-11.0296
▁delirious	-11.0296
▁delivery	-11.0296
▁derive	-11.0296
▁describes	-11.0296
▁describing	-11.0296
▁destined	-11.0296
▁destiny	-11.0296
▁deteriorated	-11.0296
▁detox	-11.0296
▁detriment	-11.0296
▁dev	-11.0296
▁devastated	-11.0296
▁developmental	-11.0296
▁devotion	-11.0296
▁diaphram	-11.0296
▁dieting	-11.0296
▁digestion	-11.0296
▁digestive	-11.0296
▁diminished	-11.0296
▁disagreement	-11.0296
▁disappeared	-11.0296
▁disaster	-11.0296
▁disengagement	-11.0296
▁disguise	-11.0296
▁disgusted	-11.0296
▁disney	-11.0296
▁disregarded	-11.0296
▁dissertation	-11.0296
▁dissonance	-11.0296
▁division	-11.0296
▁doc	-11.0296
▁donating	-11.0296
▁doomed	-11.0296
▁dos	-11.0296
▁dot	-11.0296
▁downward	-11.0296
▁dragged	-11.0296
▁dragging	-11.0296
▁drastic	-11.0296
▁drtlab	-11.0296
▁dual	-11.0296
▁dug	-11.0296
▁duh	-11.0296
▁dumped	-11.0296
▁duty	-11.0296
▁dwell	-11.0296
▁dysfunction	-11.0296
▁ed	-11.0296
▁edgy	-11.0296
▁editor	-11.0296
▁efficiently	-11.0296
▁effortlessly	-11.0296
▁eh	-11.0296
▁eilish	-11.0296
▁eith	-11.0296
▁el	-11.0296
▁elder	-11.0296
▁electric	-11.0296
▁electricity	-11.0296
▁electromagnetic	-11.0296
▁eli	-11.0296
▁elite	-11.0296
▁elsewhere	-11.0296
▁em	-11.0296
▁embarrassment	-11.0296
▁embraced	-11.0296
▁emotionless	-11.0296
▁empower	-11.0296
▁empowered	-11.0296
▁encourage	-11.0296
▁endorphin	-11.0296
▁endured	-11.0296
▁enjoys	-11.0296
▁ensuring	-11.0296
▁enter	-11.0296
▁entirety	-11.0296
▁entrepreneurial	-11.0296
▁envious	-11.0296
▁epiphany	-11.0296
▁equally	-11.0296
▁equation	-11.0296
▁escaped	-11.0296
▁escaping	-11.0296
▁essence	-11.0296
▁eternally	-11.0296
▁ethical	-11.0296
▁euthanized	-11.0296
▁evoke	-11.0296
▁evolutionary	-11.0296
▁evolves	-11.0296
▁exceptionally	-11.0296
▁excluding	-11.0296
▁existed	-11.0296
▁expand	-11.0296
▁expense	-11.0296
▁experiment	-11.0296
▁experimented	-11.0296
▁exponentially	-11.0296
▁exposing	-11.0296
▁extinguish	-11.0296
▁extraordinary	-11.0296
▁fabricated	-11.0296
▁fails	-11.0296
▁faint	-11.0296
▁fantasizing	-11.0296
▁fb	-11.0296
▁fck	-11.0296
▁fearing	-11.0296
▁feat	-11.0296
▁feb	-11.0296
▁feeding	-11.0296
▁feminist	-11.0296
▁fiance	-11.0296
▁fifth	-11.0296
▁figment	-11.0296
▁fist	-11.0296
▁fittest	-11.0296
▁fixating	-11.0296
▁flake	-11.0296
▁flashback	-11.0296
▁flatmate	-11.0296
▁fling	-11.0296
▁float	-11.0296
▁flourish	-11.0296
▁flowing	-11.0296
▁flu	-11.0296
▁fluctuated	-11.0296
▁foe	-11.0296
▁folded	-11.0296
▁forbid	-11.0296
▁foreign	-11.0296
▁forgets	-11.0296
▁forgiveness	-11.0296
▁formal	-11.0296
▁formatting	-11.0296
▁formed	-11.0296
▁fortunately	-11.0296
▁fourteen	-11.0296
▁frame	-11.0296
▁framework	-11.0296
▁frank	-11.0296
▁freaked	-11.0296
▁french	-11.0296
▁frisson	-11.0296
▁frozen	-11.0296
▁ft	-11.0296
▁fucken	-11.0296
▁fulfils	-11.0296
▁fundamentally	-11.0296
▁futile	-11.0296
▁gambino	-11.0296
▁gambling	-11.0296
▁gardening	-11.0296
▁gatekeeper	-11.0296
▁gateway	-11.0296
▁generate	-11.0296
▁genius	-11.0296
▁genre	-11.0296
▁gesture	-11.0296
▁ghosting	-11.0296
▁giggle	-11.0296
▁gina	-11.0296
▁glance	-11.0296
▁gosh	-11.0296
▁gradual	-11.0296
▁grain	-11.0296
▁grammar	-11.0296
▁grandparent	-11.0296
▁granted	-11.0296
▁graph	-11.0296
▁gratefulness	-11.0296
▁gratification	-11.0296
▁greed	-11.0296
▁grounding	-11.0296
▁guidedmeditation	-11.0296
▁gum	-11.0296
▁halfway	-11.0296
▁ham	-11.0296
▁handed	-11.0296
▁happend	-11.0296
▁harbor	-11.0296
▁hardcore	-11.0296
▁harmony	-11.0296
▁harshly	-11.0296
▁haunt	-11.0296
▁heading	-11.0296
▁healer	-11.0296
▁heartbeat	-11.0296
▁heated	-11.0296
▁heath	-11.0296
▁heave	-11.0296
▁heavenly	-11.0296
▁heavily	-11.0296
▁height	-11.0296
▁heir	-11.0296
▁hella	-11.0296
▁herb	-11.0296
▁herbal	-11.0296
▁hesitate	-11.0296
▁hh	-11.0296
▁hid	-11.0296
▁hike	-11.0296
▁himalaya	-11.0296
▁hiring	-11.0296
▁hive	-11.0296
▁hmm	-11.0296
▁hook	-11.0296
▁hooked	-11.0296
▁host	-11.0296
▁household	-11.0296
▁housemate	-11.0296
▁howtomeditate	-11.0296
▁humility	-11.0296
▁humored	-11.0296
▁husk	-11.0296
▁hw	-11.0296
▁hyperventilating	-11.0296
▁icon	-11.0296
▁idle	-11.0296
▁imaginative	-11.0296
▁imbalance	-11.0296
▁immigrated	-11.0296
▁immunity	-11.0296
▁impactful	-11.0296
▁impartial	-11.0296
▁impressive	-11.0296
▁inappropriate	-11.0296
▁includes	-11.0296
▁incorporate	-11.0296
▁increasing	-11.0296
▁indicated	-11.0296
▁individually	-11.0296
▁induce	-11.0296
▁inducing	-11.0296
▁ineffective	-11.0296
▁informed	-11.0296
▁inherently	-11.0296
▁initial	-11.0296
▁inject	-11.0296
▁insanity	-11.0296
▁instrumentals	-11.0296
▁insufficient	-11.0296
▁insulting	-11.0296
▁intellectual	-11.0296
▁intending	-11.0296
▁interfere	-11.0296
▁interruption	-11.0296
▁intersection	-11.0296
▁intimate	-11.0296
▁intimidating	-11.0296
▁introduce	-11.0296
▁introvert	-11.0296
▁intuition	-11.0296
▁intuitive	-11.0296
▁invalidated	-11.0296
▁inventory	-11.0296
▁irb	-11.0296
▁itll	-11.0296
▁jar	-11.0296
▁jeremyhughes	-11.0296
▁jerk	-11.0296
▁jewish	-11.0296
▁joe	-11.0296
▁joking	-11.0296
▁joyful	-11.0296
▁joyous	-11.0296
▁judgemental	-11.0296
▁judgment	-11.0296
▁judgmental	-11.0296
▁jumped	-11.0296
▁k	-11.0296
▁kidney	-11.0296
▁killer	-11.0296
▁kissed	-11.0296
▁knee	-11.0296
▁knock	-11.0296
▁label	-11.0296
▁labor	-11.0296
▁lake	-11.0296
▁landlord	-11.0296
▁largest	-11.0296
▁latter	-11.0296
▁lawyer	-11.0296
▁lease	-11.0296
▁legitimate	-11.0296
▁lesbian	-11.0296
▁lessen	-11.0296
▁lethal	-11.0296
▁leverage	-11.0296
▁levin	-11.0296
▁lgbtq	-11.0296
▁liar	-11.0296
▁lick	-11.0296
▁licorice	-11.0296
▁liege	-11.0296
▁lifelong	-11.0296
▁limitation	-11.0296
▁lingers	-11.0296
▁lionel	-11.0296
▁liquid	-11.0296
▁listener	-11.0296
▁listing	-11.0296
▁lit	-11.0296
▁litteraly	-11.0296
▁livestream	-11.0296
▁locking	-11.0296
▁logically	-11.0296
▁logo	-11.0296
▁lotta	-11.0296
▁lurking	-11.0296
▁lust	-11.0296
▁mae	-11.0296
▁magnitude	-11.0296
▁maharshi	-11.0296
▁maintains	-11.0296
▁mandatory	-11.0296
▁manifestation	-11.0296
▁manifesting	-11.0296
▁marble	-11.0296
▁marijuana	-11.0296
▁marry	-11.0296
▁martin	-11.0296
▁massaging	-11.0296
▁masturbating	-11.0296
▁mater	-11.0296
▁matured	-11.0296
▁mbct	-11.0296
▁meaningless	-11.0296
▁mediation	-11.0296
▁meditated	-11.0296
▁melted	-11.0296
▁mentioning	-11.0296
▁mere	-11.0296
▁merely	-11.0296
▁metabolism	-11.0296
▁metal	-11.0296
▁meth	-11.0296
▁midst	-11.0296
▁minority	-11.0296
▁misfortune	-11.0296
▁misinterpret	-11.0296
▁mistaken	-11.0296
▁molested	-11.0296
▁moreso	-11.0296
▁morphed	-11.0296
▁motif	-11.0296
▁mount	-11.0296
▁mystery	-11.0296
▁naive	-11.0296
▁namely	-11.0296
▁nasty	-11.0296
▁native	-11.0296
▁nazi	-11.0296
▁nealy	-11.0296
▁nearby	-11.0296
▁neighbour	-11.0296
▁nephew	-11.0296
▁netherlands	-11.0296
▁neuro	-11.0296
▁newbie	-11.0296
▁newhart	-11.0296
▁newspaper	-11.0296
▁niece	-11.0296
▁nihilist	-11.0296
▁noble	-11.0296
▁nod	-11.0296
▁nonstop	-11.0296
▁nose	-11.0296
▁novelty	-11.0296
▁nurture	-11.0296
▁obligated	-11.0296
▁obligation	-11.0296
▁occur	-11.0296
▁occurrence	-11.0296
▁odds	-11.0296
▁offense	-11.0296
▁offensive	-11.0296
▁official	-11.0296
▁omg	-11.0296
▁onset	-11.0296
▁openly	-11.0296
▁orb	-11.0296
▁ordered	-11.0296
▁organised	-11.0296
▁orientation	-11.0296
▁oriented	-11.0296
▁origin	-11.0296
▁outburst	-11.0296
▁outcast	-11.0296
▁outstanding	-11.0296
▁outward	-11.0296
▁overloaded	-11.0296
▁overrated	-11.0296
▁overwork	-11.0296
▁owned	-11.0296
▁owning	-11.0296
▁painfully	-11.0296
▁pakistan	-11.0296
▁palpitation	-11.0296
▁pandora	-11.0296
▁paralysis	-11.0296
▁paralyzed	-11.0296
▁park	-11.0296
▁parking	-11.0296
▁partial	-11.0296
▁partially	-11.0296
▁passenger	-11.0296
▁payed	-11.0296
▁pc	-11.0296
▁peacefully	-11.0296
▁peppermint	-11.0296
▁perceive	-11.0296
▁periodically	-11.0296
▁perk	-11.0296
▁permanent	-11.0296
▁persevere	-11.0296
▁physic	-11.0296
▁physicist	-11.0296
▁piling	-11.0296
▁pissing	-11.0296
▁pituitary	-11.0296
▁pivoting	-11.0296
▁plague	-11.0296
▁planting	-11.0296
▁plastic	-11.0296
▁platonic	-11.0296
▁pleaded	-11.0296
▁pleased	-11.0296
▁plot	-11.0296
▁poetry	-11.0296
▁poisoning	-11.0296
▁policy	-11.0296
▁politician	-11.0296
▁pond	-11.0296
▁popping	-11.0296
▁possession	-11.0296
▁pouring	-11.0296
▁poverty	-11.0296
▁practically	-11.0296
▁prayed	-11.0296
▁predator	-11.0296
▁predicting	-11.0296
▁prepares	-11.0296
▁presented	-11.0296
▁presently	-11.0296
▁prestigious	-11.0296
▁prevents	-11.0296
▁pride	-11.0296
▁prioritise	-11.0296
▁prioritize	-11.0296
▁proceed	-11.0296
▁producing	-11.0296
▁programmer	-11.0296
▁projected	-11.0296
▁promote	-11.0296
▁proposal	-11.0296
▁protected	-11.0296
▁proudly	-11.0296
▁province	-11.0296
▁psychologically	-11.0296
▁pumped	-11.0296
▁rabbit	-11.0296
▁rainbow	-11.0296
▁raisedbynarcissists	-11.0296
▁rake	-11.0296
▁rapport	-11.0296
▁rationally	-11.0296
▁raver	-11.0296
▁reacts	-11.0296
▁reader	-11.0296
▁realigned	-11.0296
▁realignment	-11.0296
▁reap	-11.0296
▁recall	-11.0296
▁receives	-11.0296
▁recession	-11.0296
▁reciprocate	-11.0296
▁recognition	-11.0296
▁recurring	-11.0296
▁reduced	-11.0296
▁reduces	-11.0296
▁refused	-11.0296
▁regain	-11.0296
▁regretted	-11.0296
▁rehab	-11.0296
▁reinvent	-11.0296
▁relapse	-11.0296
▁relatable	-11.0296
▁relates	-11.0296
▁relation	-11.0296
▁relearn	-11.0296
▁relive	-11.0296
▁remembered	-11.0296
▁repairing	-11.0296
▁repetitive	-11.0296
▁replacing	-11.0296
▁required	-11.0296
▁resented	-11.0296
▁reserve	-11.0296
▁resist	-11.0296
▁resolving	-11.0296
▁resonate	-11.0296
▁responded	-11.0296
▁responding	-11.0296
▁responds	-11.0296
▁restart	-11.0296
▁rested	-11.0296
▁restlessness	-11.0296
▁retarded	-11.0296
▁rethink	-11.0296
▁retire	-11.0296
▁reverts	-11.0296
▁rewire	-11.0296
▁rewiring	-11.0296
▁rewriting	-11.0296
▁ridiculous	-11.0296
▁rip	-11.0296
▁rlly	-11.0296
▁robbed	-11.0296
▁roomie	-11.0296
▁roughly	-11.0296
▁sack	-11.0296
▁salt	-11.0296
▁sandwich	-11.0296
▁sanity	-11.0296
▁satan	-11.0296
▁saturday	-11.0296
▁savior	-11.0296
▁scam	-11.0296
▁scheduled	-11.0296
▁scientific	-11.0296
▁scientifically	-11.0296
▁scolded	-11.0296
▁scratched	-11.0296
▁sedated	-11.0296
▁seminar	-11.0296
▁serotonin	-11.0296
▁served	-11.0296
▁settled	-11.0296
▁shattered	-11.0296
▁sheep	-11.0296
▁shivering	-11.0296
▁shock	-11.0296
▁shortage	-11.0296
▁shoved	-11.0296
▁showered	-11.0296
▁shrug	-11.0296
▁shutting	-11.0296
▁signal	-11.0296
▁signed	-11.0296
▁simplest	-11.0296
▁sinking	-11.0296
▁sits	-11.0296
▁skillset	-11.0296
▁skydiving	-11.0296
▁skype	-11.0296
▁sl	-11.0296
▁slammed	-11.0296
▁slamming	-11.0296
▁slap	-11.0296
▁slide	-11.0296
▁smiled	-11.0296
▁smoked	-11.0296
▁smoothly	-11.0296
▁somone	-11.0296
▁sounding	-11.0296
▁spanked	-11.0296
▁spectacle	-11.0296
▁spectrum	-11.0296
▁spiraled	-11.0296
▁spiralling	-11.0296
▁squeeze	-11.0296
▁stabbed	-11.0296
▁stability	-11.0296
▁stalker	-11.0296
▁stalking	-11.0296
▁starved	-11.0296
▁starving	-11.0296
▁stating	-11.0296
▁steady	-11.0296
▁stepfather	-11.0296
▁stepmother	-11.0296
▁stiffness	-11.0296
▁strand	-11.0296
▁stray	-11.0296
▁streak	-11.0296
▁strike	-11.0296
▁string	-11.0296
▁strive	-11.0296
▁strongest	-11.0296
▁structured	-11.0296
▁successfully	-11.0296
▁suffocated	-11.0296
▁suggests	-11.0296
▁suicidality	-11.0296
▁suitcase	-11.0296
▁sunrise	-11.0296
▁superior	-11.0296
▁supervisory	-11.0296
▁supply	-11.0296
▁suppression	-11.0296
▁surpass	-11.0296
▁survivor	-11.0296
▁sustained	-11.0296
▁sway	-11.0296
▁swearing	-11.0296
▁sweaty	-11.0296
▁switched	-11.0296
▁swore	-11.0296
▁synthesis	-11.0296
▁tackle	-11.0296
▁tad	-11.0296
▁talented	-11.0296
▁tall	-11.0296
▁tangible	-11.0296
▁tasting	-11.0296
▁technically	-11.0296
▁television	-11.0296
▁temple	-11.0296
▁temptation	-11.0296
▁tending	-11.0296
▁tent	-11.0296
▁terminal	-11.0296
▁texas	-11.0296
▁texting	-11.0296
▁tf	-11.0296
▁thelma	-11.0296
▁thereby	-11.0296
▁thirty	-11.0296
▁threaten	-11.0296
▁threshold	-11.0296
▁thrust	-11.0296
▁tht	-11.0296
▁thursday	-11.0296
▁tia	-11.0296
▁tightly	-11.0296
▁til	-11.0296
▁tinder	-11.0296
▁tingling	-11.0296
▁toe	-11.0296
▁tolerate	-11.0296
▁tommorow	-11.0296
▁toothache	-11.0296
▁torment	-11.0296
▁toronto	-11.0296
▁torture	-11.0296
▁torturous	-11.0296
▁tower	-11.0296
▁toxicity	-11.0296
▁traditional	-11.0296
▁tragedy	-11.0296
▁transitioning	-11.0296
▁transport	-11.0296
▁transportation	-11.0296
▁traumatized	-11.0296
▁traveling	-11.0296
▁treacherous	-11.0296
▁treating	-11.0296
▁tremendously	-11.0296
▁tribe	-11.0296
▁tribulation	-11.0296
▁triumph	-11.0296
▁trusting	-11.0296
▁trustworthy	-11.0296
▁tumbling	-11.0296
▁tummy	-11.0296
▁turmeric	-11.0296
▁twitching	-11.0296
▁ub	-11.0296
▁um	-11.0296
▁umm	-11.0296
▁unbearably	-11.0296
▁unconditional	-11.0296
▁undiagnosed	-11.0296
▁undivided	-11.0296
▁undo	-11.0296
▁uneasiness	-11.0296
▁uneasy	-11.0296
▁unexpectedly	-11.0296
▁unfold	-11.0296
▁unfulfilled	-11.0296
▁unity	-11.0296
▁universal	-11.0296
▁unlock	-11.0296
▁unloved	-11.0296
▁unlucky	-11.0296
▁unpacking	-11.0296
▁unpopular	-11.0296
▁unprecedented	-11.0296
▁unsuccessfully	-11.0296
▁untill	-11.0296
▁unwell	-11.0296
▁unwise	-11.0296
▁urgent	-11.0296
▁uselessness	-11.0296
▁vacant	-11.0296
▁valentine	-11.0296
▁validated	-11.0296
▁varying	-11.0296
▁verge	-11.0296
▁versa	-11.0296
▁verve	-11.0296
▁vibrant	-11.0296
▁viral	-11.0296
▁vocabulary	-11.0296
▁voiced	-11.0296
▁volleyball	-11.0296
▁vomiting	-11.0296
▁vote	-11.0296
▁waited	-11.0296
▁wan	-11.0296
▁wander	-11.0296
▁wandering	-11.0296
▁warehouse	-11.0296
▁weapon	-11.0296
▁weighs	-11.0296
▁wether	-11.0296
▁whim	-11.0296
▁whine	-11.0296
▁wholesome	-11.0296
▁widow	-11.0296
▁wiggle	-11.0296
▁wine	-11.0296
▁woken	-11.0296
▁wooden	-11.0296
▁wore	-11.0296
▁worldwide	-11.0296
▁worsens	-11.0296
▁writting	-11.0296
▁wronged	-11.0296
▁wtf	-11.0296
▁yard	-11.0296
▁yay	-11.0296
▁yogi	-11.0296
▁youre	-11.0296
▁yt	-11.0296
▁abandon	-11.4351
▁abdomen	-11.4351
▁abject	-11.4351
▁abnormality	-11.4351
▁abolishing	-11.4351
▁aborted	-11.4351
▁abusing	-11.4351
▁ac	-11.4351
▁accelerated	-11.4351
▁accompany	-11.4351
▁accompanying	-11.4351
▁accordance	-11.4351
▁accordingly	-11.4351
▁accurate	-11.4351
▁accustomed	-11.4351
▁acidic	-11.4351
▁acknowledged	-11.4351
▁acquaintance	-11.4351
▁acronym	-11.4351
▁activated	-11.4351
▁activation	-11.4351
▁actualize	-11.4351
▁acute	-11.4351
▁adaptability	-11.4351
▁addictive	-11.4351
▁addressing	-11.4351
▁adequate	-11.4351
▁adjusted	-11.4351
▁adjusting	-11.4351
▁admins	-11.4351
▁admirable	-11.4351
▁admiration	-11.4351
▁admire	-11.4351
▁admired	-11.4351
▁admittedly	-11.4351
▁admitting	-11.4351
▁adopting	-11.4351
▁adoptive	-11.4351
▁adversely	-11.4351
▁advise	-11.4351
▁advocate	-11.4351
▁aesthetic	-11.4351
▁af	-11.4351
▁afect	-11.4351
▁affable	-11.4351
▁afterward	-11.4351
▁aggiemail	-11.4351
▁aggrieved	-11.4351
▁aging	-11.4351
▁agrees	-11.4351
▁aide	-11.4351
▁aiding	-11.4351
▁ailment	-11.4351
▁aimed	-11.4351
▁airplane	-11.4351
▁alabama	-11.4351
▁alarmingly	-11.4351
▁alaska	-11.4351
▁alci	-11.4351
▁alcoholism	-11.4351
▁aliveness	-11.4351
▁aliviate	-11.4351
▁alllll	-11.4351
▁alongside	-11.4351
▁aloud	-11.4351
▁alrealdy	-11.4351
▁alteration	-11.4351
▁altough	-11.4351
▁alzheimer	-11.4351
▁amaal	-11.4351
▁amazings	-11.4351
▁ambulance	-11.4351
▁amid	-11.4351
▁ammount	-11.4351
▁amorphous	-11.4351
▁amphetamine	-11.4351
▁ample	-11.4351
▁analogously	-11.4351
▁analysis	-11.4351
▁ancestor	-11.4351
▁anchor	-11.4351
▁ancien	-11.4351
▁anew	-11.4351
▁angelic	-11.4351
▁angle	-11.4351
▁angrier	-11.4351
▁anguished	-11.4351
▁animalistic	-11.4351
▁anime	-11.4351
▁ankle	-11.4351
▁annoys	-11.4351
▁anthropology	-11.4351
▁antibody	-11.4351
▁antidote	-11.4351
▁antinatalist	-11.4351
▁antipsychotic	-11.4351
▁anyones	-11.4351
▁apathetic	-11.4351
▁aphatic	-11.4351
▁appalled	-11.4351
▁appealing	-11.4351
▁appearence	-11.4351
▁appreciating	-11.4351
▁appreciative	-11.4351
▁appropriate	-11.4351
▁approves	-11.4351
▁approving	-11.4351
▁appt	-11.4351
▁argued	-11.4351
▁armed	-11.4351
▁aromatherapy	-11.4351
▁arrange	-11.4351
▁artery	-11.4351
▁artwork	-11.4351
▁ascending	-11.4351
▁asd	-11.4351
▁asexual	-11.4351
▁asf	-11.4351
▁asfff	-11.4351
▁ash	-11.4351
▁ashed	-11.4351
▁asocially	-11.4351
▁assertiveness	-11.4351
▁assisted	-11.4351
▁asskisser	-11.4351
▁asthma	-11.4351
▁aswell	-11.4351
▁athletic	-11.4351
▁atmosphere	-11.4351
▁atom	-11.4351
▁atpeace	-11.4351
▁attacking	-11.4351
▁attained	-11.4351
▁attracted	-11.4351
▁auric	-11.4351
▁authenticity	-11.4351
▁autumn	-11.4351
▁availability	-11.4351
▁awaited	-11.4351
▁awarded	-11.4351
▁aways	-11.4351
▁awry	-11.4351
▁awww	-11.4351
▁backbone	-11.4351
▁backyard	-11.4351
▁badass	-11.4351
▁bail	-11.4351
▁bait	-11.4351
▁bake	-11.4351
▁balding	-11.4351
▁baldness	-11.4351
▁banned	-11.4351
▁bare	-11.4351
▁basket	-11.4351
▁bath	-11.4351
▁bathe	-11.4351
▁bathing	-11.4351
▁battlefield	-11.4351
▁bead	-11.4351
▁beaten	-11.4351
▁beed	-11.4351
▁beem	-11.4351
▁beep	-11.4351
▁beer	-11.4351
▁befor	-11.4351
▁beforehand	-11.4351
▁beggining	-11.4351
▁behavioural	-11.4351
▁beingness	-11.4351
▁belated	-11.4351
▁beleive	-11.4351
▁bench	-11.4351
▁bender	-11.4351
▁benzo	-11.4351
▁betray	-11.4351
▁bettering	-11.4351
▁biafra	-11.4351
▁bible	-11.4351
▁biggies	-11.4351
▁bin	-11.4351
▁binary	-11.4351
▁biologically	-11.4351
▁biostatistics	-11.4351
▁bitterness	-11.4351
▁blacked	-11.4351
▁blatantly	-11.4351
▁bleak	-11.4351
▁blend	-11.4351
▁blew	-11.4351
▁blip	-11.4351
▁blm	-11.4351
▁blocker	-11.4351
▁bloody	-11.4351
▁blowing	-11.4351
▁boarding	-11.4351
▁boiling	-11.4351
▁bombed	-11.4351
▁boo	-11.4351
▁boomer	-11.4351
▁boops	-11.4351
▁boosted	-11.4351
▁boosting	-11.4351
▁booth	-11.4351
▁booze	-11.4351
▁boredom	-11.4351
▁boris	-11.4351
▁bossa	-11.4351
▁bottled	-11.4351
▁bow	-11.4351
▁bowl	-11.4351
▁bragging	-11.4351
▁brave	-11.4351
▁breakthrough	-11.4351
▁breast	-11.4351
▁breathed	-11.4351
▁brew	-11.4351
▁bricker	-11.4351
▁browse	-11.4351
▁bruise	-11.4351
▁bruised	-11.4351
▁brutal	-11.4351
▁budding	-11.4351
▁buffett	-11.4351
▁buggy	-11.4351
▁bull	-11.4351
▁burdening	-11.4351
▁burg	-11.4351
▁buried	-11.4351
▁bustling	-11.4351
▁buttered	-11.4351
▁bye	-11.4351
▁cabin	-11.4351
▁cafeteria	-11.4351
▁cafine	-11.4351
▁cambodia	-11.4351
▁campaign	-11.4351
▁candid	-11.4351
▁candor	-11.4351
▁canton	-11.4351
▁canucknaround	-11.4351
▁capstone	-11.4351
▁capsule	-11.4351
▁captaindepression	-11.4351
▁caravan	-11.4351
▁carbongrit	-11.4351
▁cardio	-11.4351
▁careerwise	-11.4351
▁carer	-11.4351
▁carlos	-11.4351
▁carve	-11.4351
▁casting	-11.4351
▁casually	-11.4351
▁catastrophize	-11.4351
▁cater	-11.4351
▁cbc	-11.4351
▁cease	-11.4351
▁ceased	-11.4351
▁cec	-11.4351
▁celebrated	-11.4351
▁celebrity	-11.4351
▁celexa	-11.4351
▁cellphone	-11.4351
▁cemetery	-11.4351
▁centered	-11.4351
▁centering	-11.4351
▁centralised	-11.4351
▁certainty	-11.4351
▁certify	-11.4351
▁cf	-11.4351
▁chalked	-11.4351
▁challeged	-11.4351
▁challeges	-11.4351
▁chaotic	-11.4351
▁characterize	-11.4351
▁charismatic	-11.4351
▁charitable	-11.4351
▁chatbot	-11.4351
▁chated	-11.4351
▁chattanooga	-11.4351
▁chatter	-11.4351
▁chattering	-11.4351
▁cheapskate	-11.4351
▁checkout	-11.4351
▁cheered	-11.4351
▁cheerful	-11.4351
▁cheesy	-11.4351
▁chef	-11.4351
▁cherry	-11.4351
▁chester	-11.4351
▁chevrolet	-11.4351
▁chew	-11.4351
▁chewed	-11.4351
▁chillls	-11.4351
▁chirping	-11.4351
▁chocolate	-11.4351
▁chord	-11.4351
▁chris	-11.4351
▁christianity	-11.4351
▁chromebook	-11.4351
▁ci	-11.4351
▁ciggarettes	-11.4351
▁cinema	-11.4351
▁circulating	-11.4351
▁citizenship	-11.4351
▁claiming	-11.4351
▁clairvoyance	-11.4351
▁clamp	-11.4351
▁clash	-11.4351
▁classical	-11.4351
▁cleaner	-11.4351
▁cleanse	-11.4351
▁clenched	-11.4351
▁clicked	-11.4351
▁climax	-11.4351
▁climb	-11.4351
▁clonazapam	-11.4351
▁closet	-11.4351
▁closing	-11.4351
▁closure	-11.4351
▁cloudy	-11.4351
▁clueless	-11.4351
▁clutter	-11.4351
▁cocktail	-11.4351
▁cocky	-11.4351
▁coco	-11.4351
▁codo	-11.4351
▁coelho	-11.4351
▁coffin	-11.4351
▁cognitively	-11.4351
▁coinbase	-11.4351
▁collaboration	-11.4351
▁collect	-11.4351
▁collins	-11.4351
▁colon	-11.4351
▁colouring	-11.4351
▁combating	-11.4351
▁combine	-11.4351
▁combustion	-11.4351
▁comic	-11.4351
▁commends	-11.4351
▁commenting	-11.4351
▁commerce	-11.4351
▁commiserating	-11.4351
▁commission	-11.4351
▁commited	-11.4351
▁commiting	-11.4351
▁commuter	-11.4351
▁comorbid	-11.4351
▁compatible	-11.4351
▁compensation	-11.4351
▁compete	-11.4351
▁competency	-11.4351
▁competent	-11.4351
▁component	-11.4351
▁comprehensive	-11.4351
▁compulsion	-11.4351
▁conceptualization	-11.4351
▁concrete	-11.4351
▁condemned	-11.4351
▁confidential	-11.4351
▁confidently	-11.4351
▁confines	-11.4351
▁conflicting	-11.4351
▁conform	-11.4351
▁congratulation	-11.4351
▁congressional	-11.4351
▁consequently	-11.4351
▁conservative	-11.4351
▁considerable	-11.4351
▁consitent	-11.4351
▁console	-11.4351
▁consolidate	-11.4351
▁constructively	-11.4351
▁consumerism	-11.4351
▁contain	-11.4351
▁continent	-11.4351
▁continously	-11.4351
▁continuously	-11.4351
▁contributed	-11.4351
▁contributing	-11.4351
▁controling	-11.4351
▁controllable	-11.4351
▁controller	-11.4351
▁convenient	-11.4351
▁conventional	-11.4351
▁conveyer	-11.4351
▁conviced	-11.4351
▁cooky	-11.4351
▁cooperative	-11.4351
▁cooping	-11.4351
▁coordination	-11.4351
▁coped	-11.4351
▁corey	-11.4351
▁corp	-11.4351
▁corrected	-11.4351
▁corrupted	-11.4351
▁costly	-11.4351
▁couldnt	-11.4351
▁counsellor	-11.4351
▁courthouse	-11.4351
▁coverage	-11.4351
▁coveted	-11.4351
▁cozy	-11.4351
▁cpa	-11.4351
▁crab	-11.4351
▁cracking	-11.4351
▁crashed	-11.4351
▁craves	-11.4351
▁crawled	-11.4351
▁crawlies	-11.4351
▁creatively	-11.4351
▁creek	-11.4351
▁criterion	-11.4351
▁criticizes	-11.4351
▁critter	-11.4351
▁crossing	-11.4351
▁crowed	-11.4351
▁crystal	-11.4351
▁cuddling	-11.4351
▁culmination	-11.4351
▁cumming	-11.4351
▁cursed	-11.4351
▁curve	-11.4351
▁curving	-11.4351
▁cutler	-11.4351
▁cylinder	-11.4351
▁cynical	-11.4351
▁daddy	-11.4351
▁dalio	-11.4351
▁dangerously	-11.4351
▁dar	-11.4351
▁dared	-11.4351
▁darker	-11.4351
▁darkly	-11.4351
▁darn	-11.4351
▁daw	-11.4351
▁daydream	-11.4351
▁daytime	-11.4351
▁daze	-11.4351
▁deadbeat	-11.4351
▁deadlift	-11.4351
▁dearest	-11.4351
▁deault	-11.4351
▁debated	-11.4351
▁debating	-11.4351
▁deception	-11.4351
▁deceptive	-11.4351
▁declined	-11.4351
▁declining	-11.4351
▁declutter	-11.4351
▁dedicating	-11.4351
▁deductable	-11.4351
▁deed	-11.4351
▁deem	-11.4351
▁deemed	-11.4351
▁deems	-11.4351
▁defaulted	-11.4351
▁defeating	-11.4351
▁defending	-11.4351
▁defines	-11.4351
▁deformed	-11.4351
▁defy	-11.4351
▁delta	-11.4351
▁delusional	-11.4351
▁demanding	-11.4351
▁democracy	-11.4351
▁demotivated	-11.4351
▁demotivation	-11.4351
▁denial	-11.4351
▁dental	-11.4351
▁depends	-11.4351
▁depersnalization	-11.4351
▁depersonalization	-11.4351
▁deprived	-11.4351
▁dermatologist	-11.4351
▁desktop	-11.4351
▁desmotivated	-11.4351
▁despaired	-11.4351
▁despise	-11.4351
▁dessert	-11.4351
▁destroys	-11.4351
▁destructed	-11.4351
▁destruction	-11.4351
▁detailing	-11.4351
▁detect	-11.4351
▁devastate	-11.4351
▁developemental	-11.4351
▁devil	-11.4351
▁devine	-11.4351
▁diametrically	-11.4351
▁dicided	-11.4351
▁dictator	-11.4351
▁differ	-11.4351
▁dildo	-11.4351
▁dimattina	-11.4351
▁diminish	-11.4351
▁diminishing	-11.4351
▁dint	-11.4351
▁directed	-11.4351
▁disappearing	-11.4351
▁disapproved	-11.4351
▁disassembling	-11.4351
▁disclosure	-11.4351
▁disconnect	-11.4351
▁discouragement	-11.4351
▁discussed	-11.4351
▁disgust	-11.4351
▁dismiss	-11.4351
▁disordered	-11.4351
▁disposition	-11.4351
▁disproportionate	-11.4351
▁disrespecting	-11.4351
▁dissapointed	-11.4351
▁dissatisfaction	-11.4351
▁distinct	-11.4351
▁distinction	-11.4351
▁distortion	-11.4351
▁distracting	-11.4351
▁distracts	-11.4351
▁distraught	-11.4351
▁distribution	-11.4351
▁ditch	-11.4351
▁divide	-11.4351
▁divorce	-11.4351
▁dizzyness	-11.4351
▁documantaries	-11.4351
▁document	-11.4351
▁documentary	-11.4351
▁documenting	-11.4351
▁doer	-11.4351
▁donation	-11.4351
▁doordash	-11.4351
▁doosie	-11.4351
▁dopa	-11.4351
▁dorky	-11.4351
▁downplays	-11.4351
▁downsize	-11.4351
▁downwards	-11.4351
▁dreadful	-11.4351
▁dressed	-11.4351
▁drone	-11.4351
▁drool	-11.4351
▁drowsy	-11.4351
▁drugged	-11.4351
▁drum	-11.4351
▁duck	-11.4351
▁duly	-11.4351
▁dumbass	-11.4351
▁dump	-11.4351
▁dumping	-11.4351
▁dweck	-11.4351
▁dwelling	-11.4351
▁dynamic	-11.4351
▁dysthimia	-11.4351
▁eachother	-11.4351
▁eager	-11.4351
▁earliest	-11.4351
▁earpiece	-11.4351
▁earthquake	-11.4351
▁eased	-11.4351
▁ebb	-11.4351
▁ebony	-11.4351
▁economics	-11.4351
▁economy	-11.4351
▁ecstatic	-11.4351
▁educate	-11.4351
▁eeg	-11.4351
▁effexor	-11.4351
▁egotistical	-11.4351
▁egypt	-11.4351
▁eighth	-11.4351
▁ekg	-11.4351
▁elaborate	-11.4351
▁elated	-11.4351
▁electrocute	-11.4351
▁electrode	-11.4351
▁electronics	-11.4351
▁element	-11.4351
▁eliminating	-11.4351
▁elixir	-11.4351
▁elope	-11.4351
▁emailing	-11.4351
▁embarassed	-11.4351
▁emerged	-11.4351
▁emit	-11.4351
▁empathize	-11.4351
▁emphasized	-11.4351
▁enabled	-11.4351
▁enables	-11.4351
▁encourages	-11.4351
▁encouraging	-11.4351
▁endgame	-11.4351
▁england	-11.4351
▁enhances	-11.4351
▁enlightenment	-11.4351
▁enlivened	-11.4351
▁enormous	-11.4351
▁enriching	-11.4351
▁enroll	-11.4351
▁ensures	-11.4351
▁entail	-11.4351
▁entertain	-11.4351
▁entity	-11.4351
▁entourage	-11.4351
▁entrapped	-11.4351
▁entreprener	-11.4351
▁enveloped	-11.4351
▁envied	-11.4351
▁environmental	-11.4351
▁equality	-11.4351
▁equipped	-11.4351
▁eradicated	-11.4351
▁erect	-11.4351
▁erection	-11.4351
▁eric	-11.4351
▁escalate	-11.4351
▁escalated	-11.4351
▁est	-11.4351
▁establish	-11.4351
▁estate	-11.4351
▁estranged	-11.4351
▁ethnicity	-11.4351
▁euphemism	-11.4351
▁europe	-11.4351
▁evangelism	-11.4351
▁evaporate	-11.4351
▁eventhough	-11.4351
▁everthing	-11.4351
▁everyon	-11.4351
▁evicted	-11.4351
▁excelling	-11.4351
▁excercises	-11.4351
▁excersises	-11.4351
▁excessively	-11.4351
▁excluded	-11.4351
▁exclusive	-11.4351
▁exclusively	-11.4351
▁excruciating	-11.4351
▁exempt	-11.4351
▁exhaust	-11.4351
▁existance	-11.4351
▁existent	-11.4351
▁exited	-11.4351
▁expanded	-11.4351
▁expanding	-11.4351
▁expired	-11.4351
▁explicit	-11.4351
▁exploding	-11.4351
▁exploited	-11.4351
▁explosion	-11.4351
▁expose	-11.4351
▁expressive	-11.4351
▁extends	-11.4351
▁extensively	-11.4351
▁externalize	-11.4351
▁externally	-11.4351
▁extinct	-11.4351
▁extort	-11.4351
▁extract	-11.4351
▁extraoedinary	-11.4351
▁extremly	-11.4351
▁eyebrow	-11.4351
▁eyed	-11.4351
▁fading	-11.4351
▁falcon	-11.4351
▁falsely	-11.4351
▁fam	-11.4351
▁fantasized	-11.4351
▁fastest	-11.4351
▁fawk	-11.4351
▁fcking	-11.4351
▁fearless	-11.4351
▁fearlessness	-11.4351
▁feellucky	-11.4351
▁felix	-11.4351
▁fella	-11.4351
▁fellowship	-11.4351
▁femboy	-11.4351
▁fence	-11.4351
▁ferriss	-11.4351
▁festival	-11.4351
▁fever	-11.4351
▁feverish	-11.4351
▁fidget	-11.4351
▁fiercely	-11.4351
▁fifteen	-11.4351
▁fin	-11.4351
▁finalised	-11.4351
▁financials	-11.4351
▁fireplace	-11.4351
▁firmly	-11.4351
▁fishing	-11.4351
▁fixated	-11.4351
▁flair	-11.4351
▁flammable	-11.4351
▁flatsharing	-11.4351
▁flavor	-11.4351
▁fledged	-11.4351
▁fleeing	-11.4351
▁flexibility	-11.4351
▁flipping	-11.4351
▁flood	-11.4351
▁flooding	-11.4351
▁floss	-11.4351
▁flossing	-11.4351
▁fluff	-11.4351
▁flunked	-11.4351
▁fluoxetine	-11.4351
▁flutter	-11.4351
▁fml	-11.4351
▁folder	-11.4351
▁fond	-11.4351
▁ford	-11.4351
▁format	-11.4351
▁formation	-11.4351
▁formative	-11.4351
▁formidable	-11.4351
▁forsaken	-11.4351
▁forsee	-11.4351
▁foward	-11.4351
▁fox	-11.4351
▁fpv	-11.4351
▁fractured	-11.4351
▁frail	-11.4351
▁framed	-11.4351
▁franklin	-11.4351
▁freeing	-11.4351
▁freelance	-11.4351
▁freestyle	-11.4351
▁freeze	-11.4351
▁freezing	-11.4351
▁freshens	-11.4351
▁fridaymorning	-11.4351
▁fridaymotivation	-11.4351
▁fridaythoughts	-11.4351
▁fridge	-11.4351
▁fried	-11.4351
▁friendzoned	-11.4351
▁frightening	-11.4351
▁frizz	-11.4351
▁frizzle	-11.4351
▁frontline	-11.4351
▁ftm	-11.4351
▁fulfilment	-11.4351
▁fuller	-11.4351
▁fullest	-11.4351
▁functionally	-11.4351
▁funk	-11.4351
▁fur	-11.4351
▁furious	-11.4351
▁furniture	-11.4351
▁fwd	-11.4351
▁fyi	-11.4351
▁gaba	-11.4351
▁gabapentin	-11.4351
▁gabriel	-11.4351
▁gage	-11.4351
▁gale	-11.4351
▁gallstone	-11.4351
▁gamble	-11.4351
▁garage	-11.4351
▁garmin	-11.4351
▁garyvee	-11.4351
▁gaslight	-11.4351
▁gaslighting	-11.4351
▁gastroenterologist	-11.4351
▁gatewaylocation	-11.4351
▁gauge	-11.4351
▁gaze	-11.4351
▁gene	-11.4351
▁generic	-11.4351
▁generosity	-11.4351
▁genetics	-11.4351
▁genuity	-11.4351
▁geographic	-11.4351
▁george	-11.4351
▁german	-11.4351
▁getaway	-11.4351
▁getsmartebooks	-11.4351
▁ghetto	-11.4351
▁giddy	-11.4351
▁gimpy	-11.4351
▁ginseng	-11.4351
▁givebooks	-11.4351
▁gladness	-11.4351
▁gleaned	-11.4351
▁glimmer	-11.4351
▁globally	-11.4351
▁gloomy	-11.4351
▁glorified	-11.4351
▁glow	-11.4351
▁glowing	-11.4351
▁glued	-11.4351
▁goodwill	-11.4351
▁gotteb	-11.4351
▁gps	-11.4351
▁grabbing	-11.4351
▁graced	-11.4351
▁graciously	-11.4351
▁grandiose	-11.4351
▁grandkids	-11.4351
▁granphater	-11.4351
▁gras	-11.4351
▁gravely	-11.4351
▁graying	-11.4351
▁grazed	-11.4351
▁graziosi	-11.4351
▁greyhound	-11.4351
▁grieved	-11.4351
▁grinding	-11.4351
▁groundbreaking	-11.4351
▁grueling	-11.4351
▁grunt	-11.4351
▁guaranteed	-11.4351
▁guardian	-11.4351
▁guessed	-11.4351
▁guiding	-11.4351
▁guru	-11.4351
▁gymnastics	-11.4351
▁gynaecologist	-11.4351
▁habbit	-11.4351
▁hacked	-11.4351
▁hahaha	-11.4351
▁hahahahahah	-11.4351
▁hahhaa	-11.4351
▁halloween	-11.4351
▁halt	-11.4351
▁halted	-11.4351
▁handgun	-11.4351
▁handy	-11.4351
▁hanger	-11.4351
▁hannah	-11.4351
▁happinessnowchannel	-11.4351
▁harassment	-11.4351
▁harbored	-11.4351
▁harmonising	-11.4351
▁harpreet	-11.4351
▁harshness	-11.4351
▁harvard	-11.4351
▁haryana	-11.4351
▁hastily	-11.4351
▁haunting	-11.4351
▁haw	-11.4351
▁haze	-11.4351
▁header	-11.4351
▁headline	-11.4351
▁healed	-11.4351
▁healthiest	-11.4351
▁healthline	-11.4351
▁heatlh	-11.4351
▁heed	-11.4351
▁heinous	-11.4351
▁helicopter	-11.4351
▁helpline	-11.4351
▁hereafter	-11.4351
▁hereunder	-11.4351
▁hernia	-11.4351
▁hero	-11.4351
▁heroin	-11.4351
▁hesitating	-11.4351
▁heuristic	-11.4351
▁hever	-11.4351
▁heyejehowh	-11.4351
▁hiatal	-11.4351
▁highlighting	-11.4351
▁hightail	-11.4351
▁hilarious	-11.4351
▁hilding	-11.4351
▁hind	-11.4351
▁hindi	-11.4351
▁hindsight	-11.4351
▁hindu	-11.4351
▁hobble	-11.4351
▁holiness	-11.4351
▁holistic	-11.4351
▁hollowed	-11.4351
▁homeschool	-11.4351
▁homeschooled	-11.4351
▁honed	-11.4351
▁honey	-11.4351
▁honorary	-11.4351
▁hood	-11.4351
▁horde	-11.4351
▁horrific	-11.4351
▁hospitalization	-11.4351
▁hostile	-11.4351
▁hosting	-11.4351
▁hotel	-11.4351
▁hourglass	-11.4351
▁howtobehappy	-11.4351
▁htp	-11.4351
▁hugely	-11.4351
▁huhu	-11.4351
▁humbled	-11.4351
▁hunched	-11.4351
▁hurricane	-11.4351
▁hussle	-11.4351
▁hustle	-11.4351
▁hustlin	-11.4351
▁hypocritical	-11.4351
▁ibs	-11.4351
▁ic	-11.4351
▁icahn	-11.4351
▁identified	-11.4351
▁idgaf	-11.4351
▁idiocy	-11.4351
▁ignite	-11.4351
▁ignores	-11.4351
▁iii	-11.4351
▁illustrate	-11.4351
▁imagery	-11.4351
▁imaginary	-11.4351
▁imo	-11.4351
▁implant	-11.4351
▁implemented	-11.4351
▁implementing	-11.4351
▁implying	-11.4351
▁imposed	-11.4351
▁impress	-11.4351
▁impression	-11.4351
▁impulse	-11.4351
▁impulsively	-11.4351
▁inattention	-11.4351
▁incapable	-11.4351
▁incompetence	-11.4351
▁incompetent	-11.4351
▁inconsiderate	-11.4351
▁incurable	-11.4351
▁indebted	-11.4351
▁independence	-11.4351
▁indication	-11.4351
▁indicator	-11.4351
▁indirectly	-11.4351
▁indulge	-11.4351
▁inexplicably	-11.4351
▁infatuated	-11.4351
▁infinitesilence	-11.4351
▁inflatable	-11.4351
▁inflation	-11.4351
▁influenced	-11.4351
▁influencers	-11.4351
▁infused	-11.4351
▁inherits	-11.4351
▁injured	-11.4351
▁injustice	-11.4351
▁inlove	-11.4351
▁innate	-11.4351
▁innocent	-11.4351
▁insensitive	-11.4351
▁insidious	-11.4351
▁insist	-11.4351
▁insistent	-11.4351
▁insists	-11.4351
▁insomniac	-11.4351
▁inspirational	-11.4351
▁instantaneous	-11.4351
▁instantaneously	-11.4351
▁instilling	-11.4351
▁institution	-11.4351
▁institutionalised	-11.4351
▁instruction	-11.4351
▁instructs	-11.4351
▁integrated	-11.4351
▁intern	-11.4351
▁interrupt	-11.4351
▁intersex	-11.4351
▁interst	-11.4351
▁interval	-11.4351
▁intimacy	-11.4351
▁introduced	-11.4351
▁introduction	-11.4351
▁invades	-11.4351
▁invasive	-11.4351
▁investigating	-11.4351
▁involvement	-11.4351
▁involving	-11.4351
▁ireland	-11.4351
▁ironically	-11.4351
▁irreparable	-11.4351
▁irresponsibility	-11.4351
▁irritability	-11.4351
▁isolating	-11.4351
▁issued	-11.4351
▁italy	-11.4351
▁itd	-11.4351
▁ivf	-11.4351
▁jack	-11.4351
▁jacked	-11.4351
▁jakepreddy	-11.4351
▁jan	-11.4351
▁jana	-11.4351
▁japan	-11.4351
▁japanese	-11.4351
▁jazzed	-11.4351
▁je	-11.4351
▁jello	-11.4351
▁jelous	-11.4351
▁jerking	-11.4351
▁jittery	-11.4351
▁jj	-11.4351
▁joked	-11.4351
▁joleneobrien	-11.4351
▁jonathan	-11.4351
▁joyously	-11.4351
▁judaism	-11.4351
▁jumb	-11.4351
▁jumbled	-11.4351
▁junky	-11.4351
▁justice	-11.4351
▁justifiably	-11.4351
▁ka	-11.4351
▁kennel	-11.4351
▁keystone	-11.4351
▁ki	-11.4351
▁kickboxing	-11.4351
▁kife	-11.4351
▁kinder	-11.4351
▁kindly	-11.4351
▁kinky	-11.4351
▁kist	-11.4351
▁km	-11.4351
▁korean	-11.4351
▁korn	-11.4351
▁lachesism	-11.4351
▁lame	-11.4351
▁lamp	-11.4351
▁lapdog	-11.4351
▁lasagna	-11.4351
▁lastyear	-11.4351
▁latch	-11.4351
▁laughably	-11.4351
▁laughted	-11.4351
▁launch	-11.4351
▁launching	-11.4351
▁lawson	-11.4351
▁layer	-11.4351
▁laziness	-11.4351
▁leaking	-11.4351
▁lean	-11.4351
▁leaning	-11.4351
▁leap	-11.4351
▁learner	-11.4351
▁lectured	-11.4351
▁legacy	-11.4351
▁legal	-11.4351
▁legally	-11.4351
▁legend	-11.4351
▁leisure	-11.4351
▁lemmy	-11.4351
▁lend	-11.4351
▁lender	-11.4351
▁lengthy	-11.4351
▁lesser	-11.4351
▁leveled	-11.4351
▁liberal	-11.4351
▁liberation	-11.4351
▁library	-11.4351
▁licking	-11.4351
▁lifted	-11.4351
▁lighty	-11.4351
▁likelihood	-11.4351
▁limb	-11.4351
▁linking	-11.4351
▁liquor	-11.4351
▁littlest	-11.4351
▁liver	-11.4351
▁livinginthemoment	-11.4351
▁loaded	-11.4351
▁loath	-11.4351
▁loathed	-11.4351
▁locus	-11.4351
▁logging	-11.4351
▁longed	-11.4351
▁looknat	-11.4351
▁loom	-11.4351
▁loophole	-11.4351
▁lord	-11.4351
▁loses	-11.4351
▁lovable	-11.4351
▁lowered	-11.4351
▁lowering	-11.4351
▁lucrative	-11.4351
▁lullaby	-11.4351
▁lupien	-11.4351
▁lyrical	-11.4351
▁madness	-11.4351
▁magazine	-11.4351
▁magical	-11.4351
▁maia	-11.4351
▁mail	-11.4351
▁maintained	-11.4351
▁malfunction	-11.4351
▁malibu	-11.4351
▁manages	-11.4351
▁managment	-11.4351
▁manchester	-11.4351
▁mania	-11.4351
▁manifested	-11.4351
▁manipualtive	-11.4351
▁manipulation	-11.4351
▁mannerism	-11.4351
▁mansion	-11.4351
▁manufacturing	-11.4351
▁masked	-11.4351
▁masterful	-11.4351
▁masturbated	-11.4351
▁masturbation	-11.4351
▁matched	-11.4351
▁materialistic	-11.4351
▁mathematically	-11.4351
▁mathernal	-11.4351
▁matted	-11.4351
▁mattered	-11.4351
▁maturely	-11.4351
▁maturing	-11.4351
▁max	-11.4351
▁mayo	-11.4351
▁mba	-11.4351
▁mcdonalds	-11.4351
▁mci	-11.4351
▁mcu	-11.4351
▁mdd	-11.4351
▁measured	-11.4351
▁measurement	-11.4351
▁medal	-11.4351
▁medicated	-11.4351
▁meditationteacher	-11.4351
▁meilin	-11.4351
▁mek	-11.4351
▁melbourne	-11.4351
▁melt	-11.4351
▁mend	-11.4351
▁mendes	-11.4351
▁mending	-11.4351
▁meowing	-11.4351
▁merciful	-11.4351
▁mercilessly	-11.4351
▁mercurial	-11.4351
▁mercy	-11.4351
▁meridian	-11.4351
▁merit	-11.4351
▁messaging	-11.4351
▁metaphorically	-11.4351
▁meteor	-11.4351
▁methodology	-11.4351
▁mexican	-11.4351
▁mf	-11.4351
▁michaeljames	-11.4351
▁michigan	-11.4351
▁micromanaged	-11.4351
▁microphone	-11.4351
▁midday	-11.4351
▁mike	-11.4351
▁milder	-11.4351
▁milestone	-11.4351
▁milla	-11.4351
▁millennials	-11.4351
▁minecraft	-11.4351
▁mini	-11.4351
▁minus	-11.4351
▁misanthrope	-11.4351
▁misfit	-11.4351
▁misunderstanding	-11.4351
▁mitigates	-11.4351
▁mitty	-11.4351
▁modest	-11.4351
▁modesty	-11.4351
▁modt	-11.4351
▁molecule	-11.4351
▁momentary	-11.4351
▁mommy	-11.4351
▁monitor	-11.4351
▁monkey	-11.4351
▁moody	-11.4351
▁moonlight	-11.4351
▁moonshine	-11.4351
▁mope	-11.4351
▁morale	-11.4351
▁morbid	-11.4351
▁morose	-11.4351
▁mortal	-11.4351
▁motivates	-11.4351
▁motivator	-11.4351
▁motor	-11.4351
▁motorhead	-11.4351
▁movember	-11.4351
▁mph	-11.4351
▁mr	-11.4351
▁mt	-11.4351
▁multifaceted	-11.4351
▁multimillionaires	-11.4351
▁mundane	-11.4351
▁murdered	-11.4351
▁muslim	-11.4351
▁muted	-11.4351
▁mutually	-11.4351
▁muvespace	-11.4351
▁mystic	-11.4351
▁myth	-11.4351
▁nanci	-11.4351
▁narcisisstic	-11.4351
▁narcissism	-11.4351
▁narrowing	-11.4351
▁nasa	-11.4351
▁nation	-11.4351
▁nauseated	-11.4351
▁navigate	-11.4351
▁nearing	-11.4351
▁neat	-11.4351
▁necessity	-11.4351
▁necklace	-11.4351
▁nectar	-11.4351
▁needy	-11.4351
▁neglectful	-11.4351
▁negotiation	-11.4351
▁neighborhood	-11.4351
▁neighborly	-11.4351
▁nepal	-11.4351
▁net	-11.4351
▁neuralgia	-11.4351
▁neuropathy	-11.4351
▁nevertheless	-11.4351
▁nexplanon	-11.4351
▁nft	-11.4351
▁nicodimattina	-11.4351
▁nicotine	-11.4351
▁nighttime	-11.4351
▁nitpicks	-11.4351
▁nj	-11.4351
▁noel	-11.4351
▁nofap	-11.4351
▁noida	-11.4351
▁nomination	-11.4351
▁nonchalantly	-11.4351
▁nonexistent	-11.4351
▁nonsense	-11.4351
▁nonsensical	-11.4351
▁norepinephrine	-11.4351
▁nostril	-11.4351
▁nothin	-11.4351
▁noticeably	-11.4351
▁notified	-11.4351
▁noting	-11.4351
▁nova	-11.4351
▁ny	-11.4351
▁objectively	-11.4351
▁oblivion	-11.4351
▁observant	-11.4351
▁observation	-11.4351
▁obtain	-11.4351
▁obv	-11.4351
▁ocassionally	-11.4351
▁occupied	-11.4351
▁occurence	-11.4351
▁occurring	-11.4351
▁occurs	-11.4351
▁oct	-11.4351
▁oded	-11.4351
▁oe	-11.4351
▁ofcourse	-11.4351
▁offed	-11.4351
▁offended	-11.4351
▁offsite	-11.4351
▁ohhh	-11.4351
▁ohhhh	-11.4351
▁oit	-11.4351
▁olympic	-11.4351
▁olympics	-11.4351
▁onlinesuccesgroup	-11.4351
▁operates	-11.4351
▁operating	-11.4351
▁operation	-11.4351
▁operator	-11.4351
▁oppinion	-11.4351
▁oppose	-11.4351
▁oppressed	-11.4351
▁optimal	-11.4351
▁optimize	-11.4351
▁optional	-11.4351
▁orchestrate	-11.4351
▁ordeal	-11.4351
▁organizing	-11.4351
▁originating	-11.4351
▁ormond	-11.4351
▁orthogonal	-11.4351
▁otherway	-11.4351
▁outgoing	-11.4351
▁outsider	-11.4351
▁outwardly	-11.4351
▁oven	-11.4351
▁overate	-11.4351
▁overdosed	-11.4351
▁overdoses	-11.4351
▁overdosing	-11.4351
▁overdrive	-11.4351
▁overeat	-11.4351
▁overeating	-11.4351
▁overly	-11.4351
▁overpaying	-11.4351
▁overpower	-11.4351
▁overthinks	-11.4351
▁overtime	-11.4351
▁overview	-11.4351
▁overwatch	-11.4351
▁overweigh	-11.4351
▁overwhelmingly	-11.4351
▁overworked	-11.4351
▁owes	-11.4351
▁ownership	-11.4351
▁oy	-11.4351
▁pack	-11.4351
▁paddle	-11.4351
▁painkiller	-11.4351
▁painless	-11.4351
▁paintbrush	-11.4351
▁pairing	-11.4351
▁paltry	-11.4351
▁papa	-11.4351
▁paperwork	-11.4351
▁paragraph	-11.4351
▁paralyzing	-11.4351
▁paraphrasing	-11.4351
▁parental	-11.4351
▁password	-11.4351
▁paste	-11.4351
▁pastry	-11.4351
▁pathology	-11.4351
▁patronizing	-11.4351
▁paulo	-11.4351
▁paving	-11.4351
▁payback	-11.4351
▁payout	-11.4351
▁pcp	-11.4351
▁peaceandlove	-11.4351
▁peachy	-11.4351
▁pearl	-11.4351
▁pedal	-11.4351
▁peice	-11.4351
▁perceivable	-11.4351
▁perceives	-11.4351
▁perfecting	-11.4351
▁performed	-11.4351
▁performer	-11.4351
▁persecuted	-11.4351
▁persistent	-11.4351
▁personnally	-11.4351
▁persuasive	-11.4351
▁pessimistic	-11.4351
▁pharma	-11.4351
▁phaternal	-11.4351
▁phenomenal	-11.4351
▁phenomenon	-11.4351
▁philippine	-11.4351
▁philipwade	-11.4351
▁philosopher	-11.4351
▁photography	-11.4351
▁photoshoots	-11.4351
▁physician	-11.4351
▁pianist	-11.4351
▁picky	-11.4351
▁pie	-11.4351
▁pilot	-11.4351
▁pincher	-11.4351
▁pink	-11.4351
▁pitfall	-11.4351
▁pitying	-11.4351
▁pizza	-11.4351
▁placed	-11.4351
▁plasma	-11.4351
▁plodding	-11.4351
▁poet	-11.4351
▁pogrom	-11.4351
▁pointing	-11.4351
▁pointlessness	-11.4351
▁poison	-11.4351
▁politics	-11.4351
▁pony	-11.4351
▁poorer	-11.4351
▁poorest	-11.4351
▁population	-11.4351
▁portrait	-11.4351
▁portray	-11.4351
▁portrayed	-11.4351
▁pose	-11.4351
▁poster	-11.4351
▁posttraumatic	-11.4351
▁posture	-11.4351
▁pot	-11.4351
▁potato	-11.4351
▁potent	-11.4351
▁powdered	-11.4351
▁pr	-11.4351
▁pranayama	-11.4351
▁precaution	-11.4351
▁precise	-11.4351
▁precursor	-11.4351
▁predicament	-11.4351
▁predict	-11.4351
▁predictable	-11.4351
▁preface	-11.4351
▁preoccupied	-11.4351
▁preparedness	-11.4351
▁prerequisite	-11.4351
▁prescriber	-11.4351
▁prestige	-11.4351
▁pretents	-11.4351
▁prevalent	-11.4351
▁pricing	-11.4351
▁prime	-11.4351
▁primed	-11.4351
▁priming	-11.4351
▁print	-11.4351
▁printed	-11.4351
▁prioritised	-11.4351
▁probable	-11.4351
▁problematic	-11.4351
▁procastinating	-11.4351
▁producer	-11.4351
▁programmed	-11.4351
▁progressed	-11.4351
▁projection	-11.4351
▁prolongs	-11.4351
▁promo	-11.4351
▁prone	-11.4351
▁pronounce	-11.4351
▁proof	-11.4351
▁propelled	-11.4351
▁prospect	-11.4351
▁prosperity	-11.4351
▁prostitute	-11.4351
▁protecting	-11.4351
▁protein	-11.4351
▁protest	-11.4351
▁protocol	-11.4351
▁provoking	-11.4351
▁prude	-11.4351
▁prudent	-11.4351
▁pry	-11.4351
▁psychedelics	-11.4351
▁psychic	-11.4351
▁psychoanalysis	-11.4351
▁psychopath	-11.4351
▁puddle	-11.4351
▁pump	-11.4351
▁pup	-11.4351
▁purposeless	-11.4351
▁q	-11.4351
▁qhat	-11.4351
▁qualify	-11.4351
▁quantifiable	-11.4351
▁queen	-11.4351
▁query	-11.4351
▁quest	-11.4351
▁questionable	-11.4351
▁racism	-11.4351
▁racking	-11.4351
▁radar	-11.4351
▁rainy	-11.4351
▁rajasthan	-11.4351
▁randomised	-11.4351
▁randomized	-11.4351
▁ranked	-11.4351
▁rape	-11.4351
▁rat	-11.4351
▁razor	-11.4351
▁reacted	-11.4351
▁reactionary	-11.4351
▁reactive	-11.4351
▁readily	-11.4351
▁realising	-11.4351
▁realm	-11.4351
▁realy	-11.4351
▁rearrange	-11.4351
▁reasonably	-11.4351
▁rebutted	-11.4351
▁receiver	-11.4351
▁recommending	-11.4351
▁reconciling	-11.4351
▁reconnect	-11.4351
▁rectified	-11.4351
▁recurrent	-11.4351
▁redditors	-11.4351
▁redo	-11.4351
▁redraw	-11.4351
▁redundancy	-11.4351
▁referencing	-11.4351
▁referring	-11.4351
▁refinance	-11.4351
▁refined	-11.4351
▁refusal	-11.4351
▁registered	-11.4351
▁regretting	-11.4351
▁regulate	-11.4351
▁rehabilitated	-11.4351
▁reinforcing	-11.4351
▁reinterpretation	-11.4351
▁reject	-11.4351
▁relashionship	-11.4351
▁releaseyouranxietymonster	-11.4351
▁relentless	-11.4351
▁relied	-11.4351
▁relieved	-11.4351
▁reliever	-11.4351
▁relinquish	-11.4351
▁relocating	-11.4351
▁remained	-11.4351
▁remarkable	-11.4351
▁remedy	-11.4351
▁reminisce	-11.4351
▁remission	-11.4351
▁remorse	-11.4351
▁render	-11.4351
▁rendition	-11.4351
▁renovation	-11.4351
▁reopened	-11.4351
▁repayment	-11.4351
▁repetitiveness	-11.4351
▁replaceable	-11.4351
▁replay	-11.4351
▁reported	-11.4351
▁repost	-11.4351
▁reprogram	-11.4351
▁repurpose	-11.4351
▁reputable	-11.4351
▁requesting	-11.4351
▁reschedule	-11.4351
▁researched	-11.4351
▁resent	-11.4351
▁resigned	-11.4351
▁resignedwithoutajob	-11.4351
▁resonated	-11.4351
▁resonates	-11.4351
▁resort	-11.4351
▁respected	-11.4351
▁respective	-11.4351
▁restarted	-11.4351
▁restored	-11.4351
▁restrain	-11.4351
▁restructure	-11.4351
▁resulted	-11.4351
▁retard	-11.4351
▁retiree	-11.4351
▁retort	-11.4351
▁reveal	-11.4351
▁reveals	-11.4351
▁revelation	-11.4351
▁revenge	-11.4351
▁reviewed	-11.4351
▁revising	-11.4351
▁revisited	-11.4351
▁revolution	-11.4351
▁revolve	-11.4351
▁revolved	-11.4351
▁revolves	-11.4351
▁rewarded	-11.4351
▁rewatch	-11.4351
▁rexulti	-11.4351
▁rhis	-11.4351
▁ridden	-11.4351
▁riddled	-11.4351
▁rider	-11.4351
▁rigid	-11.4351
▁risked	-11.4351
▁risky	-11.4351
▁riveter	-11.4351
▁rmd	-11.4351
▁roadblock	-11.4351
▁roast	-11.4351
▁rob	-11.4351
▁robbing	-11.4351
▁robbins	-11.4351
▁robin	-11.4351
▁rocket	-11.4351
▁rocking	-11.4351
▁roleplay	-11.4351
▁roleplaying	-11.4351
▁romance	-11.4351
▁romhack	-11.4351
▁roomates	-11.4351
▁rooted	-11.4351
▁rose	-11.4351
▁rosie	-11.4351
▁rudeness	-11.4351
▁ruled	-11.4351
▁rumination	-11.4351
▁rupert	-11.4351
▁rural	-11.4351
▁sabotaging	-11.4351
▁saddest	-11.4351
▁safeguard	-11.4351
▁sailing	-11.4351
▁salary	-11.4351
▁salesman	-11.4351
▁sam	-11.4351
▁san	-11.4351
▁sanctuary	-11.4351
▁sand	-11.4351
▁sank	-11.4351
▁santani	-11.4351
▁santayana	-11.4351
▁satisficing	-11.4351
▁savransky	-11.4351
▁scammed	-11.4351
▁scammer	-11.4351
▁scarce	-11.4351
▁scarcity	-11.4351
▁scent	-11.4351
▁scheduling	-11.4351
▁scholar	-11.4351
▁scored	-11.4351
▁screened	-11.4351
▁scriptural	-11.4351
▁scrolled	-11.4351
▁scrutiny	-11.4351
▁se	-11.4351
▁seat	-11.4351
▁secretly	-11.4351
▁sedating	-11.4351
▁seeping	-11.4351
▁seize	-11.4351
▁selfrealization	-11.4351
▁semblance	-11.4351
▁sended	-11.4351
▁senseless	-11.4351
▁sensory	-11.4351
▁sentimental	-11.4351
▁separating	-11.4351
▁separation	-11.4351
▁sept	-11.4351
▁servant	-11.4351
▁serving	-11.4351
▁settlement	-11.4351
▁sever	-11.4351
▁sew	-11.4351
▁sexy	-11.4351
▁sf	-11.4351
▁shabby	-11.4351
▁shamble	-11.4351
▁shaming	-11.4351
▁shatters	-11.4351
▁shave	-11.4351
▁shaving	-11.4351
▁shaw	-11.4351
▁shedding	-11.4351
▁shelter	-11.4351
▁shifted	-11.4351
▁shifting	-11.4351
▁shittless	-11.4351
▁shitton	-11.4351
▁shittyasses	-11.4351
▁shocking	-11.4351
▁shook	-11.4351
▁shortcoming	-11.4351
▁shortened	-11.4351
▁shouted	-11.4351
▁shouting	-11.4351
▁showbiz	-11.4351
▁showering	-11.4351
▁si	-11.4351
▁sideline	-11.4351
▁sigh	-11.4351
▁sight	-11.4351
▁signaling	-11.4351
▁sikh	-11.4351
▁simplicity	-11.4351
▁simplify	-11.4351
▁simulation	-11.4351
▁sinai	-11.4351
▁sincero	-11.4351
▁singh	-11.4351
▁sketchbook	-11.4351
▁skyball	-11.4351
▁skyrocketed	-11.4351
▁slapped	-11.4351
▁slasher	-11.4351
▁sleeper	-11.4351
▁sleepover	-11.4351
▁sleepwalking	-11.4351
▁sleeve	-11.4351
▁slice	-11.4351
▁slipknot	-11.4351
▁slit	-11.4351
▁slob	-11.4351
▁slowed	-11.4351
▁slower	-11.4351
▁sludge	-11.4351
▁sluggish	-11.4351
▁smartphone	-11.4351
▁smash	-11.4351
▁smashed	-11.4351
▁smelled	-11.4351
▁smelling	-11.4351
▁snapping	-11.4351
▁snappy	-11.4351
▁sneak	-11.4351
▁sniffed	-11.4351
▁sniffle	-11.4351
▁snowing	-11.4351
▁snowstorm	-11.4351
▁sob	-11.4351
▁soccer	-11.4351
▁sociable	-11.4351
▁socializing	-11.4351
▁societal	-11.4351
▁sociopath	-11.4351
▁solace	-11.4351
▁solar	-11.4351
▁solitary	-11.4351
▁solitude	-11.4351
▁somethin	-11.4351
▁sonia	-11.4351
▁soo	-11.4351
▁soriano	-11.4351
▁soulful	-11.4351
▁soulless	-11.4351
▁soundproofing	-11.4351
▁sow	-11.4351
▁spaced	-11.4351
▁spacey	-11.4351
▁spacier	-11.4351
▁spanish	-11.4351
▁sparked	-11.4351
▁spazzing	-11.4351
▁specialized	-11.4351
▁specialty	-11.4351
▁speculate	-11.4351
▁spelled	-11.4351
▁spends	-11.4351
▁spewing	-11.4351
▁spiritually	-11.4351
▁spitting	-11.4351
▁spontaneity	-11.4351
▁spontaneously	-11.4351
▁spoon	-11.4351
▁sporadic	-11.4351
▁spreader	-11.4351
▁spreadsheet	-11.4351
▁sriramana	-11.4351
▁stabilized	-11.4351
▁stabilizer	-11.4351
▁stack	-11.4351
▁staff	-11.4351
▁stain	-11.4351
▁staircase	-11.4351
▁stance	-11.4351
▁standyby	-11.4351
▁stanford	-11.4351
▁startet	-11.4351
▁statesman	-11.4351
▁steered	-11.4351
▁stemming	-11.4351
▁stereotyped	-11.4351
▁stereotypical	-11.4351
▁sterssing	-11.4351
▁steve	-11.4351
▁stew	-11.4351
▁stigma	-11.4351
▁stimulated	-11.4351
▁stimulates	-11.4351
▁stimulating	-11.4351
▁stimulis	-11.4351
▁stint	-11.4351
▁stoic	-11.4351
▁stole	-11.4351
▁stolen	-11.4351
▁stomp	-11.4351
▁straighten	-11.4351
▁straightforward	-11.4351
▁strategic	-11.4351
▁stressfree	-11.4351
▁stressfully	-11.4351
▁stricly	-11.4351
▁stride	-11.4351
▁stroking	-11.4351
▁strssed	-11.4351
▁struck	-11.4351
▁struggledto	-11.4351
▁stubborn	-11.4351
▁stubbornness	-11.4351
▁stuffed	-11.4351
▁stunted	-11.4351
▁stupidly	-11.4351
▁stuttered	-11.4351
▁submissive	-11.4351
▁subscriber	-11.4351
▁subscription	-11.4351
▁subsequently	-11.4351
▁subsides	-11.4351
▁substantial	-11.4351
▁subtance	-11.4351
▁subtle	-11.4351
▁sucker	-11.4351
▁suffers	-11.4351
▁sufficient	-11.4351
▁suicidewatch	-11.4351
▁sulpiride	-11.4351
▁sum	-11.4351
▁sumedh	-11.4351
▁summarise	-11.4351
▁summarize	-11.4351
▁summoning	-11.4351
▁sunflower	-11.4351
▁superb	-11.4351
▁supercharge	-11.4351
▁superficial	-11.4351
▁supermarket	-11.4351
▁supportively	-11.4351
▁suppressed	-11.4351
▁sur	-11.4351
▁surefire	-11.4351
▁surge	-11.4351
▁surprising	-11.4351
▁surprisingly	-11.4351
▁surrender	-11.4351
▁surround	-11.4351
▁sweep	-11.4351
▁swell	-11.4351
▁switching	-11.4351
▁swollen	-11.4351
▁symtoms	-11.4351
▁tablet	-11.4351
▁tacke	-11.4351
▁tacoma	-11.4351
▁tactful	-11.4351
▁tag	-11.4351
▁taichi	-11.4351
▁tailspin	-11.4351
▁taker	-11.4351
▁tasking	-11.4351
▁tasted	-11.4351
▁taxing	-11.4351
▁taylor	-11.4351
▁teamwork	-11.4351
▁teddy	-11.4351
▁telegram	-11.4351
▁telephone	-11.4351
▁telltale	-11.4351
▁temporal	-11.4351
▁tenaciously	-11.4351
▁tennessee	-11.4351
▁terminating	-11.4351
▁terrorist	-11.4351
▁testosterone	-11.4351
▁tether	-11.4351
▁thanksgiving	-11.4351
▁thc	-11.4351
▁theatrics	-11.4351
▁theoretical	-11.4351
▁theyve	-11.4351
▁thick	-11.4351
▁thin	-11.4351
▁thingy	-11.4351
▁thinning	-11.4351
▁thirsty	-11.4351
▁thoughs	-11.4351
▁thoughtctrl	-11.4351
▁thoughtful	-11.4351
▁thrash	-11.4351
▁thriving	-11.4351
▁throbbing	-11.4351
▁thunderstorm	-11.4351
▁thy	-11.4351
▁tibet	-11.4351
▁ticket	-11.4351
▁tier	-11.4351
▁tiger	-11.4351
▁tim	-11.4351
▁timely	-11.4351
▁tireless	-11.4351
▁titled	-11.4351
▁tizzy	-11.4351
▁toast	-11.4351
▁toddler	-11.4351
▁toiled	-11.4351
▁toiling	-11.4351
▁tolerates	-11.4351
▁tony	-11.4351
▁torn	-11.4351
▁tortured	-11.4351
▁tossed	-11.4351
▁tougher	-11.4351
▁toughest	-11.4351
▁tought	-11.4351
▁tour	-11.4351
▁touring	-11.4351
▁tourist	-11.4351
▁traced	-11.4351
▁tracing	-11.4351
▁tragic	-11.4351
▁tranquillity	-11.4351
▁transcendent	-11.4351
▁transfer	-11.4351
▁transformative	-11.4351
▁transformed	-11.4351
▁transition	-11.4351
▁translate	-11.4351
▁transmit	-11.4351
▁transmits	-11.4351
▁transmitted	-11.4351
▁transmitting	-11.4351
▁transphobic	-11.4351
▁trapping	-11.4351
▁travail	-11.4351
▁trazodone	-11.4351
▁treading	-11.4351
▁trending	-11.4351
▁triathlete	-11.4351
▁tricky	-11.4351
▁trigeminal	-11.4351
▁trillion	-11.4351
▁tripped	-11.4351
▁trivial	-11.4351
▁tropical	-11.4351
▁troubled	-11.4351
▁truely	-11.4351
▁truthful	-11.4351
▁truthfully	-11.4351
▁tryptophan	-11.4351
▁tumblr	-11.4351
▁tumor	-11.4351
▁tweak	-11.4351
▁tycoon	-11.4351
▁typo	-11.4351
▁tyson	-11.4351
▁uglier	-11.4351
▁ugliness	-11.4351
▁ukraine	-11.4351
▁ultramarathon	-11.4351
▁unachievable	-11.4351
▁unappealing	-11.4351
▁unattainable	-11.4351
▁unattractive	-11.4351
▁unavoidable	-11.4351
▁unbelievable	-11.4351
▁unbelievably	-11.4351
▁uncaring	-11.4351
▁uncontrollable	-11.4351
▁uncontrolled	-11.4351
▁uncover	-11.4351
▁uncreadible	-11.4351
▁undateable	-11.4351
▁undecided	-11.4351
▁underage	-11.4351
▁underemployment	-11.4351
▁undergoing	-11.4351
▁underground	-11.4351
▁underperformed	-11.4351
▁understandable	-11.4351
▁underwent	-11.4351
▁undisputed	-11.4351
▁undoing	-11.4351
▁unenthusiastic	-11.4351
▁unfairly	-11.4351
▁unfamiliar	-11.4351
▁unfollowed	-11.4351
▁unfriended	-11.4351
▁unhappiness	-11.4351
▁unifying	-11.4351
▁unimaginable	-11.4351
▁uninspired	-11.4351
▁unmatched	-11.4351
▁unnoticed	-11.4351
▁unorganised	-11.4351
▁unravel	-11.4351
▁unrelated	-11.4351
▁unreleased	-11.4351
▁unreliable	-11.4351
▁unrepresentative	-11.4351
▁unseen	-11.4351
▁unsupervised	-11.4351
▁untangle	-11.4351
▁untiled	-11.4351
▁unworthy	-11.4351
▁upbringing	-11.4351
▁uplifted	-11.4351
▁uploaded	-11.4351
▁upped	-11.4351
▁upscale	-11.4351
▁upturn	-11.4351
▁upvotes	-11.4351
▁urged	-11.4351
▁usa	-11.4351
▁usb	-11.4351
▁usefulness	-11.4351
▁utc	-11.4351
▁utilizing	-11.4351
▁utterly	-11.4351
▁vacate	-11.4351
▁vaccinated	-11.4351
▁valium	-11.4351
▁valorant	-11.4351
▁vancouver	-11.4351
▁vape	-11.4351
▁vaping	-11.4351
▁variable	-11.4351
▁variating	-11.4351
▁varied	-11.4351
▁varies	-11.4351
▁vba	-11.4351
▁veg	-11.4351
▁veggie	-11.4351
▁vein	-11.4351
▁ventilator	-11.4351
▁verbal	-11.4351
▁vibrate	-11.4351
▁vic	-11.4351
▁viewpoint	-11.4351
▁vigour	-11.4351
▁village	-11.4351
▁virgin	-11.4351
▁virginity	-11.4351
▁virtue	-11.4351
▁visualise	-11.4351
▁visualize	-11.4351
▁visually	-11.4351
▁voiceless	-11.4351
▁volatility	-11.4351
▁volontarily	-11.4351
▁vortex	-11.4351
▁wallowing	-11.4351
▁walter	-11.4351
▁wandsworth	-11.4351
▁warden	-11.4351
▁warmer	-11.4351
▁warming	-11.4351
▁warnock	-11.4351
▁warrant	-11.4351
▁warren	-11.4351
▁warzones	-11.4351
▁watering	-11.4351
▁wavy	-11.4351
▁weaker	-11.4351
▁weakest	-11.4351
▁weakling	-11.4351
▁webpage	-11.4351
▁weighing	-11.4351
▁weighted	-11.4351
▁weirder	-11.4351
▁weirdly	-11.4351
▁western	-11.4351
▁wfh	-11.4351
▁wheter	-11.4351
▁whiffed	-11.4351
▁whimper	-11.4351
▁whining	-11.4351
▁whirling	-11.4351
▁wholeheartedly	-11.4351
▁whoo	-11.4351
▁whta	-11.4351
▁wich	-11.4351
▁wider	-11.4351
▁wifi	-11.4351
▁wig	-11.4351
▁wikipedia	-11.4351
▁willingness	-11.4351
▁wilson	-11.4351
▁wince	-11.4351
▁wiriter	-11.4351
▁withdraw	-11.4351
▁withdrawn	-11.4351
▁witness	-11.4351
▁witnessed	-11.4351
▁woe	-11.4351
▁woeful	-11.4351
▁wonna	-11.4351
▁woozy	-11.4351
▁workflow	-11.4351
▁worsened	-11.4351
▁worsening	-11.4351
▁worthiness	-11.4351
▁worthlessness	-11.4351
▁worthwhile	-11.4351
▁wouldve	-11.4351
▁wreck	-11.4351
▁wrecked	-11.4351
▁wven	-11.4351
▁xr	-11.4351
▁xy	-11.4351
▁yearns	-11.4351
▁yee	-11.4351
▁yikies	-11.4351
▁youngest	-11.4351
▁youngster	-11.4351
▁youtuber	-11.4351
▁yummy	-11.4351
▁zawaideh	-11.4351
▁zealand	-11.4351
▁zen	-11.4351
▁zombie	-11.4351
▁aaoa	-12.1282
▁aarrrrggghhh	-12.1282
▁aau	-12.1282
▁ab	-12.1282
▁abdomin	-12.1282
▁abide	-12.1282
▁aborigine	-12.1282
▁aboslutey	-12.1282
▁abotu	-12.1282
▁abrasion	-12.1282
▁abruptly	-12.1282
▁abscess	-12.1282
▁absorbing	-12.1282
▁accelerate	-12.1282
▁accidental	-12.1282
▁accidently	-12.1282
▁acclimated	-12.1282
▁accommodating	-12.1282
▁accompanied	-12.1282
▁accomplice	-12.1282
▁accumulated	-12.1282
▁accumulation	-12.1282
▁accusation	-12.1282
▁accuse	-12.1282
▁accusing	-12.1282
▁accusion	-12.1282
▁achieves	-12.1282
▁acne	-12.1282
▁acquired	-12.1282
▁acrid	-12.1282
▁actionable	-12.1282
▁activism	-12.1282
▁activist	-12.1282
▁adam	-12.1282
▁adaptable	-12.1282
▁adaptation	-12.1282
▁adaptogen	-12.1282
▁adept	-12.1282
▁admin	-12.1282
▁administration	-12.1282
▁adoptdontshop	-12.1282
▁adoration	-12.1282
▁adrenalin	-12.1282
▁advantageous	-12.1282
▁adventurous	-12.1282
▁advert	-12.1282
▁advertise	-12.1282
▁advertisement	-12.1282
▁advising	-12.1282
▁advisory	-12.1282
▁aerobic	-12.1282
▁affective	-12.1282
▁affiliate	-12.1282
▁affiliation	-12.1282
▁affirming	-12.1282
▁afflicted	-12.1282
▁affords	-12.1282
▁affraid	-12.1282
▁afghanistan	-12.1282
▁afloat	-12.1282
▁afriad	-12.1282
▁africa	-12.1282
▁african	-12.1282
▁afterlife	-12.1282
▁afterschool	-12.1282
▁agent	-12.1282
▁aggressively	-12.1282
▁agitation	-12.1282
▁agonising	-12.1282
▁agressive	-12.1282
▁agressively	-12.1282
▁agressvely	-12.1282
▁agrophobic	-12.1282
▁aha	-12.1282
▁ahhh	-12.1282
▁ai	-12.1282
▁aiming	-12.1282
▁aimless	-12.1282
▁aircraft	-12.1282
▁airline	-12.1282
▁airport	-12.1282
▁aisle	-12.1282
▁akhiles	-12.1282
▁akhilesarmyofawesome	-12.1282
▁akin	-12.1282
▁aknowledged	-12.1282
▁albania	-12.1282
▁alchemist	-12.1282
▁alchemy	-12.1282
▁alcolism	-12.1282
▁alexa	-12.1282
▁alienation	-12.1282
▁aligns	-12.1282
▁allergic	-12.1282
▁allocated	-12.1282
▁allotted	-12.1282
▁allowance	-12.1282
▁allways	-12.1282
▁aloofness	-12.1282
▁alopecia	-12.1282
▁alphonse	-12.1282
▁alter	-12.1282
▁alternate	-12.1282
▁alters	-12.1282
▁altetness	-12.1282
▁alto	-12.1282
▁alveolus	-12.1282
▁amaalzaza	-12.1282
▁ambiance	-12.1282
▁amend	-12.1282
▁amends	-12.1282
▁amenity	-12.1282
▁amidst	-12.1282
▁amino	-12.1282
▁aminobutyric	-12.1282
▁ammal	-12.1282
▁amorphousness	-12.1282
▁amounting	-12.1282
▁amplify	-12.1282
▁amputation	-12.1282
▁analyse	-12.1282
▁analytical	-12.1282
▁analyzed	-12.1282
▁anatomy	-12.1282
▁andew	-12.1282
▁andrea	-12.1282
▁andrew	-12.1282
▁androgenetic	-12.1282
▁andy	-12.1282
▁aneurism	-12.1282
▁ang	-12.1282
▁anguish	-12.1282
▁animated	-12.1282
▁anki	-12.1282
▁ann	-12.1282
▁announcement	-12.1282
▁annoyance	-12.1282
▁annual	-12.1282
▁antacid	-12.1282
▁anthropoligist	-12.1282
▁anticipate	-12.1282
▁anticipation	-12.1282
▁antioxidant	-12.1282
▁antisocial	-12.1282
▁antonia	-12.1282
▁antything	-12.1282
▁anuthing	-12.1282
▁anwser	-12.1282
▁anwsers	-12.1282
▁anxiolytic	-12.1282
▁anythings	-12.1282
▁anywho	-12.1282
▁apnea	-12.1282
▁apocalyptic	-12.1282
▁apolitical	-12.1282
▁appaling	-12.1282
▁apparel	-12.1282
▁appartement	-12.1282
▁appeal	-12.1282
▁appearing	-12.1282
▁apperenrly	-12.1282
▁appetizer	-12.1282
▁appliance	-12.1282
▁apppreactied	-12.1282
▁appraisal	-12.1282
▁appreciates	-12.1282
▁appreicated	-12.1282
▁apprenticeship	-12.1282
▁approaching	-12.1282
▁appropriately	-12.1282
▁aptitude	-12.1282
▁arabic	-12.1282
▁arby	-12.1282
▁arctic	-12.1282
▁ard	-12.1282
▁arduous	-12.1282
▁arguably	-12.1282
▁arhan	-12.1282
▁arleady	-12.1282
▁armchair	-12.1282
▁armenia	-12.1282
▁arnold	-12.1282
▁aroma	-12.1282
▁aromatic	-12.1282
▁arranged	-12.1282
▁arrangement	-12.1282
▁arrest	-12.1282
▁arrgh	-12.1282
▁arrived	-12.1282
▁arriving	-12.1282
▁arrogant	-12.1282
▁arrogantly	-12.1282
▁artistic	-12.1282
▁artistry	-12.1282
▁asperger	-12.1282
▁aspire	-12.1282
▁ass	-12.1282
▁assaulted	-12.1282
▁assed	-12.1282
▁assert	-12.1282
▁assortment	-12.1282
▁assumed	-12.1282
▁astonishing	-12.1282
▁astonishment	-12.1282
▁astral	-12.1282
▁astrology	-12.1282
▁aswel	-12.1282
▁atlanta	-12.1282
▁atmospheric	-12.1282
▁atomoxetine	-12.1282
▁atrittion	-12.1282
▁attach	-12.1282
▁attaching	-12.1282
▁attracting	-12.1282
▁attractiveness	-12.1282
▁attuned	-12.1282
▁audacity	-12.1282
▁audience	-12.1282
▁aussie	-12.1282
▁austin	-12.1282
▁australian	-12.1282
▁austria	-12.1282
▁authorattn	-12.1282
▁authority	-12.1282
▁authorized	-12.1282
▁automated	-12.1282
▁automates	-12.1282
▁automotive	-12.1282
▁avail	-12.1282
▁avalanche	-12.1282
▁avatar	-12.1282
▁avenue	-12.1282
▁aversion	-12.1282
▁avoidance	-12.1282
▁avoids	-12.1282
▁avoir	-12.1282
▁await	-12.1282
▁awe	-12.1282
▁awkwardly	-12.1282
▁awnser	-12.1282
▁ayurvedic	-12.1282
▁aztec	-12.1282
▁babbling	-12.1282
▁baboon	-12.1282
▁babysitter	-12.1282
▁backfire	-12.1282
▁backing	-12.1282
▁backlag	-12.1282
▁backpack	-12.1282
▁backsliding	-12.1282
▁backspaced	-12.1282
▁backstories	-12.1282
▁badge	-12.1282
▁badminton	-12.1282
▁bailed	-12.1282
▁balantly	-12.1282
▁balles	-12.1282
▁bam	-12.1282
▁ban	-12.1282
▁bandaid	-12.1282
▁banger	-12.1282
▁bangin	-12.1282
▁banging	-12.1282
▁bangladesh	-12.1282
▁bankrupt	-12.1282
▁bankruptcy	-12.1282
▁banter	-12.1282
▁bar	-12.1282
▁barbiee	-12.1282
▁barr	-12.1282
▁barrel	-12.1282
▁barren	-12.1282
▁barricade	-12.1282
▁basicly	-12.1282
▁batch	-12.1282
▁battery	-12.1282
▁batting	-12.1282
▁bawl	-12.1282
▁bbq	-12.1282
▁bcak	-12.1282
▁beabadoobee	-12.1282
▁beachside	-12.1282
▁beacuse	-12.1282
▁bearly	-12.1282
▁beast	-12.1282
▁beautifully	-12.1282
▁becausw	-12.1282
▁beckons	-12.1282
▁becouse	-12.1282
▁bedding	-12.1282
▁bedwetting	-12.1282
▁beeing	-12.1282
▁beforelife	-12.1282
▁befriend	-12.1282
▁befriending	-12.1282
▁begs	-12.1282
▁behalf	-12.1282
▁behaved	-12.1282
▁behaves	-12.1282
▁behavoir	-12.1282
▁beholder	-12.1282
▁beige	-12.1282
▁belching	-12.1282
▁beleicve	-12.1282
▁belittle	-12.1282
▁belittling	-12.1282
▁belive	-12.1282
▁bella	-12.1282
▁belligerently	-12.1282
▁belonging	-12.1282
▁belongs	-12.1282
▁bemindfulonline	-12.1282
▁ben	-12.1282
▁benadryl	-12.1282
▁bengaluru	-12.1282
▁bentley	-12.1282
▁bestfriend	-12.1282
▁bestfriends	-12.1282
▁besties	-12.1282
▁bestseller	-12.1282
▁betraying	-12.1282
▁beverage	-12.1282
▁bfa	-12.1282
▁bff	-12.1282
▁bhe	-12.1282
▁bhramari	-12.1282
▁bigoted	-12.1282
▁billing	-12.1282
▁binding	-12.1282
▁binging	-12.1282
▁biography	-12.1282
▁bisexual	-12.1282
▁bitcoin	-12.1282
▁bitten	-12.1282
▁bitterly	-12.1282
▁blackpillers	-12.1282
▁blanchard	-12.1282
▁bland	-12.1282
▁blankly	-12.1282
▁blast	-12.1282
▁blasted	-12.1282
▁blasting	-12.1282
▁blemish	-12.1282
▁blesses	-12.1282
▁blindsided	-12.1282
▁blink	-12.1282
▁blissfully	-12.1282
▁bloated	-12.1282
▁blod	-12.1282
▁blogger	-12.1282
▁bloodstream	-12.1282
▁blundell	-12.1282
▁blunt	-12.1282
▁blurred	-12.1282
▁bnot	-12.1282
▁bodybuilding	-12.1282
▁bodywork	-12.1282
▁boeing	-12.1282
▁bogus	-12.1282
▁bohoo	-12.1282
▁bombard	-12.1282
▁bomber	-12.1282
▁bona	-12.1282
▁bonded	-12.1282
▁bonjour	-12.1282
▁bookcase	-12.1282
▁booked	-12.1282
▁bookshelf	-12.1282
▁bootstrap	-12.1282
▁borough	-12.1282
▁borrow	-12.1282
▁borrowed	-12.1282
▁botched	-12.1282
▁botswana	-12.1282
▁bottling	-12.1282
▁bouncing	-12.1282
▁bound	-12.1282
▁bpm	-12.1282
▁brace	-12.1282
▁braid	-12.1282
▁braincells	-12.1282
▁brainfog	-12.1282
▁brainwashing	-12.1282
▁branding	-12.1282
▁brandish	-12.1282
▁breadth	-12.1282
▁breakneck	-12.1282
▁breakout	-12.1282
▁breathtaking	-12.1282
▁bride	-12.1282
▁bridging	-12.1282
▁brighten	-12.1282
▁brightening	-12.1282
▁britain	-12.1282
▁british	-12.1282
▁britney	-12.1282
▁broadcast	-12.1282
▁broader	-12.1282
▁broadly	-12.1282
▁broadway	-12.1282
▁broccoli	-12.1282
▁brokenness	-12.1282
▁bronson	-12.1282
▁brotherelisoriano	-12.1282
▁browser	-12.1282
▁brunt	-12.1282
▁bud	-12.1282
▁budda	-12.1282
▁buddy	-12.1282
▁budge	-12.1282
▁bugging	-12.1282
▁buisiness	-12.1282
▁buisness	-12.1282
▁bulking	-12.1282
▁bulldog	-12.1282
▁bullet	-12.1282
▁bulletproof	-12.1282
▁bundled	-12.1282
▁bungee	-12.1282
▁burdened	-12.1282
▁burdnern	-12.1282
▁burkina	-12.1282
▁burping	-12.1282
▁burundi	-12.1282
▁bury	-12.1282
▁bussy	-12.1282
▁bust	-12.1282
▁bustedandblack	-12.1282
▁busyness	-12.1282
▁butter	-12.1282
▁buttock	-12.1282
▁button	-12.1282
▁bystander	-12.1282
▁byw	-12.1282
▁ca	-12.1282
▁cab	-12.1282
▁cable	-12.1282
▁cacophony	-12.1282
▁cafe	-12.1282
▁cagegory	-12.1282
▁calculated	-12.1282
▁calf	-12.1282
▁california	-12.1282
▁calorie	-12.1282
▁cam	-12.1282
▁camel	-12.1282
▁camp	-12.1282
▁campground	-12.1282
▁camping	-12.1282
▁cancelling	-12.1282
▁canoe	-12.1282
▁canola	-12.1282
▁canopy	-12.1282
▁captioned	-12.1282
▁capturing	-12.1282
▁cardiac	-12.1282
▁carefree	-12.1282
▁caregiving	-12.1282
▁carl	-12.1282
▁carnivorous	-12.1282
▁carol	-12.1282
▁carpet	-12.1282
▁carreer	-12.1282
▁cart	-12.1282
▁cartoon	-12.1282
▁cascade	-12.1282
▁cashier	-12.1282
▁casino	-12.1282
▁caster	-12.1282
▁castle	-12.1282
▁catacholamines	-12.1282
▁catalyst	-12.1282
▁catecholamine	-12.1282
▁caterpillar	-12.1282
▁catharsis	-12.1282
▁cattle	-12.1282
▁cave	-12.1282
▁cavity	-12.1282
▁ccertain	-12.1282
▁cedar	-12.1282
▁cellular	-12.1282
▁central	-12.1282
▁cerebral	-12.1282
▁cerified	-12.1282
▁cert	-12.1282
▁cfts	-12.1282
▁chad	-12.1282
▁chamber	-12.1282
▁champion	-12.1282
▁channeling	-12.1282
▁channelise	-12.1282
▁chanting	-12.1282
▁charactestic	-12.1282
▁charging	-12.1282
▁charles	-12.1282
▁charlotte	-12.1282
▁cheek	-12.1282
▁cheerleader	-12.1282
▁cheery	-12.1282
▁chegg	-12.1282
▁chemo	-12.1282
▁chennai	-12.1282
▁cherished	-12.1282
▁cherokee	-12.1282
▁chez	-12.1282
▁chickened	-12.1282
▁childless	-12.1282
▁chillllll	-12.1282
▁chime	-12.1282
▁chinese	-12.1282
▁cholesterol	-12.1282
▁choosing	-12.1282
▁chop	-12.1282
▁chopstick	-12.1282
▁christ	-12.1282
▁chromebooks	-12.1282
▁chronicly	-12.1282
▁chtbl	-12.1282
▁cinnamon	-12.1282
▁circus	-12.1282
▁citalopram	-12.1282
▁citified	-12.1282
▁civic	-12.1282
▁civilization	-12.1282
▁claivoyance	-12.1282
▁clambering	-12.1282
▁clamped	-12.1282
▁clapping	-12.1282
▁claustrophobic	-12.1282
▁clay	-12.1282
▁clearer	-12.1282
▁cleft	-12.1282
▁clerical	-12.1282
▁clerk	-12.1282
▁clever	-12.1282
▁climbed	-12.1282
▁cling	-12.1282
▁clingy	-12.1282
▁clique	-12.1282
▁cloak	-12.1282
▁clocking	-12.1282
▁clonazepam	-12.1282
▁clone	-12.1282
▁closely	-12.1282
▁cloth	-12.1282
▁clouding	-12.1282
▁clump	-12.1282
▁clutching	-12.1282
▁cm	-12.1282
▁cmo	-12.1282
▁cna	-12.1282
▁cnn	-12.1282
▁coast	-12.1282
▁coaxing	-12.1282
▁coconut	-12.1282
▁coexistence	-12.1282
▁colder	-12.1282
▁collaborating	-12.1282
▁collantes	-12.1282
▁collapsed	-12.1282
▁collar	-12.1282
▁collateral	-12.1282
▁collecting	-12.1282
▁collobaration	-12.1282
▁colombo	-12.1282
▁colour	-12.1282
▁colourless	-12.1282
▁comeback	-12.1282
▁comedic	-12.1282
▁comeing	-12.1282
▁comforted	-12.1282
▁commence	-12.1282
▁commiserate	-12.1282
▁commissioned	-12.1282
▁commonality	-12.1282
▁commonly	-12.1282
▁commonplace	-12.1282
▁communicated	-12.1282
▁communicating	-12.1282
▁comoros	-12.1282
▁competes	-12.1282
▁competing	-12.1282
▁complained	-12.1282
▁compliance	-12.1282
▁complicate	-12.1282
▁complicating	-12.1282
▁complication	-12.1282
▁complied	-12.1282
▁compose	-12.1282
▁compounding	-12.1282
▁comprehend	-12.1282
▁conceivable	-12.1282
▁conclude	-12.1282
▁condemn	-12.1282
▁condescending	-12.1282
▁cone	-12.1282
▁conecernkng	-12.1282
▁confessed	-12.1282
▁confidencecoach	-12.1282
▁confirmation	-12.1282
▁conflicted	-12.1282
▁conformity	-12.1282
▁confrontation	-12.1282
▁confronted	-12.1282
▁confuzzle	-12.1282
▁congestion	-12.1282
▁congo	-12.1282
▁conjunction	-12.1282
▁consedring	-12.1282
▁considers	-12.1282
▁consisentcy	-12.1282
▁consisting	-12.1282
▁conspiring	-12.1282
▁constally	-12.1282
▁constipation	-12.1282
▁constituted	-12.1282
▁construct	-12.1282
▁constructing	-12.1282
▁constructive	-12.1282
▁consult	-12.1282
▁consultant	-12.1282
▁consumes	-12.1282
▁contained	-12.1282
▁contemplating	-12.1282
▁contemporary	-12.1282
▁contempt	-12.1282
▁contemptible	-12.1282
▁continuousness	-12.1282
▁contradiction	-12.1282
▁contradicts	-12.1282
▁contrast	-12.1282
▁controversy	-12.1282
▁convalescing	-12.1282
▁convenience	-12.1282
▁converse	-12.1282
▁converstation	-12.1282
▁converted	-12.1282
▁converting	-12.1282
▁conviction	-12.1282
▁convo	-12.1282
▁convos	-12.1282
▁convulsive	-12.1282
▁coolcatwon	-12.1282
▁cooler	-12.1282
▁coolio	-12.1282
▁cooped	-12.1282
▁copd	-12.1282
▁copious	-12.1282
▁copywriter	-12.1282
▁cord	-12.1282
▁corneal	-12.1282
▁corrective	-12.1282
▁correlate	-12.1282
▁correlative	-12.1282
▁correspondence	-12.1282
▁cortex	-12.1282
▁costa	-12.1282
▁cough	-12.1282
▁countdown	-12.1282
▁countenance	-12.1282
▁coupled	-12.1282
▁courted	-12.1282
▁courteous	-12.1282
▁courtroom	-12.1282
▁covering	-12.1282
▁cower	-12.1282
▁cpstd	-12.1282
▁cptsd	-12.1282
▁crackhead	-12.1282
▁cramed	-12.1282
▁cramp	-12.1282
▁cramped	-12.1282
▁crankier	-12.1282
▁crasher	-12.1282
▁crawl	-12.1282
▁crawling	-12.1282
▁cream	-12.1282
▁creatives	-12.1282
▁creeped	-12.1282
▁creeping	-12.1282
▁crematorium	-12.1282
▁crew	-12.1282
▁crf	-12.1282
▁crier	-12.1282
▁cringey	-12.1282
▁crinkled	-12.1282
▁critically	-12.1282
▁criticise	-12.1282
▁criticize	-12.1282
▁croaking	-12.1282
▁crude	-12.1282
▁crumbled	-12.1282
▁crybaby	-12.1282
▁crystallizes	-12.1282
▁csep	-12.1282
▁csikszentmihalyi	-12.1282
▁cth	-12.1282
▁cu	-12.1282
▁culminated	-12.1282
▁cult	-12.1282
▁cultivated	-12.1282
▁cultivating	-12.1282
▁cultural	-12.1282
▁cumbersome	-12.1282
▁cupboard	-12.1282
▁cuppa	-12.1282
▁curating	-12.1282
▁curb	-12.1282
▁curcumin	-12.1282
▁curling	-12.1282
▁curly	-12.1282
▁curse	-12.1282
▁cushion	-12.1282
▁custody	-12.1282
▁customized	-12.1282
▁cw	-12.1282
▁cya	-12.1282
▁cyberstalk	-12.1282
▁cyberstalker	-12.1282
▁cymbalta	-12.1282
▁czechia	-12.1282
▁da	-12.1282
▁daan	-12.1282
▁dae	-12.1282
▁dairy	-12.1282
▁dalliance	-12.1282
▁damned	-12.1282
▁damped	-12.1282
▁dan	-12.1282
▁dang	-12.1282
▁dangle	-12.1282
▁daryl	-12.1282
▁dashed	-12.1282
▁davinciresolve	-12.1282
▁dawn	-12.1282
▁dawned	-12.1282
▁daybreaker	-12.1282
▁dbt	-12.1282
▁deactivated	-12.1282
▁dealer	-12.1282
▁dearly	-12.1282
▁deathbed	-12.1282
▁debilitating	-12.1282
▁debit	-12.1282
▁decayed	-12.1282
▁decease	-12.1282
▁deceit	-12.1282
▁decency	-12.1282
▁decimal	-12.1282
▁decipher	-12.1282
▁deck	-12.1282
▁declaration	-12.1282
▁declared	-12.1282
▁decorative	-12.1282
▁deepen	-12.1282
▁default	-12.1282
▁defect	-12.1282
▁defiantly	-12.1282
▁defination	-12.1282
▁defined	-12.1282
▁definetly	-12.1282
▁deflated	-12.1282
▁deflect	-12.1282
▁degeneracy	-12.1282
▁degrading	-12.1282
▁dehydrated	-12.1282
▁deity	-12.1282
▁delegate	-12.1282
▁deliberation	-12.1282
▁delicate	-12.1282
▁delicious	-12.1282
▁delisabranchnealy	-12.1282
▁deluding	-12.1282
▁demean	-12.1282
▁demonstrate	-12.1282
▁demonstrated	-12.1282
▁deniability	-12.1282
▁denmark	-12.1282
▁denounce	-12.1282
▁dense	-12.1282
▁densest	-12.1282
▁departing	-12.1282
▁dependable	-12.1282
▁dependant	-12.1282
▁deplete	-12.1282
▁deploying	-12.1282
▁deposit	-12.1282
▁deposited	-12.1282
▁depress	-12.1282
▁depressingly	-12.1282
▁deprivation	-12.1282
▁derby	-12.1282
▁deression	-12.1282
▁designated	-12.1282
▁designer	-12.1282
▁designing	-12.1282
▁despressed	-12.1282
▁destress	-12.1282
▁detector	-12.1282
▁detects	-12.1282
▁deter	-12.1282
▁determining	-12.1282
▁detract	-12.1282
▁devalues	-12.1282
▁developer	-12.1282
▁develops	-12.1282
▁deviation	-12.1282
▁devides	-12.1282
▁devistating	-12.1282
▁devoid	-12.1282
▁devoted	-12.1282
▁devoting	-12.1282
▁devouring	-12.1282
▁diafram	-12.1282
▁diagnostic	-12.1282
▁dialed	-12.1282
▁diameter	-12.1282
▁diaper	-12.1282
▁diaphragm	-12.1282
▁diazepam	-12.1282
▁dictated	-12.1282
▁differs	-12.1282
▁digest	-12.1282
▁dilation	-12.1282
▁diligence	-12.1282
▁dilution	-12.1282
▁dilutional	-12.1282
▁dime	-12.1282
▁dimension	-12.1282
▁diminishes	-12.1282
▁dining	-12.1282
▁dipping	-12.1282
▁directing	-12.1282
▁directionless	-12.1282
▁directs	-12.1282
▁disagreed	-12.1282
▁disappointement	-12.1282
▁disapproving	-12.1282
▁disassociated	-12.1282
▁disassociation	-12.1282
▁discard	-12.1282
▁discharged	-12.1282
▁disciple	-12.1282
▁disclosed	-12.1282
▁discontentment	-12.1282
▁discontinued	-12.1282
▁discontinuing	-12.1282
▁discounting	-12.1282
▁discovering	-12.1282
▁discovery	-12.1282
▁disdain	-12.1282
▁diseased	-12.1282
▁dishonest	-12.1282
▁dishonesty	-12.1282
▁dishwasher	-12.1282
▁disingenuous	-12.1282
▁disinterest	-12.1282
▁disinterested	-12.1282
▁disliking	-12.1282
▁disorganized	-12.1282
▁disowned	-12.1282
▁dispair	-12.1282
▁dispelled	-12.1282
▁displacement	-12.1282
▁display	-12.1282
▁displayed	-12.1282
▁displeasure	-12.1282
▁disposable	-12.1282
▁dispraxic	-12.1282
▁disregarding	-12.1282
▁disrespect	-12.1282
▁disrupt	-12.1282
▁disrupting	-12.1282
▁dissapear	-12.1282
▁dissapoint	-12.1282
▁dissapointment	-12.1282
▁dissappear	-12.1282
▁dissect	-12.1282
▁disserve	-12.1282
▁dissociate	-12.1282
▁dissociated	-12.1282
▁dissociating	-12.1282
▁disstress	-12.1282
▁distaste	-12.1282
▁distilled	-12.1282
▁distinguish	-12.1282
▁distressing	-12.1282
▁distributed	-12.1282
▁disturb	-12.1282
▁dive	-12.1282
▁divert	-12.1282
▁divided	-12.1282
▁divinely	-12.1282
▁divisional	-12.1282
▁dming	-12.1282
▁doable	-12.1282
▁doctoral	-12.1282
▁documentation	-12.1282
▁doeasn	-12.1282
▁doggy	-12.1282
▁dollop	-12.1282
▁dom	-12.1282
▁domesticity	-12.1282
▁dominant	-12.1282
▁dominate	-12.1282
▁dominated	-12.1282
▁domino	-12.1282
▁donald	-12.1282
▁dong	-12.1282
▁donkey	-12.1282
▁donovan	-12.1282
▁doom	-12.1282
▁dope	-12.1282
▁dosage	-12.1282
▁doubting	-12.1282
▁douchebag	-12.1282
▁dough	-12.1282
▁downer	-12.1282
▁downloaded	-12.1282
▁downloads	-12.1282
▁downplay	-12.1282
▁downplayed	-12.1282
▁downright	-12.1282
▁downshift	-12.1282
▁downtown	-12.1282
▁downvote	-12.1282
▁downvoted	-12.1282
▁downvotes	-12.1282
▁downvoting	-12.1282
▁dozing	-12.1282
▁dragon	-12.1282
▁dramatically	-12.1282
▁drazizgazipura	-12.1282
▁dreading	-12.1282
▁dreamed	-12.1282
▁dreamt	-12.1282
▁dredge	-12.1282
▁drenched	-12.1282
▁dried	-12.1282
▁drier	-12.1282
▁drivign	-12.1282
▁drunken	-12.1282
▁drunkenness	-12.1282
▁dryer	-12.1282
▁ducking	-12.1282
▁duffle	-12.1282
▁dumbed	-12.1282
▁dumbells	-12.1282
▁dumber	-12.1282
▁dumbest	-12.1282
▁dumbfounded	-12.1282
▁dummy	-12.1282
▁dumspter	-12.1282
▁duy	-12.1282
▁dysphoric	-12.1282
▁dysthymia	-12.1282
▁eachothers	-12.1282
▁earbuds	-12.1282
▁earlyaccess	-12.1282
▁earphone	-12.1282
▁earring	-12.1282
▁earthy	-12.1282
▁eas	-12.1282
▁easterlin	-12.1282
▁eater	-12.1282
▁eats	-12.1282
▁echo	-12.1282
▁edith	-12.1282
▁educated	-12.1282
▁effecting	-12.1282
▁effed	-12.1282
▁effervescent	-12.1282
▁egg	-12.1282
▁eggshell	-12.1282
▁egocentric	-12.1282
▁eheh	-12.1282
▁einstein	-12.1282
▁elation	-12.1282
▁elbert	-12.1282
▁elbow	-12.1282
▁election	-12.1282
▁electrical	-12.1282
▁electrician	-12.1282
▁electro	-12.1282
▁electrocuted	-12.1282
▁electron	-12.1282
▁elemental	-12.1282
▁elephant	-12.1282
▁elles	-12.1282
▁embarassing	-12.1282
▁embark	-12.1282
▁embarrass	-12.1282
▁embryo	-12.1282
▁emdr	-12.1282
▁emerges	-12.1282
▁eminence	-12.1282
▁emitting	-12.1282
▁emmy	-12.1282
▁emojis	-12.1282
▁emotionality	-12.1282
▁empahisise	-12.1282
▁empath	-12.1282
▁empathised	-12.1282
▁emphaising	-12.1282
▁emphasize	-12.1282
▁employ	-12.1282
▁employing	-12.1282
▁empowering	-12.1282
▁en	-12.1282
▁encountered	-12.1282
▁endocrine	-12.1282
▁endogenously	-12.1282
▁endometriosis	-12.1282
▁endrant	-12.1282
▁endures	-12.1282
▁enduring	-12.1282
▁energized	-12.1282
▁eng	-12.1282
▁engagement	-12.1282
▁engine	-12.1282
▁engulfed	-12.1282
▁enhancement	-12.1282
▁enlighten	-12.1282
▁enormously	-12.1282
▁enourmous	-12.1282
▁enquiry	-12.1282
▁enrolling	-12.1282
▁entertained	-12.1282
▁entertaining	-12.1282
▁entertainment	-12.1282
▁enthrall	-12.1282
▁enthusiastic	-12.1282
▁entrance	-12.1282
▁entrusted	-12.1282
▁enunciating	-12.1282
▁envelope	-12.1282
▁enyone	-12.1282
▁epa	-12.1282
▁epidemic	-12.1282
▁equate	-12.1282
▁equip	-12.1282
▁equivalent	-12.1282
▁erase	-12.1282
▁erasing	-12.1282
▁ergo	-12.1282
▁ericfreeman	-12.1282
▁erm	-12.1282
▁ernestine	-12.1282
▁errand	-12.1282
▁erupted	-12.1282
▁escapist	-12.1282
▁escort	-12.1282
▁esophagus	-12.1282
▁espn	-12.1282
▁estimating	-12.1282
▁estrogen	-12.1282
▁eswatini	-12.1282
▁et	-12.1282
▁eternity	-12.1282
▁ethiopia	-12.1282
▁eu	-12.1282
▁evade	-12.1282
▁evaluated	-12.1282
▁evaluating	-12.1282
▁evangelist	-12.1282
▁evasive	-12.1282
▁eventho	-12.1282
▁eventual	-12.1282
▁everythi	-12.1282
▁everythings	-12.1282
▁eveyday	-12.1282
▁eveyrhting	-12.1282
▁eveything	-12.1282
▁evict	-12.1282
▁evoking	-12.1282
▁evolutionaly	-12.1282
▁exacerbate	-12.1282
▁exacting	-12.1282
▁examination	-12.1282
▁examine	-12.1282
▁exceed	-12.1282
▁exceeds	-12.1282
▁excercising	-12.1282
▁excitation	-12.1282
▁excite	-12.1282
▁exclaimed	-12.1282
▁excusing	-12.1282
▁execution	-12.1282
▁exemple	-12.1282
▁exemplifying	-12.1282
▁exhibition	-12.1282
▁existant	-12.1282
▁expands	-12.1282
▁expansion	-12.1282
▁expendable	-12.1282
▁expertise	-12.1282
▁expierenced	-12.1282
▁expierencing	-12.1282
▁expiration	-12.1282
▁expound	-12.1282
▁expoused	-12.1282
▁exquisite	-12.1282
▁extend	-12.1282
▁extolled	-12.1282
▁extracurriculars	-12.1282
▁extrovert	-12.1282
▁eyelid	-12.1282
▁eyyyy	-12.1282
▁faceless	-12.1282
▁facetime	-12.1282
▁facetimed	-12.1282
▁facilitates	-12.1282
▁facilitating	-12.1282
▁facility	-12.1282
▁factual	-12.1282
▁faded	-12.1282
▁fairness	-12.1282
▁faithful	-12.1282
▁falre	-12.1282
▁familiarized	-12.1282
▁familly	-12.1282
▁famously	-12.1282
▁fanaticism	-12.1282
▁fanboy	-12.1282
▁fantastical	-12.1282
▁fap	-12.1282
▁fare	-12.1282
▁farewell	-12.1282
▁farmer	-12.1282
▁fascinating	-12.1282
▁fase	-12.1282
▁fashion	-12.1282
▁faso	-12.1282
▁fastidiously	-12.1282
▁fatal	-12.1282
▁fatherhood	-12.1282
▁fatherless	-12.1282
▁fathom	-12.1282
▁fatigued	-12.1282
▁fatty	-12.1282
▁fauna	-12.1282
▁favor	-12.1282
▁favoured	-12.1282
▁faze	-12.1282
▁feasible	-12.1282
▁feather	-12.1282
▁federal	-12.1282
▁feild	-12.1282
▁felipe	-12.1282
▁feminism	-12.1282
▁femoral	-12.1282
▁fertility	-12.1282
▁fest	-12.1282
▁festive	-12.1282
▁festivity	-12.1282
▁fetish	-12.1282
▁fetus	-12.1282
▁fibromyalga	-12.1282
▁fictional	-12.1282
▁fide	-12.1282
▁fidgety	-12.1282
▁fiend	-12.1282
▁fierce	-12.1282
▁fiery	-12.1282
▁figths	-12.1282
▁fiji	-12.1282
▁filed	-12.1282
▁filmmaker	-12.1282
▁financed	-12.1282
▁findinghappiness	-12.1282
▁finest	-12.1282
▁finland	-12.1282
▁fir	-12.1282
▁firearm	-12.1282
▁firefighter	-12.1282
▁firstborn	-12.1282
▁fitbit	-12.1282
▁fitful	-12.1282
▁fixation	-12.1282
▁fizzle	-12.1282
▁fizzled	-12.1282
▁fk	-12.1282
▁flagged	-12.1282
▁flashing	-12.1282
▁flatlining	-12.1282
▁flatulence	-12.1282
▁flaunting	-12.1282
▁flavour	-12.1282
▁flawlessly	-12.1282
▁fled	-12.1282
▁flew	-12.1282
▁flex	-12.1282
▁flimsy	-12.1282
▁flinch	-12.1282
▁flinching	-12.1282
▁flippantly	-12.1282
▁flirty	-12.1282
▁floated	-12.1282
▁floating	-12.1282
▁flooded	-12.1282
▁floof	-12.1282
▁floored	-12.1282
▁flora	-12.1282
▁flourishing	-12.1282
▁fluctuates	-12.1282
▁fluid	-12.1282
▁flushed	-12.1282
▁fluting	-12.1282
▁flyer	-12.1282
▁fmp	-12.1282
▁fogged	-12.1282
▁fondest	-12.1282
▁font	-12.1282
▁foodie	-12.1282
▁fooling	-12.1282
▁foolish	-12.1282
▁footing	-12.1282
▁forcefully	-12.1282
▁foreigner	-12.1282
▁forgein	-12.1282
▁forging	-12.1282
▁forgiven	-12.1282
▁formally	-12.1282
▁forming	-12.1282
▁formulate	-12.1282
▁foul	-12.1282
▁fourth	-12.1282
▁fr	-12.1282
▁fracture	-12.1282
▁fragmentation	-12.1282
▁franc	-12.1282
▁francisco	-12.1282
▁frankie	-12.1282
▁fraternal	-12.1282
▁fraught	-12.1282
▁frayed	-12.1282
▁freelancer	-12.1282
▁freeman	-12.1282
▁freeness	-12.1282
▁freindly	-12.1282
▁freinds	-12.1282
▁fricken	-12.1282
▁fridayfeeling	-12.1282
▁friendless	-12.1282
▁friggin	-12.1282
▁frightened	-12.1282
▁fringe	-12.1282
▁frisbee	-12.1282
▁frisky	-12.1282
▁frontend	-12.1282
▁fronting	-12.1282
▁frosting	-12.1282
▁froze	-12.1282
▁frusterated	-12.1282
▁fsh	-12.1282
▁fucker	-12.1282
▁fuckign	-12.1282
▁fuelled	-12.1282
▁ful	-12.1282
▁fulfills	-12.1282
▁fulltime	-12.1282
▁funniest	-12.1282
▁fuq	-12.1282
▁fuqn	-12.1282
▁furry	-12.1282
▁fusion	-12.1282
▁futility	-12.1282
▁fuvking	-12.1282
▁g	-12.1282
▁gabrielshaw	-12.1282
▁gacha	-12.1282
▁gag	-12.1282
▁gainful	-12.1282
▁gal	-12.1282
▁gallon	-12.1282
▁gambia	-12.1282
▁gamma	-12.1282
▁gangmembers	-12.1282
▁garcia	-12.1282
▁gasoline	-12.1282
▁gasping	-12.1282
▁gastrointestinal	-12.1282
▁gazipura	-12.1282
▁geared	-12.1282
▁gearing	-12.1282
▁gen	-12.1282
▁generalized	-12.1282
▁generated	-12.1282
▁gently	-12.1282
▁genuinenly	-12.1282
▁georgia	-12.1282
▁gifted	-12.1282
▁gifting	-12.1282
▁gigantic	-12.1282
▁giggled	-12.1282
▁giggling	-12.1282
▁gimmick	-12.1282
▁ginanoeld	-12.1282
▁girly	-12.1282
▁gist	-12.1282
▁gliding	-12.1282
▁globe	-12.1282
▁globus	-12.1282
▁glock	-12.1282
▁gloom	-12.1282
▁glory	-12.1282
▁glove	-12.1282
▁glucocorticoid	-12.1282
▁glue	-12.1282
▁gnaw	-12.1282
▁goddamb	-12.1282
▁goddess	-12.1282
▁goer	-12.1282
▁gogetfunding	-12.1282
▁goin	-12.1282
▁goldfish	-12.1282
▁golf	-12.1282
▁gonit	-12.1282
▁goodnight	-12.1282
▁goofy	-12.1282
▁googled	-12.1282
▁goose	-12.1282
▁gorgeous	-12.1282
▁governed	-12.1282
▁gracefully	-12.1282
▁gracious	-12.1282
▁grammatical	-12.1282
▁grandchild	-12.1282
▁grasped	-12.1282
▁grasping	-12.1282
▁graveled	-12.1282
▁gravitate	-12.1282
▁gravitating	-12.1282
▁greatfull	-12.1282
▁greenspace	-12.1282
▁greenspaces	-12.1282
▁greet	-12.1282
▁greeting	-12.1282
▁greets	-12.1282
▁grid	-12.1282
▁grim	-12.1282
▁grin	-12.1282
▁grindr	-12.1282
▁grip	-12.1282
▁groin	-12.1282
▁groom	-12.1282
▁grouched	-12.1282
▁grouchy	-12.1282
▁groupon	-12.1282
▁growl	-12.1282
▁grp	-12.1282
▁gruesome	-12.1282
▁guarantee	-12.1282
▁guarded	-12.1282
▁guardianship	-12.1282
▁guest	-12.1282
▁guilted	-12.1282
▁guinea	-12.1282
▁guinness	-12.1282
▁gulp	-12.1282
▁gunsmithing	-12.1282
▁gush	-12.1282
▁gutted	-12.1282
▁gutter	-12.1282
▁gymnast	-12.1282
▁habitat	-12.1282
▁hack	-12.1282
▁hahahah	-12.1282
▁hahahaha	-12.1282
▁haiti	-12.1282
▁halo	-12.1282
▁halp	-12.1282
▁hammering	-12.1282
▁handicapped	-12.1282
▁handing	-12.1282
▁handsome	-12.1282
▁handwritten	-12.1282
▁hanged	-12.1282
▁hanh	-12.1282
▁happg	-12.1282
▁happybucketlife	-12.1282
▁hapy	-12.1282
▁harassed	-12.1282
▁harassing	-12.1282
▁hardwork	-12.1282
▁harley	-12.1282
▁harmonized	-12.1282
▁harping	-12.1282
▁harpreetsandhu	-12.1282
▁harr	-12.1282
▁harris	-12.1282
▁hart	-12.1282
▁hartford	-12.1282
▁harvey	-12.1282
▁hasnt	-12.1282
▁hassle	-12.1282
▁hatched	-12.1282
▁hateful	-12.1282
▁havnt	-12.1282
▁havoc	-12.1282
▁havve	-12.1282
▁hawk	-12.1282
▁hd	-12.1282
▁heartbreaking	-12.1282
▁hearted	-12.1282
▁heater	-12.1282
▁hebrew	-12.1282
▁heel	-12.1282
▁hehn	-12.1282
▁hellhole	-12.1282
▁helmet	-12.1282
▁helplessness	-12.1282
▁henderson	-12.1282
▁herd	-12.1282
▁hermit	-12.1282
▁hesitant	-12.1282
▁hfa	-12.1282
▁hiatus	-12.1282
▁highbrow	-12.1282
▁hiked	-12.1282
▁himan	-12.1282
▁hinder	-12.1282
▁hinduism	-12.1282
▁hippocampus	-12.1282
▁histrionics	-12.1282
▁hitted	-12.1282
▁hiv	-12.1282
▁hmmm	-12.1282
▁hnd	-12.1282
▁ho	-12.1282
▁hoarding	-12.1282
▁hoax	-12.1282
▁hobies	-12.1282
▁homemade	-12.1282
▁homemaker	-12.1282
▁homescreen	-12.1282
▁hometown	-12.1282
▁homophobia	-12.1282
▁hong	-12.1282
▁honored	-12.1282
▁hookup	-12.1282
▁hop	-12.1282
▁hopelessness	-12.1282
▁hopping	-12.1282
▁horrendous	-12.1282
▁horrified	-12.1282
▁horrifying	-12.1282
▁horticulture	-12.1282
▁hospitalisation	-12.1282
▁hostel	-12.1282
▁hotline	-12.1282
▁hotlines	-12.1282
▁hounslow	-12.1282
▁housewife	-12.1282
▁housework	-12.1282
▁housing	-12.1282
▁http	-12.1282
▁hubby	-12.1282
▁huberman	-12.1282
▁huffing	-12.1282
▁huh	-12.1282
▁hulu	-12.1282
▁huma	-12.1282
▁humanely	-12.1282
▁humanism	-12.1282
▁humanness	-12.1282
▁humid	-12.1282
▁humming	-12.1282
▁hunch	-12.1282
▁hunger	-12.1282
▁hungover	-12.1282
▁hunting	-12.1282
▁hurdle	-12.1282
▁hurry	-12.1282
▁hurtful	-12.1282
▁hut	-12.1282
▁hype	-12.1282
▁hyperawareness	-12.1282
▁hypersensitive	-12.1282
▁hypomanic	-12.1282
▁hypothalamic	-12.1282
▁hypothalamus	-12.1282
▁hypothermia	-12.1282
▁hysterectomy	-12.1282
▁hysterical	-12.1282
▁hysterically	-12.1282
▁ibuprophen	-12.1282
▁icecream	-12.1282
▁iceland	-12.1282
▁idek	-12.1282
▁identical	-12.1282
▁identifies	-12.1282
▁identifying	-12.1282
▁idiotic	-12.1282
▁idol	-12.1282
▁idolise	-12.1282
▁idw	-12.1282
▁illegal	-12.1282
▁illegally	-12.1282
▁illinois	-12.1282
▁illogical	-12.1282
▁illumination	-12.1282
▁illusionary	-12.1282
▁illustrates	-12.1282
▁illustrator	-12.1282
▁illustrious	-12.1282
▁ilnesses	-12.1282
▁ima	-12.1282
▁imaginings	-12.1282
▁imalive	-12.1282
▁imessage	-12.1282
▁immature	-12.1282
▁immaturity	-12.1282
▁immensely	-12.1282
▁immersed	-12.1282
▁immet	-12.1282
▁immidiatly	-12.1282
▁immoral	-12.1282
▁immunocompromised	-12.1282
▁imnotevenstressedanymore	-12.1282
▁impasse	-12.1282
▁impatient	-12.1282
▁impeccable	-12.1282
▁imperative	-12.1282
▁imperfect	-12.1282
▁implement	-12.1282
▁implementation	-12.1282
▁implied	-12.1282
▁imply	-12.1282
▁imposition	-12.1282
▁impossibility	-12.1282
▁impotent	-12.1282
▁improbable	-12.1282
▁inadequate	-12.1282
▁inanimate	-12.1282
▁inbetween	-12.1282
▁inbreath	-12.1282
▁incapacitates	-12.1282
▁incarnation	-12.1282
▁incase	-12.1282
▁incels	-12.1282
▁inch	-12.1282
▁inclined	-12.1282
▁inconsistent	-12.1282
▁incontinent	-12.1282
▁inconvenience	-12.1282
▁inconvenienced	-12.1282
▁inconvenient	-12.1282
▁incorrect	-12.1282
▁incorrectly	-12.1282
▁incremental	-12.1282
▁incrementally	-12.1282
▁incroyables	-12.1282
▁indecision	-12.1282
▁independently	-12.1282
▁indie	-12.1282
▁indifference	-12.1282
▁indifferent	-12.1282
▁indo	-12.1282
▁indomitable	-12.1282
▁indulgent	-12.1282
▁inept	-12.1282
▁inertia	-12.1282
▁inevitability	-12.1282
▁inexpensive	-12.1282
▁infinitely	-12.1282
▁inflammatory	-12.1282
▁inflexible	-12.1282
▁influencefull	-12.1282
▁influential	-12.1282
▁inform	-12.1282
▁informative	-12.1282
▁infuriate	-12.1282
▁inhabilitating	-12.1282
▁inhabit	-12.1282
▁inhabiting	-12.1282
▁inherent	-12.1282
▁inhibit	-12.1282
▁inhibited	-12.1282
▁inhuman	-12.1282
▁inhumane	-12.1282
▁inimitable	-12.1282
▁initiated	-12.1282
▁initiative	-12.1282
▁innitially	-12.1282
▁innocence	-12.1282
▁innocently	-12.1282
▁innovation	-12.1282
▁inquisitive	-12.1282
▁inseparable	-12.1282
▁inserted	-12.1282
▁insider	-12.1282
▁insignificant	-12.1282
▁insisted	-12.1282
▁inspected	-12.1282
▁instability	-12.1282
▁instigator	-12.1282
▁instilled	-12.1282
▁instinctive	-12.1282
▁institute	-12.1282
▁intact	-12.1282
▁integrate	-12.1282
▁intel	-12.1282
▁intends	-12.1282
▁intension	-12.1282
▁intently	-12.1282
▁interconnectivity	-12.1282
▁intercourse	-12.1282
▁interdependence	-12.1282
▁interesed	-12.1282
▁intermittent	-12.1282
▁internalised	-12.1282
▁internalized	-12.1282
▁internalizes	-12.1282
▁interpretation	-12.1282
▁interverence	-12.1282
▁interviewed	-12.1282
▁interviewing	-12.1282
▁intrigued	-12.1282
▁introduces	-12.1282
▁introductory	-12.1282
▁inundated	-12.1282
▁invalid	-12.1282
▁invalidating	-12.1282
▁invalidity	-12.1282
▁invariably	-12.1282
▁inventing	-12.1282
▁investigate	-12.1282
▁investigation	-12.1282
▁investigator	-12.1282
▁invisibility	-12.1282
▁invisible	-12.1282
▁inviting	-12.1282
▁involuntary	-12.1282
▁iop	-12.1282
▁iran	-12.1282
▁iraq	-12.1282
▁irish	-12.1282
▁irishman	-12.1282
▁irregularly	-12.1282
▁irresponsible	-12.1282
▁irreversible	-12.1282
▁irritant	-12.1282
▁irritating	-12.1282
▁irs	-12.1282
▁isolate	-12.1282
▁isoleted	-12.1282
▁itchy	-12.1282
▁iteration	-12.1282
▁iu	-12.1282
▁ixl	-12.1282
▁jab	-12.1282
▁jackbox	-12.1282
▁jacket	-12.1282
▁jackpot	-12.1282
▁jackshit	-12.1282
▁jacobson	-12.1282
▁jaded	-12.1282
▁jagged	-12.1282
▁jamaican	-12.1282
▁janitor	-12.1282
▁jeaousy	-12.1282
▁jee	-12.1282
▁jehovah	-12.1282
▁jelly	-12.1282
▁jen	-12.1282
▁jenkins	-12.1282
▁jeopardizing	-12.1282
▁jet	-12.1282
▁jiggle	-12.1282
▁jkz	-12.1282
▁jon	-12.1282
▁jot	-12.1282
▁journalism	-12.1282
▁journalist	-12.1282
▁journalling	-12.1282
▁joyless	-12.1282
▁judt	-12.1282
▁juggle	-12.1282
▁jumbo	-12.1282
▁jumpy	-12.1282
▁jung	-12.1282
▁juvenile	-12.1282
▁katakana	-12.1282
▁kava	-12.1282
▁kawasaki	-12.1282
▁ked	-12.1282
▁kent	-12.1282
▁kenya	-12.1282
▁kharrazinaturalhealth	-12.1282
▁kidnapped	-12.1282
▁kinesiologist	-12.1282
▁knit	-12.1282
▁kno	-12.1282
▁knocking	-12.1282
▁knot	-12.1282
▁kong	-12.1282
▁krier	-12.1282
▁kroger	-12.1282
▁ksm	-12.1282
▁kumusha	-12.1282
▁kumushafoundation	-12.1282
▁kylehilding	-12.1282
▁labelled	-12.1282
▁labour	-12.1282
▁lad	-12.1282
▁ladder	-12.1282
▁lall	-12.1282
▁lament	-12.1282
▁lamenting	-12.1282
▁landlady	-12.1282
▁landscaping	-12.1282
▁lanka	-12.1282
▁lashed	-12.1282
▁lashing	-12.1282
▁lastnight	-12.1282
▁lathargic	-12.1282
▁lather	-12.1282
▁latley	-12.1282
▁latuda	-12.1282
▁laundromat	-12.1282
▁laurie	-12.1282
▁lavish	-12.1282
▁lawn	-12.1282
▁layed	-12.1282
▁layoff	-12.1282
▁lbl	-12.1282
▁lcd	-12.1282
▁leafing	-12.1282
▁leapfrog	-12.1282
▁learnd	-12.1282
▁leash	-12.1282
▁leech	-12.1282
▁leeds	-12.1282
▁leftover	-12.1282
▁legality	-12.1282
▁lemon	-12.1282
▁lending	-12.1282
▁leone	-12.1282
▁lesons	-12.1282
▁lesotho	-12.1282
▁leukemia	-12.1282
▁lewd	-12.1282
▁liberated	-12.1282
▁liberating	-12.1282
▁liberia	-12.1282
▁licence	-12.1282
▁licensed	-12.1282
▁licensing	-12.1282
▁lifecoach	-12.1282
▁lifeless	-12.1282
▁lifelessly	-12.1282
▁lightbulb	-12.1282
▁lighter	-12.1282
▁lightly	-12.1282
▁liife	-12.1282
▁likewise	-12.1282
▁likwise	-12.1282
▁lil	-12.1282
▁limbo	-12.1282
▁lingo	-12.1282
▁lining	-12.1282
▁lionelwilson	-12.1282
▁liqour	-12.1282
▁lisabergstrom	-12.1282
▁lisence	-12.1282
▁lite	-12.1282
▁literary	-12.1282
▁literature	-12.1282
▁lively	-12.1282
▁liverpool	-12.1282
▁livingbetterandlonger	-12.1282
▁llama	-12.1282
▁lmfao	-12.1282
▁lne	-12.1282
▁lobster	-12.1282
▁locate	-12.1282
▁located	-12.1282
▁loiter	-12.1282
▁lokmkng	-12.1282
▁lollipop	-12.1282
▁lone	-12.1282
▁lookkng	-12.1282
▁lookout	-12.1282
▁loooooot	-12.1282
▁looping	-12.1282
▁looser	-12.1282
▁lorde	-12.1282
▁losserrrrrrr	-12.1282
▁loveless	-12.1282
▁lube	-12.1282
▁lurker	-12.1282
▁luxembourg	-12.1282
▁luxurious	-12.1282
▁lymphoma	-12.1282
▁lyon	-12.1282
▁macho	-12.1282
▁madagascar	-12.1282
▁maddening	-12.1282
▁maharishi	-12.1282
▁maid	-12.1282
▁maintining	-12.1282
▁makefun	-12.1282
▁malady	-12.1282
▁malawi	-12.1282
▁maldives	-12.1282
▁malfunctioning	-12.1282
▁mali	-12.1282
▁mall	-12.1282
▁mammoth	-12.1282
▁manchild	-12.1282
▁maneuver	-12.1282
▁manhattan	-12.1282
▁maniac	-12.1282
▁mankind	-12.1282
▁manly	-12.1282
▁mannequin	-12.1282
▁manson	-12.1282
▁manu	-12.1282
▁manual	-12.1282
▁manualized	-12.1282
▁manufacture	-12.1282
▁manyyy	-12.1282
▁mar	-12.1282
▁marc	-12.1282
▁marchwicki	-12.1282
▁marked	-12.1282
▁marker	-12.1282
▁marketer	-12.1282
▁marketplace	-12.1282
▁marred	-12.1282
▁marrying	-12.1282
▁marvel	-12.1282
▁marvelous	-12.1282
▁marx	-12.1282
▁mary	-12.1282
▁masculine	-12.1282
▁masculinity	-12.1282
▁maskless	-12.1282
▁massager	-12.1282
▁massively	-12.1282
▁materialise	-12.1282
▁maternal	-12.1282
▁matthew	-12.1282
▁mattmark	-12.1282
▁mattress	-12.1282
▁matures	-12.1282
▁mauritania	-12.1282
▁maxed	-12.1282
▁maximise	-12.1282
▁maximize	-12.1282
▁maximum	-12.1282
▁mayan	-12.1282
▁mayor	-12.1282
▁mcauliffe	-12.1282
▁mcconaughey	-12.1282
▁mcdonald	-12.1282
▁mdma	-12.1282
▁meagrely	-12.1282
▁mealplan	-12.1282
▁meaninglessly	-12.1282
▁meaninglessness	-12.1282
▁measuring	-12.1282
▁mechanic	-12.1282
▁mechanical	-12.1282
▁mediocre	-12.1282
▁medulla	-12.1282
▁melancholic	-12.1282
▁melancholy	-12.1282
▁melatonin	-12.1282
▁mellow	-12.1282
▁meltdown	-12.1282
▁memorable	-12.1282
▁memorize	-12.1282
▁memorized	-12.1282
▁memoryh	-12.1282
▁menace	-12.1282
▁meniscus	-12.1282
▁menopause	-12.1282
▁menstrual	-12.1282
▁mentallity	-12.1282
▁mentaly	-12.1282
▁merge	-12.1282
▁mesopotamia	-12.1282
▁messenger	-12.1282
▁meta	-12.1282
▁metric	-12.1282
▁mexico	-12.1282
▁mia	-12.1282
▁michaelfox	-12.1282
▁micro	-12.1282
▁microwave	-12.1282
▁mics	-12.1282
▁middling	-12.1282
▁midwest	-12.1282
▁migrain	-12.1282
▁mihaly	-12.1282
▁mil	-12.1282
▁mildly	-12.1282
▁mill	-12.1282
▁miller	-12.1282
▁mimar	-12.1282
▁mindsetmastery	-12.1282
▁mindspace	-12.1282
▁mineral	-12.1282
▁minimize	-12.1282
▁minimized	-12.1282
▁minneapolis	-12.1282
▁mint	-12.1282
▁minty	-12.1282
▁mirasol	-12.1282
▁misbehaves	-12.1282
▁miscarriage	-12.1282
▁miscarried	-12.1282
▁misclicked	-12.1282
▁misdiagnosed	-12.1282
▁miserably	-12.1282
▁misgendered	-12.1282
▁misguided	-12.1282
▁misinterpreting	-12.1282
▁misogynist	-12.1282
▁misogynistic	-12.1282
▁misremembered	-12.1282
▁missionary	-12.1282
▁mistakenly	-12.1282
▁mistreated	-12.1282
▁mitigate	-12.1282
▁mitt	-12.1282
▁mixer	-12.1282
▁mixing	-12.1282
▁mixture	-12.1282
▁mo	-12.1282
▁moan	-12.1282
▁moaning	-12.1282
▁mob	-12.1282
▁mocked	-12.1282
▁mod	-12.1282
▁moderation	-12.1282
▁module	-12.1282
▁molecular	-12.1282
▁molesting	-12.1282
▁momma	-12.1282
▁mon	-12.1282
▁monitoring	-12.1282
▁monogamous	-12.1282
▁monogamy	-12.1282
▁monthes	-12.1282
▁moonshot	-12.1282
▁mopey	-12.1282
▁morgan	-12.1282
▁mormon	-12.1282
▁moron	-12.1282
▁mosque	-12.1282
▁mostlyyy	-12.1282
▁motivating	-12.1282
▁motive	-12.1282
▁moto	-12.1282
▁mouse	-12.1282
▁mouthful	-12.1282
▁mouthguards	-12.1282
▁mover	-12.1282
▁mozambique	-12.1282
▁msde	-12.1282
▁msu	-12.1282
▁mtv	-12.1282
▁muffled	-12.1282
▁mug	-12.1282
▁mullet	-12.1282
▁multivitamin	-12.1282
▁mumbai	-12.1282
▁mumbling	-12.1282
▁mumbo	-12.1282
▁muruganar	-12.1282
▁mushroom	-12.1282
▁musical	-12.1282
▁musing	-12.1282
▁muster	-12.1282
▁mustered	-12.1282
▁mutism	-12.1282
▁muttered	-12.1282
▁mxf	-12.1282
▁myanmar	-12.1282
▁myriad	-12.1282
▁mythology	-12.1282
▁nada	-12.1282
▁nag	-12.1282
▁nagging	-12.1282
▁nailed	-12.1282
▁naked	-12.1282
▁namaskar	-12.1282
▁nameless	-12.1282
▁namibia	-12.1282
▁nana	-12.1282
▁napkin	-12.1282
▁narly	-12.1282
▁narrcisim	-12.1282
▁narrcists	-12.1282
▁narrowed	-12.1282
▁narrowest	-12.1282
▁narsassistic	-12.1282
▁nasal	-12.1282
▁nat	-12.1282
▁nationalist	-12.1282
▁naturallyecstatic	-12.1282
▁navigating	-12.1282
▁naw	-12.1282
▁nebours	-12.1282
▁needes	-12.1282
▁neediness	-12.1282
▁needle	-12.1282
▁neet	-12.1282
▁negating	-12.1282
▁neglecting	-12.1282
▁nepotism	-12.1282
▁nest	-12.1282
▁neuroscientist	-12.1282
▁neurotic	-12.1282
▁neurotransmitter	-12.1282
▁newborn	-12.1282
▁newey	-12.1282
▁newfound	-12.1282
▁newly	-12.1282
▁newsflash	-12.1282
▁ng	-12.1282
▁nge	-12.1282
▁nhat	-12.1282
▁nicer	-12.1282
▁nick	-12.1282
▁niger	-12.1282
▁nigh	-12.1282
▁nighter	-12.1282
▁nighti	-12.1282
▁nightingale	-12.1282
▁nightwish	-12.1282
▁nihilism	-12.1282
▁nine	-12.1282
▁nix	-12.1282
▁nocturnal	-12.1282
▁nomadland	-12.1282
▁nonjudgmental	-12.1282
▁nonprofit	-12.1282
▁noodle	-12.1282
▁nootralize	-12.1282
▁nora	-12.1282
▁noradrenaline	-12.1282
▁noregrets	-12.1282
▁norm	-12.1282
▁north	-12.1282
▁norway	-12.1282
▁nosedive	-12.1282
▁nosy	-12.1282
▁notch	-12.1282
▁noticeable	-12.1282
▁notifies	-12.1282
▁notoriously	-12.1282
▁nour	-12.1282
▁nourishing	-12.1282
▁nov	-12.1282
▁ntohing	-12.1282
▁nude	-12.1282
▁nuh	-12.1282
▁nuisance	-12.1282
▁nurtureshock	-12.1282
▁nutella	-12.1282
▁nutrient	-12.1282
▁nutritional	-12.1282
▁nutritionally	-12.1282
▁nutshell	-12.1282
▁nyquil	-12.1282
▁obesity	-12.1282
▁objected	-12.1282
▁obligatory	-12.1282
▁obliges	-12.1282
▁oblivious	-12.1282
▁obnoxious	-12.1282
▁obscure	-12.1282
▁observer	-12.1282
▁observing	-12.1282
▁obstetric	-12.1282
▁obstetrics	-12.1282
▁obtaining	-12.1282
▁octavia	-12.1282
▁oddity	-12.1282
▁ode	-12.1282
▁offchance	-12.1282
▁offence	-12.1282
▁offender	-12.1282
▁offload	-12.1282
▁ofmy	-12.1282
▁oily	-12.1282
▁okayish	-12.1282
▁okey	-12.1282
▁oldschool	-12.1282
▁om	-12.1282
▁oncoming	-12.1282
▁onedollarhappiness	-12.1282
▁onlt	-12.1282
▁oozing	-12.1282
▁opiate	-12.1282
▁opted	-12.1282
▁optimist	-12.1282
▁opting	-12.1282
▁ordering	-12.1282
▁organ	-12.1282
▁organically	-12.1282
▁organisation	-12.1282
▁organise	-12.1282
▁organiser	-12.1282
▁organizational	-12.1282
▁orientated	-12.1282
▁orleans	-12.1282
▁oscar	-12.1282
▁ot	-12.1282
▁outa	-12.1282
▁outbreak	-12.1282
▁outbreath	-12.1282
▁outer	-12.1282
▁outing	-12.1282
▁outline	-12.1282
▁outraged	-12.1282
▁outset	-12.1282
▁outsmart	-12.1282
▁outweighs	-12.1282
▁ovary	-12.1282
▁overachievement	-12.1282
▁overachiever	-12.1282
▁overanalyze	-12.1282
▁overclock	-12.1282
▁overcomefear	-12.1282
▁overcomes	-12.1282
▁overconsumption	-12.1282
▁overdramatic	-12.1282
▁overflood	-12.1282
▁overflooding	-12.1282
▁overflowing	-12.1282
▁overhead	-12.1282
▁overhear	-12.1282
▁overplan	-12.1282
▁overpromise	-12.1282
▁overreact	-12.1282
▁overshadowed	-12.1282
▁overstimulated	-12.1282
▁overstretch	-12.1282
▁overthought	-12.1282
▁overtook	-12.1282
▁overworker	-12.1282
▁overworking	-12.1282
▁owi	-12.1282
▁owl	-12.1282
▁owns	-12.1282
▁ox	-12.1282
▁oxytocin	-12.1282
▁pacing	-12.1282
▁pained	-12.1282
▁painted	-12.1282
▁pair	-12.1282
▁paired	-12.1282
▁pal	-12.1282
▁palestinian	-12.1282
▁palete	-12.1282
▁paliperidone	-12.1282
▁palo	-12.1282
▁palsy	-12.1282
▁pam	-12.1282
▁pang	-12.1282
▁panick	-12.1282
▁panicky	-12.1282
▁paradox	-12.1282
▁paradoxically	-12.1282
▁paralized	-12.1282
▁paranormal	-12.1282
▁parcel	-12.1282
▁parked	-12.1282
▁parosmia	-12.1282
▁partying	-12.1282
▁passionately	-12.1282
▁passionflower	-12.1282
▁passively	-12.1282
▁passivity	-12.1282
▁pasta	-12.1282
▁patched	-12.1282
▁paycheck	-12.1282
▁payer	-12.1282
▁pdf	-12.1282
▁pedophilia	-12.1282
▁pedos	-12.1282
▁pee	-12.1282
▁pen	-12.1282
▁pencil	-12.1282
▁penis	-12.1282
▁pensez	-12.1282
▁pepe	-12.1282
▁perceiving	-12.1282
▁perpetual	-12.1282
▁perpetuating	-12.1282
▁personalize	-12.1282
▁personhood	-12.1282
▁pesky	-12.1282
▁pessimism	-12.1282
▁pessimist	-12.1282
▁pest	-12.1282
▁petal	-12.1282
▁peterwarnock	-12.1282
▁petrified	-12.1282
▁pfts	-12.1282
▁pharmaceutical	-12.1282
▁philadelphia	-12.1282
▁phoenix	-12.1282
▁phoniness	-12.1282
▁phoning	-12.1282
▁phony	-12.1282
▁php	-12.1282
▁physicaly	-12.1282
▁physiologist	-12.1282
▁physiotherapist	-12.1282
▁physiotherapy	-12.1282
▁picnic	-12.1282
▁piggyback	-12.1282
▁piled	-12.1282
▁pinched	-12.1282
▁pine	-12.1282
▁pinpoint	-12.1282
▁pinterest	-12.1282
▁pitched	-12.1282
▁pitching	-12.1282
▁piteous	-12.1282
▁pittance	-12.1282
▁pivotal	-12.1282
▁pivoted	-12.1282
▁pjs	-12.1282
▁placebo	-12.1282
▁placement	-12.1282
▁placing	-12.1282
▁plagiarized	-12.1282
▁plain	-12.1282
▁planner	-12.1282
▁plantation	-12.1282
▁plateauing	-12.1282
▁platitude	-12.1282
▁platoon	-12.1282
▁plausible	-12.1282
▁playtime	-12.1282
▁plea	-12.1282
▁pleading	-12.1282
▁pleasurable	-12.1282
▁plum	-12.1282
▁plumber	-12.1282
▁plumits	-12.1282
▁plushie	-12.1282
▁pmdd	-12.1282
▁podcasters	-12.1282
▁pointings	-12.1282
▁poking	-12.1282
▁poky	-12.1282
▁polite	-12.1282
▁polka	-12.1282
▁ponders	-12.1282
▁pooh	-12.1282
▁popsugar	-12.1282
▁poptartfriday	-12.1282
▁popularly	-12.1282
▁pornhub	-12.1282
▁portfolio	-12.1282
▁portion	-12.1282
▁portrays	-12.1282
▁portsmouth	-12.1282
▁posing	-12.1282
▁posponing	-12.1282
▁postman	-12.1282
▁postponing	-12.1282
▁pouch	-12.1282
▁pounce	-12.1282
▁poured	-12.1282
▁powerless	-12.1282
▁powfu	-12.1282
▁practicality	-12.1282
▁pradesh	-12.1282
▁praise	-12.1282
▁praised	-12.1282
▁preached	-12.1282
▁preacher	-12.1282
▁preaching	-12.1282
▁precarious	-12.1282
▁predental	-12.1282
▁predictably	-12.1282
▁prediction	-12.1282
▁predicts	-12.1282
▁preemptively	-12.1282
▁preferable	-12.1282
▁preferably	-12.1282
▁prefers	-12.1282
▁preffered	-12.1282
▁preform	-12.1282
▁prejudice	-12.1282
▁premed	-12.1282
▁prep	-12.1282
▁prepackaged	-12.1282
▁prequisites	-12.1282
▁prescribe	-12.1282
▁presenting	-12.1282
▁presentmoment	-12.1282
▁preserve	-12.1282
▁pressing	-12.1282
▁pression	-12.1282
▁pressuring	-12.1282
▁pressurized	-12.1282
▁presume	-12.1282
▁prettiest	-12.1282
▁prevailed	-12.1282
▁prevented	-12.1282
▁prey	-12.1282
▁princess	-12.1282
▁prioritising	-12.1282
▁prioritized	-12.1282
▁prioritizes	-12.1282
▁prision	-12.1282
▁prisoner	-12.1282
▁privatised	-12.1282
▁prob	-12.1282
▁probation	-12.1282
▁procedure	-12.1282
▁proceeds	-12.1282
▁processed	-12.1282
▁proclaim	-12.1282
▁prodded	-12.1282
▁prodigy	-12.1282
▁prof	-12.1282
▁profusely	-12.1282
▁prominent	-12.1282
▁prompting	-12.1282
▁pronoun	-12.1282
▁pronounced	-12.1282
▁proofed	-12.1282
▁propably	-12.1282
▁propel	-12.1282
▁propose	-12.1282
▁propped	-12.1282
▁prosper	-12.1282
▁prosthetics	-12.1282
▁proton	-12.1282
▁proved	-12.1282
▁prozosin	-12.1282
▁psats	-12.1282
▁pshyical	-12.1282
▁pssd	-12.1282
▁psycho	-12.1282
▁psychopathic	-12.1282
▁psychosis	-12.1282
▁psychotherapy	-12.1282
▁pt	-12.1282
▁pua	-12.1282
▁puas	-12.1282
▁puberty	-12.1282
▁publicspeaking	-12.1282
▁publish	-12.1282
▁puffy	-12.1282
▁puking	-12.1282
▁pummel	-12.1282
▁punching	-12.1282
▁punchline	-12.1282
▁purely	-12.1282
▁purgatory	-12.1282
▁purifier	-12.1282
▁purifying	-12.1282
▁purposlesness	-12.1282
▁putrid	-12.1282
▁pyramid	-12.1282
▁pyschopath	-12.1282
▁pysiotherapist	-12.1282
▁quad	-12.1282
▁quadmester	-12.1282
▁quarantined	-12.1282
▁quarrel	-12.1282
▁que	-12.1282
▁quelques	-12.1282
▁questioned	-12.1282
▁quicker	-12.1282
▁quickest	-12.1282
▁quin	-12.1282
▁quiplash	-12.1282
▁quirky	-12.1282
▁racial	-12.1282
▁racketball	-12.1282
▁radiant	-12.1282
▁radiate	-12.1282
▁radiates	-12.1282
▁radiation	-12.1282
▁radicalize	-12.1282
▁rag	-12.1282
▁raging	-12.1282
▁rail	-12.1282
▁railing	-12.1282
▁rainfall	-12.1282
▁raining	-12.1282
▁ralated	-12.1282
▁ram	-12.1282
▁ramp	-12.1282
▁randomness	-12.1282
▁ranting	-12.1282
▁rap	-12.1282
▁raping	-12.1282
▁rapper	-12.1282
▁ratio	-12.1282
▁rationalize	-12.1282
▁reachable	-12.1282
▁realll	-12.1282
▁realtionships	-12.1282
▁realtor	-12.1282
▁rebirth	-12.1282
▁rebuild	-12.1282
▁rebuilding	-12.1282
▁recalling	-12.1282
▁recapture	-12.1282
▁receptionist	-12.1282
▁recess	-12.1282
▁recognizes	-12.1282
▁recruiting	-12.1282
▁recruitment	-12.1282
▁recycled	-12.1282
▁redeem	-12.1282
▁redeemed	-12.1282
▁redefine	-12.1282
▁redemption	-12.1282
▁rediculous	-12.1282
▁redirect	-12.1282
▁reef	-12.1282
▁reevaluating	-12.1282
▁refer	-12.1282
▁referenced	-12.1282
▁referral	-12.1282
▁referred	-12.1282
▁refers	-12.1282
▁refining	-12.1282
▁reflected	-12.1282
▁reflux	-12.1282
▁refocus	-12.1282
▁reframe	-12.1282
▁reframing	-12.1282
▁refreshing	-12.1282
▁regained	-12.1282
▁regenerate	-12.1282
▁regressed	-12.1282
▁regressing	-12.1282
▁regrettable	-12.1282
▁regularity	-12.1282
▁regulation	-12.1282
▁rehabilitation	-12.1282
▁rehearse	-12.1282
▁reign	-12.1282
▁reincarnation	-12.1282
▁reinforce	-12.1282
▁reinforced	-12.1282
▁reinforces	-12.1282
▁reiterate	-12.1282
▁rejecter	-12.1282
▁rejecting	-12.1282
▁relaying	-12.1282
▁relentlessly	-12.1282
▁relies	-12.1282
▁relish	-12.1282
▁relocate	-12.1282
▁remaining	-12.1282
▁remark	-12.1282
▁remarry	-12.1282
▁remdies	-12.1282
▁remembers	-12.1282
▁remodel	-12.1282
▁remorseful	-12.1282
▁remotely	-12.1282
▁removal	-12.1282
▁removing	-12.1282
▁rendered	-12.1282
▁rendering	-12.1282
▁renew	-12.1282
▁renewal	-12.1282
▁renowned	-12.1282
▁rental	-12.1282
▁rented	-12.1282
▁renting	-12.1282
▁rep	-12.1282
▁repaid	-12.1282
▁repetition	-12.1282
▁replaying	-12.1282
▁replicated	-12.1282
▁repop	-12.1282
▁reporting	-12.1282
▁repression	-12.1282
▁reprieve	-12.1282
▁reprimand	-12.1282
▁reprised	-12.1282
▁reproduction	-12.1282
▁republic	-12.1282
▁repulsive	-12.1282
▁repurposed	-12.1282
▁reputation	-12.1282
▁rescue	-12.1282
▁reselling	-12.1282
▁resentful	-12.1282
▁resents	-12.1282
▁resetting	-12.1282
▁reshaping	-12.1282
▁resident	-12.1282
▁resides	-12.1282
▁residing	-12.1282
▁resigning	-12.1282
▁reskilling	-12.1282
▁resonova	-12.1282
▁respidone	-12.1282
▁respiratory	-12.1282
▁respondent	-12.1282
▁responsive	-12.1282
▁restful	-12.1282
▁restore	-12.1282
▁restoring	-12.1282
▁restrained	-12.1282
▁restraining	-12.1282
▁restraint	-12.1282
▁restricted	-12.1282
▁restrictive	-12.1282
▁restroom	-12.1282
▁restylene	-12.1282
▁resurface	-12.1282
▁resurfacing	-12.1282
▁retaining	-12.1282
▁retention	-12.1282
▁rethinking	-12.1282
▁retirement	-12.1282
▁retiring	-12.1282
▁retrain	-12.1282
▁retreat	-12.1282
▁retribution	-12.1282
▁retro	-12.1282
▁retroactively	-12.1282
▁reunion	-12.1282
▁reunited	-12.1282
▁revealed	-12.1282
▁reveled	-12.1282
▁revenue	-12.1282
▁reversed	-12.1282
▁reversing	-12.1282
▁revise	-12.1282
▁revised	-12.1282
▁revive	-12.1282
▁revolt	-12.1282
▁revolutionary	-12.1282
▁revolving	-12.1282
▁rhe	-12.1282
▁rhetorical	-12.1282
▁rhyming	-12.1282
▁rica	-12.1282
▁richer	-12.1282
▁richest	-12.1282
▁ridiculously	-12.1282
▁righteousness	-12.1282
▁rigorous	-12.1282
▁rinse	-12.1282
▁ripe	-12.1282
▁rly	-12.1282
▁roach	-12.1282
▁roap	-12.1282
▁roblox	-12.1282
▁robot	-12.1282
▁rodeo	-12.1282
▁rolling	-12.1282
▁roman	-12.1282
▁romanian	-12.1282
▁roomate	-12.1282
▁roomy	-12.1282
▁rooting	-12.1282
▁rosies	-12.1282
▁rotates	-12.1282
▁rotation	-12.1282
▁rotted	-12.1282
▁rowan	-12.1282
▁royal	-12.1282
▁royale	-12.1282
▁royally	-12.1282
▁ruaridh	-12.1282
▁rub	-12.1282
▁rug	-12.1282
▁rugby	-12.1282
▁runaway	-12.1282
▁runner	-12.1282
▁russian	-12.1282
▁rustling	-12.1282
▁rwanda	-12.1282
▁rx	-12.1282
▁rythme	-12.1282
▁sa	-12.1282
▁sabotaged	-12.1282
▁sacrificing	-12.1282
▁saddens	-12.1282
▁sadder	-12.1282
▁sadhu	-12.1282
▁saffron	-12.1282
▁sailboat	-12.1282
▁sallust	-12.1282
▁sally	-12.1282
▁salvation	-12.1282
▁sandhu	-12.1282
▁sandwhich	-12.1282
▁sanskrit	-12.1282
▁santos	-12.1282
▁sappy	-12.1282
▁sarah	-12.1282
▁sas	-12.1282
▁saver	-12.1282
▁savory	-12.1282
▁savouring	-12.1282
▁sbout	-12.1282
▁scab	-12.1282
▁scalp	-12.1282
▁scarborough	-12.1282
▁scariest	-12.1282
▁scarificed	-12.1282
▁scaring	-12.1282
▁scarred	-12.1282
▁scarring	-12.1282
▁scented	-12.1282
▁schoolbook	-12.1282
▁schooler	-12.1282
▁schooling	-12.1282
▁schoonmaker	-12.1282
▁schreiber	-12.1282
▁schwarzenegger	-12.1282
▁sci	-12.1282
▁scoffing	-12.1282
▁scoring	-12.1282
▁scorn	-12.1282
▁scorsese	-12.1282
▁scrabbling	-12.1282
▁scramble	-12.1282
▁scrambled	-12.1282
▁scrap	-12.1282
▁scrape	-12.1282
▁scrawled	-12.1282
▁scrawny	-12.1282
▁screenshots	-12.1282
▁scripted	-12.1282
▁scripture	-12.1282
▁sculpt	-12.1282
▁sculpting	-12.1282
▁sculpture	-12.1282
▁scumbags	-12.1282
▁seabed	-12.1282
▁seance	-12.1282
▁seasoning	-12.1282
▁sec	-12.1282
▁secondarily	-12.1282
▁secondary	-12.1282
▁secreted	-12.1282
▁secretion	-12.1282
▁sector	-12.1282
▁secured	-12.1282
▁securing	-12.1282
▁seeked	-12.1282
▁seeming	-12.1282
▁seeps	-12.1282
▁segment	-12.1282
▁seldom	-12.1282
▁selective	-12.1282
▁selen	-12.1282
▁selfharming	-12.1282
▁selfless	-12.1282
▁seligman	-12.1282
▁semen	-12.1282
▁senate	-12.1282
▁senegal	-12.1282
▁sensaion	-12.1282
▁sensitivity	-12.1282
▁seperate	-12.1282
▁sequel	-12.1282
▁seratonin	-12.1282
▁serene	-12.1282
▁serf	-12.1282
▁seriousness	-12.1282
▁seroquel	-12.1282
▁setup	-12.1282
▁sewing	-12.1282
▁sexist	-12.1282
▁sexualize	-12.1282
▁shady	-12.1282
▁shaken	-12.1282
▁shakespeare	-12.1282
▁shamed	-12.1282
▁shameful	-12.1282
▁shaped	-12.1282
▁shear	-12.1282
▁sheer	-12.1282
▁shelf	-12.1282
▁sheri	-12.1282
▁sherman	-12.1282
