▁like	-4.45856
<s>	0
</s>	0
<unk>	0
▁feel	-4.46875
▁wa	-4.49325
▁time	-4.72106
▁life	-4.74103
▁get	-4.78093
▁know	-4.83652
▁want	-4.90326
▁thing	-4.97864
▁day	-5.04597
▁people	-5.12622
▁even	-5.1407
▁year	-5.17596
▁make	-5.24941
▁one	-5.25043
▁work	-5.2941
▁really	-5.30801
▁ha	-5.32759
▁help	-5.3309
▁think	-5.34645
▁stress	-5.38877
▁would	-5.39463
▁going	-5.5064
▁go	-5.50772
▁much	-5.57296
▁something	-5.59425
▁feeling	-5.63227
▁friend	-5.63376
▁way	-5.65183
▁always	-5.66715
▁love	-5.67179
▁never	-5.70169
▁everything	-5.70489
▁thought	-5.71132
▁take	-5.72431
▁need	-5.74411
▁keep	-5.78493
▁good	-5.79716
▁u	-5.79892
▁back	-5.82568
▁also	-5.82749
▁still	-5.86628
▁right	-5.89299
▁depression	-5.89493
▁every	-5.9145
▁job	-5.92244
▁happy	-5.93648
▁new	-5.94053
▁anxiety	-5.94663
▁someone	-5.96517
▁could	-5.97352
▁anything	-5.97772
▁say	-5.99685
▁better	-6.00764
▁anyone	-6.01417
▁week	-6.01635
▁lot	-6.0703
▁got	-6.0984
▁month	-6.10795
▁hard	-6.11035
▁bad	-6.11276
▁moment	-6.11276
▁happiness	-6.12244
▁today	-6.12732
▁come	-6.13468
▁find	-6.13715
▁see	-6.13715
▁try	-6.14957
▁start	-6.15962
▁well	-6.15962
▁trying	-6.16215
▁family	-6.17489
▁school	-6.18003
▁everyone	-6.18261
▁many	-6.18261
▁first	-6.19824
▁since	-6.19824
▁amp	-6.21946
▁nothing	-6.22753
▁anymore	-6.27741
▁last	-6.27741
▁self	-6.28025
▁live	-6.2946
▁give	-6.30916
▁mind	-6.3299
▁getting	-6.3359
▁person	-6.3359
▁ever	-6.34802
▁else	-6.36029
▁world	-6.36029
▁end	-6.36339
▁hate	-6.36649
▁mental	-6.3696
▁long	-6.37899
▁change	-6.3853
▁made	-6.3853
▁pain	-6.39164
▁point	-6.39483
▁problem	-6.41419
▁past	-6.41745
▁best	-6.42073
▁sometimes	-6.43393
▁around	-6.43726
▁stressed	-6.44059
▁doe	-6.44731
▁depressed	-6.45406
▁health	-6.46087
▁sleep	-6.46087
▁started	-6.46771
▁away	-6.48505
▁home	-6.49913
▁thinking	-6.50268
▁im	-6.50983
▁talk	-6.51342
▁stop	-6.51702
▁let	-6.52427
▁tell	-6.53524
▁care	-6.56131
▁fucking	-6.56131
▁felt	-6.57652
▁used	-6.57652
▁please	-6.58036
▁hour	-6.58808
▁parent	-6.58808
▁hope	-6.59196
▁told	-6.61558
▁different	-6.61958
▁others	-6.61958
▁without	-6.62761
▁maybe	-6.63165
▁though	-6.63978
▁tired	-6.63978
▁look	-6.64387
▁done	-6.68145
▁might	-6.68572
▁said	-6.68572
▁put	-6.69
▁working	-6.69
▁reason	-6.71169
▁experience	-6.7205
▁actually	-6.72494
▁part	-6.73836
▁ago	-6.74288
▁body	-6.74288
▁living	-6.74741
▁sad	-6.74741
▁shit	-6.74741
▁able	-6.75197
▁taking	-6.75654
▁dont	-6.76576
▁wish	-6.76576
▁little	-6.77975
▁place	-6.77975
▁cry	-6.78918
▁alone	-6.79393
▁emotion	-6.79393
▁focus	-6.7987
▁wanted	-6.80832
▁guy	-6.81316
▁making	-6.81803
▁remember	-6.81803
▁two	-6.81803
▁enough	-6.82292
▁may	-6.82292
▁money	-6.82783
▁head	-6.83277
▁worse	-6.83277
▁mom	-6.84773
▁situation	-6.85783
▁high	-6.86292
▁hurt	-6.87835
▁idea	-6.87835
▁already	-6.88354
▁relationship	-6.88876
▁tried	-6.88876
▁college	-6.89401
▁wrong	-6.89401
▁another	-6.9046
▁etc	-6.9046
▁great	-6.90993
▁listen	-6.90993
▁night	-6.90993
▁looking	-6.92068
▁constantly	-6.9261
▁lost	-6.9261
▁therapy	-6.9261
▁went	-6.93155
▁energy	-6.93703
▁goal	-6.93703
▁step	-6.93703
▁success	-6.94808
▁video	-6.95365
▁understand	-6.95925
▁lt	-6.99354
▁normal	-6.99354
▁almost	-6.99937
▁future	-6.99937
▁study	-6.99937
▁minute	-7.00524
▁heart	-7.01114
▁important	-7.01114
▁kind	-7.01114
▁found	-7.01707
▁class	-7.02905
▁anxious	-7.03509
▁die	-7.03509
▁question	-7.03509
▁everyday	-7.04117
▁mean	-7.04117
▁post	-7.04117
▁drey	-7.05963
▁sure	-7.05963
▁issue	-7.06586
▁share	-7.06586
▁call	-7.07213
▁left	-7.07213
▁mother	-7.07213
▁next	-7.07844
▁use	-7.07844
▁advice	-7.08479
▁course	-7.08479
▁brain	-7.09118
▁happen	-7.09118
▁old	-7.09118
▁yet	-7.09118
▁fear	-7.09761
▁talking	-7.09761
▁become	-7.10409
▁learn	-7.10409
▁social	-7.10409
▁ask	-7.11716
▁le	-7.11716
▁leave	-7.12376
▁matter	-7.12376
▁move	-7.12376
▁cause	-7.13709
▁music	-7.13709
▁often	-7.13709
▁positive	-7.13709
▁whole	-7.14383
▁present	-7.15061
▁deal	-7.15743
▁recently	-7.15743
▁inside	-7.1643
▁house	-7.17122
▁read	-7.17122
▁stuff	-7.17122
▁least	-7.17819
▁covid	-7.18521
▁due	-7.18521
▁believe	-7.19228
▁daily	-7.19228
▁support	-7.19228
▁word	-7.19228
▁bit	-7.1994
▁free	-7.20656
▁fuck	-7.21378
▁bed	-7.22106
▁human	-7.22106
▁difficult	-7.22838
▁scared	-7.22838
▁seems	-7.23576
▁finally	-7.25069
▁meditation	-7.25824
▁ok	-7.25824
▁pretty	-7.26584
▁enjoy	-7.2735
▁needed	-7.28123
▁real	-7.28123
▁suffering	-7.28123
▁either	-7.30476
▁state	-7.30476
▁writing	-7.30476
▁close	-7.32076
▁kid	-7.32076
▁online	-7.32885
▁saying	-7.32885
▁control	-7.33702
▁face	-7.33702
▁dream	-7.34525
▁gonna	-7.34525
▁thats	-7.34525
▁together	-7.34525
▁cant	-7.35355
▁stay	-7.35355
▁thank	-7.35355
▁break	-7.36191
▁level	-7.36191
▁motivation	-7.37035
▁happened	-7.38745
▁hi	-7.38745
▁peace	-7.38745
▁push	-7.38745
▁medication	-7.39611
▁rather	-7.39611
▁completely	-7.40484
▁plan	-7.40484
▁probably	-7.40484
▁second	-7.40484
▁currently	-7.41365
▁dad	-7.41365
▁forward	-7.41365
▁god	-7.41365
▁took	-7.41365
▁wanna	-7.41365
▁guess	-7.42254
▁story	-7.44056
▁learning	-7.44969
▁outside	-7.44969
▁pandemic	-7.44969
▁seem	-7.44969
▁small	-7.44969
▁truly	-7.44969
▁later	-7.45891
▁age	-7.46821
▁eat	-7.46821
▁emotional	-7.46821
▁learned	-7.46821
▁open	-7.46821
▁sorry	-7.46821
▁behind	-7.4776
▁couple	-7.4776
▁honestly	-7.4776
▁especially	-7.48708
▁usually	-7.48708
▁grade	-7.49665
▁book	-7.50631
▁deep	-7.50631
▁sense	-7.50631
▁starting	-7.50631
▁full	-7.51607
▁phone	-7.51607
▁stressful	-7.51607
▁successful	-7.51607
▁student	-7.52592
▁turn	-7.52592
▁far	-7.53587
▁fine	-7.53587
▁literally	-7.53587
▁show	-7.53587
▁suicide	-7.53587
▁hey	-7.54592
▁symptom	-7.54592
▁true	-7.54592
▁eye	-7.55607
▁fact	-7.55607
▁morning	-7.55607
▁wake	-7.55607
▁attack	-7.56633
▁came	-7.56633
▁doctor	-7.56633
▁interview	-7.56633
▁man	-7.56633
▁pay	-7.56633
▁child	-7.57669
▁whatever	-7.57669
▁write	-7.57669
▁big	-7.58716
▁cannot	-7.58716
▁car	-7.58716
▁happens	-7.58716
▁therapist	-7.58716
▁reading	-7.59774
▁super	-7.59774
▁worked	-7.59774
▁worst	-7.59774
▁easy	-7.60844
▁hand	-7.60844
▁memory	-7.60844
▁struggling	-7.60844
▁worry	-7.60844
▁called	-7.61925
▁low	-7.61925
▁possible	-7.61925
▁set	-7.61925
▁university	-7.61925
▁basically	-7.63018
▁given	-7.63018
▁meet	-7.63018
▁negative	-7.63018
▁rest	-7.63018
▁supposed	-7.63018
▁top	-7.63018
▁asked	-7.64123
▁girl	-7.64123
▁habit	-7.64123
▁instead	-7.64123
▁light	-7.64123
▁nice	-7.64123
▁gone	-7.6524
▁mindset	-7.6524
▁result	-7.6524
▁thanks	-7.6524
▁career	-7.6637
▁lately	-7.6637
▁must	-7.6637
▁research	-7.6637
▁joy	-7.67513
▁sick	-7.67513
▁universe	-7.67513
▁choice	-7.68669
▁happening	-7.68669
▁healthy	-7.68669
▁hit	-7.68669
▁room	-7.68669
▁sadness	-7.68669
▁sit	-7.68669
▁sound	-7.68669
▁space	-7.68669
▁along	-7.69839
▁group	-7.69839
▁physical	-7.69839
▁pressure	-7.69839
▁proud	-7.69839
▁spent	-7.69839
▁whenever	-7.69839
▁mistake	-7.71022
▁create	-7.7222
▁decided	-7.7222
▁single	-7.7222
▁soon	-7.7222
▁handle	-7.73432
▁helped	-7.73432
▁name	-7.73432
▁suicidal	-7.73432
▁teacher	-7.73432
▁test	-7.73432
▁early	-7.74659
▁okay	-7.74659
▁telling	-7.74659
▁awareness	-7.75901
▁calm	-7.75901
▁coming	-7.75901
▁constant	-7.75901
▁kill	-7.75901
▁tip	-7.75901
▁worried	-7.75901
▁amount	-7.77159
▁effect	-7.77159
▁hello	-7.77159
▁stuck	-7.77159
▁taken	-7.77159
▁three	-7.77159
▁drive	-7.78433
▁example	-7.78433
▁game	-7.78433
▁healing	-7.78433
▁panic	-7.78433
▁personal	-7.78433
▁short	-7.78433
▁stupid	-7.78433
▁afraid	-7.79723
▁asking	-7.79723
▁hold	-7.79723
▁journey	-7.79723
▁seen	-7.79723
▁spend	-7.79723
▁aware	-7.8103
▁food	-7.8103
▁forget	-7.8103
▁interested	-7.8103
▁lead	-7.8103
▁loved	-7.8103
▁play	-7.8103
▁survey	-7.8103
▁answer	-7.82355
▁boyfriend	-7.82355
▁bring	-7.82355
▁fun	-7.82355
▁process	-7.82355
▁reach	-7.82355
▁certain	-7.83697
▁exercise	-7.83697
▁extremely	-7.83697
▁longer	-7.83697
▁watch	-7.83697
▁action	-7.85058
▁breathe	-7.85058
▁exam	-7.85058
▁however	-7.85058
▁seeing	-7.85058
▁side	-7.85058
▁struggle	-7.85058
▁alive	-7.86437
▁diagnosed	-7.86437
▁knew	-7.86437
▁quite	-7.86437
▁realize	-7.86437
▁waiting	-7.86437
▁youtube	-7.86437
▁angry	-7.87836
▁brother	-7.87836
▁death	-7.87836
▁empty	-7.87836
▁follow	-7.87836
▁half	-7.87836
▁individual	-7.87836
▁lonely	-7.87836
▁meant	-7.87836
▁project	-7.87836
▁sort	-7.87836
▁soul	-7.87836
▁treatment	-7.87836
▁worth	-7.87836
▁achieve	-7.89254
▁drug	-7.89254
▁eventually	-7.89254
▁finding	-7.89254
▁lived	-7.89254
▁nobody	-7.89254
▁run	-7.89254
▁walk	-7.89254
▁within	-7.89254
▁attention	-7.90693
▁continue	-7.90693
▁disorder	-7.90693
▁entire	-7.90693
▁failure	-7.90693
▁giving	-7.90693
▁grateful	-7.90693
▁link	-7.90693
▁moving	-7.90693
▁practice	-7.90693
▁yes	-7.90693
▁accept	-7.92153
▁based	-7.92153
▁event	-7.92153
▁met	-7.92153
▁power	-7.92153
▁pushing	-7.92153
▁wanting	-7.92153
▁dealing	-7.93635
▁idk	-7.93635
▁information	-7.93635
▁kept	-7.93635
▁med	-7.93635
▁miss	-7.93635
▁mood	-7.93635
▁sister	-7.93635
▁woman	-7.93635
▁young	-7.93635
▁assignment	-7.95138
▁beautiful	-7.95138
▁company	-7.95138
▁form	-7.95138
▁lack	-7.95138
▁losing	-7.95138
▁purpose	-7.95138
▁reality	-7.95138
▁weird	-7.95138
▁whether	-7.95138
▁business	-7.96665
▁check	-7.96665
▁country	-7.96665
▁hear	-7.96665
▁lie	-7.96665
▁medium	-7.96665
▁passion	-7.96665
▁towards	-7.96665
▁type	-7.96665
▁anyway	-7.98215
▁article	-7.98215
▁broke	-7.98215
▁experienced	-7.98215
▁fill	-7.98215
▁girlfriend	-7.98215
▁notice	-7.98215
▁suck	-7.98215
▁truth	-7.98215
▁amazing	-7.9979
▁expectation	-7.9979
▁figure	-7.9979
▁kinda	-7.9979
▁stopped	-7.9979
▁became	-8.0139
▁eating	-8.0139
▁episode	-8.0139
▁late	-8.0139
▁mentally	-8.0139
▁path	-8.0139
▁simple	-8.0139
▁sleeping	-8.0139
▁choose	-8.03016
▁impact	-8.03016
▁knowing	-8.03016
▁major	-8.03016
▁reddit	-8.03016
▁sitting	-8.03016
▁technique	-8.03016
▁turned	-8.03016
▁changed	-8.04669
▁complete	-8.04669
▁focusing	-8.04669
▁quit	-8.04669
▁using	-8.04669
▁account	-8.0635
▁act	-8.0635
▁activity	-8.0635
▁fight	-8.0635
▁helping	-8.0635
▁message	-8.0635
▁somehow	-8.0635
▁adult	-8.0806
▁barely	-8.0806
▁cope	-8.0806
▁driving	-8.0806
▁greater	-8.0806
▁suffer	-8.0806
▁trust	-8.0806
▁wondering	-8.0806
▁absolutely	-8.09799
▁cut	-8.09799
▁easier	-8.09799
▁four	-8.09799
▁improve	-8.09799
▁lose	-8.09799
▁period	-8.09799
▁simply	-8.09799
▁watching	-8.09799
▁anger	-8.11569
▁appreciate	-8.11569
▁decision	-8.11569
▁father	-8.11569
▁gratitude	-8.11569
▁heard	-8.11569
▁miserable	-8.11569
▁allow	-8.13371
▁force	-8.13371
▁pas	-8.13371
▁release	-8.13371
▁straight	-8.13371
▁studying	-8.13371
▁understanding	-8.13371
▁across	-8.15205
▁born	-8.15205
▁comment	-8.15205
▁explain	-8.15205
▁fail	-8.15205
▁fast	-8.15205
▁gotten	-8.15205
▁growth	-8.15205
▁management	-8.15205
▁movie	-8.15205
▁numb	-8.15205
▁opportunity	-8.15205
▁overwhelmed	-8.15205
▁wife	-8.15205
▁current	-8.17075
▁killing	-8.17075
▁known	-8.17075
▁manage	-8.17075
▁mess	-8.17075
▁moved	-8.17075
▁participant	-8.17075
▁putting	-8.17075
▁several	-8.17075
▁severe	-8.17075
▁smile	-8.17075
▁belief	-8.18979
▁breath	-8.18979
▁desire	-8.18979
▁dog	-8.18979
▁dying	-8.18979
▁order	-8.18979
▁physically	-8.18979
▁realized	-8.18979
▁strong	-8.18979
▁talked	-8.18979
▁wait	-8.18979
▁yesterday	-8.18979
▁apart	-8.20921
▁chest	-8.20921
▁condition	-8.20921
▁list	-8.20921
▁mine	-8.20921
▁option	-8.20921
▁saw	-8.20921
▁society	-8.20921
▁term	-8.20921
▁terrible	-8.20921
▁anybody	-8.22902
▁contact	-8.22902
▁deserve	-8.22902
▁front	-8.22902
▁harder	-8.22902
▁hell	-8.22902
▁hospital	-8.22902
▁number	-8.22902
▁ready	-8.22902
▁benefit	-8.24922
▁conversation	-8.24922
▁cycle	-8.24922
▁failed	-8.24922
▁general	-8.24922
▁huge	-8.24922
▁line	-8.24922
▁reduce	-8.24922
▁related	-8.24922
▁session	-8.24922
▁tension	-8.24922
▁trauma	-8.24922
▁appreciated	-8.26984
▁breakdown	-8.26984
▁circumstance	-8.26984
▁comfort	-8.26984
▁comfortable	-8.26984
▁crazy	-8.26984
▁expect	-8.26984
▁fall	-8.26984
▁growing	-8.26984
▁headache	-8.26984
▁member	-8.26984
▁perspective	-8.26984
▁questionnaire	-8.26984
▁similar	-8.26984
▁stressing	-8.26984
▁breathing	-8.29089
▁brings	-8.29089
▁build	-8.29089
▁busy	-8.29089
▁cost	-8.29089
▁dead	-8.29089
▁ex	-8.29089
▁exhausted	-8.29089
▁finish	-8.29089
▁honest	-8.29089
▁knowledge	-8.29089
▁listening	-8.29089
▁main	-8.29089
▁noticed	-8.29089
▁shitty	-8.29089
▁speak	-8.29089
▁spiritual	-8.29089
▁tomorrow	-8.29089
▁ups	-8.29089
▁useless	-8.29089
▁water	-8.29089
▁app	-8.3124
▁dark	-8.3124
▁effort	-8.3124
▁following	-8.3124
▁goosebump	-8.3124
▁illness	-8.3124
▁mostly	-8.3124
▁receive	-8.3124
▁upset	-8.3124
▁visit	-8.3124
▁wave	-8.3124
▁yeah	-8.3124
▁ability	-8.33438
▁chill	-8.33438
▁content	-8.33438
▁coping	-8.33438
▁degree	-8.33438
▁despite	-8.33438
▁eligible	-8.33438
▁exactly	-8.33438
▁fix	-8.33438
▁horrible	-8.33438
▁nature	-8.33438
▁progress	-8.33438
▁quote	-8.33438
▁skill	-8.33438
▁sun	-8.33438
▁depressive	-8.35685
▁died	-8.35685
▁final	-8.35685
▁grow	-8.35685
▁happier	-8.35685
▁internet	-8.35685
▁missing	-8.35685
▁none	-8.35685
▁relate	-8.35685
▁slowly	-8.35685
▁somewhere	-8.35685
▁tend	-8.35685
▁although	-8.37984
▁art	-8.37984
▁challenge	-8.37984
▁focused	-8.37984
▁ive	-8.37984
▁podcasts	-8.37984
▁seriously	-8.37984
▁sharing	-8.37984
▁sign	-8.37984
▁son	-8.37984
▁stand	-8.37984
▁stomach	-8.37984
▁text	-8.37984
▁weight	-8.37984
▁whats	-8.37984
▁worrying	-8.37984
▁add	-8.40337
▁affect	-8.40337
▁allowed	-8.40337
▁breaking	-8.40337
▁brief	-8.40337
▁causing	-8.40337
▁chance	-8.40337
▁computer	-8.40337
▁easily	-8.40337
▁emotionally	-8.40337
▁hobby	-8.40337
▁hoping	-8.40337
▁insecurity	-8.40337
▁interesting	-8.40337
▁loser	-8.40337
▁opinion	-8.40337
▁relax	-8.40337
▁seemed	-8.40337
▁serious	-8.40337
▁shift	-8.40337
▁specific	-8.40337
▁birthday	-8.42747
▁broken	-8.42747
▁cold	-8.42747
▁ended	-8.42747
▁gave	-8.42747
▁lazy	-8.42747
▁leaving	-8.42747
▁letting	-8.42747
▁method	-8.42747
▁multiple	-8.42747
▁paying	-8.42747
▁relief	-8.42747
▁semester	-8.42747
▁smart	-8.42747
▁source	-8.42747
▁strength	-8.42747
▁supplement	-8.42747
▁system	-8.42747
▁weekend	-8.42747
▁awful	-8.45216
▁beat	-8.45216
▁blood	-8.45216
▁buy	-8.45216
▁caught	-8.45216
▁caused	-8.45216
▁fault	-8.45216
▁fully	-8.45216
▁hopefully	-8.45216
▁mad	-8.45216
▁passed	-8.45216
▁schedule	-8.45216
▁voice	-8.45216
▁weak	-8.45216
▁alcohol	-8.47748
▁avoid	-8.47748
▁becoming	-8.47748
▁begin	-8.47748
▁burden	-8.47748
▁damn	-8.47748
▁darkness	-8.47748
▁drink	-8.47748
▁except	-8.47748
▁falling	-8.47748
▁forced	-8.47748
▁guilty	-8.47748
▁meaning	-8.47748
▁partner	-8.47748
▁perfect	-8.47748
▁playing	-8.47748
▁pleasure	-8.47748
▁relieve	-8.47748
▁seeking	-8.47748
▁sibling	-8.47748
▁solution	-8.47748
▁special	-8.47748
▁throughout	-8.47748
▁tv	-8.47748
▁uni	-8.47748
▁area	-8.50345
▁attempt	-8.50345
▁date	-8.50345
▁direction	-8.50345
▁failing	-8.50345
▁faith	-8.50345
▁impossible	-8.50345
▁loneliness	-8.50345
▁mention	-8.50345
▁non	-8.50345
▁overcome	-8.50345
▁regret	-8.50345
▁screen	-8.50345
▁skin	-8.50345
▁tough	-8.50345
▁waking	-8.50345
▁wonder	-8.50345
▁balance	-8.53012
▁beginning	-8.53012
▁chronic	-8.53012
▁city	-8.53012
▁creating	-8.53012
▁email	-8.53012
▁fighting	-8.53012
▁ill	-8.53012
▁keeping	-8.53012
▁manager	-8.53012
▁meditate	-8.53012
▁oh	-8.53012
▁platform	-8.53012
▁psychiatrist	-8.53012
▁rate	-8.53012
▁struggled	-8.53012
▁summer	-8.53012
▁tool	-8.53012
▁vent	-8.53012
▁antidepressant	-8.55752
▁anywhere	-8.55752
▁case	-8.55752
▁escape	-8.55752
▁film	-8.55752
▁meeting	-8.55752
▁obviously	-8.55752
▁office	-8.55752
▁older	-8.55752
▁personality	-8.55752
▁program	-8.55752
▁relaxing	-8.55752
▁response	-8.55752
▁running	-8.55752
▁topic	-8.55752
▁unable	-8.55752
▁value	-8.55752
▁walking	-8.55752
▁afford	-8.58569
▁compassion	-8.58569
▁confidence	-8.58569
▁defining	-8.58569
▁excuse	-8.58569
▁gift	-8.58569
▁harm	-8.58569
▁heal	-8.58569
▁hole	-8.58569
▁lol	-8.58569
▁middle	-8.58569
▁poor	-8.58569
▁stage	-8.58569
▁tear	-8.58569
▁treat	-8.58569
▁actual	-8.61468
▁bill	-8.61468
▁bullshit	-8.61468
▁closer	-8.61468
▁com	-8.61468
▁community	-8.61468
▁dr	-8.61468
▁education	-8.61468
▁experiencing	-8.61468
▁fucked	-8.61468
▁google	-8.61468
▁helpful	-8.61468
▁homework	-8.61468
▁including	-8.61468
▁interest	-8.61468
▁lay	-8.61468
▁nearly	-8.61468
▁paid	-8.61468
▁painful	-8.61468
▁position	-8.61468
▁professional	-8.61468
▁quickly	-8.61468
▁role	-8.61468
▁strategy	-8.61468
▁suddenly	-8.61468
▁task	-8.61468
▁totally	-8.61468
▁track	-8.61468
▁uncomfortable	-8.61468
▁waste	-8.61468
▁abuse	-8.64453
▁b	-8.64453
▁building	-8.64453
▁concept	-8.64453
▁drinking	-8.64453
▁earth	-8.64453
▁embrace	-8.64453
▁exist	-8.64453
▁feedback	-8.64453
▁field	-8.64453
▁natural	-8.64453
▁onto	-8.64453
▁patience	-8.64453
▁quick	-8.64453
▁reaction	-8.64453
▁responsibility	-8.64453
▁rich	-8.64453
▁seek	-8.64453
▁staying	-8.64453
▁subject	-8.64453
▁win	-8.64453
▁clear	-8.6753
▁concentrate	-8.6753
▁didnt	-8.6753
▁difference	-8.6753
▁door	-8.6753
▁existence	-8.6753
▁filled	-8.6753
▁financial	-8.6753
▁genuinely	-8.6753
▁ground	-8.6753
▁hair	-8.6753
▁hurting	-8.6753
▁increase	-8.6753
▁looked	-8.6753
▁loss	-8.6753
▁march	-8.6753
▁married	-8.6753
▁otherwise	-8.6753
▁piece	-8.6753
▁pill	-8.6753
▁safe	-8.6753
▁spotify	-8.6753
▁training	-8.6753
▁view	-8.6753
▁yoga	-8.6753
▁younger	-8.6753
▁apartment	-8.70705
▁apple	-8.70705
▁consider	-8.70705
▁deeper	-8.70705
▁distress	-8.70705
▁earlier	-8.70705
▁extra	-8.70705
▁gf	-8.70705
▁guide	-8.70705
▁held	-8.70705
▁inner	-8.70705
▁liked	-8.70705
▁men	-8.70705
▁motivated	-8.70705
▁mum	-8.70705
▁podcast	-8.70705
▁rant	-8.70705
▁reply	-8.70705
▁rush	-8.70705
▁shut	-8.70705
▁touch	-8.70705
▁unhappy	-8.70705
▁unless	-8.70705
▁baby	-8.73984
▁battle	-8.73984
▁began	-8.73984
▁cancer	-8.73984
▁catch	-8.73984
▁changing	-8.73984
▁confused	-8.73984
▁coronavirus	-8.73984
▁definitely	-8.73984
▁disappointed	-8.73984
▁driven	-8.73984
▁drop	-8.73984
▁exact	-8.73984
▁fit	-8.73984
▁joke	-8.73984
▁leg	-8.73984
▁news	-8.73984
▁offer	-8.73984
▁random	-8.73984
▁selfish	-8.73984
▁trouble	-8.73984
▁wall	-8.73984
▁air	-8.77374
▁anyways	-8.77374
▁arm	-8.77374
▁beyond	-8.77374
▁blame	-8.77374
▁bos	-8.77374
▁clean	-8.77374
▁connect	-8.77374
▁cried	-8.77374
▁detail	-8.77374
▁doubt	-8.77374
▁excited	-8.77374
▁forever	-8.77374
▁higher	-8.77374
▁hopeless	-8.77374
▁husband	-8.77374
▁incredibly	-8.77374
▁mindfulness	-8.77374
▁naturally	-8.77374
▁picture	-8.77374
▁quality	-8.77374
▁rent	-8.77374
▁send	-8.77374
▁six	-8.77374
▁stranger	-8.77374
▁team	-8.77374
▁travel	-8.77374
▁ugly	-8.77374
▁worthless	-8.77374
▁asleep	-8.80883
▁brought	-8.80883
▁cared	-8.80883
▁common	-8.80883
▁connection	-8.80883
▁considering	-8.80883
▁cool	-8.80883
▁dealt	-8.80883
▁develop	-8.80883
▁divine	-8.80883
▁e	-8.80883
▁effective	-8.80883
▁environment	-8.80883
▁explains	-8.80883
▁fatigue	-8.80883
▁five	-8.80883
▁greatly	-8.80883
▁holding	-8.80883
▁hug	-8.80883
▁insomnia	-8.80883
▁luck	-8.80883
▁material	-8.80883
▁math	-8.80883
▁normally	-8.80883
▁note	-8.80883
▁psychology	-8.80883
▁r	-8.80883
▁toxic	-8.80883
▁wont	-8.80883
▁apply	-8.8452
▁aspect	-8.8452
▁available	-8.8452
▁badly	-8.8452
▁bathroom	-8.8452
▁bought	-8.8452
▁card	-8.8452
▁childhood	-8.8452
▁decide	-8.8452
▁dropped	-8.8452
▁ending	-8.8452
▁english	-8.8452
▁express	-8.8452
▁factor	-8.8452
▁figured	-8.8452
▁fresh	-8.8452
▁graduated	-8.8452
▁holiday	-8.8452
▁imagine	-8.8452
▁immediately	-8.8452
▁key	-8.8452
▁law	-8.8452
▁lesson	-8.8452
▁loving	-8.8452
▁managed	-8.8452
▁medical	-8.8452
▁pre	-8.8452
▁psychological	-8.8452
▁sent	-8.8452
▁solve	-8.8452
▁syndrome	-8.8452
▁throw	-8.8452
▁title	-8.8452
▁trained	-8.8452
▁twice	-8.8452
▁willing	-8.8452
▁worker	-8.8452
▁york	-8.8452
▁attitude	-8.88294
▁biggest	-8.88294
▁blog	-8.88294
▁bother	-8.88294
▁courage	-8.88294
▁created	-8.88294
▁customer	-8.88294
▁dating	-8.88294
▁development	-8.88294
▁ease	-8.88294
▁external	-8.88294
▁facing	-8.88294
▁heavy	-8.88294
▁ignore	-8.88294
▁improvement	-8.88294
▁intention	-8.88294
▁internal	-8.88294
▁invited	-8.88294
▁killed	-8.88294
▁male	-8.88294
▁master	-8.88294
▁near	-8.88294
▁nightmare	-8.88294
▁offering	-8.88294
▁overall	-8.88294
▁posting	-8.88294
▁powerful	-8.88294
▁pretending	-8.88294
▁refuse	-8.88294
▁respond	-8.88294
▁routine	-8.88294
▁science	-8.88294
▁shown	-8.88294
▁spirit	-8.88294
▁stick	-8.88294
▁subconscious	-8.88294
▁suggestion	-8.88294
▁turning	-8.88294
▁useful	-8.88294
▁abusive	-8.92216
▁accepting	-8.92216
▁animal	-8.92216
▁applied	-8.92216
▁appointment	-8.92216
▁author	-8.92216
▁blue	-8.92216
▁columbia	-8.92216
▁deeply	-8.92216
▁everywhere	-8.92216
▁finished	-8.92216
▁foot	-8.92216
▁graduate	-8.92216
▁hated	-8.92216
▁laugh	-8.92216
▁medicine	-8.92216
▁missed	-8.92216
▁mobile	-8.92216
▁party	-8.92216
▁possibly	-8.92216
▁presence	-8.92216
▁principle	-8.92216
▁productive	-8.92216
▁public	-8.92216
▁realised	-8.92216
▁resource	-8.92216
▁respect	-8.92216
▁scary	-8.92216
▁screaming	-8.92216
▁shared	-8.92216
▁shoulder	-8.92216
▁smoking	-8.92216
▁song	-8.92216
▁speaking	-8.92216
▁spending	-8.92216
▁supportive	-8.92216
▁teeth	-8.92216
▁till	-8.92216
▁tl	-8.92216
▁trigger	-8.92216
▁wealth	-8.92216
▁wear	-8.92216
▁wellbeing	-8.92216
▁accomplish	-8.96298
▁acting	-8.96298
▁agree	-8.96298
▁annoying	-8.96298
▁center	-8.96298
▁certainly	-8.96298
▁click	-8.96298
▁clinician	-8.96298
▁connected	-8.96298
▁considered	-8.96298
▁decade	-8.96298
▁embracing	-8.96298
▁enjoying	-8.96298
▁feature	-8.96298
▁female	-8.96298
▁function	-8.96298
▁join	-8.96298
▁managing	-8.96298
▁ocd	-8.96298
▁page	-8.96298
▁particularly	-8.96298
▁passing	-8.96298
▁passionate	-8.96298
▁planet	-8.96298
▁planning	-8.96298
▁popular	-8.96298
▁raise	-8.96298
▁rid	-8.96298
▁rule	-8.96298
▁sex	-8.96298
▁slow	-8.96298
▁tho	-8.96298
▁train	-8.96298
▁unfortunately	-8.96298
▁vision	-8.96298
▁xanax	-8.96298
▁absolute	-9.00554
▁accident	-9.00554
▁bottom	-9.00554
▁bunch	-9.00554
▁coach	-9.00554
▁commit	-9.00554
▁compensated	-9.00554
▁consequence	-9.00554
▁daughter	-9.00554
▁empathy	-9.00554
▁everybody	-9.00554
▁everytime	-9.00554
▁february	-9.00554
▁hang	-9.00554
▁involved	-9.00554
▁jump	-9.00554
▁led	-9.00554
▁limit	-9.00554
▁mid	-9.00554
▁misery	-9.00554
▁nervous	-9.00554
▁novel	-9.00554
▁participate	-9.00554
▁previous	-9.00554
▁properly	-9.00554
▁reached	-9.00554
▁road	-9.00554
▁season	-9.00554
▁separately	-9.00554
▁service	-9.00554
▁significant	-9.00554
▁specially	-9.00554
▁stressor	-9.00554
▁surface	-9.00554
▁teach	-9.00554
▁wasted	-9.00554
▁wisdom	-9.00554
▁wrote	-9.00554
▁alot	-9.05
▁average	-9.05
▁becomes	-9.05
▁boundary	-9.05
▁chat	-9.05
▁chose	-9.05
▁christmas	-9.05
▁client	-9.05
▁crap	-9.05
▁creative	-9.05
▁credit	-9.05
▁cuz	-9.05
▁decent	-9.05
▁define	-9.05
▁discus	-9.05
▁edge	-9.05
▁edit	-9.05
▁exhausting	-9.05
▁fell	-9.05
▁friendship	-9.05
▁greatest	-9.05
▁journal	-9.05
▁judge	-9.05
▁judgement	-9.05
▁likely	-9.05
▁loud	-9.05
▁nerve	-9.05
▁noise	-9.05
▁ourself	-9.05
▁painting	-9.05
▁particular	-9.05
▁recent	-9.05
▁regularly	-9.05
▁series	-9.05
▁suffered	-9.05
▁trick	-9.05
▁usual	-9.05
▁various	-9.05
▁zone	-9.05
▁zoom	-9.05
▁abundance	-9.09652
▁accepted	-9.09652
▁allowing	-9.09652
▁basic	-9.09652
▁block	-9.09652
▁bright	-9.09652
▁chemical	-9.09652
▁chi	-9.09652
▁depressing	-9.09652
▁dollar	-9.09652
▁dumb	-9.09652
▁ego	-9.09652
▁evening	-9.09652
▁existing	-9.09652
▁fake	-9.09652
▁famous	-9.09652
▁fire	-9.09652
▁floor	-9.09652
▁generally	-9.09652
▁grandma	-9.09652
▁grew	-9.09652
▁identity	-9.09652
▁innovative	-9.09652
▁january	-9.09652
▁judging	-9.09652
▁mindful	-9.09652
▁opposite	-9.09652
▁overwhelming	-9.09652
▁provide	-9.09652
▁pull	-9.09652
▁pushed	-9.09652
▁quarantine	-9.09652
▁quiet	-9.09652
▁react	-9.09652
▁recognize	-9.09652
▁relaxation	-9.09652
▁saving	-9.09652
▁sensation	-9.09652
▁sexual	-9.09652
▁showing	-9.09652
▁sport	-9.09652
▁store	-9.09652
▁sweet	-9.09652
▁tea	-9.09652
▁telehealth	-9.09652
▁tonight	-9.09652
▁trash	-9.09652
▁uk	-9.09652
▁ultimately	-9.09652
▁utilize	-9.09652
▁vulnerable	-9.09652
▁wow	-9.09652
▁yorkers	-9.09652
▁zero	-9.09652
▁affection	-9.14531
▁among	-9.14531
▁anti	-9.14531
▁attractive	-9.14531
▁celebrate	-9.14531
▁channel	-9.14531
▁contribute	-9.14531
▁diet	-9.14531
▁disappear	-9.14531
▁disease	-9.14531
▁distance	-9.14531
▁dramatic	-9.14531
▁extreme	-9.14531
▁fog	-9.14531
▁frustration	-9.14531
▁happinessnow	-9.14531
▁history	-9.14531
▁hitting	-9.14531
▁imposter	-9.14531
▁income	-9.14531
▁intense	-9.14531
▁isolation	-9.14531
▁load	-9.14531
▁mask	-9.14531
▁meal	-9.14531
▁min	-9.14531
▁nowhere	-9.14531
▁overthinking	-9.14531
▁performance	-9.14531
▁played	-9.14531
▁prana	-9.14531
▁product	-9.14531
▁realise	-9.14531
▁regular	-9.14531
▁scare	-9.14531
▁secret	-9.14531
▁shake	-9.14531
▁teaching	-9.14531
▁terrified	-9.14531
▁unique	-9.14531
▁valid	-9.14531
▁venting	-9.14531
▁vitamin	-9.14531
▁acceptance	-9.1966
▁added	-9.1966
▁addition	-9.1966
▁ahead	-9.1966
▁allows	-9.1966
▁annoyed	-9.1966
▁argument	-9.1966
▁aside	-9.1966
▁atleast	-9.1966
▁authentic	-9.1966
▁bank	-9.1966
▁bf	-9.1966
▁bottle	-9.1966
▁calming	-9.1966
▁checked	-9.1966
▁clearly	-9.1966
▁clothes	-9.1966
▁compared	-9.1966
▁convince	-9.1966
▁cover	-9.1966
▁cutting	-9.1966
▁disappointment	-9.1966
▁drunk	-9.1966
▁esteem	-9.1966
▁euphoria	-9.1966
▁forgot	-9.1966
▁frequently	-9.1966
▁funny	-9.1966
▁hearing	-9.1966
▁hide	-9.1966
▁lockdown	-9.1966
▁mile	-9.1966
▁minor	-9.1966
▁motivate	-9.1966
▁participation	-9.1966
▁pick	-9.1966
▁pop	-9.1966
▁prepared	-9.1966
▁psychologist	-9.1966
▁pursue	-9.1966
▁received	-9.1966
▁roof	-9.1966
▁root	-9.1966
▁save	-9.1966
▁sensitive	-9.1966
▁shower	-9.1966
▁slept	-9.1966
▁smoke	-9.1966
▁snap	-9.1966
▁sober	-9.1966
▁somewhat	-9.1966
▁soothing	-9.1966
▁spring	-9.1966
▁subreddit	-9.1966
▁succeed	-9.1966
▁sudden	-9.1966
▁thousand	-9.1966
▁ton	-9.1966
▁trans	-9.1966
▁war	-9.1966
▁ward	-9.1966
▁welcome	-9.1966
▁achieving	-9.25067
▁addiction	-9.25067
▁affected	-9.25067
▁appetite	-9.25067
▁application	-9.25067
▁approach	-9.25067
▁bringing	-9.25067
▁built	-9.25067
▁cat	-9.25067
▁challenging	-9.25067
▁character	-9.25067
▁co	-9.25067
▁compare	-9.25067
▁complain	-9.25067
▁conclusion	-9.25067
▁craft	-9.25067
▁data	-9.25067
▁deadline	-9.25067
▁discover	-9.25067
▁draw	-9.25067
▁drawing	-9.25067
▁ecstasy	-9.25067
▁employee	-9.25067
▁expected	-9.25067
▁favorite	-9.25067
▁financially	-9.25067
▁fixed	-9.25067
▁gas	-9.25067
▁green	-9.25067
▁guilt	-9.25067
▁highschool	-9.25067
▁homeless	-9.25067
▁john	-9.25067
▁local	-9.25067
▁lucky	-9.25067
▁lying	-9.25067
▁mainly	-9.25067
▁mechanism	-9.25067
▁meditating	-9.25067
▁mri	-9.25067
▁muscle	-9.25067
▁noticing	-9.25067
▁per	-9.25067
▁personally	-9.25067
▁planned	-9.25067
▁plant	-9.25067
▁plus	-9.25067
▁posted	-9.25067
▁pretend	-9.25067
▁prior	-9.25067
▁promotion	-9.25067
▁radical	-9.25067
▁realization	-9.25067
▁released	-9.25067
▁return	-9.25067
▁rough	-9.25067
▁shape	-9.25067
▁site	-9.25067
▁sky	-9.25067
▁stayed	-9.25067
▁stopping	-9.25067
▁stutter	-9.25067
▁sunshine	-9.25067
▁thus	-9.25067
▁tiny	-9.25067
▁trip	-9.25067
▁vulnerability	-9.25067
▁abused	-9.30783
▁acknowledge	-9.30783
▁alice	-9.30783
▁alternative	-9.30783
▁apparently	-9.30783
▁aura	-9.30783
▁background	-9.30783
▁bigger	-9.30783
▁blessing	-9.30783
▁blocked	-9.30783
▁bothering	-9.30783
▁caring	-9.30783
▁closed	-9.30783
▁combination	-9.30783
▁conditioned	-9.30783
▁culture	-9.30783
▁debt	-9.30783
▁directly	-9.30783
▁distant	-9.30783
▁essay	-9.30783
▁flow	-9.30783
▁frustrated	-9.30783
▁gmail	-9.30783
▁grab	-9.30783
▁hanging	-9.30783
▁hardly	-9.30783
▁helpless	-9.30783
▁include	-9.30783
▁influence	-9.30783
▁instagram	-9.30783
▁instantly	-9.30783
▁kindness	-9.30783
▁maintain	-9.30783
▁mentioned	-9.30783
▁messed	-9.30783
▁mix	-9.30783
▁neck	-9.30783
▁neither	-9.30783
▁outcome	-9.30783
▁p	-9.30783
▁paper	-9.30783
▁perhaps	-9.30783
▁political	-9.30783
▁possibility	-9.30783
▁private	-9.30783
▁prove	-9.30783
▁reaching	-9.30783
▁review	-9.30783
▁ride	-9.30783
▁rock	-9.30783
▁roommate	-9.30783
▁roosh	-9.30783
▁rude	-9.30783
▁sentence	-9.30783
▁severely	-9.30783
▁silence	-9.30783
▁smiling	-9.30783
▁socially	-9.30783
▁stable	-9.30783
▁surrounded	-9.30783
▁tbh	-9.30783
▁teenager	-9.30783
▁throwing	-9.30783
▁total	-9.30783
▁town	-9.30783
▁trapped	-9.30783
▁understood	-9.30783
▁woke	-9.30783
▁yelling	-9.30783
▁access	-9.36845
▁adhd	-9.36845
▁advance	-9.36845
▁afterwards	-9.36845
▁awesome	-9.36845
▁besides	-9.36845
▁bitch	-9.36845
▁calendar	-9.36845
▁calling	-9.36845
▁capable	-9.36845
▁chore	-9.36845
▁club	-9.36845
▁clue	-9.36845
▁coffee	-9.36845
▁conscious	-9.36845
▁core	-9.36845
▁crisis	-9.36845
▁doesnt	-9.36845
▁dull	-9.36845
▁entirely	-9.36845
▁explaining	-9.36845
▁extended	-9.36845
▁folk	-9.36845
▁glad	-9.36845
▁guided	-9.36845
▁gym	-9.36845
▁hardest	-9.36845
▁hormone	-9.36845
▁improved	-9.36845
▁industry	-9.36845
▁info	-9.36845
▁inspiration	-9.36845
▁interaction	-9.36845
▁jeremy	-9.36845
▁jesus	-9.36845
▁journaling	-9.36845
▁kick	-9.36845
▁latest	-9.36845
▁laughing	-9.36845
▁leaf	-9.36845
▁letter	-9.36845
▁license	-9.36845
▁lift	-9.36845
▁mana	-9.36845
▁melody	-9.36845
▁mild	-9.36845
▁monday	-9.36845
▁monster	-9.36845
▁nowadays	-9.36845
▁pathetic	-9.36845
▁peaceful	-9.36845
▁perform	-9.36845
▁pet	-9.36845
▁philosophy	-9.36845
▁plenty	-9.36845
▁pm	-9.36845
▁potential	-9.36845
▁prescribed	-9.36845
▁rare	-9.36845
▁realizing	-9.36845
▁recommend	-9.36845
▁relaxed	-9.36845
▁repeat	-9.36845
▁rise	-9.36845
▁risk	-9.36845
▁rn	-9.36845
▁ruined	-9.36845
▁sat	-9.36845
▁sometime	-9.36845
▁spare	-9.36845
▁spoken	-9.36845
▁standard	-9.36845
▁stronger	-9.36845
▁taught	-9.36845
▁toward	-9.36845
▁treated	-9.36845
▁unhealthy	-9.36845
▁voluntary	-9.36845
▁wise	-9.36845
▁wonderful	-9.36845
▁achievement	-9.43299
▁alright	-9.43299
▁applying	-9.43299
▁artist	-9.43299
▁attraction	-9.43299
▁basis	-9.43299
▁bc	-9.43299
▁bear	-9.43299
▁behavior	-9.43299
▁boring	-9.43299
▁boy	-9.43299
▁claim	-9.43299
▁commitment	-9.43299
▁completed	-9.43299
▁connecting	-9.43299
▁context	-9.43299
▁convinced	-9.43299
▁counselor	-9.43299
▁count	-9.43299
▁countless	-9.43299
▁cure	-9.43299
▁delete	-9.43299
▁describe	-9.43299
▁desperate	-9.43299
▁desperately	-9.43299
▁developed	-9.43299
▁distraction	-9.43299
▁ear	-9.43299
▁f	-9.43299
▁flip	-9.43299
▁followed	-9.43299
▁freaking	-9.43299
▁frequency	-9.43299
▁highest	-9.43299
▁hot	-9.43299
▁ice	-9.43299
▁infinite	-9.43299
▁insanely	-9.43299
▁intervention	-9.43299
▁invite	-9.43299
▁jumping	-9.43299
▁large	-9.43299
▁lasted	-9.43299
▁laying	-9.43299
▁leading	-9.43299
▁loan	-9.43299
▁lovely	-9.43299
▁marriage	-9.43299
▁massive	-9.43299
▁michael	-9.43299
▁nauseous	-9.43299
▁nurse	-9.43299
▁photo	-9.43299
▁police	-9.43299
▁pray	-9.43299
▁prevent	-9.43299
▁produce	-9.43299
▁professor	-9.43299
▁psych	-9.43299
▁pure	-9.43299
▁qi	-9.43299
▁rapture	-9.43299
▁remove	-9.43299
▁retail	-9.43299
▁reward	-9.43299
▁saved	-9.43299
▁senior	-9.43299
▁setting	-9.43299
▁silent	-9.43299
▁slip	-9.43299
▁somebody	-9.43299
▁specifically	-9.43299
▁sub	-9.43299
▁swear	-9.43299
▁talent	-9.43299
▁temporary	-9.43299
▁third	-9.43299
▁tight	-9.43299
▁tiring	-9.43299
▁tunnel	-9.43299
▁understands	-9.43299
▁urge	-9.43299
▁vacation	-9.43299
▁version	-9.43299
▁warm	-9.43299
▁weather	-9.43299
▁wishing	-9.43299
▁withdrawal	-9.43299
▁achieved	-9.50198
▁active	-9.50198
▁affirmation	-9.50198
▁ambitious	-9.50198
▁anytime	-9.50198
▁april	-9.50198
▁attached	-9.50198
▁bag	-9.50198
▁band	-9.50198
▁behaviour	-9.50198
▁burnt	-9.50198
▁capacity	-9.50198
▁church	-9.50198
▁complaining	-9.50198
▁concentration	-9.50198
▁concerned	-9.50198
▁consistent	-9.50198
▁consume	-9.50198
▁cup	-9.50198
▁curious	-9.50198
▁difficulty	-9.50198
▁director	-9.50198
▁drag	-9.50198
▁emptiness	-9.50198
▁essentially	-9.50198
▁everyones	-9.50198
▁fkn	-9.50198
▁fold	-9.50198
▁forth	-9.50198
▁friday	-9.50198
▁gain	-9.50198
▁gaming	-9.50198
▁gender	-9.50198
▁grown	-9.50198
▁guidance	-9.50198
▁ignored	-9.50198
▁improving	-9.50198
▁increased	-9.50198
▁independent	-9.50198
▁insane	-9.50198
▁insight	-9.50198
▁jaw	-9.50198
▁language	-9.50198
▁lifestyle	-9.50198
▁linear	-9.50198
▁map	-9.50198
▁mg	-9.50198
▁minimum	-9.50198
▁mouth	-9.50198
▁mud	-9.50198
▁necessarily	-9.50198
▁nephesch	-9.50198
▁observe	-9.50198
▁occasionally	-9.50198
▁ocean	-9.50198
▁organized	-9.50198
▁paint	-9.50198
▁patient	-9.50198
▁phase	-9.50198
▁practicing	-9.50198
▁quitting	-9.50198
▁recovered	-9.50198
▁require	-9.50198
▁rising	-9.50198
▁ruah	-9.50198
▁ruin	-9.50198
▁scream	-9.50198
▁searching	-9.50198
▁shaking	-9.50198
▁shame	-9.50198
▁shine	-9.50198
▁spot	-9.50198
▁suggest	-9.50198
▁supported	-9.50198
▁surgery	-9.50198
▁table	-9.50198
▁taste	-9.50198
▁teenage	-9.50198
▁triggered	-9.50198
▁unit	-9.50198
▁virus	-9.50198
▁walked	-9.50198
▁white	-9.50198
▁worthy	-9.50198
▁accomplishment	-9.57609
▁accountability	-9.57609
▁admit	-9.57609
▁affecting	-9.57609
▁beauty	-9.57609
▁beloved	-9.57609
▁blind	-9.57609
▁bored	-9.57609
▁bothered	-9.57609
▁cell	-9.57609
▁charge	-9.57609
▁continues	-9.57609
▁correct	-9.57609
▁coworker	-9.57609
▁creation	-9.57609
▁damage	-9.57609
▁december	-9.57609
▁destination	-9.57609
▁editing	-9.57609
▁endless	-9.57609
▁entrepreneur	-9.57609
▁essential	-9.57609
▁fat	-9.57609
▁finger	-9.57609
▁fortunate	-9.57609
▁freedom	-9.57609
▁functioning	-9.57609
▁gained	-9.57609
▁gathering	-9.57609
▁gentle	-9.57609
▁grief	-9.57609
▁gun	-9.57609
▁hardship	-9.57609
▁healthier	-9.57609
▁hiding	-9.57609
▁highly	-9.57609
▁identify	-9.57609
▁immune	-9.57609
▁impacted	-9.57609
▁inevitable	-9.57609
▁inspire	-9.57609
▁inspiring	-9.57609
▁insurance	-9.57609
▁loop	-9.57609
▁majority	-9.57609
▁meaningful	-9.57609
▁mode	-9.57609
▁necessary	-9.57609
▁negativity	-9.57609
▁neurologist	-9.57609
▁obvious	-9.57609
▁offered	-9.57609
▁pattern	-9.57609
▁pause	-9.57609
▁perception	-9.57609
▁plate	-9.57609
▁range	-9.57609
▁record	-9.57609
▁regarding	-9.57609
▁reminds	-9.57609
▁resilience	-9.57609
▁resolve	-9.57609
▁restriction	-9.57609
▁rushing	-9.57609
▁satisfaction	-9.57609
▁section	-9.57609
▁shot	-9.57609
▁speed	-9.57609
▁spirituality	-9.57609
▁spoke	-9.57609
▁surely	-9.57609
▁surprise	-9.57609
▁surprised	-9.57609
▁swept	-9.57609
▁ten	-9.57609
▁thankful	-9.57609
▁touched	-9.57609
▁typing	-9.57609
▁upon	-9.57609
▁violent	-9.57609
▁wasting	-9.57609
▁website	-9.57609
▁window	-9.57609
▁winner	-9.57609
▁winter	-9.57609
▁youth	-9.57609
▁abby	-9.65613
▁accountable	-9.65613
▁ache	-9.65613
▁ad	-9.65613
▁aim	-9.65613
▁anonymous	-9.65613
▁arise	-9.65613
▁asks	-9.65613
▁asshole	-9.65613
▁assumption	-9.65613
▁avoiding	-9.65613
▁bike	-9.65613
▁black	-9.65613
▁blaming	-9.65613
▁brand	-9.65613
▁burn	-9.65613
▁canada	-9.65613
▁carry	-9.65613
▁chase	-9.65613
▁chasing	-9.65613
▁cheer	-9.65613
▁chosen	-9.65613
▁concern	-9.65613
▁continuing	-9.65613
▁cook	-9.65613
▁corner	-9.65613
▁cousin	-9.65613
▁coward	-9.65613
▁critical	-9.65613
▁damaged	-9.65613
▁developing	-9.65613
▁diagnosis	-9.65613
▁discovered	-9.65613
▁distracted	-9.65613
▁dose	-9.65613
▁drained	-9.65613
▁drowning	-9.65613
▁enemy	-9.65613
▁ether	-9.65613
▁excitement	-9.65613
▁expecting	-9.65613
▁expert	-9.65613
▁fairly	-9.65613
▁faster	-9.65613
▁flat	-9.65613
▁forum	-9.65613
▁frustrating	-9.65613
▁fundraiser	-9.65613
▁gate	-9.65613
▁gotta	-9.65613
▁government	-9.65613
▁graduating	-9.65613
▁imagining	-9.65613
▁judged	-9.65613
▁laptop	-9.65613
▁limiting	-9.65613
▁market	-9.65613
▁mentor	-9.65613
▁minded	-9.65613
▁mirror	-9.65613
▁negatively	-9.65613
▁neglect	-9.65613
▁numerous	-9.65613
▁ob	-9.65613
▁opening	-9.65613
▁overwhelm	-9.65613
▁pass	-9.65613
▁permission	-9.65613
▁perseverance	-9.65613
▁piano	-9.65613
▁pile	-9.65613
▁pillar	-9.65613
▁promoted	-9.65613
▁provides	-9.65613
▁ptsd	-9.65613
▁punch	-9.65613
▁questioning	-9.65613
▁raised	-9.65613
▁receiving	-9.65613
▁recover	-9.65613
▁recovering	-9.65613
▁regardless	-9.65613
▁remembering	-9.65613
▁remind	-9.65613
▁selling	-9.65613
▁shop	-9.65613
▁significantly	-9.65613
▁slightly	-9.65613
▁smarter	-9.65613
▁solely	-9.65613
▁specialist	-9.65613
▁staring	-9.65613
▁storm	-9.65613
▁stroke	-9.65613
▁suggested	-9.65613
▁sunny	-9.65613
▁survive	-9.65613
▁teen	-9.65613
▁tested	-9.65613
▁toy	-9.65613
▁trial	-9.65613
▁twitch	-9.65613
▁unbearable	-9.65613
▁unexpected	-9.65613
▁unmotivated	-9.65613
▁vayu	-9.65613
▁weakness	-9.65613
▁wearing	-9.65613
▁wedding	-9.65613
▁wheel	-9.65613
▁whose	-9.65613
▁wind	-9.65613
▁workload	-9.65613
▁accomplished	-9.74314
▁agreed	-9.74314
▁ambition	-9.74314
▁answering	-9.74314
▁appear	-9.74314
▁apps	-9.74314
▁argue	-9.74314
▁attend	-9.74314
▁aunt	-9.74314
▁autism	-9.74314
▁bipolar	-9.74314
▁bullied	-9.74314
▁c	-9.74314
▁chapter	-9.74314
▁cheating	-9.74314
▁cognitive	-9.74314
▁color	-9.74314
▁complicated	-9.74314
▁confident	-9.74314
▁consistency	-9.74314
▁counseling	-9.74314
▁cream	-9.74314
▁creativity	-9.74314
▁criticism	-9.74314
▁crowd	-9.74314
▁crush	-9.74314
▁dedication	-9.74314
▁design	-9.74314
▁dick	-9.74314
▁discord	-9.74314
▁discussion	-9.74314
▁distract	-9.74314
▁dread	-9.74314
▁driver	-9.74314
▁dude	-9.74314
▁effectively	-9.74314
▁eliminate	-9.74314
▁embarrassed	-9.74314
▁encouraged	-9.74314
▁exercising	-9.74314
▁explode	-9.74314
▁false	-9.74314
▁favour	-9.74314
▁finance	-9.74314
▁finishing	-9.74314
▁fired	-9.74314
▁fulfilling	-9.74314
▁graduation	-9.74314
▁grandmother	-9.74314
▁hating	-9.74314
▁healthcare	-9.74314
▁humanity	-9.74314
▁id	-9.74314
▁ideal	-9.74314
▁ignoring	-9.74314
▁illusion	-9.74314
▁instant	-9.74314
▁interact	-9.74314
▁isnt	-9.74314
▁joined	-9.74314
▁knife	-9.74314
▁longevity	-9.74314
▁lung	-9.74314
▁magic	-9.74314
▁marketing	-9.74314
▁nervousness	-9.74314
▁november	-9.74314
▁numbness	-9.74314
▁opposed	-9.74314
▁optimism	-9.74314
▁optimistic	-9.74314
▁originally	-9.74314
▁payment	-9.74314
▁picked	-9.74314
▁pissed	-9.74314
▁pleasing	-9.74314
▁pointless	-9.74314
▁porn	-9.74314
▁pregnant	-9.74314
▁prescription	-9.74314
▁productivity	-9.74314
▁profile	-9.74314
▁psyche	-9.74314
▁race	-9.74314
▁ran	-9.74314
▁rarely	-9.74314
▁red	-9.74314
▁reflect	-9.74314
▁religious	-9.74314
▁replace	-9.74314
▁request	-9.74314
▁restilen	-9.74314
▁rope	-9.74314
▁sadly	-9.74314
▁sake	-9.74314
▁scenario	-9.74314
▁seasonal	-9.74314
▁sell	-9.74314
▁shining	-9.74314
▁silly	-9.74314
▁spiral	-9.74314
▁statement	-9.74314
▁streaming	-9.74314
▁strongly	-9.74314
▁surrounding	-9.74314
▁tendency	-9.74314
▁traumatic	-9.74314
▁tw	-9.74314
▁unknown	-9.74314
▁weekly	-9.74314
▁winning	-9.74314
▁abrupt	-9.83845
▁adderall	-9.83845
▁addict	-9.83845
▁adding	-9.83845
▁advantage	-9.83845
▁alleviate	-9.83845
▁anhedonia	-9.83845
▁approval	-9.83845
▁arguing	-9.83845
▁august	-9.83845
▁awake	-9.83845
▁awkward	-9.83845
▁beating	-9.83845
▁believed	-9.83845
▁bird	-9.83845
▁birth	-9.83845
▁bloom	-9.83845
▁board	-9.83845
▁box	-9.83845
▁buying	-9.83845
▁challenged	-9.83845
▁chaos	-9.83845
▁cheap	-9.83845
▁checking	-9.83845
▁cicely	-9.83845
▁cigarette	-9.83845
▁clarity	-9.83845
▁cleaning	-9.83845
▁communicate	-9.83845
▁complex	-9.83845
▁corona	-9.83845
▁crash	-9.83845
▁cured	-9.83845
▁dear	-9.83845
▁department	-9.83845
▁designed	-9.83845
▁diabetes	-9.83845
▁differently	-9.83845
▁dig	-9.83845
▁dinner	-9.83845
▁dm	-9.83845
▁dorm	-9.83845
▁double	-9.83845
▁draining	-9.83845
▁drama	-9.83845
▁earning	-9.83845
▁ect	-9.83845
▁encouragement	-9.83845
▁engage	-9.83845
▁engaged	-9.83845
▁enjoyed	-9.83845
▁enjoyment	-9.83845
▁evidence	-9.83845
▁extent	-9.83845
▁facebook	-9.83845
▁fallen	-9.83845
▁favourite	-9.83845
▁feed	-9.83845
▁fi	-9.83845
▁flash	-9.83845
▁flower	-9.83845
▁forgive	-9.83845
▁forgotten	-9.83845
▁freely	-9.83845
▁freshman	-9.83845
▁fulfilled	-9.83845
▁fund	-9.83845
▁giant	-9.83845
▁gpa	-9.83845
▁gut	-9.83845
▁havent	-9.83845
▁hoped	-9.83845
▁hungry	-9.83845
▁ideation	-9.83845
▁idiot	-9.83845
▁ielts	-9.83845
▁importance	-9.83845
▁incredible	-9.83845
▁initially	-9.83845
▁injury	-9.83845
▁instructor	-9.83845
▁intrusive	-9.83845
▁irl	-9.83845
▁isolated	-9.83845
▁j	-9.83845
▁jealous	-9.83845
▁july	-9.83845
▁junk	-9.83845
▁l	-9.83845
▁laid	-9.83845
▁larger	-9.83845
▁lb	-9.83845
▁lexapro	-9.83845
▁linked	-9.83845
▁lo	-9.83845
▁location	-9.83845
▁mark	-9.83845
▁modern	-9.83845
▁movement	-9.83845
▁narcissistic	-9.83845
▁nausea	-9.83845
▁neutral	-9.83845
▁october	-9.83845
▁organization	-9.83845
▁perfectly	-9.83845
▁persistence	-9.83845
▁pit	-9.83845
▁playlist	-9.83845
▁positivity	-9.83845
▁potentially	-9.83845
▁probability	-9.83845
▁racing	-9.83845
▁realisation	-9.83845
▁realistically	-9.83845
▁recipe	-9.83845
▁recognizing	-9.83845
▁reminded	-9.83845
▁repeatedly	-9.83845
▁replaced	-9.83845
▁returning	-9.83845
▁river	-9.83845
▁row	-9.83845
▁sale	-9.83845
▁scale	-9.83845
▁schoolwork	-9.83845
▁search	-9.83845
▁security	-9.83845
▁seed	-9.83845
▁sending	-9.83845
▁server	-9.83845
▁shy	-9.83845
▁smell	-9.83845
▁snapped	-9.83845
▁snow	-9.83845
▁sore	-9.83845
▁spark	-9.83845
▁speaker	-9.83845
▁spotlight	-9.83845
▁sri	-9.83845
▁stepped	-9.83845
▁strange	-9.83845
▁street	-9.83845
▁structure	-9.83845
▁sucking	-9.83845
▁sunday	-9.83845
▁sunlight	-9.83845
▁supervisor	-9.83845
▁tends	-9.83845
▁thankfully	-9.83845
▁thread	-9.83845
▁threw	-9.83845
▁thrive	-9.83845
▁tldr	-9.83845
▁tutor	-9.83845
▁typically	-9.83845
▁ugh	-9.83845
▁uncertainty	-9.83845
▁unemployed	-9.83845
▁unwanted	-9.83845
▁via	-9.83845
▁victory	-9.83845
▁watched	-9.83845
▁weed	-9.83845
▁whilst	-9.83845
▁workout	-9.83845
▁yell	-9.83845
▁according	-9.94381
▁adrenaline	-9.94381
▁album	-9.94381
▁answered	-9.94381
▁apologize	-9.94381
▁appearance	-9.94381
▁approved	-9.94381
▁ashamed	-9.94381
▁associate	-9.94381
▁ate	-9.94381
▁attachment	-9.94381
▁autistic	-9.94381
▁autopilot	-9.94381
▁backwards	-9.94381
▁ball	-9.94381
▁begged	-9.94381
▁bhagavan	-9.94381
▁bite	-9.94381
▁boost	-9.94381
▁bpd	-9.94381
▁bridge	-9.94381
▁buck	-9.94381
▁burned	-9.94381
▁bus	-9.94381
▁cage	-9.94381
▁campus	-9.94381
▁climbing	-9.94381
▁clock	-9.94381
▁cloud	-9.94381
▁colleague	-9.94381
▁communication	-9.94381
▁commute	-9.94381
▁competition	-9.94381
▁compound	-9.94381
▁confide	-9.94381
▁consciousness	-9.94381
▁consuming	-9.94381
▁consumption	-9.94381
▁correctly	-9.94381
▁cortisol	-9.94381
▁court	-9.94381
▁creates	-9.94381
▁creator	-9.94381
▁crushing	-9.94381
▁demon	-9.94381
▁depressant	-9.94381
▁depth	-9.94381
▁deserves	-9.94381
▁destroying	-9.94381
▁devastating	-9.94381
▁diary	-9.94381
▁diploma	-9.94381
▁disgusting	-9.94381
▁energetic	-9.94381
▁entering	-9.94381
▁envy	-9.94381
▁ethic	-9.94381
▁evil	-9.94381
▁excess	-9.94381
▁exciting	-9.94381
▁exhale	-9.94381
▁expensive	-9.94381
▁explained	-9.94381
▁explanation	-9.94381
▁explore	-9.94381
▁expression	-9.94381
▁faced	-9.94381
▁faking	-9.94381
▁familiar	-9.94381
▁filling	-9.94381
▁fleeting	-9.94381
▁fought	-9.94381
▁friendly	-9.94381
▁fulfillment	-9.94381
▁functional	-9.94381
▁garden	-9.94381
▁gay	-9.94381
▁genuine	-9.94381
▁ghost	-9.94381
▁goodbye	-9.94381
▁greatness	-9.94381
▁grocery	-9.94381
▁grounded	-9.94381
▁haha	-9.94381
▁happily	-9.94381
▁harmed	-9.94381
▁hip	-9.94381
▁hundred	-9.94381
▁hung	-9.94381
▁ignorance	-9.94381
▁ignorant	-9.94381
▁induced	-9.94381
▁instance	-9.94381
▁intelligence	-9.94381
▁internship	-9.94381
▁lasting	-9.94381
▁league	-9.94381
▁lifetime	-9.94381
▁logical	-9.94381
▁loose	-9.94381
▁lower	-9.94381
▁lyme	-9.94381
▁maintaining	-9.94381
▁manageable	-9.94381
▁manipulate	-9.94381
▁marathon	-9.94381
▁measure	-9.94381
▁minimal	-9.94381
▁obsessive	-9.94381
▁oil	-9.94381
▁opened	-9.94381
▁orange	-9.94381
▁owner	-9.94381
▁paranoid	-9.94381
▁participating	-9.94381
▁pound	-9.94381
▁prepare	-9.94381
▁press	-9.94381
▁projecting	-9.94381
▁promise	-9.94381
▁proper	-9.94381
▁rambling	-9.94381
▁recognise	-9.94381
▁reliable	-9.94381
▁remembered	-9.94381
▁removed	-9.94381
▁report	-9.94381
▁resistance	-9.94381
▁rut	-9.94381
▁sacred	-9.94381
▁screw	-9.94381
▁screwed	-9.94381
▁semi	-9.94381
▁seven	-9.94381
▁shooting	-9.94381
▁showed	-9.94381
▁snack	-9.94381
▁socialize	-9.94381
▁solo	-9.94381
▁solving	-9.94381
▁south	-9.94381
▁split	-9.94381
▁spread	-9.94381
▁status	-9.94381
▁strict	-9.94381
▁suppose	-9.94381
▁sweat	-9.94381
▁switch	-9.94381
▁therefore	-9.94381
▁throat	-9.94381
▁timing	-9.94381
▁toll	-9.94381
▁twenty	-9.94381
▁twitter	-9.94381
▁ultimate	-9.94381
▁uncle	-9.94381
▁underneath	-9.94381
▁ungrateful	-9.94381
▁unlearning	-9.94381
▁unsure	-9.94381
▁user	-9.94381
▁v	-9.94381
▁vibe	-9.94381
▁visual	-9.94381
▁wage	-9.94381
▁web	-9.94381
▁whatsoever	-9.94381
▁wherever	-9.94381
▁wound	-9.94381
▁yelled	-9.94381
▁abuser	-10.0616
▁academic	-10.0616
▁adopt	-10.0616
▁adulthood	-10.0616
▁affordable	-10.0616
▁agency	-10.0616
▁agony	-10.0616
▁asap	-10.0616
▁assessment	-10.0616
▁assuming	-10.0616
▁attain	-10.0616
▁attempted	-10.0616
▁attending	-10.0616
▁australia	-10.0616
▁automatically	-10.0616
▁awhile	-10.0616
▁banned	-10.0616
▁barrier	-10.0616
▁beg	-10.0616
▁belong	-10.0616
▁betrayed	-10.0616
▁blocking	-10.0616
▁blow	-10.0616
▁brighter	-10.0616
▁brush	-10.0616
▁burning	-10.0616
▁burst	-10.0616
▁cancel	-10.0616
▁celebration	-10.0616
▁centre	-10.0616
▁ceo	-10.0616
▁chair	-10.0616
▁clench	-10.0616
▁clinical	-10.0616
▁coaching	-10.0616
▁code	-10.0616
▁collection	-10.0616
▁conference	-10.0616
▁confusion	-10.0616
▁consciously	-10.0616
▁consideration	-10.0616
▁contribution	-10.0616
▁controlled	-10.0616
▁crippling	-10.0616
▁dare	-10.0616
▁dedicated	-10.0616
▁deficiency	-10.0616
▁definition	-10.0616
▁demand	-10.0616
▁deny	-10.0616
▁depend	-10.0616
▁destroyed	-10.0616
▁determine	-10.0616
▁digital	-10.0616
▁dirty	-10.0616
▁disabled	-10.0616
▁eaten	-10.0616
▁educational	-10.0616
▁embarrassing	-10.0616
▁employment	-10.0616
▁engineering	-10.0616
▁enjoyable	-10.0616
▁ensure	-10.0616
▁equal	-10.0616
▁evolved	-10.0616
▁examining	-10.0616
▁executive	-10.0616
▁exhaustion	-10.0616
▁exploring	-10.0616
▁expressing	-10.0616
▁fade	-10.0616
▁fair	-10.0616
▁fly	-10.0616
▁follows	-10.0616
▁football	-10.0616
▁forgetting	-10.0616
▁foundation	-10.0616
▁freak	-10.0616
▁frequent	-10.0616
▁fundamental	-10.0616
▁gaining	-10.0616
▁garbage	-10.0616
▁grey	-10.0616
▁gross	-10.0616
▁h	-10.0616
▁hamster	-10.0616
▁happiest	-10.0616
▁harmful	-10.0616
▁harming	-10.0616
▁hidden	-10.0616
▁hill	-10.0616
▁hire	-10.0616
▁hollow	-10.0616
▁holy	-10.0616
▁horizon	-10.0616
▁hughes	-10.0616
▁hygiene	-10.0616
▁image	-10.0616
▁imagination	-10.0616
▁india	-10.0616
▁ingredient	-10.0616
▁insecure	-10.0616
▁involves	-10.0616
▁iron	-10.0616
▁irritated	-10.0616
▁item	-10.0616
▁jolene	-10.0616
▁ketamine	-10.0616
▁kitchen	-10.0616
▁laughed	-10.0616
▁launched	-10.0616
▁limited	-10.0616
▁literal	-10.0616
▁locked	-10.0616
▁lowest	-10.0616
▁luckily	-10.0616
▁mailto	-10.0616
▁named	-10.0616
▁neglected	-10.0616
▁neighbor	-10.0616
▁netflix	-10.0616
▁noisy	-10.0616
▁obsessing	-10.0616
▁obsession	-10.0616
▁obstacle	-10.0616
▁oneself	-10.0616
▁outlet	-10.0616
▁overnight	-10.0616
▁panicking	-10.0616
▁peer	-10.0616
▁perceived	-10.0616
▁picking	-10.0616
▁pity	-10.0616
▁poisoned	-10.0616
▁practise	-10.0616
▁precious	-10.0616
▁pregnancy	-10.0616
▁price	-10.0616
▁promos	-10.0616
▁protect	-10.0616
▁providing	-10.0616
▁pulling	-10.0616
▁punishment	-10.0616
▁pursuing	-10.0616
▁pursuit	-10.0616
▁rain	-10.0616
▁rapidly	-10.0616
▁rapist	-10.0616
▁rash	-10.0616
▁reassure	-10.0616
▁recording	-10.0616
▁reducing	-10.0616
▁regard	-10.0616
▁relapse	-10.0616
▁relearning	-10.0616
▁relieving	-10.0616
▁religion	-10.0616
▁rely	-10.0616
▁remain	-10.0616
▁reminder	-10.0616
▁reminding	-10.0616
▁repeated	-10.0616
▁repeating	-10.0616
▁replied	-10.0616
▁requirement	-10.0616
▁researcher	-10.0616
▁restaurant	-10.0616
▁resulting	-10.0616
▁scene	-10.0616
▁september	-10.0616
▁sergio	-10.0616
▁sh	-10.0616
▁shell	-10.0616
▁shes	-10.0616
▁shoe	-10.0616
▁shorter	-10.0616
▁smallest	-10.0616
▁soft	-10.0616
▁sole	-10.0616
▁sooner	-10.0616
▁spiraling	-10.0616
▁stem	-10.0616
▁stillness	-10.0616
▁stuttering	-10.0616
▁style	-10.0616
▁subconsciously	-10.0616
▁succeeding	-10.0616
▁sucked	-10.0616
▁sweating	-10.0616
▁tap	-10.0616
▁technology	-10.0616
▁theory	-10.0616
▁thesis	-10.0616
▁tiredness	-10.0616
▁tracking	-10.0616
▁trainer	-10.0616
▁translation	-10.0616
▁trap	-10.0616
▁truck	-10.0616
▁tutorial	-10.0616
▁unstable	-10.0616
▁update	-10.0616
▁videogames	-10.0616
▁virtual	-10.0616
▁volunteer	-10.0616
▁warmth	-10.0616
▁wasnt	-10.0616
▁whoever	-10.0616
▁wished	-10.0616
▁writer	-10.0616
▁written	-10.0616
▁yellow	-10.0616
▁abandoned	-10.1951
▁abundant	-10.1951
▁accidentally	-10.1951
▁actively	-10.1951
▁address	-10.1951
▁alcoholic	-10.1951
▁amsterdam	-10.1951
▁apologized	-10.1951
▁appreciation	-10.1951
▁arrive	-10.1951
▁aspiration	-10.1951
▁associated	-10.1951
▁assume	-10.1951
▁athlete	-10.1951
▁attempting	-10.1951
▁award	-10.1951
▁bedroom	-10.1951
▁beginner	-10.1951
▁begun	-10.1951
▁believer	-10.1951
▁believing	-10.1951
▁bitter	-10.1951
▁bliss	-10.1951
▁blown	-10.1951
▁boat	-10.1951
▁bone	-10.1951
▁bout	-10.1951
▁brilliant	-10.1951
▁brink	-10.1951
▁brushing	-10.1951
▁bully	-10.1951
▁bullying	-10.1951
▁bum	-10.1951
▁cake	-10.1951
▁capability	-10.1951
▁careful	-10.1951
▁cbt	-10.1951
▁characteristic	-10.1951
▁charity	-10.1951
▁chatting	-10.1951
▁cheat	-10.1951
▁christian	-10.1951
▁clinic	-10.1951
▁clinically	-10.1951
▁clip	-10.1951
▁closest	-10.1951
▁completing	-10.1951
▁conditioning	-10.1951
▁conducting	-10.1951
▁conflict	-10.1951
▁confront	-10.1951
▁consistently	-10.1951
▁contentment	-10.1951
▁controlling	-10.1951
▁copy	-10.1951
▁covered	-10.1951
▁cruel	-10.1951
▁danger	-10.1951
▁deciding	-10.1951
▁decrease	-10.1951
▁delivered	-10.1951
▁depending	-10.1951
▁derlin	-10.1951
▁desk	-10.1951
▁despair	-10.1951
▁desperation	-10.1951
▁determined	-10.1951
▁device	-10.1951
▁diego	-10.1951
▁direct	-10.1951
▁discussing	-10.1951
▁dissatisfied	-10.1951
▁divorced	-10.1951
▁dopamine	-10.1951
▁downstairs	-10.1951
▁drift	-10.1951
▁drove	-10.1951
▁dry	-10.1951
▁dunno	-10.1951
▁dwell	-10.1951
▁dysfunctional	-10.1951
▁dysphoria	-10.1951
▁ebook	-10.1951
▁economic	-10.1951
▁employer	-10.1951
▁endeavor	-10.1951
▁endure	-10.1951
▁enrolled	-10.1951
▁error	-10.1951
▁evolution	-10.1951
▁evolving	-10.1951
▁excellent	-10.1951
▁exchange	-10.1951
▁expand	-10.1951
▁expects	-10.1951
▁exposed	-10.1951
▁fame	-10.1951
▁fantastic	-10.1951
▁fantasy	-10.1951
▁farther	-10.1951
▁fiction	-10.1951
▁firm	-10.1951
▁firstly	-10.1951
▁fish	-10.1951
▁fixing	-10.1951
▁fuckin	-10.1951
▁fuel	-10.1951
▁gap	-10.1951
▁global	-10.1951
▁grad	-10.1951
▁grandpa	-10.1951
▁grasp	-10.1951
▁grieving	-10.1951
▁guitar	-10.1951
▁hall	-10.1951
▁headed	-10.1951
▁heartbroken	-10.1951
▁heat	-10.1951
▁helper	-10.1951
▁hence	-10.1951
▁hometown	-10.1951
▁horribly	-10.1951
▁hr	-10.1951
▁humor	-10.1951
▁immediate	-10.1951
▁impacting	-10.1951
▁inability	-10.1951
▁intelligent	-10.1951
▁internally	-10.1951
▁invested	-10.1951
▁ironic	-10.1951
▁irritable	-10.1951
▁jazz	-10.1951
▁jealousy	-10.1951
▁jennifer	-10.1951
▁june	-10.1951
▁justified	-10.1951
▁kicked	-10.1951
▁king	-10.1951
▁kingdom	-10.1951
▁lash	-10.1951
▁lecture	-10.1951
▁legit	-10.1951
▁lightheadedness	-10.1951
▁lined	-10.1951
▁logic	-10.1951
▁loosing	-10.1951
▁lunch	-10.1951
▁machine	-10.1951
▁magically	-10.1951
▁manifest	-10.1951
▁marine	-10.1951
▁mastery	-10.1951
▁meaningless	-10.1951
▁meanwhile	-10.1951
▁messaged	-10.1951
▁messing	-10.1951
▁messy	-10.1951
▁migraine	-10.1951
▁million	-10.1951
▁model	-10.1951
▁momma	-10.1951
▁monthly	-10.1951
▁motion	-10.1951
▁motivational	-10.1951
▁mr	-10.1951
▁nap	-10.1951
▁nootropic	-10.1951
▁objective	-10.1951
▁obsessed	-10.1951
▁occurred	-10.1951
▁odd	-10.1951
▁orgasm	-10.1951
▁paranoia	-10.1951
▁pc	-10.1951
▁perfectionism	-10.1951
▁perfectionist	-10.1951
▁permanently	-10.1951
▁personalized	-10.1951
▁pic	-10.1951
▁poetry	-10.1951
▁ppl	-10.1951
▁practical	-10.1951
▁preparation	-10.1951
▁previously	-10.1951
▁processing	-10.1951
▁procrastinating	-10.1951
▁procrastination	-10.1951
▁progression	-10.1951
▁promised	-10.1951
▁prompt	-10.1951
▁pulled	-10.1951
▁purchase	-10.1951
▁radio	-10.1951
▁rajinder	-10.1951
▁randomly	-10.1951
▁raped	-10.1951
▁recommendation	-10.1951
▁rejected	-10.1951
▁relapsed	-10.1951
▁relatively	-10.1951
▁relevant	-10.1951
▁remote	-10.1951
▁repressed	-10.1951
▁researching	-10.1951
▁responsible	-10.1951
▁ringing	-10.1951
▁robert	-10.1951
▁rollercoaster	-10.1951
▁romantic	-10.1951
▁rushed	-10.1951
▁scientist	-10.1951
▁score	-10.1951
▁screamed	-10.1951
▁scrolling	-10.1951
▁sea	-10.1951
▁searched	-10.1951
▁sens	-10.1951
▁serve	-10.1951
▁sharp	-10.1951
▁shopping	-10.1951
▁shortly	-10.1951
▁signing	-10.1951
▁simultaneously	-10.1951
▁sing	-10.1951
▁size	-10.1951
▁slot	-10.1951
▁solid	-10.1951
▁sorrow	-10.1951
▁speech	-10.1951
▁spine	-10.1951
▁stare	-10.1951
▁stated	-10.1951
▁station	-10.1951
▁steal	-10.1951
▁sticking	-10.1951
▁stone	-10.1951
▁stretch	-10.1951
▁striving	-10.1951
▁subscribe	-10.1951
▁suit	-10.1951
▁surgeon	-10.1951
▁swim	-10.1951
▁tablet	-10.1951
▁takeaway	-10.1951
▁target	-10.1951
▁tearing	-10.1951
▁temporarily	-10.1951
▁thrown	-10.1951
▁toilet	-10.1951
▁tongue	-10.1951
▁transform	-10.1951
▁triggering	-10.1951
▁troll	-10.1951
▁tuition	-10.1951
▁valuable	-10.1951
▁victim	-10.1951
▁visited	-10.1951
▁vivid	-10.1951
▁vomit	-10.1951
▁wellness	-10.1951
▁wide	-10.1951
▁wondered	-10.1951
▁workplace	-10.1951
▁wrist	-10.1951
▁www	-10.1951
▁acquire	-10.3493
▁activate	-10.3493
▁addicted	-10.3493
▁adrenal	-10.3493
▁adventure	-10.3493
▁aggressive	-10.3493
▁alarm	-10.3493
▁aligned	-10.3493
▁aligning	-10.3493
▁analogy	-10.3493
▁analysing	-10.3493
▁animation	-10.3493
▁announced	-10.3493
▁apologise	-10.3493
▁assure	-10.3493
▁attract	-10.3493
▁automation	-10.3493
▁balanced	-10.3493
▁basketball	-10.3493
▁beer	-10.3493
▁begging	-10.3493
▁behavioral	-10.3493
▁betrayal	-10.3493
▁bi	-10.3493
▁binge	-10.3493
▁biological	-10.3493
▁blamed	-10.3493
▁blank	-10.3493
▁bleeding	-10.3493
▁blockage	-10.3493
▁breakfast	-10.3493
▁brick	-10.3493
▁btw	-10.3493
▁bucket	-10.3493
▁buddha	-10.3493
▁budget	-10.3493
▁bulletin	-10.3493
▁bump	-10.3493
▁burger	-10.3493
▁cancelled	-10.3493
▁capital	-10.3493
▁cbd	-10.3493
▁chakra	-10.3493
▁cheated	-10.3493
▁chicken	-10.3493
▁climate	-10.3493
▁committed	-10.3493
▁committee	-10.3493
▁concentrating	-10.3493
▁consumed	-10.3493
▁contacting	-10.3493
▁cooking	-10.3493
▁coworkers	-10.3493
▁craving	-10.3493
▁cube	-10.3493
▁cuddle	-10.3493
▁cute	-10.3493
▁dampens	-10.3493
▁dangerous	-10.3493
▁davis	-10.3493
▁de	-10.3493
▁dedicate	-10.3493
▁delay	-10.3493
▁dentist	-10.3493
▁dependent	-10.3493
▁described	-10.3493
▁desired	-10.3493
▁destructive	-10.3493
▁detailed	-10.3493
▁diagnose	-10.3493
▁diaphram	-10.3493
▁digging	-10.3493
▁disengagement	-10.3493
▁dislike	-10.3493
▁disturbing	-10.3493
▁dizziness	-10.3493
▁dozen	-10.3493
▁drain	-10.3493
▁drank	-10.3493
▁dust	-10.3493
▁duty	-10.3493
▁economy	-10.3493
▁elementary	-10.3493
▁empowerment	-10.3493
▁encompassing	-10.3493
▁enhance	-10.3493
▁entered	-10.3493
▁entrepreneurship	-10.3493
▁epilepsy	-10.3493
▁esc	-10.3493
▁evaluate	-10.3493
▁evolve	-10.3493
▁excessive	-10.3493
▁exists	-10.3493
▁fancy	-10.3493
▁fantasize	-10.3493
▁fearful	-10.3493
▁fellow	-10.3493
▁fewer	-10.3493
▁file	-10.3493
▁fitness	-10.3493
▁flight	-10.3493
▁follower	-10.3493
▁fool	-10.3493
▁formula	-10.3493
▁fortune	-10.3493
▁fragile	-10.3493
▁frankly	-10.3493
▁fred	-10.3493
▁fruit	-10.3493
▁fulfill	-10.3493
▁funeral	-10.3493
▁ged	-10.3493
▁glass	-10.3493
▁goddamn	-10.3493
▁grand	-10.3493
▁grandfather	-10.3493
▁gravity	-10.3493
▁greedy	-10.3493
▁grind	-10.3493
▁grows	-10.3493
▁grudge	-10.3493
▁guard	-10.3493
▁hallucination	-10.3493
▁handling	-10.3493
▁heartbreak	-10.3493
▁heath	-10.3493
▁hilarious	-10.3493
▁honesty	-10.3493
▁hoo	-10.3493
▁horny	-10.3493
▁hunt	-10.3493
▁hyper	-10.3493
▁ignores	-10.3493
▁imagined	-10.3493
▁importantly	-10.3493
▁impressed	-10.3493
▁included	-10.3493
▁inevitably	-10.3493
▁inflicted	-10.3493
▁informed	-10.3493
▁infusion	-10.3493
▁inhale	-10.3493
▁inspired	-10.3493
▁instinct	-10.3493
▁iphone	-10.3493
▁iva	-10.3493
▁judgment	-10.3493
▁junior	-10.3493
▁kiss	-10.3493
▁km	-10.3493
▁knocked	-10.3493
▁land	-10.3493
▁landed	-10.3493
▁lane	-10.3493
▁laundry	-10.3493
▁learnt	-10.3493
▁lmao	-10.3493
▁lock	-10.3493
▁longest	-10.3493
▁manic	-10.3493
▁manner	-10.3493
▁massage	-10.3493
▁match	-10.3493
▁mature	-10.3493
▁measurable	-10.3493
▁meth	-10.3493
▁midnight	-10.3493
▁minuscule	-10.3493
▁miriam	-10.3493
▁mission	-10.3493
▁mixed	-10.3493
▁moreover	-10.3493
▁national	-10.3493
▁neuro	-10.3493
▁notification	-10.3493
▁novelty	-10.3493
▁officer	-10.3493
▁oldest	-10.3493
▁outlook	-10.3493
▁output	-10.3493
▁overcoming	-10.3493
▁overseas	-10.3493
▁overthink	-10.3493
▁oxygen	-10.3493
▁packed	-10.3493
▁park	-10.3493
▁pat	-10.3493
▁patch	-10.3493
▁petty	-10.3493
▁philip	-10.3493
▁piss	-10.3493
▁plane	-10.3493
▁plastic	-10.3493
▁pls	-10.3493
▁pounding	-10.3493
▁practiced	-10.3493
▁prayer	-10.3493
▁prefer	-10.3493
▁preparing	-10.3493
▁pretended	-10.3493
▁primary	-10.3493
▁pro	-10.3493
▁production	-10.3493
▁property	-10.3493
▁provider	-10.3493
▁psychiatric	-10.3493
▁psychologically	-10.3493
▁pumped	-10.3493
▁qualification	-10.3493
▁quietly	-10.3493
▁quits	-10.3493
▁quiz	-10.3493
▁raising	-10.3493
▁ramana	-10.3493
▁rational	-10.3493
▁reasoning	-10.3493
▁recognized	-10.3493
▁recorded	-10.3493
▁recovery	-10.3493
▁register	-10.3493
▁relative	-10.3493
▁reserving	-10.3493
▁reset	-10.3493
▁restless	-10.3493
▁retired	-10.3493
▁rewire	-10.3493
▁rewiring	-10.3493
▁rnb	-10.3493
▁roll	-10.3493
▁route	-10.3493
▁satisfying	-10.3493
▁scan	-10.3493
▁seizure	-10.3493
▁selfishness	-10.3493
▁sends	-10.3493
▁separate	-10.3493
▁sexuality	-10.3493
▁shall	-10.3493
▁sheet	-10.3493
▁shoot	-10.3493
▁shouldnt	-10.3493
▁sin	-10.3493
▁sincerely	-10.3493
▁singing	-10.3493
▁skipping	-10.3493
▁sobbing	-10.3493
▁software	-10.3493
▁somethings	-10.3493
▁soreness	-10.3493
▁specie	-10.3493
▁stoic	-10.3493
▁studied	-10.3493
▁studio	-10.3493
▁suffocating	-10.3493
▁suitable	-10.3493
▁supporting	-10.3493
▁surprisingly	-10.3493
▁swarm	-10.3493
▁tangible	-10.3493
▁terminal	-10.3493
▁terribly	-10.3493
▁testing	-10.3493
▁threat	-10.3493
▁threatening	-10.3493
▁tied	-10.3493
▁timeline	-10.3493
▁trade	-10.3493
▁traffic	-10.3493
▁trait	-10.3493
▁trajectory	-10.3493
▁tremendous	-10.3493
▁trendy	-10.3493
▁trusted	-10.3493
▁twelve	-10.3493
▁twin	-10.3493
▁un	-10.3493
▁unnecessary	-10.3493
▁upcoming	-10.3493
▁uplifting	-10.3493
▁upsetting	-10.3493
▁usu	-10.3493
▁utter	-10.3493
▁validation	-10.3493
▁vehicle	-10.3493
▁verbally	-10.3493
▁vibration	-10.3493
▁vice	-10.3493
▁villain	-10.3493
▁vocal	-10.3493
▁void	-10.3493
▁warren	-10.3493
▁widow	-10.3493
▁willpower	-10.3493
▁worn	-10.3493
▁yo	-10.3493
▁yr	-10.3493
▁zoloft	-10.3493
▁abnormal	-10.5316
▁academically	-10.5316
▁accordingly	-10.5316
▁accumulate	-10.5316
▁accused	-10.5316
▁acid	-10.5316
▁acknowledging	-10.5316
▁acted	-10.5316
▁actor	-10.5316
▁adequate	-10.5316
▁admission	-10.5316
▁adopted	-10.5316
▁advertising	-10.5316
▁aforementioned	-10.5316
▁agreeing	-10.5316
▁aka	-10.5316
▁alignment	-10.5316
▁alt	-10.5316
▁amazon	-10.5316
▁american	-10.5316
▁ancient	-10.5316
▁apt	-10.5316
▁arent	-10.5316
▁arises	-10.5316
▁arising	-10.5316
▁assault	-10.5316
▁assistance	-10.5316
▁attacked	-10.5316
▁attainable	-10.5316
▁automatic	-10.5316
▁avoided	-10.5316
▁awaits	-10.5316
▁backed	-10.5316
▁baggage	-10.5316
▁balancing	-10.5316
▁bald	-10.5316
▁bang	-10.5316
▁base	-10.5316
▁battling	-10.5316
▁bawling	-10.5316
▁bell	-10.5316
▁beneath	-10.5316
▁berate	-10.5316
▁blurry	-10.5316
▁brake	-10.5316
▁breakup	-10.5316
▁briefly	-10.5316
▁bug	-10.5316
▁burnout	-10.5316
▁caffeine	-10.5316
▁calmer	-10.5316
▁candle	-10.5316
▁cardiologist	-10.5316
▁carrot	-10.5316
▁carrying	-10.5316
▁catastrophic	-10.5316
▁catching	-10.5316
▁celebrated	-10.5316
▁chakras	-10.5316
▁chatbot	-10.5316
▁cherish	-10.5316
▁childish	-10.5316
▁circuit	-10.5316
▁citizen	-10.5316
▁clearing	-10.5316
▁climb	-10.5316
▁cocktail	-10.5316
▁collected	-10.5316
▁committing	-10.5316
▁comparison	-10.5316
▁compassionate	-10.5316
▁construction	-10.5316
▁contemplated	-10.5316
▁contributes	-10.5316
▁convincing	-10.5316
▁cop	-10.5316
▁corporate	-10.5316
▁counsellor	-10.5316
▁counteract	-10.5316
▁coz	-10.5316
▁crappy	-10.5316
▁crave	-10.5316
▁creepy	-10.5316
▁crimsonpill	-10.5316
▁cross	-10.5316
▁crucial	-10.5316
▁crumbling	-10.5316
▁crutch	-10.5316
▁cum	-10.5316
▁curiosity	-10.5316
▁cuss	-10.5316
▁daisy	-10.5316
▁dance	-10.5316
▁dated	-10.5316
▁debate	-10.5316
▁decides	-10.5316
▁decline	-10.5316
▁defence	-10.5316
▁defensive	-10.5316
▁deleted	-10.5316
▁delusion	-10.5316
▁denying	-10.5316
▁deserved	-10.5316
▁detached	-10.5316
▁determination	-10.5316
▁determines	-10.5316
▁dieing	-10.5316
▁disability	-10.5316
▁disagree	-10.5316
▁disappoint	-10.5316
▁disappointing	-10.5316
▁discipline	-10.5316
▁disciplined	-10.5316
▁dish	-10.5316
▁distanced	-10.5316
▁download	-10.5316
▁drastic	-10.5316
▁dreaming	-10.5316
▁drown	-10.5316
▁dy	-10.5316
▁earn	-10.5316
▁easiest	-10.5316
▁edited	-10.5316
▁editor	-10.5316
▁effected	-10.5316
▁effexor	-10.5316
▁empathetic	-10.5316
▁enable	-10.5316
▁encounter	-10.5316
▁engaging	-10.5316
▁enter	-10.5316
▁enters	-10.5316
▁er	-10.5316
▁established	-10.5316
▁exaggerating	-10.5316
▁excel	-10.5316
▁existed	-10.5316
▁exit	-10.5316
▁exiting	-10.5316
▁explores	-10.5316
▁facet	-10.5316
▁faint	-10.5316
▁fan	-10.5316
▁fate	-10.5316
▁featured	-10.5316
▁feb	-10.5316
▁fed	-10.5316
▁fee	-10.5316
▁fiance	-10.5316
▁flake	-10.5316
▁florence	-10.5316
▁fluent	-10.5316
▁foggy	-10.5316
▁forcing	-10.5316
▁forehead	-10.5316
▁formal	-10.5316
▁frozen	-10.5316
▁gather	-10.5316
▁gathered	-10.5316
▁generation	-10.5316
▁germany	-10.5316
▁ghosted	-10.5316
▁gp	-10.5316
▁grace	-10.5316
▁grammar	-10.5316
▁granted	-10.5316
▁greener	-10.5316
▁gt	-10.5316
▁han	-10.5316
▁handful	-10.5316
▁hanged	-10.5316
▁hangout	-10.5316
▁hater	-10.5316
▁hatred	-10.5316
▁haunt	-10.5316
▁headspace	-10.5316
▁heaven	-10.5316
▁hectic	-10.5316
▁highway	-10.5316
▁honour	-10.5316
▁hopeful	-10.5316
▁hospitalized	-10.5316
▁humour	-10.5316
▁ig	-10.5316
▁immense	-10.5316
▁increasingly	-10.5316
▁infected	-10.5316
▁ingrained	-10.5316
▁initial	-10.5316
▁initiate	-10.5316
▁input	-10.5316
▁intellectual	-10.5316
▁intend	-10.5316
▁interacting	-10.5316
▁introduce	-10.5316
▁introvert	-10.5316
▁introverted	-10.5316
▁investment	-10.5316
▁james	-10.5316
▁judgmental	-10.5316
▁juice	-10.5316
▁kicking	-10.5316
▁lab	-10.5316
▁labor	-10.5316
▁largely	-10.5316
▁laughter	-10.5316
▁leader	-10.5316
▁length	-10.5316
▁libido	-10.5316
▁lied	-10.5316
▁lightheaded	-10.5316
▁lip	-10.5316
▁listed	-10.5316
▁listened	-10.5316
▁listens	-10.5316
▁lmk	-10.5316
▁log	-10.5316
▁loyal	-10.5316
▁makeup	-10.5316
▁meme	-10.5316
▁milk	-10.5316
▁millionaire	-10.5316
▁mindless	-10.5316
▁mindlessly	-10.5316
▁minimalism	-10.5316
▁moon	-10.5316
▁moral	-10.5316
▁motorcycle	-10.5316
▁mountain	-10.5316
▁n	-10.5316
▁nail	-10.5316
▁narcissist	-10.5316
▁needing	-10.5316
▁network	-10.5316
▁neurological	-10.5316
▁nigel	-10.5316
▁noone	-10.5316
▁nootropics	-10.5316
▁norma	-10.5316
▁normalcy	-10.5316
▁normalize	-10.5316
▁nursing	-10.5316
▁nyc	-10.5316
▁obese	-10.5316
▁object	-10.5316
▁occasional	-10.5316
▁ofc	-10.5316
▁ongoing	-10.5316
▁op	-10.5316
▁origin	-10.5316
▁original	-10.5316
▁ounce	-10.5316
▁overbearing	-10.5316
▁overreacting	-10.5316
▁owe	-10.5316
▁packing	-10.5316
▁pakistan	-10.5316
▁palpitation	-10.5316
▁panicked	-10.5316
▁partly	-10.5316
▁pathway	-10.5316
▁penny	-10.5316
▁persona	-10.5316
▁ph	-10.5316
▁phrase	-10.5316
▁physiological	-10.5316
▁pivot	-10.5316
▁plague	-10.5316
▁player	-10.5316
▁pleasant	-10.5316
▁poll	-10.5316
▁positively	-10.5316
▁posse	-10.5316
▁postgraduate	-10.5316
▁praying	-10.5316
▁preference	-10.5316
▁preventing	-10.5316
▁principal	-10.5316
▁prison	-10.5316
▁privately	-10.5316
▁privilege	-10.5316
▁professionally	-10.5316
▁profit	-10.5316
▁profound	-10.5316
▁progressing	-10.5316
▁progressively	-10.5316
▁prolonged	-10.5316
▁psychotic	-10.5316
▁punished	-10.5316
▁puppy	-10.5316
▁pussy	-10.5316
▁qualified	-10.5316
▁rainbow	-10.5316
▁reacting	-10.5316
▁realign	-10.5316
▁realising	-10.5316
▁recommended	-10.5316
▁reduction	-10.5316
▁reflecting	-10.5316
▁reinvent	-10.5316
▁rejection	-10.5316
▁relating	-10.5316
▁releasing	-10.5316
▁reliever	-10.5316
▁relying	-10.5316
▁repair	-10.5316
▁replacement	-10.5316
▁requires	-10.5316
▁reside	-10.5316
▁resolution	-10.5316
▁responds	-10.5316
▁restful	-10.5316
▁resting	-10.5316
▁resume	-10.5316
▁retire	-10.5316
▁ripped	-10.5316
▁rot	-10.5316
▁rotten	-10.5316
▁ruled	-10.5316
▁sanity	-10.5316
▁satisfied	-10.5316
▁satisfy	-10.5316
▁scattered	-10.5316
▁scheduled	-10.5316
▁schizophrenia	-10.5316
▁scholarship	-10.5316
▁scratch	-10.5316
▁secure	-10.5316
▁seemingly	-10.5316
▁separated	-10.5316
▁serenity	-10.5316
▁settle	-10.5316
▁settling	-10.5316
▁shallow	-10.5316
▁shocked	-10.5316
▁sink	-10.5316
▁skillset	-10.5316
▁skinny	-10.5316
▁skip	-10.5316
▁skull	-10.5316
▁slipping	-10.5316
▁socialising	-10.5316
▁sold	-10.5316
▁sooo	-10.5316
▁sophomore	-10.5316
▁sounded	-10.5316
▁ssri	-10.5316
▁stability	-10.5316
▁stepmom	-10.5316
▁stepping	-10.5316
▁stereotype	-10.5316
▁stiff	-10.5316
▁stigma	-10.5316
▁stock	-10.5316
▁stood	-10.5316
▁strain	-10.5316
▁stream	-10.5316
▁subsided	-10.5316
▁substance	-10.5316
▁sum	-10.5316
▁summary	-10.5316
▁supply	-10.5316
▁surround	-10.5316
▁surroundings	-10.5316
▁survived	-10.5316
▁surviving	-10.5316
▁suspect	-10.5316
▁suspicious	-10.5316
▁swimming	-10.5316
▁tai	-10.5316
▁ted	-10.5316
▁temp	-10.5316
▁tense	-10.5316
▁texted	-10.5316
▁texting	-10.5316
▁thanking	-10.5316
▁therapeutic	-10.5316
▁thigh	-10.5316
▁throwaway	-10.5316
▁tie	-10.5316
▁tiktok	-10.5316
▁tire	-10.5316
▁toast	-10.5316
▁toe	-10.5316
▁trace	-10.5316
▁trading	-10.5316
▁tragedy	-10.5316
▁trashed	-10.5316
▁tree	-10.5316
▁trend	-10.5316
▁tuesday	-10.5316
▁typical	-10.5316
▁unconscious	-10.5316
▁unfold	-10.5316
▁unlike	-10.5316
▁unloved	-10.5316
▁unpleasant	-10.5316
▁unreasonable	-10.5316
▁unwind	-10.5316
▁upbeat	-10.5316
▁upper	-10.5316
▁upside	-10.5316
▁us	-10.5316
▁vaccine	-10.5316
▁validated	-10.5316
▁venture	-10.5316
▁viewing	-10.5316
▁viewpoint	-10.5316
▁visible	-10.5316
▁visualization	-10.5316
▁vital	-10.5316
▁volunteering	-10.5316
▁wade	-10.5316
▁wallow	-10.5316
▁welcomed	-10.5316
▁wellbutrin	-10.5316
▁whine	-10.5316
▁wild	-10.5316
▁wolf	-10.5316
▁wouldnt	-10.5316
▁wwii	-10.5316
▁x	-10.5316
▁ya	-10.5316
▁yea	-10.5316
▁abandonment	-10.7547
▁absent	-10.7547
▁absorb	-10.7547
▁abusing	-10.7547
▁acceptable	-10.7547
▁accomplishing	-10.7547
▁accountant	-10.7547
▁accounting	-10.7547
▁acoustic	-10.7547
▁adamant	-10.7547
▁admitted	-10.7547
▁adolescent	-10.7547
▁affectionate	-10.7547
▁affective	-10.7547
▁afternoon	-10.7547
▁aged	-10.7547
▁agitated	-10.7547
▁ah	-10.7547
▁aid	-10.7547
▁alarming	-10.7547
▁align	-10.7547
▁altogether	-10.7547
▁amazingly	-10.7547
▁amongst	-10.7547
▁amplified	-10.7547
▁android	-10.7547
▁angel	-10.7547
▁anniversary	-10.7547
▁ap	-10.7547
▁apathetic	-10.7547
▁apathy	-10.7547
▁apology	-10.7547
▁approached	-10.7547
▁appt	-10.7547
▁army	-10.7547
▁arrives	-10.7547
▁arthritis	-10.7547
▁ascension	-10.7547
▁ashwaganda	-10.7547
▁ashwagandha	-10.7547
▁asmi	-10.7547
▁assist	-10.7547
▁atheist	-10.7547
▁audio	-10.7547
▁auditory	-10.7547
▁auto	-10.7547
▁axis	-10.7547
▁backup	-10.7547
▁badass	-10.7547
▁barley	-10.7547
▁baseball	-10.7547
▁baseline	-10.7547
▁basement	-10.7547
▁beach	-10.7547
▁bearable	-10.7547
▁belly	-10.7547
▁belonged	-10.7547
▁bias	-10.7547
▁biking	-10.7547
▁bio	-10.7547
▁biology	-10.7547
▁blanket	-10.7547
▁bless	-10.7547
▁blessed	-10.7547
▁blonded	-10.7547
▁bloody	-10.7547
▁blooming	-10.7547
▁blur	-10.7547
▁bob	-10.7547
▁bombarded	-10.7547
▁bonus	-10.7547
▁border	-10.7547
▁bouncing	-10.7547
▁bowel	-10.7547
▁brazilian	-10.7547
▁breathwork	-10.7547
▁brien	-10.7547
▁bro	-10.7547
▁browsing	-10.7547
▁brushed	-10.7547
▁buddhism	-10.7547
▁buffet	-10.7547
▁bummed	-10.7547
▁bustling	-10.7547
▁buzzing	-10.7547
▁calculus	-10.7547
▁calmed	-10.7547
▁calmly	-10.7547
▁calmness	-10.7547
▁canceled	-10.7547
▁candy	-10.7547
▁capture	-10.7547
▁cardiovascular	-10.7547
▁caretaker	-10.7547
▁carlos	-10.7547
▁carolyn	-10.7547
▁category	-10.7547
▁cave	-10.7547
▁cease	-10.7547
▁ceiling	-10.7547
▁century	-10.7547
▁certificate	-10.7547
▁certification	-10.7547
▁chain	-10.7547
▁chamomile	-10.7547
▁charm	-10.7547
▁chart	-10.7547
▁chatted	-10.7547
▁chilled	-10.7547
▁chuckle	-10.7547
▁chunk	-10.7547
▁circle	-10.7547
▁circuiting	-10.7547
▁claimed	-10.7547
▁clarify	-10.7547
▁classmate	-10.7547
▁cleared	-10.7547
▁clothing	-10.7547
▁cluster	-10.7547
▁collapse	-10.7547
▁collective	-10.7547
▁colorful	-10.7547
▁combine	-10.7547
▁combining	-10.7547
▁comforting	-10.7547
▁commenting	-10.7547
▁comparing	-10.7547
▁compelled	-10.7547
▁compete	-10.7547
▁competitive	-10.7547
▁concrete	-10.7547
▁conduct	-10.7547
▁confirm	-10.7547
▁confirming	-10.7547
▁conforming	-10.7547
▁confusing	-10.7547
▁conquer	-10.7547
▁continually	-10.7547
▁contract	-10.7547
▁contrary	-10.7547
▁controling	-10.7547
▁convert	-10.7547
▁cooked	-10.7547
▁correlation	-10.7547
▁counselling	-10.7547
▁counter	-10.7547
▁crack	-10.7547
▁cracked	-10.7547
▁crashing	-10.7547
▁crime	-10.7547
▁critic	-10.7547
▁cultivate	-10.7547
▁cunt	-10.7547
▁cutest	-10.7547
▁cwru	-10.7547
▁darkest	-10.7547
▁daycare	-10.7547
▁deaf	-10.7547
▁debilitating	-10.7547
▁deepest	-10.7547
▁defeated	-10.7547
▁defined	-10.7547
▁deliver	-10.7547
▁delivering	-10.7547
▁dementia	-10.7547
▁denial	-10.7547
▁denied	-10.7547
▁depleted	-10.7547
▁describes	-10.7547
▁destroy	-10.7547
▁devere	-10.7547
▁devise	-10.7547
▁diamond	-10.7547
▁dictate	-10.7547
▁dilemma	-10.7547
▁diminishing	-10.7547
▁dirt	-10.7547
▁disappeared	-10.7547
▁disappearing	-10.7547
▁discomfort	-10.7547
▁disconnected	-10.7547
▁dissertation	-10.7547
▁distancing	-10.7547
▁distressed	-10.7547
▁division	-10.7547
▁dj	-10.7547
▁dna	-10.7547
▁documentary	-10.7547
▁doll	-10.7547
▁downhill	-10.7547
▁downward	-10.7547
▁dragging	-10.7547
▁dressed	-10.7547
▁drtlab	-10.7547
▁duh	-10.7547
▁dweck	-10.7547
▁dwelling	-10.7547
▁earned	-10.7547
▁earpiece	-10.7547
▁economics	-10.7547
▁ed	-10.7547
▁edition	-10.7547
▁edu	-10.7547
▁eeyore	-10.7547
▁efficient	-10.7547
▁eh	-10.7547
▁elevate	-10.7547
▁elon	-10.7547
▁em	-10.7547
▁emailed	-10.7547
▁emergency	-10.7547
▁employed	-10.7547
▁endeavour	-10.7547
▁endorphin	-10.7547
▁endured	-10.7547
▁enhancing	-10.7547
▁enjoys	-10.7547
▁enlightenment	-10.7547
▁ent	-10.7547
▁enthusiasm	-10.7547
▁envious	-10.7547
▁escapism	-10.7547
▁essence	-10.7547
▁eudaimonia	-10.7547
▁exempt	-10.7547
▁existencial	-10.7547
▁existential	-10.7547
▁expense	-10.7547
▁exposing	-10.7547
▁expressed	-10.7547
▁facade	-10.7547
▁failiure	-10.7547
▁fails	-10.7547
▁faridabad	-10.7547
▁fasting	-10.7547
▁feminine	-10.7547
▁fence	-10.7547
▁fifteen	-10.7547
▁figuring	-10.7547
▁fist	-10.7547
▁flawed	-10.7547
▁fling	-10.7547
▁flipped	-10.7547
▁flourish	-10.7547
▁folder	-10.7547
▁forgets	-10.7547
▁formed	-10.7547
▁former	-10.7547
▁foster	-10.7547
▁founder	-10.7547
▁fraud	-10.7547
▁french	-10.7547
▁ft	-10.7547
▁funniest	-10.7547
▁gallbladder	-10.7547
▁garyvee	-10.7547
▁genetic	-10.7547
▁gland	-10.7547
▁gold	-10.7547
▁golden	-10.7547
▁gossip	-10.7547
▁gradual	-10.7547
▁gradually	-10.7547
▁granddaughter	-10.7547
▁grandparent	-10.7547
▁grant	-10.7547
▁grass	-10.7547
▁greed	-10.7547
▁grieve	-10.7547
▁handbook	-10.7547
▁handled	-10.7547
▁hardcore	-10.7547
▁hardworking	-10.7547
▁harmony	-10.7547
▁hat	-10.7547
▁haunted	-10.7547
▁heading	-10.7547
▁highlight	-10.7547
▁himalaya	-10.7547
▁ho	-10.7547
▁homeschooling	-10.7547
▁household	-10.7547
▁hydrogen	-10.7547
▁hypochondriac	-10.7547
▁immunity	-10.7547
▁inbreath	-10.7547
▁includes	-10.7547
▁indeed	-10.7547
▁independence	-10.7547
▁indian	-10.7547
▁indicated	-10.7547
▁inducing	-10.7547
▁indulge	-10.7547
▁infection	-10.7547
▁inferior	-10.7547
▁influenced	-10.7547
▁inherently	-10.7547
▁innovate	-10.7547
▁insufficient	-10.7547
▁insult	-10.7547
▁insulting	-10.7547
▁intake	-10.7547
▁integrity	-10.7547
▁intended	-10.7547
▁intensely	-10.7547
▁intent	-10.7547
▁international	-10.7547
▁interpretation	-10.7547
▁intimidating	-10.7547
▁intro	-10.7547
▁introduced	-10.7547
▁invest	-10.7547
▁invitation	-10.7547
▁involve	-10.7547
▁io	-10.7547
▁iowa	-10.7547
▁irrational	-10.7547
▁irritating	-10.7547
▁ishtar	-10.7547
▁island	-10.7547
▁israel	-10.7547
▁ivy	-10.7547
▁jayne	-10.7547
▁jeremyhughes	-10.7547
▁joining	-10.7547
▁joyfully	-10.7547
▁jp	-10.7547
▁judgemental	-10.7547
▁jukebox	-10.7547
▁jumped	-10.7547
▁junky	-10.7547
▁justify	-10.7547
▁k	-10.7547
▁ka	-10.7547
▁karma	-10.7547
▁kickboxing	-10.7547
▁killer	-10.7547
▁kindly	-10.7547
▁label	-10.7547
▁lacking	-10.7547
▁lap	-10.7547
▁lawyer	-10.7547
▁layer	-10.7547
▁liberate	-10.7547
▁lifestories	-10.7547
▁lifting	-10.7547
▁lighting	-10.7547
▁liking	-10.7547
▁lillie	-10.7547
▁lily	-10.7547
▁limitless	-10.7547
▁lionsheartlifestyle	-10.7547
▁lisa	-10.7547
▁loathing	-10.7547
▁lois	-10.7547
▁lucrative	-10.7547
▁luther	-10.7547
▁luxury	-10.7547
▁mabye	-10.7547
▁magnetic	-10.7547
▁manages	-10.7547
▁manga	-10.7547
▁manipulated	-10.7547
▁mantra	-10.7547
▁massaging	-10.7547
▁mastering	-10.7547
▁mastermind	-10.7547
▁mate	-10.7547
▁mbct	-10.7547
▁mcdonald	-10.7547
▁meantime	-10.7547
▁medically	-10.7547
▁meh	-10.7547
▁messaging	-10.7547
▁midterm	-10.7547
▁military	-10.7547
▁millennials	-10.7547
▁miracle	-10.7547
▁modeling	-10.7547
▁monumental	-10.7547
▁mooji	-10.7547
▁mortgage	-10.7547
▁motif	-10.7547
▁motivator	-10.7547
▁multi	-10.7547
▁musk	-10.7547
▁mutual	-10.7547
▁myth	-10.7547
▁native	-10.7547
▁nicely	-10.7547
▁niche	-10.7547
▁nico	-10.7547
▁nit	-10.7547
▁noble	-10.7547
▁nope	-10.7547
▁nothingness	-10.7547
▁numbing	-10.7547
▁nut	-10.7547
▁nutrition	-10.7547
▁occur	-10.7547
▁occurrence	-10.7547
▁odds	-10.7547
▁officially	-10.7547
▁onset	-10.7547
▁ops	-10.7547
▁ought	-10.7547
▁outbreath	-10.7547
▁outdoor	-10.7547
▁outright	-10.7547
▁outstanding	-10.7547
▁outwardly	-10.7547
▁paced	-10.7547
▁pack	-10.7547
▁painter	-10.7547
▁pant	-10.7547
▁papaw	-10.7547
▁parenting	-10.7547
▁parking	-10.7547
▁participated	-10.7547
▁partnership	-10.7547
▁passenger	-10.7547
▁peek	-10.7547
▁penis	-10.7547
▁percent	-10.7547
▁permanent	-10.7547
▁permit	-10.7547
▁phd	-10.7547
▁phobia	-10.7547
▁photographer	-10.7547
▁picky	-10.7547
▁pillow	-10.7547
▁pitch	-10.7547
▁plab	-10.7547
▁playground	-10.7547
▁pleasanton	-10.7547
▁plodding	-10.7547
▁po	-10.7547
▁pointed	-10.7547
▁poisoning	-10.7547
▁policy	-10.7547
▁polish	-10.7547
▁politely	-10.7547
▁poorly	-10.7547
▁popping	-10.7547
▁popularity	-10.7547
▁poverty	-10.7547
▁powerhouse	-10.7547
▁presentation	-10.7547
▁president	-10.7547
▁pressured	-10.7547
▁prestigious	-10.7547
▁prevention	-10.7547
▁prioritise	-10.7547
▁prioritised	-10.7547
▁prioritize	-10.7547
▁priority	-10.7547
▁privileged	-10.7547
▁procrastinate	-10.7547
▁programming	-10.7547
▁proposal	-10.7547
▁proven	-10.7547
▁provided	-10.7547
▁pursued	-10.7547
▁puzzle	-10.7547
▁quest	-10.7547
▁quo	-10.7547
▁rabbit	-10.7547
▁racist	-10.7547
▁raffle	-10.7547
▁rage	-10.7547
▁rainy	-10.7547
▁rake	-10.7547
▁ramble	-10.7547
▁ray	-10.7547
▁reacts	-10.7547
▁realistic	-10.7547
▁reasonable	-10.7547
▁reduces	-10.7547
▁reference	-10.7547
▁reflection	-10.7547
▁refusal	-10.7547
▁region	-10.7547
▁reinterpretation	-10.7547
▁relates	-10.7547
▁relentless	-10.7547
▁relive	-10.7547
▁reluctant	-10.7547
▁remains	-10.7547
▁repressing	-10.7547
▁required	-10.7547
▁resentment	-10.7547
▁resilient	-10.7547
▁resolved	-10.7547
▁resort	-10.7547
▁responding	-10.7547
▁restart	-10.7547
▁rested	-10.7547
▁returned	-10.7547
▁reveals	-10.7547
▁reverse	-10.7547
▁rewriting	-10.7547
▁ridiculous	-10.7547
▁riding	-10.7547
▁rightfully	-10.7547
▁ring	-10.7547
▁ritual	-10.7547
▁rocky	-10.7547
▁round	-10.7547
▁ruining	-10.7547
▁rupert	-10.7547
▁safety	-10.7547
▁salary	-10.7547
▁sansation	-10.7547
▁schollarship	-10.7547
▁scientific	-10.7547
▁script	-10.7547
▁scrolled	-10.7547
▁semblance	-10.7547
▁seminar	-10.7547
▁served	-10.7547
▁setback	-10.7547
▁shattered	-10.7547
▁shortage	-10.7547
▁shortened	-10.7547
▁showered	-10.7547
▁shrug	-10.7547
▁sight	-10.7547
▁signal	-10.7547
▁signed	-10.7547
▁silently	-10.7547
▁simplest	-10.7547
▁sincero	-10.7547
▁ski	-10.7547
▁slamming	-10.7547
▁slave	-10.7547
▁sleepless	-10.7547
▁slightest	-10.7547
▁smaller	-10.7547
▁smooth	-10.7547
▁socialise	-10.7547
▁solace	-10.7547
▁soldier	-10.7547
▁someday	-10.7547
▁sorta	-10.7547
▁sought	-10.7547
▁sounding	-10.7547
▁spaced	-10.7547
▁spiritually	-10.7547
▁spouse	-10.7547
▁spreadsheet	-10.7547
▁squeeze	-10.7547
▁stalking	-10.7547
▁standing	-10.7547
▁starving	-10.7547
▁strongest	-10.7547
▁structured	-10.7547
▁subjective	-10.7547
▁submit	-10.7547
▁succeeded	-10.7547
▁successfully	-10.7547
▁sugar	-10.7547
▁suppression	-10.7547
▁survival	-10.7547
▁suspicion	-10.7547
▁swallow	-10.7547
▁swing	-10.7547
▁switched	-10.7547
▁switzerland	-10.7547
▁sympathy	-10.7547
▁synthesis	-10.7547
▁tall	-10.7547
▁technically	-10.7547
▁tedious	-10.7547
▁tennis	-10.7547
▁thiamine	-10.7547
▁thin	-10.7547
▁thinker	-10.7547
▁thirty	-10.7547
▁thrash	-10.7547
▁tia	-10.7547
▁tidy	-10.7547
▁toddler	-10.7547
▁tolerate	-10.7547
▁tone	-10.7547
▁torment	-10.7547
▁tracker	-10.7547
▁transitioning	-10.7547
▁translate	-10.7547
▁transness	-10.7547
▁treacherous	-10.7547
▁tumour	-10.7547
▁tune	-10.7547
▁turkey	-10.7547
▁twist	-10.7547
▁ub	-10.7547
▁um	-10.7547
▁unaware	-10.7547
▁uncertain	-10.7547
▁unconditional	-10.7547
▁unconditionally	-10.7547
▁uncover	-10.7547
▁unemployment	-10.7547
▁unexpectedly	-10.7547
▁unfair	-10.7547
▁unfortunate	-10.7547
▁unfulfilled	-10.7547
▁united	-10.7547
▁unlikely	-10.7547
▁unlock	-10.7547
▁unpaid	-10.7547
▁unprecedented	-10.7547
▁unrealistic	-10.7547
▁ur	-10.7547
▁urgent	-10.7547
▁utility	-10.7547
▁valdez	-10.7547
▁valentine	-10.7547
▁valerian	-10.7547
▁variety	-10.7547
▁versus	-10.7547
▁vessel	-10.7547
▁vibrating	-10.7547
▁vicious	-10.7547
▁virginity	-10.7547
▁visualize	-10.7547
▁vomiting	-10.7547
▁w	-10.7547
▁wash	-10.7547
▁wealthy	-10.7547
▁weirdly	-10.7547
▁wendy	-10.7547
▁whisper	-10.7547
▁willingly	-10.7547
▁wine	-10.7547
▁wing	-10.7547
▁wit	-10.7547
▁workflow	-10.7547
▁wrapped	-10.7547
▁writes	-10.7547
▁yale	-10.7547
▁yard	-10.7547
▁yogi	-10.7547
▁yogic	-10.7547
▁abandon	-11.0424
▁abiding	-11.0424
▁abilify	-11.0424
▁abortion	-11.0424
▁abroad	-11.0424
▁absence	-11.0424
▁abyss	-11.0424
▁academy	-11.0424
▁accolade	-11.0424
▁accustomed	-11.0424
▁achievable	-11.0424
▁acidic	-11.0424
▁acne	-11.0424
▁acquaintance	-11.0424
▁activism	-11.0424
▁adapt	-11.0424
▁adapting	-11.0424
▁additionally	-11.0424
▁addressed	-11.0424
▁adequately	-11.0424
▁adhere	-11.0424
▁admittedly	-11.0424
▁adopting	-11.0424
▁adversity	-11.0424
▁advise	-11.0424
▁advocate	-11.0424
▁afterthought	-11.0424
▁afterward	-11.0424
▁agenda	-11.0424
▁agreement	-11.0424
▁ai	-11.0424
▁aide	-11.0424
▁alert	-11.0424
▁alien	-11.0424
▁alienated	-11.0424
▁alpha	-11.0424
▁altruism	-11.0424
▁amazed	-11.0424
▁ambrosio	-11.0424
▁ambulance	-11.0424
▁america	-11.0424
▁analyze	-11.0424
▁angst	-11.0424
▁annoy	-11.0424
▁anorexia	-11.0424
▁ant	-11.0424
▁anyones	-11.0424
▁apparent	-11.0424
▁applies	-11.0424
▁appreciative	-11.0424
▁apprenticeship	-11.0424
▁approving	-11.0424
▁approximately	-11.0424
▁arbitrary	-11.0424
▁argues	-11.0424
▁artwork	-11.0424
▁asexual	-11.0424
▁aspire	-11.0424
▁assigned	-11.0424
▁assisted	-11.0424
▁athletic	-11.0424
▁atm	-11.0424
▁atmosphere	-11.0424
▁attach	-11.0424
▁attended	-11.0424
▁audition	-11.0424
▁auric	-11.0424
▁autumn	-11.0424
▁awakening	-11.0424
▁aziz	-11.0424
▁ba	-11.0424
▁bachelor	-11.0424
▁bake	-11.0424
▁bar	-11.0424
▁bare	-11.0424
▁bat	-11.0424
▁bead	-11.0424
▁beam	-11.0424
▁bedtime	-11.0424
▁bee	-11.0424
▁belgium	-11.0424
▁belt	-11.0424
▁benefited	-11.0424
▁berating	-11.0424
▁betty	-11.0424
▁bible	-11.0424
▁billie	-11.0424
▁biting	-11.0424
▁blah	-11.0424
▁bleach	-11.0424
▁bleed	-11.0424
▁blew	-11.0424
▁blossom	-11.0424
▁blowing	-11.0424
▁blueberry	-11.0424
▁boil	-11.0424
▁bond	-11.0424
▁borderline	-11.0424
▁boss	-11.0424
▁brazil	-11.0424
▁bread	-11.0424
▁broadly	-11.0424
▁bubble	-11.0424
▁bubbly	-11.0424
▁buddhist	-11.0424
▁bumping	-11.0424
▁bumpy	-11.0424
▁burdened	-11.0424
▁butterfly	-11.0424
▁byproduct	-11.0424
▁cabin	-11.0424
▁calc	-11.0424
▁camera	-11.0424
▁campaign	-11.0424
▁canadian	-11.0424
▁candidate	-11.0424
▁capitalism	-11.0424
▁captain	-11.0424
▁cardio	-11.0424
▁carried	-11.0424
▁carter	-11.0424
▁cash	-11.0424
▁casual	-11.0424
▁celebrating	-11.0424
▁censored	-11.0424
▁certified	-11.0424
▁cheerleader	-11.0424
▁chem	-11.0424
▁chemistry	-11.0424
▁chew	-11.0424
▁chillls	-11.0424
▁chin	-11.0424
▁china	-11.0424
▁chip	-11.0424
▁choking	-11.0424
▁choosing	-11.0424
▁cinematic	-11.0424
▁circus	-11.0424
▁civil	-11.0424
▁cleaned	-11.0424
▁clenched	-11.0424
▁climax	-11.0424
▁climbed	-11.0424
▁cling	-11.0424
▁closing	-11.0424
▁clout	-11.0424
▁clueless	-11.0424
▁clumsy	-11.0424
▁cocoon	-11.0424
▁coffin	-11.0424
▁coin	-11.0424
▁coincidence	-11.0424
▁column	-11.0424
▁combat	-11.0424
▁comedian	-11.0424
▁comfortably	-11.0424
▁commented	-11.0424
▁compiled	-11.0424
▁compliment	-11.0424
▁component	-11.0424
▁composure	-11.0424
▁compromise	-11.0424
▁compulsive	-11.0424
▁concerning	-11.0424
▁concerta	-11.0424
▁confronting	-11.0424
▁conscience	-11.0424
▁consent	-11.0424
▁consist	-11.0424
▁consists	-11.0424
▁constraint	-11.0424
▁consultation	-11.0424
▁contacted	-11.0424
▁contend	-11.0424
▁continuous	-11.0424
▁conventionally	-11.0424
▁conversion	-11.0424
▁coordinator	-11.0424
▁cosmic	-11.0424
▁costly	-11.0424
▁couch	-11.0424
▁counting	-11.0424
▁coupled	-11.0424
▁covidya	-11.0424
▁cow	-11.0424
▁cozy	-11.0424
▁cpa	-11.0424
▁craves	-11.0424
▁craze	-11.0424
▁creature	-11.0424
▁crew	-11.0424
▁criminal	-11.0424
▁criticized	-11.0424
▁crossing	-11.0424
▁crowded	-11.0424
▁crushed	-11.0424
▁crypto	-11.0424
▁ct	-11.0424
▁curl	-11.0424
▁daddy	-11.0424
▁dalai	-11.0424
▁damned	-11.0424
▁dancing	-11.0424
▁david	-11.0424
▁decreased	-11.0424
▁defend	-11.0424
▁defense	-11.0424
▁definite	-11.0424
▁delayed	-11.0424
▁delhi	-11.0424
▁deliberate	-11.0424
▁deliberately	-11.0424
▁delight	-11.0424
▁delivery	-11.0424
▁deprived	-11.0424
▁derive	-11.0424
▁describing	-11.0424
▁dessert	-11.0424
▁destiny	-11.0424
▁destress	-11.0424
▁destruction	-11.0424
▁deteriorating	-11.0424
▁dev	-11.0424
▁devastated	-11.0424
▁digestive	-11.0424
▁diminished	-11.0424
▁disagreement	-11.0424
▁disclaimer	-11.0424
▁discussed	-11.0424
▁disguise	-11.0424
▁dismiss	-11.0424
▁disney	-11.0424
▁dissonance	-11.0424
▁distracts	-11.0424
▁dizzy	-11.0424
▁doc	-11.0424
▁donating	-11.0424
▁dot	-11.0424
▁downfall	-11.0424
▁downtown	-11.0424
▁drastically	-11.0424
▁drawn	-11.0424
▁dreadful	-11.0424
▁drill	-11.0424
▁drone	-11.0424
▁dropping	-11.0424
▁dumbass	-11.0424
▁dumped	-11.0424
▁dumping	-11.0424
▁dynamic	-11.0424
▁eager	-11.0424
▁earthquake	-11.0424
▁eased	-11.0424
▁eats	-11.0424
▁edgy	-11.0424
▁efficiently	-11.0424
▁effortlessly	-11.0424
▁eg	-11.0424
▁egypt	-11.0424
▁eilish	-11.0424
▁eith	-11.0424
▁el	-11.0424
▁electric	-11.0424
▁electricity	-11.0424
▁electromagnetic	-11.0424
▁element	-11.0424
▁eli	-11.0424
▁elite	-11.0424
▁embraced	-11.0424
▁emits	-11.0424
▁empower	-11.0424
▁empowered	-11.0424
▁encouraging	-11.0424
▁engineer	-11.0424
▁entail	-11.0424
▁entry	-11.0424
▁epiphany	-11.0424
▁equation	-11.0424
▁errand	-11.0424
▁escaping	-11.0424
▁euphoric	-11.0424
▁eventual	-11.0424
▁everlasting	-11.0424
▁everthing	-11.0424
▁evoke	-11.0424
▁evolutionary	-11.0424
▁evolves	-11.0424
▁exceptionally	-11.0424
▁excluding	-11.0424
▁exhibition	-11.0424
▁existent	-11.0424
▁expanding	-11.0424
▁experiment	-11.0424
▁explicit	-11.0424
▁fabricated	-11.0424
▁facial	-11.0424
▁factory	-11.0424
▁fading	-11.0424
▁fantasizing	-11.0424
▁farm	-11.0424
▁fb	-11.0424
▁fck	-11.0424
▁feeding	-11.0424
▁feminist	-11.0424
▁figment	-11.0424
▁filmmaker	-11.0424
▁flair	-11.0424
▁flashback	-11.0424
▁flaw	-11.0424
▁float	-11.0424
▁flood	-11.0424
▁flowing	-11.0424
▁flu	-11.0424
▁fluctuated	-11.0424
▁flunked	-11.0424
▁folded	-11.0424
▁fomo	-11.0424
▁forbid	-11.0424
▁frame	-11.0424
▁framework	-11.0424
▁frank	-11.0424
▁freaked	-11.0424
▁fridge	-11.0424
▁fried	-11.0424
▁frisson	-11.0424
▁froze	-11.0424
▁fucken	-11.0424
▁fuhg	-11.0424
▁fulfils	-11.0424
▁fullest	-11.0424
▁gaba	-11.0424
▁gambino	-11.0424
▁gambling	-11.0424
▁gang	-11.0424
▁garage	-11.0424
▁gatekeeper	-11.0424
▁gateway	-11.0424
▁gear	-11.0424
▁generalized	-11.0424
▁generate	-11.0424
▁generous	-11.0424
▁genius	-11.0424
▁german	-11.0424
▁ghosting	-11.0424
▁giggle	-11.0424
▁gina	-11.0424
▁gloomy	-11.0424
▁grammy	-11.0424
▁grease	-11.0424
▁grinding	-11.0424
▁groundbreaking	-11.0424
▁guessed	-11.0424
▁guidedmeditation	-11.0424
▁guiding	-11.0424
▁halfway	-11.0424
▁hallway	-11.0424
▁ham	-11.0424
▁handed	-11.0424
▁happend	-11.0424
▁harsh	-11.0424
▁headline	-11.0424
▁healthiest	-11.0424
▁heartbeat	-11.0424
▁heave	-11.0424
▁heavily	-11.0424
▁heck	-11.0424
▁height	-11.0424
▁helicopter	-11.0424
▁hella	-11.0424
▁herb	-11.0424
▁heroin	-11.0424
▁hesitate	-11.0424
▁hh	-11.0424
▁hid	-11.0424
▁hike	-11.0424
▁hired	-11.0424
▁hiring	-11.0424
▁hive	-11.0424
▁hmm	-11.0424
▁homeschooled	-11.0424
▁homophobic	-11.0424
▁honor	-11.0424
▁hook	-11.0424
▁hormonal	-11.0424
▁host	-11.0424
▁housemate	-11.0424
▁howard	-11.0424
▁howtomeditate	-11.0424
▁humility	-11.0424
▁humored	-11.0424
▁hunting	-11.0424
▁hurricane	-11.0424
▁hustle	-11.0424
▁hw	-11.0424
▁hyperventilating	-11.0424
▁hypocrite	-11.0424
▁icon	-11.0424
▁icu	-11.0424
▁ik	-11.0424
▁imaginative	-11.0424
▁imbalance	-11.0424
▁impactful	-11.0424
▁impartial	-11.0424
▁impressive	-11.0424
▁inbox	-11.0424
▁incapable	-11.0424
▁incorporate	-11.0424
▁indication	-11.0424
▁indicator	-11.0424
▁indoors	-11.0424
▁induce	-11.0424
▁infant	-11.0424
▁inflammation	-11.0424
▁infront	-11.0424
▁injustice	-11.0424
▁insanity	-11.0424
▁insidious	-11.0424
▁inspirational	-11.0424
▁instability	-11.0424
▁institution	-11.0424
▁instrumental	-11.0424
▁instrumentals	-11.0424
▁intensity	-11.0424
▁intentionally	-11.0424
▁interactive	-11.0424
▁intersection	-11.0424
▁intimate	-11.0424
▁investing	-11.0424
▁inwards	-11.0424
▁ip	-11.0424
▁iq	-11.0424
▁itll	-11.0424
▁iv	-11.0424
▁jack	-11.0424
▁jaded	-11.0424
▁jan	-11.0424
▁japanese	-11.0424
▁jar	-11.0424
▁jittery	-11.0424
▁joint	-11.0424
▁joking	-11.0424
▁jus	-11.0424
▁kidney	-11.0424
▁kissed	-11.0424
▁klaus	-11.0424
▁knee	-11.0424
▁knocking	-11.0424
▁korean	-11.0424
▁la	-11.0424
▁lady	-11.0424
▁lake	-11.0424
▁lama	-11.0424
▁lame	-11.0424
▁largest	-11.0424
▁lastly	-11.0424
▁latter	-11.0424
▁launching	-11.0424
▁lease	-11.0424
▁lecturing	-11.0424
▁legacy	-11.0424
▁legitimate	-11.0424
▁lesbian	-11.0424
▁lessen	-11.0424
▁leveled	-11.0424
▁levin	-11.0424
▁liar	-11.0424
▁library	-11.0424
▁licorice	-11.0424
▁liege	-11.0424
▁lifelong	-11.0424
▁limitation	-11.0424
▁liquid	-11.0424
▁listener	-11.0424
▁listing	-11.0424
▁litterally	-11.0424
▁lively	-11.0424
▁loaded	-11.0424
▁loathe	-11.0424
▁locking	-11.0424
▁logging	-11.0424
▁logically	-11.0424
▁logo	-11.0424
▁london	-11.0424
▁lotta	-11.0424
▁lover	-11.0424
▁lowered	-11.0424
▁lowering	-11.0424
▁lurking	-11.0424
▁lust	-11.0424
▁mae	-11.0424
▁magazine	-11.0424
▁magnesium	-11.0424
▁maharshi	-11.0424
▁maintains	-11.0424
▁mall	-11.0424
▁mandatory	-11.0424
▁manifested	-11.0424
▁manifesting	-11.0424
▁manipulating	-11.0424
▁manipulative	-11.0424
▁mariana	-11.0424
▁marijuana	-11.0424
▁masking	-11.0424
▁mass	-11.0424
▁masturbate	-11.0424
▁masturbating	-11.0424
▁matured	-11.0424
▁meat	-11.0424
▁mechanical	-11.0424
▁mentality	-11.0424
▁mentioning	-11.0424
▁mere	-11.0424
▁metabolism	-11.0424
▁metal	-11.0424
▁meteor	-11.0424
▁micro	-11.0424
▁microwave	-11.0424
▁mill	-11.0424
▁mindedness	-11.0424
▁misfortune	-11.0424
▁misinterpret	-11.0424
▁mobilize	-11.0424
▁moderator	-11.0424
▁momentary	-11.0424
▁monetary	-11.0424
▁morphed	-11.0424
▁mount	-11.0424
▁mumbai	-11.0424
▁mundane	-11.0424
▁mystery	-11.0424
▁namely	-11.0424
▁napoleon	-11.0424
▁narrative	-11.0424
▁narrow	-11.0424
▁nasty	-11.0424
▁nauseated	-11.0424
▁nazi	-11.0424
▁nearby	-11.0424
▁nearing	-11.0424
▁necessity	-11.0424
▁neglecting	-11.0424
▁neighbour	-11.0424
▁nepal	-11.0424
▁nephew	-11.0424
▁net	-11.0424
▁netherlands	-11.0424
▁neuralgia	-11.0424
▁neuropathy	-11.0424
▁neurotransmitter	-11.0424
▁nevertheless	-11.0424
▁newbie	-11.0424
▁newhart	-11.0424
▁newspaper	-11.0424
▁niece	-11.0424
▁nobel	-11.0424
▁nod	-11.0424
▁nonetheless	-11.0424
▁norepinephrine	-11.0424
▁norm	-11.0424
▁nose	-11.0424
▁notified	-11.0424
▁nurture	-11.0424
▁obligated	-11.0424
▁oblivion	-11.0424
▁obtain	-11.0424
▁occupied	-11.0424
▁occurs	-11.0424
▁offense	-11.0424
▁official	-11.0424
▁optimal	-11.0424
▁orb	-11.0424
▁ordeal	-11.0424
▁ordered	-11.0424
▁organize	-11.0424
▁outgoing	-11.0424
▁outward	-11.0424
▁overdosed	-11.0424
▁overloaded	-11.0424
▁overrated	-11.0424
▁overtime	-11.0424
▁overview	-11.0424
▁overwork	-11.0424
▁owning	-11.0424
▁pace	-11.0424
▁painfully	-11.0424
▁painkiller	-11.0424
▁palm	-11.0424
▁pan	-11.0424
▁pandora	-11.0424
▁papa	-11.0424
▁paralyzed	-11.0424
▁partially	-11.0424
▁passive	-11.0424
▁paul	-11.0424
▁payed	-11.0424
▁peppermint	-11.0424
▁perceivable	-11.0424
▁performed	-11.0424
▁performing	-11.0424
▁periodically	-11.0424
▁perk	-11.0424
▁persevere	-11.0424
▁persistent	-11.0424
▁pharma	-11.0424
▁phenomenon	-11.0424
▁photoshoots	-11.0424
▁physic	-11.0424
▁physicist	-11.0424
▁physique	-11.0424
▁picnic	-11.0424
▁piling	-11.0424
▁pipe	-11.0424
▁pituitary	-11.0424
▁pivoting	-11.0424
▁planting	-11.0424
▁platonic	-11.0424
▁pleaded	-11.0424
▁pleased	-11.0424
▁plot	-11.0424
▁pocket	-11.0424
▁poem	-11.0424
▁poison	-11.0424
▁politician	-11.0424
▁pool	-11.0424
▁portrait	-11.0424
▁possession	-11.0424
▁potato	-11.0424
▁pouring	-11.0424
▁practically	-11.0424
▁prayed	-11.0424
▁predictable	-11.0424
▁prepares	-11.0424
▁presented	-11.0424
▁pride	-11.0424
▁privacy	-11.0424
▁prize	-11.0424
▁probable	-11.0424
▁producing	-11.0424
▁prof	-11.0424
▁programme	-11.0424
▁programmer	-11.0424
▁projected	-11.0424
▁promising	-11.0424
▁promo	-11.0424
▁protected	-11.0424
▁protecting	-11.0424
▁province	-11.0424
▁pry	-11.0424
▁publicly	-11.0424
▁published	-11.0424
▁punish	-11.0424
▁punishing	-11.0424
▁quickest	-11.0424
▁raisedbynarcissists	-11.0424
▁rapid	-11.0424
▁rat	-11.0424
▁rationally	-11.0424
▁raver	-11.0424
▁reader	-11.0424
▁realigned	-11.0424
▁reap	-11.0424
▁reassurance	-11.0424
▁receives	-11.0424
▁reciprocate	-11.0424
▁reckless	-11.0424
▁reconnect	-11.0424
▁recurrent	-11.0424
▁recurring	-11.0424
▁reduced	-11.0424
▁reel	-11.0424
▁referring	-11.0424
▁refused	-11.0424
▁regain	-11.0424
▁regaining	-11.0424
▁regretting	-11.0424
▁relation	-11.0424
▁relearn	-11.0424
▁relies	-11.0424
▁repetitive	-11.0424
▁repetitiveness	-11.0424
▁reported	-11.0424
▁representative	-11.0424
▁requested	-11.0424
▁resent	-11.0424
▁reserve	-11.0424
▁residential	-11.0424
▁resist	-11.0424
▁resistant	-11.0424
▁resisting	-11.0424
▁resonate	-11.0424
▁resonated	-11.0424
▁responded	-11.0424
▁responder	-11.0424
▁retarded	-11.0424
▁revenue	-11.0424
▁reviewed	-11.0424
▁revolve	-11.0424
▁rhythm	-11.0424
▁rip	-11.0424
▁rlly	-11.0424
▁roadblock	-11.0424
▁rob	-11.0424
▁roleplaying	-11.0424
▁roomie	-11.0424
▁roughly	-11.0424
▁rug	-11.0424
▁rupee	-11.0424
▁sack	-11.0424
▁sacrifice	-11.0424
▁sam	-11.0424
▁samadhi	-11.0424
▁sample	-11.0424
▁sandwich	-11.0424
▁sane	-11.0424
▁sarcastic	-11.0424
▁saturday	-11.0424
▁scam	-11.0424
▁scar	-11.0424
▁scenery	-11.0424
▁scientifically	-11.0424
▁scolded	-11.0424
▁screwing	-11.0424
▁seat	-11.0424
▁secondly	-11.0424
▁sensed	-11.0424
▁seroquel	-11.0424
▁serotonin	-11.0424
▁settled	-11.0424
▁shaky	-11.0424
▁shamble	-11.0424
▁shed	-11.0424
▁shifting	-11.0424
▁shirt	-11.0424
▁shivering	-11.0424
▁shortness	-11.0424
▁shout	-11.0424
▁shoved	-11.0424
▁shutting	-11.0424
▁sided	-11.0424
▁simulation	-11.0424
▁singh	-11.0424
▁sinking	-11.0424
▁skipped	-11.0424
▁skydiving	-11.0424
▁sl	-11.0424
▁slap	-11.0424
▁slide	-11.0424
▁slowed	-11.0424
▁sluggish	-11.0424
▁smashed	-11.0424
▁smiled	-11.0424
▁smoothly	-11.0424
▁smth	-11.0424
▁socializing	-11.0424
▁solitude	-11.0424
▁sorted	-11.0424
▁spectacle	-11.0424
▁spell	-11.0424
▁spike	-11.0424
▁spiraled	-11.0424
▁square	-11.0424
▁stab	-11.0424
▁staff	-11.0424
▁staircase	-11.0424
▁stall	-11.0424
▁stanford	-11.0424
▁star	-11.0424
▁startup	-11.0424
▁starved	-11.0424
▁static	-11.0424
▁stating	-11.0424
▁stats	-11.0424
▁stephen	-11.0424
▁stiffness	-11.0424
▁stoicism	-11.0424
▁stored	-11.0424
▁strained	-11.0424
▁straw	-11.0424
▁stroll	-11.0424
▁submission	-11.0424
▁submitted	-11.0424
▁subscriber	-11.0424
▁suffice	-11.0424
▁suggests	-11.0424
▁suitcase	-11.0424
▁sunrise	-11.0424
▁supervisory	-11.0424
▁survivor	-11.0424
▁sustained	-11.0424
▁sympathetic	-11.0424
▁tad	-11.0424
▁talented	-11.0424
▁tasting	-11.0424
▁tax	-11.0424
▁tech	-11.0424
▁technical	-11.0424
▁temple	-11.0424
▁tent	-11.0424
▁terrifies	-11.0424
▁texas	-11.0424
▁theanine	-11.0424
▁thelma	-11.0424
▁thereby	-11.0424
▁threaten	-11.0424
▁thru	-11.0424
▁thrust	-11.0424
▁tht	-11.0424
▁thursday	-11.0424
▁tick	-11.0424
▁tightly	-11.0424
▁til	-11.0424
▁timer	-11.0424
▁tingling	-11.0424
▁tiniest	-11.0424
▁tinnitus	-11.0424
▁tolerance	-11.0424
▁tom	-11.0424
▁tomato	-11.0424
▁tommorow	-11.0424
▁toothache	-11.0424
▁toronto	-11.0424
▁torrent	-11.0424
▁torture	-11.0424
▁totaled	-11.0424
▁toxicity	-11.0424
▁tradition	-11.0424
▁transmitter	-11.0424
▁traumatized	-11.0424
▁traveling	-11.0424
▁travelling	-11.0424
▁trending	-11.0424
▁trigeminal	-11.0424
▁trivial	-11.0424
▁trough	-11.0424
▁trusting	-11.0424
▁trustworthy	-11.0424
▁tumbling	-11.0424
▁tummy	-11.0424
▁turmeric	-11.0424
▁twitching	-11.0424
▁typo	-11.0424
▁uc	-11.0424
▁ugliness	-11.0424
▁uh	-11.0424
▁umm	-11.0424
▁unbearably	-11.0424
▁unconsciously	-11.0424
▁underlying	-11.0424
▁understandable	-11.0424
▁undivided	-11.0424
▁uneasy	-11.0424
▁unfamiliar	-11.0424
▁uninterrupted	-11.0424
▁unity	-11.0424
▁universal	-11.0424
▁unlearn	-11.0424
▁unlucky	-11.0424
▁unpacking	-11.0424
▁unpopular	-11.0424
▁unprepared	-11.0424
▁unproductive	-11.0424
▁unsuccessful	-11.0424
▁untill	-11.0424
▁unwell	-11.0424
▁updated	-11.0424
▁uselessness	-11.0424
▁vaping	-11.0424
▁varying	-11.0424
▁veggie	-11.0424
▁verge	-11.0424
▁verification	-11.0424
▁versa	-11.0424
▁verve	-11.0424
▁vibrant	-11.0424
▁village	-11.0424
▁virgin	-11.0424
▁voiced	-11.0424
▁volume	-11.0424
▁vote	-11.0424
▁waited	-11.0424
▁wallet	-11.0424
▁walmart	-11.0424
▁wan	-11.0424
▁wandering	-11.0424
▁warmer	-11.0424
▁weapon	-11.0424
▁weighs	-11.0424
▁whim	-11.0424
▁wholesome	-11.0424
▁wich	-11.0424
▁wiki	-11.0424
▁wire	-11.0424
▁woken	-11.0424
▁woozy	-11.0424
▁wore	-11.0424
▁worldwide	-11.0424
▁worsened	-11.0424
▁worsens	-11.0424
▁wouldve	-11.0424
▁writting	-11.0424
▁wtf	-11.0424
▁xr	-11.0424
▁yall	-11.0424
▁yearns	-11.0424
▁youngest	-11.0424
▁abdomen	-11.4479
▁aborigine	-11.4479
▁abrasion	-11.4479
▁absorbing	-11.4479
▁abstract	-11.4479
▁absurd	-11.4479
▁ac	-11.4479
▁accelerated	-11.4479
▁accepts	-11.4479
▁accessible	-11.4479
▁accompany	-11.4479
▁accompanying	-11.4479
▁accordance	-11.4479
▁accurate	-11.4479
▁accurately	-11.4479
▁aching	-11.4479
▁acquiring	-11.4479
▁acronym	-11.4479
▁actionable	-11.4479
▁activated	-11.4479
▁actualized	-11.4479
▁acute	-11.4479
▁adaptability	-11.4479
▁adaptable	-11.4479
▁adaptive	-11.4479
▁additional	-11.4479
▁adjust	-11.4479
▁admin	-11.4479
▁admire	-11.4479
▁admired	-11.4479
▁admitting	-11.4479
▁adoptive	-11.4479
▁adorable	-11.4479
▁adoration	-11.4479
▁adore	-11.4479
▁adrenalin	-11.4479
▁advanced	-11.4479
▁advantageous	-11.4479
▁adversely	-11.4479
▁afect	-11.4479
▁agent	-11.4479
▁aggiemail	-11.4479
▁aggrieved	-11.4479
▁aging	-11.4479
▁agonizing	-11.4479
▁agrees	-11.4479
▁aha	-11.4479
▁aiding	-11.4479
▁ailment	-11.4479
▁aimed	-11.4479
▁airplane	-11.4479
▁al	-11.4479
▁alabama	-11.4479
▁alaska	-11.4479
▁alci	-11.4479
▁alkaline	-11.4479
▁alllll	-11.4479
▁alongside	-11.4479
▁aloud	-11.4479
▁alprazolam	-11.4479
▁alteration	-11.4479
▁alternate	-11.4479
▁alveolus	-11.4479
▁alzheimer	-11.4479
▁amazings	-11.4479
▁ambiance	-11.4479
▁ambiguity	-11.4479
▁amid	-11.4479
▁ammount	-11.4479
▁amphetamine	-11.4479
▁analysis	-11.4479
▁analyzed	-11.4479
▁ancestor	-11.4479
▁anchor	-11.4479
▁ancien	-11.4479
▁andew	-11.4479
▁anemia	-11.4479
▁angle	-11.4479
▁angrier	-11.4479
▁anguished	-11.4479
▁animating	-11.4479
▁ankle	-11.4479
▁annoys	-11.4479
▁anonymously	-11.4479
▁anthropology	-11.4479
▁antidote	-11.4479
▁antinatalist	-11.4479
▁antipsychotic	-11.4479
▁anxiousness	-11.4479
▁aphatic	-11.4479
▁appalled	-11.4479
▁appealing	-11.4479
▁appears	-11.4479
▁appropriate	-11.4479
▁approve	-11.4479
▁approves	-11.4479
▁ard	-11.4479
▁argued	-11.4479
▁arnold	-11.4479
▁aromatherapy	-11.4479
▁arrange	-11.4479
▁arranged	-11.4479
▁arrest	-11.4479
▁arrived	-11.4479
▁artery	-11.4479
▁articulate	-11.4479
▁artistic	-11.4479
▁ascending	-11.4479
▁asf	-11.4479
▁ash	-11.4479
▁ashed	-11.4479
▁asian	-11.4479
▁asocially	-11.4479
▁asperger	-11.4479
▁aspergers	-11.4479
▁ass	-11.4479
▁assertiveness	-11.4479
▁asskisser	-11.4479
▁asthma	-11.4479
▁astonishing	-11.4479
▁astral	-11.4479
▁aswell	-11.4479
▁atlas	-11.4479
▁atpeace	-11.4479
▁attaching	-11.4479
▁attacking	-11.4479
▁attained	-11.4479
▁audience	-11.4479
▁australian	-11.4479
▁authenticity	-11.4479
▁authorattn	-11.4479
▁automated	-11.4479
▁avail	-11.4479
▁awaited	-11.4479
▁awarded	-11.4479
▁aways	-11.4479
▁awe	-11.4479
▁awww	-11.4479
▁aztec	-11.4479
▁backfire	-11.4479
▁backpack	-11.4479
▁backspaced	-11.4479
▁backyard	-11.4479
▁bahadurgarh	-11.4479
▁bail	-11.4479
▁bait	-11.4479
▁balcony	-11.4479
▁bankrupt	-11.4479
▁barefoot	-11.4479
▁basket	-11.4479
▁bathing	-11.4479
▁batting	-11.4479
▁bay	-11.4479
▁bearing	-11.4479
▁beaten	-11.4479
▁beatles	-11.4479
▁beem	-11.4479
▁beep	-11.4479
▁befor	-11.4479
▁beforehand	-11.4479
▁befriend	-11.4479
▁beggining	-11.4479
▁behavioural	-11.4479
▁behold	-11.4479
▁beholder	-11.4479
▁beige	-11.4479
▁beingness	-11.4479
▁belated	-11.4479
▁beleive	-11.4479
▁bemindfulonline	-11.4479
▁beneficial	-11.4479
▁bestfriend	-11.4479
▁bestseller	-11.4479
▁bestselling	-11.4479
▁beta	-11.4479
▁bettering	-11.4479
▁bfa	-11.4479
▁bich	-11.4479
▁billion	-11.4479
▁binary	-11.4479
▁biography	-11.4479
▁bitterness	-11.4479
▁blanchard	-11.4479
▁blatantly	-11.4479
▁bleak	-11.4479
▁blesses	-11.4479
▁blip	-11.4479
▁bloated	-11.4479
▁blogger	-11.4479
▁boiled	-11.4479
▁boiling	-11.4479
▁bold	-11.4479
▁boo	-11.4479
▁booked	-11.4479
▁bookshelf	-11.4479
▁boom	-11.4479
▁boomer	-11.4479
▁boops	-11.4479
▁boosting	-11.4479
▁boot	-11.4479
▁booze	-11.4479
▁bore	-11.4479
▁boredom	-11.4479
▁boris	-11.4479
▁bossa	-11.4479
▁bottled	-11.4479
▁bow	-11.4479
▁bowl	-11.4479
▁boxing	-11.4479
▁branch	-11.4479
▁brat	-11.4479
▁brave	-11.4479
▁breakthrough	-11.4479
▁breast	-11.4479
▁breathed	-11.4479
▁bricker	-11.4479
▁bridging	-11.4479
▁brighten	-11.4479
▁britain	-11.4479
▁bronson	-11.4479
▁browse	-11.4479
▁bruise	-11.4479
▁brunch	-11.4479
▁brutal	-11.4479
▁budda	-11.4479
▁budding	-11.4479
▁buddy	-11.4479
▁buffett	-11.4479
▁buggy	-11.4479
▁bulimia	-11.4479
▁bulking	-11.4479
▁bull	-11.4479
▁bullet	-11.4479
▁bungee	-11.4479
▁burdening	-11.4479
▁butt	-11.4479
▁buttered	-11.4479
▁bye	-11.4479
▁cafe	-11.4479
▁cafeteria	-11.4479
▁cal	-11.4479
▁caller	-11.4479
▁calorie	-11.4479
▁cambodia	-11.4479
▁candid	-11.4479
▁candor	-11.4479
▁cannabis	-11.4479
▁canton	-11.4479
▁canucknaround	-11.4479
▁capsule	-11.4479
▁captaindepression	-11.4479
▁caravan	-11.4479
▁carbongrit	-11.4479
▁careerwise	-11.4479
▁caregiver	-11.4479
▁carer	-11.4479
▁carol	-11.4479
▁cart	-11.4479
▁carve	-11.4479
▁cascade	-11.4479
▁catastrophe	-11.4479
▁cater	-11.4479
▁cavity	-11.4479
▁cbc	-11.4479
▁ccertain	-11.4479
▁ccna	-11.4479
▁ceased	-11.4479
▁cec	-11.4479
▁celebrity	-11.4479
▁cellphone	-11.4479
▁cemetery	-11.4479
▁cent	-11.4479
▁centered	-11.4479
▁centerforfearlessresearch	-11.4479
▁cert	-11.4479
▁cf	-11.4479
▁chalked	-11.4479
▁challeged	-11.4479
▁challeges	-11.4479
▁characterize	-11.4479
▁charitable	-11.4479
▁charles	-11.4479
▁charming	-11.4479
▁chastise	-11.4479
▁chattanooga	-11.4479
▁chattering	-11.4479
▁cheaper	-11.4479
▁checkout	-11.4479
▁cheered	-11.4479
▁cheerful	-11.4479
▁cheesy	-11.4479
▁chester	-11.4479
▁chillllll	-11.4479
▁chipping	-11.4479
▁chiropractor	-11.4479
▁chirping	-11.4479
▁chooses	-11.4479
▁chord	-11.4479
▁christ	-11.4479
▁chromebook	-11.4479
▁chtbl	-11.4479
▁ci	-11.4479
▁ciggarettes	-11.4479
▁cinema	-11.4479
▁civilization	-11.4479
▁claiming	-11.4479
▁clamp	-11.4479
▁clapping	-11.4479
▁classic	-11.4479
▁classical	-11.4479
▁classify	-11.4479
▁classroom	-11.4479
▁claude	-11.4479
▁cleaner	-11.4479
▁clearer	-11.4479
▁cleft	-11.4479
▁clever	-11.4479
▁clicked	-11.4479
▁clingy	-11.4479
▁clipped	-11.4479
▁clonazepam	-11.4479
▁closet	-11.4479
▁closure	-11.4479
▁cloth	-11.4479
▁cloudy	-11.4479
▁clown	-11.4479
▁clutter	-11.4479
▁coding	-11.4479
▁coelho	-11.4479
▁coinbase	-11.4479
▁collect	-11.4479
▁collecting	-11.4479
▁colon	-11.4479
▁combating	-11.4479
▁combustion	-11.4479
▁comedy	-11.4479
▁comfortability	-11.4479
▁comfy	-11.4479
▁comic	-11.4479
▁commence	-11.4479
▁commerce	-11.4479
▁commited	-11.4479
▁commiting	-11.4479
▁communicating	-11.4479
▁commuter	-11.4479
▁competency	-11.4479
▁competent	-11.4479
▁competing	-11.4479
▁complained	-11.4479
▁complaint	-11.4479
▁compounding	-11.4479
▁comprehensive	-11.4479
▁conceptualization	-11.4479
▁condemned	-11.4479
▁confidently	-11.4479
▁confined	-11.4479
▁confines	-11.4479
▁conflicting	-11.4479
▁congratulation	-11.4479
▁congressional	-11.4479
▁consedring	-11.4479
▁considers	-11.4479
▁console	-11.4479
▁construct	-11.4479
▁constructing	-11.4479
▁constructively	-11.4479
▁consult	-11.4479
▁consultant	-11.4479
▁consumerism	-11.4479
▁container	-11.4479
▁contains	-11.4479
▁continent	-11.4479
▁continued	-11.4479
▁continuously	-11.4479
▁contradictory	-11.4479
▁contributed	-11.4479
▁contributing	-11.4479
▁controllable	-11.4479
▁controller	-11.4479
▁convenience	-11.4479
▁conventional	-11.4479
▁converted	-11.4479
▁conveyer	-11.4479
▁convincingly	-11.4479
▁cooky	-11.4479
▁cooperative	-11.4479
▁cooping	-11.4479
▁coordination	-11.4479
▁copious	-11.4479
▁corey	-11.4479
▁corneal	-11.4479
▁cornerstone	-11.4479
▁corrected	-11.4479
▁correlate	-11.4479
▁corrupted	-11.4479
▁cortex	-11.4479
▁couldnt	-11.4479
▁countdown	-11.4479
▁county	-11.4479
▁courthouse	-11.4479
▁coveted	-11.4479
▁crab	-11.4479
▁crackhead	-11.4479
▁cramming	-11.4479
▁cramped	-11.4479
▁crashed	-11.4479
▁crawled	-11.4479
▁crawlies	-11.4479
▁creatively	-11.4479
▁creatives	-11.4479
▁creep	-11.4479
▁criterion	-11.4479
▁critically	-11.4479
▁criticise	-11.4479
▁criticised	-11.4479
▁crown	-11.4479
▁crumble	-11.4479
▁crumbled	-11.4479
▁cruz	-11.4479
▁crystallizes	-11.4479
▁cuddling	-11.4479
▁cumming	-11.4479
▁cupboard	-11.4479
▁curating	-11.4479
▁cycling	-11.4479
▁cymbalta	-11.4479
▁dagger	-11.4479
▁dalio	-11.4479
▁damaging	-11.4479
▁damped	-11.4479
▁dan	-11.4479
▁dar	-11.4479
▁darker	-11.4479
▁darkly	-11.4479
▁daybreaker	-11.4479
▁daydream	-11.4479
▁deadbeat	-11.4479
▁dearest	-11.4479
▁dearly	-11.4479
▁deault	-11.4479
▁debated	-11.4479
▁decency	-11.4479
▁declining	-11.4479
▁declutter	-11.4479
▁decoration	-11.4479
▁deed	-11.4479
▁deemed	-11.4479
▁deems	-11.4479
▁defaulted	-11.4479
▁defeat	-11.4479
▁defending	-11.4479
▁defination	-11.4479
▁defines	-11.4479
▁deity	-11.4479
▁delaying	-11.4479
▁delegate	-11.4479
▁deliberation	-11.4479
▁delicious	-11.4479
▁delirious	-11.4479
▁delusional	-11.4479
▁demotivated	-11.4479
▁dental	-11.4479
▁depends	-11.4479
▁depersnalization	-11.4479
▁depersonalization	-11.4479
▁deplete	-11.4479
▁depletion	-11.4479
▁derby	-11.4479
▁deserving	-11.4479
▁despaired	-11.4479
▁despise	-11.4479
▁destined	-11.4479
▁destroys	-11.4479
▁destructed	-11.4479
▁detailing	-11.4479
▁detect	-11.4479
▁deteriorated	-11.4479
▁detox	-11.4479
▁detriment	-11.4479
▁devalues	-11.4479
▁developemental	-11.4479
▁developer	-11.4479
▁developmental	-11.4479
▁devil	-11.4479
▁devoid	-11.4479
▁diafram	-11.4479
▁diarrhea	-11.4479
▁dictator	-11.4479
▁dieting	-11.4479
▁differs	-11.4479
▁digestion	-11.4479
▁dilation	-11.4479
▁dilution	-11.4479
▁dilutional	-11.4479
▁dimattina	-11.4479
▁dimension	-11.4479
▁ding	-11.4479
▁dint	-11.4479
▁disappears	-11.4479
▁disapproved	-11.4479
▁disapproving	-11.4479
▁disassembling	-11.4479
▁disfunctional	-11.4479
▁disordered	-11.4479
▁disowned	-11.4479
▁disposition	-11.4479
▁disregarded	-11.4479
▁disrespecting	-11.4479
▁disrupt	-11.4479
▁dissatisfaction	-11.4479
▁distinct	-11.4479
▁distinction	-11.4479
▁distortion	-11.4479
▁distracting	-11.4479
▁distribution	-11.4479
▁disturb	-11.4479
▁ditch	-11.4479
▁doable	-11.4479
▁documantaries	-11.4479
▁documenting	-11.4479
▁doer	-11.4479
▁dominant	-11.4479
▁dominate	-11.4479
▁donate	-11.4479
▁donation	-11.4479
▁dong	-11.4479
▁doom	-11.4479
▁dope	-11.4479
▁dos	-11.4479
▁downplays	-11.4479
▁downshift	-11.4479
▁downsize	-11.4479
▁downvotes	-11.4479
▁downwards	-11.4479
▁dragged	-11.4479
▁dramatically	-11.4479
▁dreading	-11.4479
▁dreamed	-11.4479
▁dress	-11.4479
▁drool	-11.4479
▁drowsy	-11.4479
▁drugged	-11.4479
▁drum	-11.4479
▁drunken	-11.4479
▁dt	-11.4479
▁dual	-11.4479
▁duck	-11.4479
▁duffle	-11.4479
▁dug	-11.4479
▁duly	-11.4479
▁dumbed	-11.4479
▁dumber	-11.4479
▁dumbfounded	-11.4479
▁dump	-11.4479
▁dysfunction	-11.4479
▁dysthimia	-11.4479
▁dysthymia	-11.4479
▁eachother	-11.4479
▁easter	-11.4479
▁eastern	-11.4479
▁ebony	-11.4479
▁eeg	-11.4479
▁effecting	-11.4479
▁egotistical	-11.4479
▁eight	-11.4479
▁ekg	-11.4479
▁elaborate	-11.4479
▁elated	-11.4479
▁elation	-11.4479
▁elbert	-11.4479
▁elder	-11.4479
▁electrical	-11.4479
▁electrocute	-11.4479
▁electrode	-11.4479
▁electronics	-11.4479
▁electrotechnic	-11.4479
▁eliminating	-11.4479
▁elixir	-11.4479
▁elope	-11.4479
▁elsewhere	-11.4479
▁emailing	-11.4479
▁emancipate	-11.4479
▁embarassed	-11.4479
▁embarrass	-11.4479
▁embarrassment	-11.4479
▁emo	-11.4479
▁emotionality	-11.4479
▁emotionless	-11.4479
▁empathize	-11.4479
▁emphaising	-11.4479
▁emphasize	-11.4479
▁employing	-11.4479
▁enabled	-11.4479
▁enables	-11.4479
▁encourages	-11.4479
▁endometriosis	-11.4479
▁england	-11.4479
▁enlighten	-11.4479
▁enormous	-11.4479
▁enourmous	-11.4479
▁enriching	-11.4479
▁enroll	-11.4479
▁ensuring	-11.4479
▁entertain	-11.4479
▁entirety	-11.4479
▁entourage	-11.4479
▁entrapped	-11.4479
▁entrepreneurial	-11.4479
▁envelope	-11.4479
▁envied	-11.4479
▁environmental	-11.4479
▁equality	-11.4479
▁equally	-11.4479
▁equate	-11.4479
▁equipped	-11.4479
▁erection	-11.4479
▁ergo	-11.4479
▁eric	-11.4479
▁escalate	-11.4479
▁escalated	-11.4479
▁escapist	-11.4479
▁escort	-11.4479
▁est	-11.4479
▁establish	-11.4479
▁estate	-11.4479
▁estranged	-11.4479
▁eternal	-11.4479
▁eternally	-11.4479
▁ethical	-11.4479
▁europe	-11.4479
▁euthanasia	-11.4479
▁euthanized	-11.4479
▁everyon	-11.4479
▁everythings	-11.4479
▁evicted	-11.4479
▁excelling	-11.4479
▁excessively	-11.4479
▁exclusive	-11.4479
▁exclusively	-11.4479
▁excruciating	-11.4479
▁exited	-11.4479
▁expands	-11.4479
▁expansion	-11.4479
▁experimented	-11.4479
▁expired	-11.4479
▁exploding	-11.4479
▁exploit	-11.4479
▁explosion	-11.4479
▁exponentially	-11.4479
▁exposure	-11.4479
▁expound	-11.4479
▁extend	-11.4479
▁extends	-11.4479
▁extensive	-11.4479
▁extensively	-11.4479
▁externally	-11.4479
▁extinct	-11.4479
▁extinguish	-11.4479
▁extolled	-11.4479
▁extract	-11.4479
▁extraordinary	-11.4479
▁extremly	-11.4479
▁exurbs	-11.4479
▁eyed	-11.4479
▁failling	-11.4479
▁faithful	-11.4479
▁falsely	-11.4479
▁fam	-11.4479
▁fantasized	-11.4479
▁fase	-11.4479
▁fastest	-11.4479
▁fatal	-11.4479
▁favor	-11.4479
▁faze	-11.4479
▁fcking	-11.4479
▁fearing	-11.4479
▁fearlessness	-11.4479
▁feasible	-11.4479
▁feat	-11.4479
▁feather	-11.4479
▁feellucky	-11.4479
▁feild	-11.4479
▁felix	-11.4479
▁fella	-11.4479
▁festival	-11.4479
▁fever	-11.4479
▁fifth	-11.4479
▁finalised	-11.4479
▁financials	-11.4479
▁fir	-11.4479
▁fireplace	-11.4479
▁fishing	-11.4479
▁fitful	-11.4479
▁fittest	-11.4479
▁fixating	-11.4479
▁fk	-11.4479
▁flag	-11.4479
▁flammable	-11.4479
▁flare	-11.4479
▁flatmate	-11.4479
▁flatsharing	-11.4479
▁flea	-11.4479
▁flexibility	-11.4479
▁flipping	-11.4479
▁flooded	-11.4479
▁flooding	-11.4479
▁flossing	-11.4479
▁fluff	-11.4479
▁fluid	-11.4479
▁fluoxetine	-11.4479
▁flutter	-11.4479
▁flying	-11.4479
▁fml	-11.4479
▁foe	-11.4479
▁forest	-11.4479
▁forgiveness	-11.4479
▁formation	-11.4479
▁formative	-11.4479
▁formatting	-11.4479
▁formidable	-11.4479
▁forming	-11.4479
▁formulate	-11.4479
▁forsaken	-11.4479
▁forsee	-11.4479
▁fortunately	-11.4479
▁foul	-11.4479
▁foward	-11.4479
▁fox	-11.4479
▁fpv	-11.4479
▁fractured	-11.4479
▁frail	-11.4479
▁framed	-11.4479
▁franklin	-11.4479
▁freelance	-11.4479
▁fremont	-11.4479
▁fridaymorning	-11.4479
▁fridaymotivation	-11.4479
▁fridaythoughts	-11.4479
▁frizzle	-11.4479
▁frontline	-11.4479
▁ftm	-11.4479
▁fulfills	-11.4479
▁fulfilment	-11.4479
▁functionally	-11.4479
▁fundamentally	-11.4479
▁fundraising	-11.4479
▁funnest	-11.4479
▁furious	-11.4479
▁furloughed	-11.4479
▁furniture	-11.4479
▁fusion	-11.4479
▁futile	-11.4479
▁fuvking	-11.4479
▁fwd	-11.4479
▁gabriel	-11.4479
▁gallstone	-11.4479
▁gardening	-11.4479
▁garmin	-11.4479
▁gaslight	-11.4479
▁gaslighting	-11.4479
▁gastroenterologist	-11.4479
▁gatewaylocation	-11.4479
▁gauge	-11.4479
▁gaze	-11.4479
▁gene	-11.4479
▁generic	-11.4479
▁generosity	-11.4479
▁genetics	-11.4479
▁genre	-11.4479
▁gently	-11.4479
▁geographic	-11.4479
▁george	-11.4479
▁gesture	-11.4479
▁getaway	-11.4479
▁getsmartebooks	-11.4479
▁ghetto	-11.4479
▁gimmick	-11.4479
▁ginseng	-11.4479
▁givebooks	-11.4479
▁gladness	-11.4479
▁glance	-11.4479
▁glimmer	-11.4479
▁gloom	-11.4479
▁glory	-11.4479
▁glow	-11.4479
▁glowing	-11.4479
▁glued	-11.4479
▁gosh	-11.4479
▁gps	-11.4479
▁grabbing	-11.4479
▁grain	-11.4479
▁grandiose	-11.4479
▁grandkids	-11.4479
▁granphater	-11.4479
▁gratefulness	-11.4479
▁grazed	-11.4479
▁graziosi	-11.4479
▁greenspace	-11.4479
▁greenspaces	-11.4479
▁greet	-11.4479
▁greg	-11.4479
▁grid	-11.4479
▁grieved	-11.4479
▁grim	-11.4479
▁grit	-11.4479
▁groin	-11.4479
▁groom	-11.4479
▁grounding	-11.4479
▁grp	-11.4479
▁grueling	-11.4479
▁grunt	-11.4479
▁guaranteed	-11.4479
▁guardian	-11.4479
▁guest	-11.4479
▁guideline	-11.4479
▁guilted	-11.4479
▁gum	-11.4479
▁guru	-11.4479
▁gutted	-11.4479
▁gymnastics	-11.4479
▁gynaecologist	-11.4479
▁hack	-11.4479
▁hahah	-11.4479
▁hahaha	-11.4479
▁hahhaa	-11.4479
▁halloween	-11.4479
▁halt	-11.4479
▁halted	-11.4479
▁handgun	-11.4479
▁handy	-11.4479
▁happinessnowchannel	-11.4479
▁harassment	-11.4479
▁harbor	-11.4479
▁harbored	-11.4479
▁harmonising	-11.4479
▁harshly	-11.4479
▁harshness	-11.4479
▁harvard	-11.4479
▁hasnt	-11.4479
▁hastily	-11.4479
▁hatched	-11.4479
▁haze	-11.4479
▁header	-11.4479
▁healed	-11.4479
▁heated	-11.4479
▁heatlh	-11.4479
▁heavenly	-11.4479
▁hedonic	-11.4479
▁heed	-11.4479
▁heir	-11.4479
▁helplessness	-11.4479
▁herbal	-11.4479
▁hereunder	-11.4479
▁hernia	-11.4479
▁hero	-11.4479
▁hesitating	-11.4479
▁hever	-11.4479
▁heyejehowh	-11.4479
▁hiatal	-11.4479
▁highbrow	-11.4479
▁highlighting	-11.4479
▁himan	-11.4479
▁hindi	-11.4479
▁hindsight	-11.4479
▁hint	-11.4479
▁hmmm	-11.4479
▁hoax	-11.4479
▁hobies	-11.4479
▁holiness	-11.4479
▁holistic	-11.4479
▁homeschool	-11.4479
▁homophobia	-11.4479
▁honed	-11.4479
▁honey	-11.4479
▁honorary	-11.4479
▁horde	-11.4479
▁horrendous	-11.4479
▁hospitalization	-11.4479
▁hostile	-11.4479
▁hosting	-11.4479
▁hotel	-11.4479
▁hourglass	-11.4479
▁howell	-11.4479
▁howtobehappy	-11.4479
▁htp	-11.4479
▁huberman	-11.4479
▁hugged	-11.4479
▁huh	-11.4479
▁huhu	-11.4479
▁humbled	-11.4479
▁hunched	-11.4479
▁hunger	-11.4479
▁hungover	-11.4479
▁husk	-11.4479
▁hussle	-11.4479
▁identified	-11.4479
▁identifying	-11.4479
▁idgaf	-11.4479
▁idiocy	-11.4479
▁ignite	-11.4479
▁illinois	-11.4479
▁illogical	-11.4479
▁illumination	-11.4479
▁illusionary	-11.4479
▁imagery	-11.4479
▁immensely	-11.4479
▁immersed	-11.4479
▁immigrated	-11.4479
▁imo	-11.4479
▁implant	-11.4479
▁implemented	-11.4479
▁implementing	-11.4479
▁implying	-11.4479
▁impress	-11.4479
▁impulse	-11.4479
▁inappropriate	-11.4479
▁inattention	-11.4479
▁incarnation	-11.4479
▁inch	-11.4479
▁incident	-11.4479
▁incompetence	-11.4479
▁inconsiderate	-11.4479
▁incontinent	-11.4479
▁inconvenience	-11.4479
▁incurable	-11.4479
▁indirectly	-11.4479
▁individually	-11.4479
▁indomitable	-11.4479
▁ineffective	-11.4479
▁inertia	-11.4479
▁inexplicably	-11.4479
▁infatuated	-11.4479
▁infinitesilence	-11.4479
▁inflatable	-11.4479
▁influential	-11.4479
▁infused	-11.4479
▁inhabilitating	-11.4479
▁inherent	-11.4479
▁inherits	-11.4479
▁inimitable	-11.4479
▁initiative	-11.4479
▁inject	-11.4479
▁injured	-11.4479
▁innate	-11.4479
▁innocent	-11.4479
▁innovation	-11.4479
▁inquiry	-11.4479
▁insensitive	-11.4479
▁insignificant	-11.4479
▁insist	-11.4479
▁insistent	-11.4479
▁insists	-11.4479
▁insomniac	-11.4479
▁instilling	-11.4479
▁institutionalised	-11.4479
▁instruction	-11.4479
▁instrument	-11.4479
▁integrated	-11.4479
▁intel	-11.4479
▁intending	-11.4479
▁intends	-11.4479
▁interconnectivity	-11.4479
▁intercourse	-11.4479
▁interdependence	-11.4479
▁internalised	-11.4479
▁interruption	-11.4479
▁intersex	-11.4479
▁interst	-11.4479
▁interval	-11.4479
▁interviewed	-11.4479
▁intimacy	-11.4479
▁introduces	-11.4479
▁invades	-11.4479
▁invalidated	-11.4479
▁invalidating	-11.4479
▁inventing	-11.4479
▁investigating	-11.4479
▁involving	-11.4479
▁irb	-11.4479
▁ireland	-11.4479
▁ironically	-11.4479
▁irrelevant	-11.4479
▁irreparable	-11.4479
▁irreversible	-11.4479
▁irritability	-11.4479
▁ish	-11.4479
▁isolate	-11.4479
▁isolating	-11.4479
▁issued	-11.4479
▁itd	-11.4479
▁iteration	-11.4479
▁iu	-11.4479
▁ivf	-11.4479
▁jail	-11.4479
▁jakepreddy	-11.4479
▁jana	-11.4479
▁jazzed	-11.4479
▁je	-11.4479
▁jelly	-11.4479
▁jen	-11.4479
▁jerk	-11.4479
▁jewish	-11.4479
▁jim	-11.4479
▁jj	-11.4479
▁jkz	-11.4479
▁joe	-11.4479
▁joked	-11.4479
▁joleneobrien	-11.4479
▁jonathan	-11.4479
▁joyful	-11.4479
▁joyous	-11.4479
▁joyously	-11.4479
▁juggle	-11.4479
▁jumbled	-11.4479
▁jumbo	-11.4479
▁justice	-11.4479
▁kawasaki	-11.4479
▁keen	-11.4479
▁keystone	-11.4479
▁ki	-11.4479
▁kife	-11.4479
▁kilometer	-11.4479
▁kinder	-11.4479
▁kinky	-11.4479
▁kist	-11.4479
▁knock	-11.4479
▁knowhow	-11.4479
▁korn	-11.4479
▁labelled	-11.4479
▁labour	-11.4479
▁lamp	-11.4479
▁landlord	-11.4479
▁lastyear	-11.4479
▁latuda	-11.4479
▁laughted	-11.4479
▁launch	-11.4479
▁lavish	-11.4479
▁lawson	-11.4479
▁laziness	-11.4479
▁leaking	-11.4479
▁leaning	-11.4479
▁leap	-11.4479
▁learner	-11.4479
▁leftover	-11.4479
▁legal	-11.4479
▁legally	-11.4479
▁leisure	-11.4479
▁lemmy	-11.4479
▁lend	-11.4479
▁lengthy	-11.4479
▁lesser	-11.4479
▁lethargic	-11.4479
▁leverage	-11.4479
▁lgbtq	-11.4479
▁liberation	-11.4479
▁lick	-11.4479
▁lifted	-11.4479
▁lightly	-11.4479
▁lighty	-11.4479
▁likelihood	-11.4479
▁likwise	-11.4479
▁lingering	-11.4479
▁lingers	-11.4479
▁lingo	-11.4479
▁linkedin	-11.4479
▁linking	-11.4479
▁liquor	-11.4479
▁literary	-11.4479
▁litteraly	-11.4479
▁liverpool	-11.4479
▁livinginthemoment	-11.4479
▁loathed	-11.4479
▁locus	-11.4479
▁longed	-11.4479
▁loom	-11.4479
▁loooooot	-11.4479
▁loophole	-11.4479
▁loses	-11.4479
▁louder	-11.4479
▁lsd	-11.4479
▁lullaby	-11.4479
▁lupien	-11.4479
▁luxurious	-11.4479
▁magnitude	-11.4479
▁maia	-11.4479
▁maid	-11.4479
▁malfunction	-11.4479
▁managment	-11.4479
▁manchester	-11.4479
▁maneuver	-11.4479
▁manifestation	-11.4479
▁manipualtive	-11.4479
▁manipulation	-11.4479
▁mannerism	-11.4479
▁mansion	-11.4479
▁manual	-11.4479
▁marketplace	-11.4479
▁marred	-11.4479
▁marry	-11.4479
▁marrying	-11.4479
▁martin	-11.4479
▁masculinity	-11.4479
▁masked	-11.4479
▁masterclass	-11.4479
▁masterful	-11.4479
▁masturbation	-11.4479
▁mater	-11.4479
▁materialistic	-11.4479
▁mathematically	-11.4479
▁mathernal	-11.4479
▁matthew	-11.4479
▁max	-11.4479
▁maximise	-11.4479
▁maximum	-11.4479
▁mayan	-11.4479
▁mcconaughey	-11.4479
▁mcdonalds	-11.4479
▁mci	-11.4479
▁mckeown	-11.4479
▁mcu	-11.4479
▁mdd	-11.4479
▁meagrely	-11.4479
▁mealplan	-11.4479
▁measured	-11.4479
▁measuring	-11.4479
▁mechatronics	-11.4479
▁medal	-11.4479
▁mediavine	-11.4479
▁medicated	-11.4479
▁mediocre	-11.4479
▁meditated	-11.4479
▁meditationteacher	-11.4479
▁medulla	-11.4479
▁mega	-11.4479
▁meilin	-11.4479
▁melatonin	-11.4479
▁melbourne	-11.4479
▁mellow	-11.4479
▁melt	-11.4479
▁meltdown	-11.4479
▁mendes	-11.4479
▁meowing	-11.4479
▁mercilessly	-11.4479
▁mercy	-11.4479
▁mesopotamia	-11.4479
▁metaphorically	-11.4479
▁mexico	-11.4479
▁mf	-11.4479
▁mft	-11.4479
▁michaeljames	-11.4479
▁micromanaged	-11.4479
▁midday	-11.4479
▁midst	-11.4479
▁mike	-11.4479
▁milla	-11.4479
▁mindfully	-11.4479
▁minecraft	-11.4479
▁mini	-11.4479
▁minority	-11.4479
▁minus	-11.4479
▁misanthrope	-11.4479
▁misbehaves	-11.4479
▁mistaken	-11.4479
▁mistakenly	-11.4479
▁misunderstanding	-11.4479
▁moan	-11.4479
▁moaning	-11.4479
▁mod	-11.4479
▁moderate	-11.4479
▁modest	-11.4479
▁modesty	-11.4479
▁molecule	-11.4479
▁molested	-11.4479
▁molesting	-11.4479
▁mommy	-11.4479
▁monitor	-11.4479
▁monkey	-11.4479
▁moonlight	-11.4479
▁moonshine	-11.4479
▁morale	-11.4479
▁morbid	-11.4479
▁moreso	-11.4479
▁morgan	-11.4479
▁morose	-11.4479
▁mortal	-11.4479
▁motor	-11.4479
▁motorhead	-11.4479
▁movember	-11.4479
▁mph	-11.4479
▁mra	-11.4479
▁mrv	-11.4479
▁msc	-11.4479
▁mt	-11.4479
▁mtv	-11.4479
▁mug	-11.4479
▁multifaceted	-11.4479
▁multimillionaires	-11.4479
▁mumbo	-11.4479
▁murdered	-11.4479
▁musician	-11.4479
▁mutually	-11.4479
▁muvespace	-11.4479
▁mxf	-11.4479
▁myriad	-11.4479
▁mystic	-11.4479
▁mythology	-11.4479
▁nagging	-11.4479
▁naive	-11.4479
▁nanci	-11.4479
▁narcisisstic	-11.4479
▁narcissism	-11.4479
▁narrowing	-11.4479
▁nasa	-11.4479
▁nasal	-11.4479
▁nat	-11.4479
▁nation	-11.4479
▁nde	-11.4479
▁nectar	-11.4479
▁needes	-11.4479
▁negotiation	-11.4479
▁neice	-11.4479
▁neighborly	-11.4479
▁newsflash	-11.4479
▁nexplanon	-11.4479
▁nicodimattina	-11.4479
▁nightwish	-11.4479
▁nihilist	-11.4479
▁nitpicks	-11.4479
▁noel	-11.4479
▁nomination	-11.4479
▁nonchalantly	-11.4479
▁nonsense	-11.4479
▁nonsensical	-11.4479
▁nonstop	-11.4479
▁noregrets	-11.4479
▁nosedive	-11.4479
▁nostril	-11.4479
▁noticeable	-11.4479
▁nour	-11.4479
▁nova	-11.4479
▁nurtureshock	-11.4479
▁ny	-11.4479
▁obedient	-11.4479
▁obesity	-11.4479
▁objectively	-11.4479
▁obligation	-11.4479
▁observant	-11.4479
▁observing	-11.4479
▁obtaining	-11.4479
▁ocassionally	-11.4479
▁occasion	-11.4479
▁occupation	-11.4479
▁occurence	-11.4479
▁occurring	-11.4479
▁oct	-11.4479
▁offended	-11.4479
▁offender	-11.4479
▁offensive	-11.4479
▁offload	-11.4479
▁ohhh	-11.4479
▁ohhhh	-11.4479
▁oit	-11.4479
▁olympic	-11.4479
▁olympics	-11.4479
▁omg	-11.4479
▁onlinesuccesgroup	-11.4479
▁operates	-11.4479
▁operating	-11.4479
▁operation	-11.4479
▁operator	-11.4479
▁oppinion	-11.4479
▁oppose	-11.4479
▁optional	-11.4479
▁orchestrate	-11.4479
▁ordinary	-11.4479
▁organizing	-11.4479
▁orientation	-11.4479
▁oriented	-11.4479
▁orleans	-11.4479
▁ormond	-11.4479
▁otherway	-11.4479
▁ourworld	-11.4479
▁outburst	-11.4479
▁outfit	-11.4479
▁outing	-11.4479
▁outsider	-11.4479
▁outta	-11.4479
▁outwards	-11.4479
▁oven	-11.4479
▁overanalyze	-11.4479
▁overate	-11.4479
▁overdosing	-11.4479
▁overeat	-11.4479
▁overeating	-11.4479
▁overflowing	-11.4479
▁overhead	-11.4479
▁overlooked	-11.4479
▁overplan	-11.4479
▁overpower	-11.4479
▁overwatch	-11.4479
▁overweigh	-11.4479
▁overweight	-11.4479
▁overwhelmingly	-11.4479
▁ownership	-11.4479
▁oy	-11.4479
▁paddle	-11.4479
▁pageviews	-11.4479
▁paintbrush	-11.4479
▁painted	-11.4479
▁pam	-11.4479
▁paradoxically	-11.4479
▁paralized	-11.4479
▁paralyzing	-11.4479
▁paraphrasing	-11.4479
▁parental	-11.4479
▁password	-11.4479
▁paste	-11.4479
▁pathology	-11.4479
▁patronizing	-11.4479
▁paulo	-11.4479
▁pausing	-11.4479
▁payback	-11.4479
▁payer	-11.4479
▁payout	-11.4479
▁pcp	-11.4479
▁peaceandlove	-11.4479
▁peacefully	-11.4479
▁peachy	-11.4479
▁pearl	-11.4479
▁pedal	-11.4479
▁peice	-11.4479
▁pepper	-11.4479
▁perceive	-11.4479
▁perceives	-11.4479
▁perfecting	-11.4479
▁perfection	-11.4479
▁performer	-11.4479
▁persecuted	-11.4479
▁personnally	-11.4479
▁pessimistic	-11.4479
▁petal	-11.4479
▁phaternal	-11.4479
▁phenomenal	-11.4479
▁philippine	-11.4479
▁philipwade	-11.4479
▁philosopher	-11.4479
▁photography	-11.4479
▁physician	-11.4479
▁pianist	-11.4479
▁pie	-11.4479
▁piggyback	-11.4479
▁pilot	-11.4479
▁pissing	-11.4479
▁pitched	-11.4479
▁piteous	-11.4479
▁pitfall	-11.4479
▁pizza	-11.4479
▁placed	-11.4479
▁planner	-11.4479
▁plp	-11.4479
▁plum	-11.4479
▁poet	-11.4479
▁pointing	-11.4479
▁pointlessness	-11.4479
▁poking	-11.4479
▁politics	-11.4479
▁poly	-11.4479
▁poorer	-11.4479
▁popsugar	-11.4479
▁popularly	-11.4479
▁population	-11.4479
▁portray	-11.4479
▁portrayed	-11.4479
▁posponing	-11.4479
▁poster	-11.4479
▁posture	-11.4479
▁pot	-11.4479
▁pouch	-11.4479
▁powdered	-11.4479
▁powerless	-11.4479
▁practicality	-11.4479
▁praise	-11.4479
▁pranayama	-11.4479
▁preaching	-11.4479
▁precaution	-11.4479
▁precise	-11.4479
▁predator	-11.4479
▁predicament	-11.4479
▁predict	-11.4479
▁predicting	-11.4479
▁preface	-11.4479
▁prejudice	-11.4479
▁preoccupied	-11.4479
▁preparedness	-11.4479
▁prerequisite	-11.4479
▁prescribe	-11.4479
▁presently	-11.4479
▁preservation	-11.4479
▁pressing	-11.4479
▁pressuring	-11.4479
▁prestige	-11.4479
▁prevailed	-11.4479
▁prevalent	-11.4479
▁prevents	-11.4479
▁prey	-11.4479
▁pricing	-11.4479
▁prime	-11.4479
▁printed	-11.4479
▁probation	-11.4479
▁problematic	-11.4479
▁proceed	-11.4479
▁prodded	-11.4479
▁producer	-11.4479
▁profoundly	-11.4479
▁projection	-11.4479
▁prolongs	-11.4479
▁prominent	-11.4479
▁promote	-11.4479
▁promoting	-11.4479
▁prone	-11.4479
▁proof	-11.4479
▁propelled	-11.4479
▁prospect	-11.4479
▁prosperity	-11.4479
▁protein	-11.4479
▁protocol	-11.4479
▁proudly	-11.4479
▁proved	-11.4479
▁provoke	-11.4479
▁provoking	-11.4479
▁prozac	-11.4479
▁prude	-11.4479
▁prudent	-11.4479
▁pshyical	-11.4479
▁psychopath	-11.4479
▁psychosis	-11.4479
▁psychotherapy	-11.4479
▁publish	-11.4479
▁puddle	-11.4479
▁purifier	-11.4479
▁purposeless	-11.4479
▁pyramid	-11.4479
▁q	-11.4479
▁query	-11.4479
▁questionable	-11.4479
▁quicker	-11.4479
▁racking	-11.4479
▁radar	-11.4479
▁raging	-11.4479
▁raining	-11.4479
▁rank	-11.4479
▁rape	-11.4479
▁raping	-11.4479
▁rapper	-11.4479
▁rapport	-11.4479
▁razor	-11.4479
▁reacted	-11.4479
▁reactionary	-11.4479
▁readily	-11.4479
▁realignment	-11.4479
▁realm	-11.4479
▁rearrange	-11.4479
▁reasonably	-11.4479
▁rebirth	-11.4479
▁rebutted	-11.4479
▁receptor	-11.4479
▁recession	-11.4479
▁recognition	-11.4479
▁rectified	-11.4479
▁redditors	-11.4479
▁redo	-11.4479
▁redraw	-11.4479
▁redundancy	-11.4479
▁reef	-11.4479
▁refer	-11.4479
▁referencing	-11.4479
▁referral	-11.4479
▁referred	-11.4479
▁refinance	-11.4479
▁refined	-11.4479
▁refresh	-11.4479
▁regretted	-11.4479
▁regulate	-11.4479
▁rehab	-11.4479
▁reinforces	-11.4479
▁reinforcing	-11.4479
▁rejoined	-11.4479
▁rejuvenate	-11.4479
▁relashionship	-11.4479
▁relatable	-11.4479
▁releaseyouranxietymonster	-11.4479
▁relied	-11.4479
▁relieved	-11.4479
▁relinquish	-11.4479
▁relish	-11.4479
▁relocating	-11.4479
▁remained	-11.4479
▁remark	-11.4479
▁remarry	-11.4479
▁remedy	-11.4479
▁reminisce	-11.4479
▁remission	-11.4479
▁remorse	-11.4479
▁render	-11.4479
▁rendering	-11.4479
▁rendition	-11.4479
▁renovation	-11.4479
▁renowned	-11.4479
▁rented	-11.4479
▁reopened	-11.4479
▁rep	-11.4479
▁repairing	-11.4479
▁repayment	-11.4479
▁repetition	-11.4479
▁replacing	-11.4479
▁replaying	-11.4479
▁repop	-11.4479
▁repost	-11.4479
▁represented	-11.4479
▁reprogram	-11.4479
▁repurpose	-11.4479
▁reputable	-11.4479
▁requesting	-11.4479
▁reschedule	-11.4479
▁researched	-11.4479
▁resented	-11.4479
▁reshaping	-11.4479
▁resigned	-11.4479
▁resignedwithoutajob	-11.4479
▁resigning	-11.4479
▁resolving	-11.4479
▁respected	-11.4479
▁respective	-11.4479
▁restarted	-11.4479
▁restlessness	-11.4479
▁restored	-11.4479
▁restrain	-11.4479
▁restraint	-11.4479
▁restructure	-11.4479
▁resulted	-11.4479
▁retard	-11.4479
▁retention	-11.4479
▁rethink	-11.4479
▁retiree	-11.4479
▁retort	-11.4479
▁reveal	-11.4479
▁reversed	-11.4479
▁reverts	-11.4479
▁revisited	-11.4479
▁revolution	-11.4479
▁revolutionary	-11.4479
▁revolved	-11.4479
▁revolves	-11.4479
▁rewarded	-11.4479
▁rewatch	-11.4479
▁rhis	-11.4479
▁rigid	-11.4479
▁risked	-11.4479
▁risky	-11.4479
▁ritalin	-11.4479
▁riveter	-11.4479
▁rmd	-11.4479
▁roast	-11.4479
▁robbed	-11.4479
▁robbins	-11.4479
▁robin	-11.4479
▁rocking	-11.4479
▁roleplay	-11.4479
▁rolled	-11.4479
▁romance	-11.4479
▁romhack	-11.4479
▁rose	-11.4479
▁rosie	-11.4479
▁rotates	-11.4479
▁rub	-11.4479
▁rumination	-11.4479
▁rural	-11.4479
▁russian	-11.4479
▁rx	-11.4479
▁sabotaging	-11.4479
▁sacrificing	-11.4479
▁safeguard	-11.4479
▁safer	-11.4479
▁sally	-11.4479
▁salt	-11.4479
▁santa	-11.4479
▁santani	-11.4479
▁santayana	-11.4479
▁sapphire	-11.4479
▁sas	-11.4479
▁satan	-11.4479
▁satisficing	-11.4479
▁savior	-11.4479
▁savouring	-11.4479
▁savransky	-11.4479
▁scammer	-11.4479
▁scapegoat	-11.4479
▁scarce	-11.4479
▁scheduling	-11.4479
▁schizophrenic	-11.4479
▁scholar	-11.4479
▁schoolbook	-11.4479
▁schwarzenegger	-11.4479
▁scrap	-11.4479
▁scrawny	-11.4479
▁screened	-11.4479
▁se	-11.4479
▁seance	-11.4479
▁secretly	-11.4479
▁seeping	-11.4479
▁seize	-11.4479
▁selfrealization	-11.4479
▁sended	-11.4479
▁senseless	-11.4479
▁sensitivity	-11.4479
▁separation	-11.4479
▁sept	-11.4479
▁servant	-11.4479
▁settlement	-11.4479
▁setup	-11.4479
▁sever	-11.4479
▁severity	-11.4479
▁sew	-11.4479
▁sexist	-11.4479
▁sexually	-11.4479
▁sf	-11.4479
▁shatters	-11.4479
▁shaw	-11.4479
▁sheep	-11.4479
▁shifted	-11.4479
▁ship	-11.4479
▁shittless	-11.4479
▁shittyasses	-11.4479
▁shock	-11.4479
▁shocking	-11.4479
▁shook	-11.4479
▁shortcoming	-11.4479
▁shouted	-11.4479
▁shouting	-11.4479
▁shove	-11.4479
▁showbiz	-11.4479
▁showering	-11.4479
▁shrooms	-11.4479
▁shutdown	-11.4479
▁shuts	-11.4479
▁sigh	-11.4479
▁signpost	-11.4479
▁sikh	-11.4479
▁simplified	-11.4479
▁simplify	-11.4479
▁sincere	-11.4479
▁sjsu	-11.4479
▁skeleton	-11.4479
▁sketchbook	-11.4479
▁sketched	-11.4479
▁skyball	-11.4479
▁skype	-11.4479
▁skyrocketed	-11.4479
▁slammed	-11.4479
▁sleeper	-11.4479
▁sleepover	-11.4479
▁slice	-11.4479
▁slipknot	-11.4479
▁slipped	-11.4479
▁slit	-11.4479
▁slo	-11.4479
▁slob	-11.4479
▁slows	-11.4479
▁slut	-11.4479
▁smam	-11.4479
▁smartphone	-11.4479
▁smash	-11.4479
▁smelled	-11.4479
▁smelling	-11.4479
▁smirking	-11.4479
▁smoked	-11.4479
▁snapchat	-11.4479
▁snapping	-11.4479
▁snappy	-11.4479
▁sneak	-11.4479
▁sniffed	-11.4479
▁snowstorm	-11.4479
▁snri	-11.4479
▁sob	-11.4479
▁sobriety	-11.4479
▁soccer	-11.4479
▁sociable	-11.4479
▁societal	-11.4479
▁sociopath	-11.4479
▁soil	-11.4479
▁solar	-11.4479
▁solidity	-11.4479
▁solitary	-11.4479
▁somethin	-11.4479
▁somone	-11.4479
▁somtimes	-11.4479
▁sonething	-11.4479
▁sonia	-11.4479
▁sooooo	-11.4479
▁soriano	-11.4479
▁sorority	-11.4479
▁soulful	-11.4479
▁soundproofing	-11.4479
▁soup	-11.4479
▁soviet	-11.4479
▁spanish	-11.4479
▁spanked	-11.4479
▁sparked	-11.4479
▁spasm	-11.4479
▁specialized	-11.4479
▁specialty	-11.4479
▁speeding	-11.4479
▁spelled	-11.4479
▁spewing	-11.4479
▁spilling	-11.4479
▁spiralling	-11.4479
▁spitting	-11.4479
▁spoiling	-11.4479
▁sponsor	-11.4479
▁spontaneously	-11.4479
▁sporadic	-11.4479
▁spreader	-11.4479
▁squeezing	-11.4479
▁sriramana	-11.4479
▁stabbed	-11.4479
▁stabilized	-11.4479
▁stabilizer	-11.4479
▁stack	-11.4479
▁stain	-11.4479
▁stair	-11.4479
▁stalker	-11.4479
▁stance	-11.4479
▁standalone	-11.4479
▁stared	-11.4479
▁starred	-11.4479
▁startet	-11.4479
▁steam	-11.4479
▁steered	-11.4479
▁stepfather	-11.4479
▁stepmother	-11.4479
▁sternberg	-11.4479
▁sterssing	-11.4479
▁steve	-11.4479
▁stew	-11.4479
▁stimulated	-11.4479
▁stimulating	-11.4479
▁stirring	-11.4479
▁stole	-11.4479
▁stomp	-11.4479
▁stopppef	-11.4479
▁straightforward	-11.4479
▁stray	-11.4479
▁streak	-11.4479
▁stressfree	-11.4479
▁stressfully	-11.4479
▁stretching	-11.4479
▁stricly	-11.4479
▁strike	-11.4479
▁string	-11.4479
▁strive	-11.4479
▁stroking	-11.4479
▁struck	-11.4479
▁stubborn	-11.4479
▁stubbornness	-11.4479
▁stuffed	-11.4479
▁stumbling	-11.4479
▁stunted	-11.4479
▁stupor	-11.4479
▁stuttered	-11.4479
▁subsides	-11.4479
▁subtance	-11.4479
▁subtle	-11.4479
▁succeeds	-11.4479
▁succes	-11.4479
▁sucky	-11.4479
▁sufficient	-11.4479
▁suffocated	-11.4479
▁suicidewatch	-11.4479
▁sulpiride	-11.4479
▁sumedh	-11.4479
▁summarize	-11.4479
▁superb	-11.4479
▁supercharge	-11.4479
▁superficial	-11.4479
▁superior	-11.4479
▁supermarket	-11.4479
▁superpower	-11.4479
▁suppress	-11.4479
▁supreme	-11.4479
▁sur	-11.4479
▁surefire	-11.4479
▁surfing	-11.4479
▁surly	-11.4479
▁surpass	-11.4479
▁surprising	-11.4479
▁sustainable	-11.4479
▁sustaining	-11.4479
▁swallowing	-11.4479
▁sway	-11.4479
▁swaying	-11.4479
▁swearing	-11.4479
▁sweaty	-11.4479
▁sweep	-11.4479
▁sweetest	-11.4479
▁swell	-11.4479
▁swore	-11.4479
▁symtoms	-11.4479
▁synchronicity	-11.4479
▁synonymous	-11.4479
▁tab	-11.4479
▁tacoma	-11.4479
▁tactful	-11.4479
▁tag	-11.4479
▁taichi	-11.4479
▁tangibility	-11.4479
▁tasted	-11.4479
▁taxing	-11.4479
▁taylor	-11.4479
▁teamwork	-11.4479
▁teddy	-11.4479
▁teething	-11.4479
▁telegram	-11.4479
▁telephone	-11.4479
▁television	-11.4479
▁temptation	-11.4479
▁tempting	-11.4479
▁tenaciously	-11.4479
▁tending	-11.4479
▁tenet	-11.4479
▁tennessee	-11.4479
▁terrifying	-11.4479
▁terrorist	-11.4479
▁testosterone	-11.4479
▁tether	-11.4479
▁texture	-11.4479
▁thanksgiving	-11.4479
▁thay	-11.4479
▁therappy	-11.4479
▁thereafter	-11.4479
▁thermometer	-11.4479
▁thick	-11.4479
▁thirsty	-11.4479
▁thlught	-11.4479
▁thorough	-11.4479
▁thoughs	-11.4479
▁thoughtful	-11.4479
▁threshold	-11.4479
▁thrilled	-11.4479
▁throbbing	-11.4479
▁thug	-11.4479
▁thunderstorm	-11.4479
▁thy	-11.4479
▁ticket	-11.4479
▁tier	-11.4479
▁timeframe	-11.4479
▁tina	-11.4479
▁tinder	-11.4479
▁tipping	-11.4479
▁tireless	-11.4479
▁tizzy	-11.4479
▁tm	-11.4479
▁tolerates	-11.4479
▁toned	-11.4479
▁tony	-11.4479
▁toolset	-11.4479
▁torn	-11.4479
▁torturous	-11.4479
▁tossed	-11.4479
▁toughest	-11.4479
▁tought	-11.4479
▁tour	-11.4479
▁touring	-11.4479
▁tower	-11.4479
▁tracing	-11.4479
▁traditional	-11.4479
▁tragic	-11.4479
▁tranquillity	-11.4479
▁transcendence	-11.4479
▁transcendent	-11.4479
▁transferred	-11.4479
▁transformation	-11.4479
▁transformative	-11.4479
▁translates	-11.4479
▁translating	-11.4479
▁transmit	-11.4479
▁transport	-11.4479
▁transportation	-11.4479
▁trapping	-11.4479
▁treadmill	-11.4479
▁treating	-11.4479
▁tremendously	-11.4479
▁triangle	-11.4479
▁tribe	-11.4479
▁tricky	-11.4479
▁trillion	-11.4479
▁triumph	-11.4479
▁triumphant	-11.4479
▁tropical	-11.4479
▁troubled	-11.4479
▁troubling	-11.4479
▁truer	-11.4479
▁trump	-11.4479
▁truthful	-11.4479
▁truthfully	-11.4479
▁tub	-11.4479
▁tumbleweed	-11.4479
▁tumblr	-11.4479
▁twisting	-11.4479
▁tycoon	-11.4479
▁tyson	-11.4479
▁ukraine	-11.4479
▁ultramarathon	-11.4479
▁unappreciative	-11.4479
▁unattainable	-11.4479
▁unattractive	-11.4479
▁unavoidable	-11.4479
▁unbelievable	-11.4479
▁unbelievably	-11.4479
▁uncaring	-11.4479
▁uncontrollable	-11.4479
▁uncontrolled	-11.4479
▁uncoordinated	-11.4479
▁uncovering	-11.4479
▁uncreadible	-11.4479
▁undecided	-11.4479
▁underage	-11.4479
▁underemployment	-11.4479
▁undergoing	-11.4479
▁underground	-11.4479
▁undermined	-11.4479
▁underperformed	-11.4479
▁underwent	-11.4479
▁undiagnosed	-11.4479
▁undisputed	-11.4479
▁undo	-11.4479
▁unequal	-11.4479
▁unfollowed	-11.4479
▁unfriended	-11.4479
▁unhappiness	-11.4479
▁unifying	-11.4479
▁uninvited	-11.4479
▁unis	-11.4479
▁unlovable	-11.4479
▁unmatchable	-11.4479
▁unmatched	-11.4479
▁unorganised	-11.4479
▁unorganized	-11.4479
▁unrelated	-11.4479
▁unresolved	-11.4479
▁unsatisfied	-11.4479
▁untangle	-11.4479
▁unwilling	-11.4479
▁unworthy	-11.4479
▁upbringing	-11.4479
▁uploaded	-11.4479
▁upperside	-11.4479
▁upvotes	-11.4479
▁urged	-11.4479
▁usa	-11.4479
▁usb	-11.4479
▁usefulness	-11.4479
▁utc	-11.4479
▁utm	-11.4479
▁utterly	-11.4479
▁vacant	-11.4479
▁vacate	-11.4479
▁valium	-11.4479
▁valorant	-11.4479
▁vancouver	-11.4479
▁vanquished	-11.4479
▁vape	-11.4479
▁variable	-11.4479
▁varied	-11.4479
▁vaso	-11.4479
▁vba	-11.4479
▁veg	-11.4479
▁vegetable	-11.4479
▁vegus	-11.4479
▁vein	-11.4479
▁venezuela	-11.4479
▁verbal	-11.4479
▁vibrator	-11.4479
▁vigorus	-11.4479
▁violation	-11.4479
▁viral	-11.4479
▁virtually	-11.4479
▁viscous	-11.4479
▁visibly	-11.4479
▁visiting	-11.4479
▁visitor	-11.4479
▁visually	-11.4479
▁vocabulary	-11.4479
▁vocalise	-11.4479
▁volontarily	-11.4479
▁vortex	-11.4479
▁wailing	-11.4479
▁wandsworth	-11.4479
▁wannabe	-11.4479
▁warehouse	-11.4479
▁warn	-11.4479
▁warning	-11.4479
▁warrant	-11.4479
▁watery	-11.4479
▁wazoo	-11.4479
▁weakling	-11.4479
▁webpage	-11.4479
▁wednesday	-11.4479
▁weighted	-11.4479
▁weirder	-11.4479
▁weirdo	-11.4479
▁welcoming	-11.4479
▁wet	-11.4479
▁wether	-11.4479
▁wfh	-11.4479
▁whatnot	-11.4479
▁whereas	-11.4479
▁whiffed	-11.4479
▁whining	-11.4479
▁whirling	-11.4479
▁wholeheartedly	-11.4479
▁wiggle	-11.4479
▁wikipedia	-11.4479
▁wilderness	-11.4479
▁willingness	-11.4479
▁wisely	-11.4479
▁wishful	-11.4479
▁witness	-11.4479
▁witnessed	-11.4479
▁woeful	-11.4479
▁wonderland	-11.4479
▁wonna	-11.4479
▁wood	-11.4479
▁wooded	-11.4479
▁wooden	-11.4479
▁workaholic	-11.4479
▁workaholism	-11.4479
▁worldly	-11.4479
▁worsening	-11.4479
▁worship	-11.4479
▁worthiness	-11.4479
▁worthlessness	-11.4479
▁wreck	-11.4479
▁wrecked	-11.4479
▁wronged	-11.4479
▁xan	-11.4479
▁yay	-11.4479
▁yikies	-11.4479
▁yk	-11.4479
▁youngster	-11.4479
▁youre	-11.4479
▁youtuber	-11.4479
▁yummy	-11.4479
▁zawaideh	-11.4479
▁zombie	-11.4479
▁aaoa	-12.141
▁aarda	-12.141
▁aarrrrggghhh	-12.141
▁aau	-12.141
▁ab	-12.141
▁abdomin	-12.141
▁abide	-12.141
▁abject	-12.141
▁abnormality	-12.141
▁abolishing	-12.141
▁aborted	-12.141
▁aboslutey	-12.141
▁abotu	-12.141
▁abruptly	-12.141
▁abscess	-12.141
▁abuela	-12.141
▁accelerate	-12.141
▁accidental	-12.141
▁accidently	-12.141
▁acclimated	-12.141
▁accommodate	-12.141
▁accommodating	-12.141
▁accumulated	-12.141
▁accumulation	-12.141
▁accusation	-12.141
▁accusing	-12.141
▁accusion	-12.141
▁achieves	-12.141
▁acknowledged	-12.141
▁acrid	-12.141
▁activation	-12.141
▁activist	-12.141
▁actualize	-12.141
▁adage	-12.141
▁adaptation	-12.141
▁adapted	-12.141
▁adaptogen	-12.141
▁addictive	-12.141
▁addressing	-12.141
▁adept	-12.141
▁adhering	-12.141
▁adjusted	-12.141
▁adjusting	-12.141
▁administration	-12.141
▁admins	-12.141
▁admirable	-12.141
▁admiration	-12.141
▁adoptdontshop	-12.141
▁adsense	-12.141
▁adventurous	-12.141
▁advert	-12.141
▁advertisement	-12.141
▁advising	-12.141
▁advisory	-12.141
▁advocating	-12.141
▁aerobic	-12.141
▁aeronautical	-12.141
▁aesthetic	-12.141
▁af	-12.141
▁afar	-12.141
▁affair	-12.141
▁affiliate	-12.141
▁affirming	-12.141
▁afflicted	-12.141
▁affords	-12.141
▁afghanistan	-12.141
▁afloat	-12.141
▁afriad	-12.141
▁africa	-12.141
▁african	-12.141
▁afterlife	-12.141
▁afterschool	-12.141
▁aggressively	-12.141
▁agonising	-12.141
▁agressive	-12.141
▁agrophobic	-12.141
▁ahhh	-12.141
▁ahold	-12.141
▁aiming	-12.141
▁aimless	-12.141
▁aimlessness	-12.141
▁aircraft	-12.141
▁airline	-12.141
▁airport	-12.141
▁aisle	-12.141
▁akhiles	-12.141
▁akhilesarmyofawesome	-12.141
▁akin	-12.141
▁aknowledged	-12.141
▁alarmingly	-12.141
▁albania	-12.141
▁alchohol	-12.141
▁alcoholism	-12.141
▁alcolism	-12.141
▁alexa	-12.141
▁algebra	-12.141
▁algorithm	-12.141
▁alienating	-12.141
▁alienation	-12.141
▁aligns	-12.141
▁aliveness	-12.141
▁aliviate	-12.141
▁allegheny	-12.141
▁allergic	-12.141
▁allocated	-12.141
▁allotted	-12.141
▁allowance	-12.141
▁aloofness	-12.141
▁alopecia	-12.141
▁alphonse	-12.141
▁alrealdy	-12.141
▁alter	-12.141
▁alters	-12.141
▁altetness	-12.141
▁alto	-12.141
▁altough	-12.141
▁amend	-12.141
▁amends	-12.141
▁amenity	-12.141
▁amino	-12.141
▁aminobutyric	-12.141
▁amorphous	-12.141
▁amorphousness	-12.141
▁amounting	-12.141
▁ample	-12.141
▁amplify	-12.141
▁amputation	-12.141
▁analogously	-12.141
▁analyse	-12.141
▁analytical	-12.141
▁anata	-12.141
▁anatomy	-12.141
▁andrea	-12.141
▁andrew	-12.141
▁androgenetic	-12.141
▁andy	-12.141
▁anecdote	-12.141
▁anesthesiology	-12.141
▁aneurism	-12.141
▁anew	-12.141
▁ang	-12.141
▁angelic	-12.141
▁angsty	-12.141
▁anguish	-12.141
▁anhedonic	-12.141
▁animalistic	-12.141
▁animated	-12.141
▁anime	-12.141
▁anki	-12.141
▁ann	-12.141
▁announcement	-12.141
▁annoyance	-12.141
▁annual	-12.141
▁anonymity	-12.141
▁antacid	-12.141
▁anthropoligist	-12.141
▁antibody	-12.141
▁anticipate	-12.141
▁anticipation	-12.141
▁antioxidant	-12.141
▁antything	-12.141
▁anuthing	-12.141
▁anwser	-12.141
▁anwsers	-12.141
▁anxiolytic	-12.141
▁anythings	-12.141
▁anywho	-12.141
▁apnea	-12.141
▁apocalyptic	-12.141
▁apolitical	-12.141
▁apologised	-12.141
▁appaling	-12.141
▁appart	-12.141
▁appartement	-12.141
▁appeal	-12.141
▁appearence	-12.141
▁appearing	-12.141
▁apperenrly	-12.141
▁appetizer	-12.141
▁appliance	-12.141
▁apppreactied	-12.141
▁appraisal	-12.141
▁appreciates	-12.141
▁appreciating	-12.141
▁approaching	-12.141
▁appropriately	-12.141
▁aptitude	-12.141
▁arabic	-12.141
▁arby	-12.141
▁arctic	-12.141
▁arduous	-12.141
▁arguably	-12.141
▁arhan	-12.141
▁arizona	-12.141
▁arleady	-12.141
▁armchair	-12.141
▁armed	-12.141
▁armenia	-12.141
▁aromatic	-12.141
▁arrangement	-12.141
▁arrgh	-12.141
▁arrh	-12.141
▁arrogant	-12.141
▁artistry	-12.141
▁ascensionmeditation	-12.141
▁asfff	-12.141
▁ashore	-12.141
▁aspen	-12.141
▁assaulted	-12.141
▁assed	-12.141
▁assert	-12.141
▁association	-12.141
▁assortment	-12.141
▁assumed	-12.141
▁astonishment	-12.141
▁astrology	-12.141
▁astronomical	-12.141
▁atlanta	-12.141
▁atmospheric	-12.141
▁atom	-12.141
▁atomoxetine	-12.141
▁atrittion	-12.141
▁attracted	-12.141
▁attracting	-12.141
▁attribute	-12.141
▁attuned	-12.141
▁audacity	-12.141
▁aunti	-12.141
▁aussie	-12.141
▁austria	-12.141
▁authorized	-12.141
▁autocad	-12.141
▁automates	-12.141
▁automotive	-12.141
▁availability	-12.141
▁avalanche	-12.141
▁avatar	-12.141
▁avenue	-12.141
▁aversion	-12.141
▁avoidance	-12.141
▁avoids	-12.141
▁avoir	-12.141
▁await	-12.141
▁awkwardly	-12.141
▁awnser	-12.141
▁awry	-12.141
▁aww	-12.141
▁axiety	-12.141
▁ayurvedic	-12.141
▁babbling	-12.141
▁baboon	-12.141
▁babysitter	-12.141
▁backbone	-12.141
▁backing	-12.141
▁backlag	-12.141
▁backsliding	-12.141
▁backstories	-12.141
▁bacteria	-12.141
▁badge	-12.141
▁badminton	-12.141
▁badmouth	-12.141
▁baffling	-12.141
▁baggier	-12.141
▁balding	-12.141
▁baldness	-12.141
▁baldy	-12.141
▁balles	-12.141
▁bam	-12.141
▁ban	-12.141
▁bandaid	-12.141
▁bangin	-12.141
▁bangladesh	-12.141
▁bankruptcy	-12.141
▁banter	-12.141
▁barbiee	-12.141
▁barr	-12.141
▁barricade	-12.141
▁batch	-12.141
▁bath	-12.141
▁bathe	-12.141
▁battery	-12.141
▁battlefield	-12.141
▁bawl	-12.141
▁bbq	-12.141
▁bcak	-12.141
▁beachside	-12.141
▁beacuse	-12.141
▁bearly	-12.141
▁beast	-12.141
▁beautifully	-12.141
▁becausw	-12.141
▁beckons	-12.141
▁becouse	-12.141
▁bedding	-12.141
▁bedwetting	-12.141
▁beed	-12.141
▁beeing	-12.141
▁beforelife	-12.141
▁befriending	-12.141
▁beggar	-12.141
▁begs	-12.141
▁behalf	-12.141
▁behave	-12.141
▁behaved	-12.141
▁behaves	-12.141
▁behavoir	-12.141
▁beleicve	-12.141
▁belittle	-12.141
▁belittling	-12.141
▁belive	-12.141
▁belligerently	-12.141
▁bellow	-12.141
▁belonging	-12.141
▁belongs	-12.141
▁ben	-12.141
▁benadryl	-12.141
▁bench	-12.141
▁bender	-12.141
▁bengaluru	-12.141
▁benzo	-12.141
▁beside	-12.141
▁bestfriends	-12.141
▁besties	-12.141
▁betray	-12.141
▁betraying	-12.141
▁beverage	-12.141
▁bff	-12.141
▁bhe	-12.141
▁biafra	-12.141
▁biased	-12.141
▁biggies	-12.141
▁bin	-12.141
▁binding	-12.141
▁binged	-12.141
▁binging	-12.141
▁biologically	-12.141
▁biostatistics	-12.141
▁birthed	-12.141
▁bitcoin	-12.141
▁bitten	-12.141
▁bitterly	-12.141
▁blackpillers	-12.141
▁bland	-12.141
▁blast	-12.141
▁blasted	-12.141
▁blemish	-12.141
▁blend	-12.141
▁blindsided	-12.141
▁blink	-12.141
▁blinking	-12.141
▁blissfully	-12.141
▁blm	-12.141
▁blocker	-12.141
▁blod	-12.141
▁blogging	-12.141
▁bloodstream	-12.141
▁blundell	-12.141
▁blunt	-12.141
▁blurred	-12.141
▁bnot	-12.141
▁boarding	-12.141
▁boeing	-12.141
▁bogus	-12.141
▁bombard	-12.141
▁bomber	-12.141
▁bombing	-12.141
▁bona	-12.141
▁bonded	-12.141
▁bonjour	-12.141
▁bookcase	-12.141
▁boosted	-12.141
▁booster	-12.141
▁borrow	-12.141
▁borrowed	-12.141
▁botched	-12.141
▁botswana	-12.141
▁bottling	-12.141
▁bound	-12.141
▁bpm	-12.141
▁brace	-12.141
▁bracket	-12.141
▁bragging	-12.141
▁braid	-12.141
▁braincells	-12.141
▁brainfog	-12.141
▁brainpower	-12.141
▁branding	-12.141
▁brandish	-12.141
▁breadth	-12.141
▁breakout	-12.141
▁breathtaking	-12.141
▁breeze	-12.141
▁brew	-12.141
▁bribe	-12.141
▁bride	-12.141
▁brightening	-12.141
▁british	-12.141
▁britney	-12.141
▁broadcast	-12.141
▁broader	-12.141
▁broadway	-12.141
▁broccoli	-12.141
▁brokenness	-12.141
▁bros	-12.141
▁brotherelisoriano	-12.141
▁brow	-12.141
▁browser	-12.141
▁bruised	-12.141
▁brunt	-12.141
▁bud	-12.141
▁bugging	-12.141
▁buisiness	-12.141
▁buisness	-12.141
▁bulldog	-12.141
▁bulletproof	-12.141
▁bummer	-12.141
▁bundled	-12.141
▁bungalow	-12.141
▁burdnern	-12.141
▁buried	-12.141
▁burkina	-12.141
▁burping	-12.141
▁burshed	-12.141
▁burundi	-12.141
▁bussy	-12.141
▁bust	-12.141
▁bustedandblack	-12.141
▁busyness	-12.141
▁butter	-12.141
▁buttock	-12.141
▁button	-12.141
▁bystander	-12.141
▁ca	-12.141
▁cab	-12.141
▁cabinet	-12.141
▁cable	-12.141
▁cacophony	-12.141
▁cafine	-12.141
▁cakewalk	-12.141
▁calculated	-12.141
▁caliber	-12.141
▁california	-12.141
▁camel	-12.141
▁camp	-12.141
▁camping	-12.141
▁cancelling	-12.141
▁canoe	-12.141
▁canola	-12.141
▁capstone	-12.141
▁captioned	-12.141
▁capturing	-12.141
▁caracterized	-12.141
▁cardiac	-12.141
▁carefree	-12.141
▁caregiving	-12.141
▁careless	-12.141
▁carl	-12.141
▁carnegie	-12.141
▁carnivorous	-12.141
▁carpet	-12.141
▁carreer	-12.141
▁cashier	-12.141
▁casino	-12.141
▁caster	-12.141
▁casting	-12.141
▁castle	-12.141
▁casually	-12.141
▁catacholamines	-12.141
▁catalyst	-12.141
▁catastrophize	-12.141
▁catecholamine	-12.141
▁caterpillar	-12.141
▁catharsis	-12.141
▁catherine	-12.141
▁cattle	-12.141
▁caving	-12.141
▁cedar	-12.141
▁cegep	-12.141
▁celeb	-12.141
▁celexa	-12.141
▁cellular	-12.141
▁central	-12.141
▁centralised	-12.141
▁cerebral	-12.141
▁certainty	-12.141
▁certify	-12.141
▁cfts	-12.141
▁chad	-12.141
▁chairman	-12.141
▁chamber	-12.141
▁champion	-12.141
▁channeling	-12.141
▁channelise	-12.141
▁chaotic	-12.141
▁charactestic	-12.141
▁charged	-12.141
▁charging	-12.141
▁charismatic	-12.141
▁charlotte	-12.141
▁chartered	-12.141
▁chated	-12.141
▁cheapskate	-12.141
▁cheek	-12.141
▁cheery	-12.141
▁chef	-12.141
▁chegg	-12.141
▁chemo	-12.141
▁chennai	-12.141
▁cherished	-12.141
▁cherokee	-12.141
▁cherry	-12.141
▁chevrolet	-12.141
▁chewed	-12.141
▁chez	-12.141
▁chime	-12.141
▁chinese	-12.141
▁chocolate	-12.141
▁cholesterol	-12.141
▁chooser	-12.141
▁christianity	-12.141
▁chromebooks	-12.141
▁chronicly	-12.141
▁chuckled	-12.141
▁cinnamon	-12.141
▁circuitry	-12.141
▁circulating	-12.141
▁citified	-12.141
▁citizenship	-12.141
▁civic	-12.141
▁clambering	-12.141
▁clamped	-12.141
▁clarifying	-12.141
▁clash	-12.141
▁claustrophobic	-12.141
▁clay	-12.141
▁clayton	-12.141
▁cleanning	-12.141
▁cleanse	-12.141
▁clerical	-12.141
▁clerk	-12.141
▁clinging	-12.141
▁cloak	-12.141
▁clocked	-12.141
▁clonazapam	-12.141
▁clone	-12.141
▁closely	-12.141
▁clouding	-12.141
▁clump	-12.141
▁clutching	-12.141
▁cm	-12.141
▁cmo	-12.141
▁cna	-12.141
▁cnn	-12.141
▁coast	-12.141
▁coaster	-12.141
▁coaxing	-12.141
▁cocky	-12.141
▁coconut	-12.141
▁codo	-12.141
▁coerce	-12.141
▁coeval	-12.141
▁coexist	-12.141
▁coexistence	-12.141
▁cog	-12.141
▁cognitively	-12.141
▁coivd	-12.141
▁colder	-12.141
▁cole	-12.141
▁collaboration	-12.141
▁collantes	-12.141
▁collapsed	-12.141
▁collar	-12.141
▁collateral	-12.141
▁collins	-12.141
▁collobaration	-12.141
▁colombo	-12.141
▁colour	-12.141
▁colouring	-12.141
▁colourless	-12.141
▁combined	-12.141
▁comedic	-12.141
▁comeing	-12.141
▁comforted	-12.141
▁comma	-12.141
▁commends	-12.141
▁commiserate	-12.141
▁commiserating	-12.141
▁commission	-12.141
▁commissioned	-12.141
▁commonality	-12.141
▁commonly	-12.141
▁commonplace	-12.141
▁communism	-12.141
▁comorbid	-12.141
▁comoros	-12.141
▁companionship	-12.141
▁compatible	-12.141
▁compensation	-12.141
▁competes	-12.141
▁compliance	-12.141
▁complicate	-12.141
▁complicating	-12.141
▁complication	-12.141
▁complied	-12.141
▁compose	-12.141
▁composition	-12.141
▁comprehend	-12.141
▁compulsion	-12.141
▁conceivable	-12.141
▁concentrated	-12.141
▁concert	-12.141
▁conclude	-12.141
▁concluding	-12.141
▁concur	-12.141
▁condemn	-12.141
▁cone	-12.141
▁conecernkng	-12.141
▁confessed	-12.141
▁confidencecoach	-12.141
▁confidential	-12.141
▁confirmation	-12.141
▁conflicted	-12.141
▁conform	-12.141
▁conformity	-12.141
▁confrontation	-12.141
▁confuzzle	-12.141
▁congestion	-12.141
▁congo	-12.141
▁congratulate	-12.141
▁conjunction	-12.141
▁consequently	-12.141
▁conservative	-12.141
▁considerable	-12.141
▁consisentcy	-12.141
▁consisting	-12.141
▁consitent	-12.141
▁consolidate	-12.141
▁conspiring	-12.141
▁constally	-12.141
▁constipation	-12.141
▁constituted	-12.141
▁constructive	-12.141
▁consumes	-12.141
▁contain	-12.141
▁contaminated	-12.141
▁contaminating	-12.141
▁contemporary	-12.141
▁contempt	-12.141
▁contemptible	-12.141
▁continously	-12.141
▁continuousness	-12.141
▁contradicted	-12.141
▁contradiction	-12.141
▁contradicts	-12.141
▁contrast	-12.141
▁controversy	-12.141
▁convenient	-12.141
▁conversate	-12.141
▁conversing	-12.141
▁converstation	-12.141
▁convey	-12.141
▁conviced	-12.141
▁convict	-12.141
▁cookoo	-12.141
▁coolcatwon	-12.141
▁cooler	-12.141
▁coolio	-12.141
▁coolness	-12.141
▁cooped	-12.141
▁copd	-12.141
▁coped	-12.141
▁copywriter	-12.141
▁coral	-12.141
▁cord	-12.141
▁corp	-12.141
▁corrective	-12.141
▁correlated	-12.141
▁correspondence	-12.141
▁costa	-12.141
▁costing	-12.141
▁cough	-12.141
▁councilor	-12.141
▁countenance	-12.141
▁countryside	-12.141
▁courted	-12.141
▁courteous	-12.141
▁courtroom	-12.141
▁covering	-12.141
▁covey	-12.141
▁cowardly	-12.141
▁cower	-12.141
▁cpstd	-12.141
▁cptsd	-12.141
▁cracking	-12.141
▁cram	-12.141
▁cramed	-12.141
▁crankier	-12.141
▁crasher	-12.141
▁crawl	-12.141
▁crawling	-12.141
▁creeped	-12.141
▁crematorium	-12.141
▁crf	-12.141
▁cringey	-12.141
▁criticize	-12.141
▁criticizes	-12.141
▁critiquing	-12.141
▁critter	-12.141
▁croaking	-12.141
▁crocodile	-12.141
▁crowed	-12.141
▁crude	-12.141
▁crushingly	-12.141
▁crybaby	-12.141
▁crystal	-12.141
▁csep	-12.141
▁csikszentmihalyi	-12.141
▁cth	-12.141
▁ctrl	-12.141
▁cu	-12.141
▁culminated	-12.141
▁culmination	-12.141
▁cult	-12.141
▁cultivated	-12.141
▁cultivating	-12.141
▁cultural	-12.141
▁cuppa	-12.141
▁curb	-12.141
▁curcumin	-12.141
▁curling	-12.141
▁curse	-12.141
▁curve	-12.141
▁curving	-12.141
▁cushion	-12.141
▁custody	-12.141
▁customized	-12.141
▁cutler	-12.141
▁cutlivate	-12.141
▁cutted	-12.141
▁cv	-12.141
▁cw	-12.141
▁cyberstalk	-12.141
▁cyberstalker	-12.141
▁cylinder	-12.141
▁cynical	-12.141
▁czechia	-12.141
▁daan	-12.141
▁dairy	-12.141
▁dale	-12.141
▁dang	-12.141
▁dangerously	-12.141
▁dangle	-12.141
▁dared	-12.141
▁darn	-12.141
▁darren	-12.141
▁dashed	-12.141
▁daugther	-12.141
▁davinciresolve	-12.141
▁daw	-12.141
▁dawn	-12.141
▁dawned	-12.141
▁daydreaming	-12.141
▁daytime	-12.141
▁daze	-12.141
▁dbt	-12.141
▁dcim	-12.141
▁deactivated	-12.141
▁deadlift	-12.141
▁dealer	-12.141
▁debit	-12.141
▁dec	-12.141
▁decease	-12.141
▁deceit	-12.141
▁deception	-12.141
▁deceptive	-12.141
▁decipher	-12.141
▁deck	-12.141
▁declaration	-12.141
▁declared	-12.141
▁declined	-12.141
▁decorated	-12.141
▁decorative	-12.141
▁decreasing	-12.141
▁dedicating	-12.141
▁deem	-12.141
▁deepen	-12.141
▁default	-12.141
▁defeating	-12.141
▁definetely	-12.141
▁definetly	-12.141
▁deflect	-12.141
▁deformed	-12.141
▁defragged	-12.141
▁defy	-12.141
▁degeneracy	-12.141
▁degenerate	-12.141
▁degrading	-12.141
▁dehydrated	-12.141
▁delicate	-12.141
▁delta	-12.141
▁deluding	-12.141
▁deluxe	-12.141
▁demanding	-12.141
▁demean	-12.141
▁democracy	-12.141
▁demonstrated	-12.141
▁deniability	-12.141
▁denmark	-12.141
▁denounce	-12.141
▁dense	-12.141
▁densest	-12.141
▁denton	-12.141
▁departing	-12.141
▁dependable	-12.141
▁dependant	-12.141
▁depended	-12.141
▁deploying	-12.141
▁deposit	-12.141
▁depress	-12.141
▁depressingly	-12.141
▁deprivation	-12.141
▁depriving	-12.141
▁dermatologist	-12.141
▁desensitized	-12.141
▁desi	-12.141
▁designated	-12.141
▁designation	-12.141
▁designer	-12.141
▁designing	-12.141
▁desktop	-12.141
▁desmotivated	-12.141
▁despressed	-12.141
▁detach	-12.141
▁detector	-12.141
▁detects	-12.141
▁deter	-12.141
▁determining	-12.141
▁detestable	-12.141
▁detract	-12.141
▁devastate	-12.141
▁develops	-12.141
▁deviation	-12.141
▁devides	-12.141
▁devine	-12.141
▁devistating	-12.141
▁devoted	-12.141
▁devoting	-12.141
▁devotion	-12.141
▁devouring	-12.141
▁diagnostic	-12.141
▁dialed	-12.141
▁dialogue	-12.141
▁diameter	-12.141
▁diametrically	-12.141
▁diaper	-12.141
▁dictated	-12.141
▁differ	-12.141
▁differnet	-12.141
▁digest	-12.141
▁dildo	-12.141
▁diligence	-12.141
▁dime	-12.141
▁diminish	-12.141
▁diminishes	-12.141
▁dining	-12.141
▁dipping	-12.141
▁directed	-12.141
▁directionless	-12.141
▁directs	-12.141
▁disagreed	-12.141
▁disappointement	-12.141
▁disappoints	-12.141
▁disassociated	-12.141
▁disassociation	-12.141
▁disaster	-12.141
▁discard	-12.141
▁disciple	-12.141
▁disclosed	-12.141
▁disclosure	-12.141
▁disconnect	-12.141
▁discontentment	-12.141
▁discontinuing	-12.141
▁discounting	-12.141
▁discouragement	-12.141
▁discovering	-12.141
▁disdain	-12.141
▁diseased	-12.141
▁disgust	-12.141
▁disgusted	-12.141
▁dishonest	-12.141
▁dishonesty	-12.141
▁disingenuous	-12.141
▁disinterest	-12.141
▁disinterested	-12.141
▁disliking	-12.141
▁dismissed	-12.141
▁disorganized	-12.141
▁dispair	-12.141
▁dispel	-12.141
▁dispelled	-12.141
▁dispellingmyths	-12.141
▁displacement	-12.141
▁display	-12.141
▁displayed	-12.141
▁displeasure	-12.141
▁disproportionate	-12.141
▁disregard	-12.141
▁disregarding	-12.141
▁disrespect	-12.141
▁disrupted	-12.141
▁disrupting	-12.141
▁disruption	-12.141
▁dissapear	-12.141
▁dissapointed	-12.141
▁dissapointment	-12.141
▁dissect	-12.141
▁disserve	-12.141
▁dissociate	-12.141
▁dissociated	-12.141
▁dissociation	-12.141
▁disstress	-12.141
▁distaste	-12.141
▁distinguish	-12.141
▁distraught	-12.141
▁distressing	-12.141
▁distributed	-12.141
▁dive	-12.141
▁divert	-12.141
▁divide	-12.141
▁divinely	-12.141
▁divisional	-12.141
▁divorce	-12.141
▁dizzyness	-12.141
▁dming	-12.141
▁dnd	-12.141
▁doctoral	-12.141
▁document	-12.141
▁documentation	-12.141
▁doeasn	-12.141
▁doggy	-12.141
▁dollop	-12.141
▁dom	-12.141
▁domesticity	-12.141
▁dominated	-12.141
▁domino	-12.141
▁donald	-12.141
▁donkey	-12.141
▁doorway	-12.141
▁dopa	-12.141
▁dorky	-12.141
▁dosage	-12.141
▁douchebag	-12.141
▁douchebags	-12.141
▁dough	-12.141
▁downer	-12.141
▁downloads	-12.141
▁downplay	-12.141
▁downplayed	-12.141
▁downright	-12.141
▁downvote	-12.141
▁downvoted	-12.141
▁downvoting	-12.141
▁dragon	-12.141
▁drazizgazipura	-12.141
▁dreamt	-12.141
▁dredge	-12.141
▁dried	-12.141
▁drifting	-12.141
▁drivign	-12.141
▁drowned	-12.141
▁drunkenness	-12.141
▁duathlon	-12.141
▁duhigg	-12.141
▁dulled	-12.141
▁dullness	-12.141
▁dumbells	-12.141
▁dumbest	-12.141
▁dummy	-12.141
▁earbuds	-12.141
▁earliest	-12.141
▁earlyaccess	-12.141
▁earphone	-12.141
▁earring	-12.141
▁earthy	-12.141
▁eas	-12.141
▁easterlin	-12.141
▁eater	-12.141
▁eather	-12.141
▁ebb	-12.141
▁ebtey	-12.141
▁echo	-12.141
▁ecosystem	-12.141
▁ecstatic	-12.141
▁edith	-12.141
▁educate	-12.141
▁educated	-12.141
▁ee	-12.141
▁effed	-12.141
▁effortless	-12.141
▁egg	-12.141
▁eggshell	-12.141
▁egocentric	-12.141
▁eheh	-12.141
▁eighth	-12.141
▁einstein	-12.141
▁elbow	-12.141
▁electrician	-12.141
▁electrocuted	-12.141
▁electron	-12.141
▁elemental	-12.141
▁elephant	-12.141
▁elevator	-12.141
▁elicit	-12.141
▁elles	-12.141
▁elliott	-12.141
▁embarassing	-12.141
▁embark	-12.141
▁embarrassingly	-12.141
▁embryo	-12.141
▁emdr	-12.141
▁emerged	-12.141
▁eminem	-12.141
▁eminence	-12.141
▁emit	-12.141
▁emmy	-12.141
▁emojis	-12.141
▁empath	-12.141
▁empathised	-12.141
▁emphasized	-12.141
▁employ	-12.141
▁empowering	-12.141
▁encountered	-12.141
▁encourage	-12.141
▁endangering	-12.141
▁endeavoured	-12.141
▁endgame	-12.141
▁endocrine	-12.141
▁endogenously	-12.141
▁endrant	-12.141
▁endures	-12.141
▁enduring	-12.141
▁energized	-12.141
▁eng	-12.141
▁engagement	-12.141
▁engine	-12.141
▁enhancement	-12.141
▁enhances	-12.141
▁enlightens	-12.141
▁enlivened	-12.141
▁enormously	-12.141
▁enquiry	-12.141
▁enrolling	-12.141
▁entertained	-12.141
▁entertainment	-12.141
▁enthrall	-12.141
▁enthusiastic	-12.141
▁entitlement	-12.141
▁entity	-12.141
▁entreprener	-12.141
▁entrusted	-12.141
▁enunciating	-12.141
▁enveloped	-12.141
▁enyone	-12.141
▁epa	-12.141
▁epidemic	-12.141
▁equates	-12.141
▁equip	-12.141
▁equivalent	-12.141
▁eradicated	-12.141
▁erase	-12.141
▁erasing	-12.141
▁erect	-12.141
▁ericfreeman	-12.141
▁erm	-12.141
▁ernestine	-12.141
▁erupted	-12.141
▁escaped	-12.141
▁esophagus	-12.141
▁espn	-12.141
▁estes	-12.141
▁estimating	-12.141
▁estrogen	-12.141
▁eswatini	-12.141
▁et	-12.141
▁ethiopia	-12.141
▁ethnicity	-12.141
▁eunuch	-12.141
▁euphemism	-12.141
▁evade	-12.141
▁evangelism	-12.141
▁evangelist	-12.141
▁evaporate	-12.141
▁evasive	-12.141
▁eventhough	-12.141
▁everyonegoatyy	-12.141
▁everyonesgoatyyy	-12.141
▁everythi	-12.141
▁everyting	-12.141
▁eveyday	-12.141
▁eveyrhting	-12.141
▁eveything	-12.141
▁evict	-12.141
▁evolutionaly	-12.141
▁exacerbate	-12.141
▁examination	-12.141
▁examine	-12.141
▁exceedingly	-12.141
▁exceeds	-12.141
▁exceptional	-12.141
▁excercises	-12.141
▁excitation	-12.141
▁excite	-12.141
▁exclaimed	-12.141
▁excluded	-12.141
▁excusing	-12.141
▁execution	-12.141
▁exemple	-12.141
▁exemplifying	-12.141
▁exhaust	-12.141
▁existant	-12.141
▁expanded	-12.141
▁expendable	-12.141
▁experimental	-12.141
▁expertise	-12.141
▁expierenced	-12.141
▁expierencing	-12.141
▁expiration	-12.141
▁expires	-12.141
▁exploded	-12.141
▁exploited	-12.141
▁expose	-12.141
▁expoused	-12.141
▁expressive	-12.141
▁externalize	-12.141
▁extort	-12.141
▁extraoedinary	-12.141
▁extrovert	-12.141
▁extroverted	-12.141
▁eyebrow	-12.141
▁eyyyy	-12.141
▁faceless	-12.141
▁facetime	-12.141
▁facetimed	-12.141
▁facilitate	-12.141
▁facilitates	-12.141
▁factual	-12.141
▁faded	-12.141
▁fairness	-12.141
▁faked	-12.141
▁falcon	-12.141
▁falre	-12.141
▁familiarized	-12.141
▁familly	-12.141
▁famously	-12.141
▁fanaticism	-12.141
▁fanboy	-12.141
▁fantastical	-12.141
▁fap	-12.141
▁fare	-12.141
▁farewell	-12.141
▁fashion	-12.141
▁faso	-12.141
▁fatherhood	-12.141
▁fatherless	-12.141
▁fathom	-12.141
▁fatigued	-12.141
▁fatty	-12.141
▁fauna	-12.141
▁fawk	-12.141
▁feared	-12.141
▁fearless	-12.141
▁federal	-12.141
▁felipe	-12.141
▁fellowship	-12.141
▁felon	-12.141
▁femboy	-12.141
▁feminism	-12.141
▁femoral	-12.141
▁ferriss	-12.141
▁fertility	-12.141
▁fest	-12.141
▁festive	-12.141
▁festivity	-12.141
▁fetus	-12.141
▁fetzima	-12.141
▁feverish	-12.141
▁fibromyalga	-12.141
▁fide	-12.141
▁fidgety	-12.141
▁fiend	-12.141
▁fierce	-12.141
▁fiercely	-12.141
▁fiery	-12.141
▁figths	-12.141
▁fiji	-12.141
▁fin	-12.141
▁financcial	-12.141
▁financed	-12.141
▁findinghappiness	-12.141
▁finest	-12.141
▁finland	-12.141
▁firearm	-12.141
▁firefighter	-12.141
▁firmly	-12.141
▁firstborn	-12.141
▁fitbit	-12.141
▁fixated	-12.141
▁fixation	-12.141
▁fizzle	-12.141
▁fizzled	-12.141
▁flagged	-12.141
▁flailing	-12.141
▁flashing	-12.141
▁flatlines	-12.141
▁flatlining	-12.141
▁flattened	-12.141
▁flaunting	-12.141
▁flavor	-12.141
▁flavour	-12.141
▁flawlessly	-12.141
▁fled	-12.141
▁fledged	-12.141
▁flew	-12.141
▁flexible	-12.141
▁flimsy	-12.141
▁flinch	-12.141
▁flinching	-12.141
▁flippantly	-12.141
▁flirty	-12.141
▁floated	-12.141
▁floating	-12.141
▁floof	-12.141
▁floored	-12.141
▁flora	-12.141
▁floss	-12.141
▁flourishing	-12.141
▁flushed	-12.141
▁fmp	-12.141
▁fo	-12.141
▁fogged	-12.141
▁fondest	-12.141
▁font	-12.141
▁fooling	-12.141
▁foolish	-12.141
▁footing	-12.141
▁forcefully	-12.141
▁forcibly	-12.141
▁foreheaded	-12.141
▁foreign	-12.141
▁foreigner	-12.141
▁forgein	-12.141
▁forging	-12.141
▁forgiven	-12.141
▁formally	-12.141
▁format	-12.141
▁forty	-12.141
▁fourteen	-12.141
▁fourth	-12.141
▁fr	-12.141
▁fraction	-12.141
▁fracture	-12.141
▁fragmentation	-12.141
▁franc	-12.141
▁frankie	-12.141
▁fraternal	-12.141
▁fraught	-12.141
▁frayed	-12.141
▁freacking	-12.141
▁freeman	-12.141
▁freestyle	-12.141
▁freeze	-12.141
▁freezing	-12.141
▁freindly	-12.141
▁freinds	-12.141
▁freshens	-12.141
▁fricken	-12.141
▁fridayfeeling	-12.141
▁friendless	-12.141
▁friendzoned	-12.141
▁friggin	-12.141
▁frightened	-12.141
▁frightening	-12.141
▁fringe	-12.141
▁frisbee	-12.141
▁frisky	-12.141
▁frontend	-12.141
▁fronting	-12.141
▁frosting	-12.141
▁fruitless	-12.141
▁frusterated	-12.141
▁fsh	-12.141
▁fucker	-12.141
▁fuckign	-12.141
▁fuelled	-12.141
▁ful	-12.141
▁fulfil	-12.141
▁fuller	-12.141
▁fulltime	-12.141
▁fundamentalist	-12.141
▁fur	-12.141
▁furry	-12.141
▁fyi	-12.141
▁g	-12.141
▁gabapentin	-12.141
▁gabrielshaw	-12.141
▁gacha	-12.141
▁gag	-12.141
▁gage	-12.141
▁gainful	-12.141
▁gal	-12.141
▁gale	-12.141
▁gallon	-12.141
▁gambia	-12.141
▁gamble	-12.141
▁gamechanger	-12.141
▁gamma	-12.141
▁garcia	-12.141
▁gasping	-12.141
▁gastrointestinal	-12.141
▁gatherer	-12.141
▁gawjus	-12.141
▁gazipura	-12.141
▁gearing	-12.141
▁generated	-12.141
▁genuinenly	-12.141
▁genuity	-12.141
▁georgia	-12.141
▁gerd	-12.141
▁gi	-12.141
▁giddy	-12.141
▁gifting	-12.141
▁gigantic	-12.141
▁giggled	-12.141
▁giggling	-12.141
▁gimpy	-12.141
▁ginanoeld	-12.141
▁girly	-12.141
▁gist	-12.141
▁gleaned	-12.141
▁globally	-12.141
▁globe	-12.141
▁glock	-12.141
▁glorified	-12.141
▁glove	-12.141
▁glucocorticoid	-12.141
▁glue	-12.141
▁gnaw	-12.141
▁goddamb	-12.141
▁goer	-12.141
▁gogetfunding	-12.141
▁goin	-12.141
▁goldfish	-12.141
▁golf	-12.141
▁gonit	-12.141
▁goodnight	-12.141
▁goodwill	-12.141
▁googled	-12.141
▁goose	-12.141
▁gorgeous	-12.141
▁gotteb	-12.141
▁governed	-12.141
▁gracious	-12.141
▁graciously	-12.141
▁gram	-12.141
▁grandchild	-12.141
▁gras	-12.141
▁grasping	-12.141
▁gratification	-12.141
▁graveled	-12.141
▁gravely	-12.141
▁gravitate	-12.141
▁gravitating	-12.141
▁graying	-12.141
▁greatfull	-12.141
▁greeted	-12.141
▁greeting	-12.141
▁greets	-12.141
▁gretchen	-12.141
▁grinch	-12.141
▁grinded	-12.141
▁grip	-12.141
▁grouched	-12.141
▁grouchy	-12.141
▁groupon	-12.141
▁growl	-12.141
▁gruesome	-12.141
▁guarantee	-12.141
▁guarded	-12.141
▁guardianship	-12.141
▁gueee	-12.141
▁guinea	-12.141
▁guinness	-12.141
▁gulp	-12.141
▁gunsmithing	-12.141
▁gurgling	-12.141
▁gush	-12.141
▁gutter	-12.141
▁gymnast	-12.141
▁habitat	-12.141
▁hacked	-12.141
▁hahahah	-12.141
▁hairline	-12.141
▁hairstylist	-12.141
▁haiti	-12.141
▁halo	-12.141
▁halp	-12.141
▁hammering	-12.141
▁handicapped	-12.141
▁handing	-12.141
▁handsome	-12.141
▁handwritten	-12.141
▁hanger	-12.141
▁hanh	-12.141
▁hannah	-12.141
▁happg	-12.141
▁hapy	-12.141
▁harassed	-12.141
▁harassing	-12.141
▁hardwork	-12.141
▁hardy	-12.141
▁harley	-12.141
▁harmonized	-12.141
▁harping	-12.141
▁harr	-12.141
▁harris	-12.141
▁hartford	-12.141
▁harvey	-12.141
▁haryana	-12.141
▁hassle	-12.141
▁hateful	-12.141
▁haunting	-12.141
▁havoc	-12.141
▁havve	-12.141
▁hazy	-12.141
▁hd	-12.141
▁healthline	-12.141
▁heartache	-12.141
▁heartbreaking	-12.141
▁heartburn	-12.141
▁heartless	-12.141
▁heater	-12.141
▁heavier	-12.141
▁hebrew	-12.141
▁heel	-12.141
▁heightened	-12.141
▁heinous	-12.141
▁hellhole	-12.141
▁helmet	-12.141
▁helpline	-12.141
▁helpp	-12.141
▁henderson	-12.141
▁herd	-12.141
▁hereafter	-12.141
▁hermit	-12.141
▁hesitant	-12.141
▁hesitation	-12.141
▁heuristic	-12.141
▁hfa	-12.141
▁hiatus	-12.141
▁hightail	-12.141
▁hiked	-12.141
▁hind	-12.141
▁hinder	-12.141
▁hindering	-12.141
▁hindu	-12.141
▁hinduism	-12.141
▁hippocampus	-12.141
▁histrionics	-12.141
▁hitted	-12.141
▁hnd	-12.141
▁hoarding	-12.141
▁hobble	-12.141
▁holistically	-12.141
▁hollowed	-12.141
▁homemade	-12.141
▁homemaker	-12.141
▁hong	-12.141
▁honored	-12.141
▁hood	-12.141
▁hooked	-12.141
▁hookup	-12.141
▁hop	-12.141
▁hopelessness	-12.141
▁horrified	-12.141
▁horrifying	-12.141
▁horse	-12.141
▁horticulture	-12.141
▁hospitalisation	-12.141
▁hotlines	-12.141
▁hounslow	-12.141
▁housing	-12.141
▁http	-12.141
▁hubbard	-12.141
▁hubby	-12.141
▁huffing	-12.141
▁hugely	-12.141
▁hulu	-12.141
▁humanely	-12.141
▁humanism	-12.141
▁humbly	-12.141
▁humiliated	-12.141
▁humilliations	-12.141
▁humming	-12.141
▁hungrier	-12.141
▁hunter	-12.141
▁hurdle	-12.141
▁hurry	-12.141
▁hurtful	-12.141
▁hut	-12.141
▁hydroxyzine	-12.141
▁hype	-12.141
▁hyperawareness	-12.141
▁hypersensitive	-12.141
▁hypomanic	-12.141
▁hypothalamic	-12.141
▁hypothalamus	-12.141
▁hypothermia	-12.141
▁hysterectomy	-12.141
▁hysterical	-12.141
▁ibs	-12.141
▁ic	-12.141
▁icahn	-12.141
▁iceland	-12.141
▁icing	-12.141
▁idek	-12.141
▁identical	-12.141
▁identifies	-12.141
▁idiotic	-12.141
▁idle	-12.141
▁idol	-12.141
▁idolise	-12.141
▁illegally	-12.141
▁illustrate	-12.141
▁illustrated	-12.141
▁illustrates	-12.141
▁illustration	-12.141
▁illustrious	-12.141
▁ilness	-12.141
▁ilnesses	-12.141
▁imaginary	-12.141
▁imaginings	-12.141
▁imalive	-12.141
▁imessage	-12.141
▁immature	-12.141
▁immaturity	-12.141
▁immet	-12.141
▁immidiatly	-12.141
▁immoral	-12.141
▁immunocompromised	-12.141
▁imnotevenstressedanymore	-12.141
▁impasse	-12.141
▁impatient	-12.141
▁imperative	-12.141
▁implement	-12.141
▁implementation	-12.141
▁implied	-12.141
▁imply	-12.141
▁imposed	-12.141
▁imposition	-12.141
▁impossibility	-12.141
▁impotent	-12.141
▁impulsively	-12.141
▁inadequate	-12.141
▁inadvertently	-12.141
▁inaliating	-12.141
▁inanimate	-12.141
▁inaya	-12.141
▁inayaconnect	-12.141
▁inbetween	-12.141
▁incase	-12.141
▁incel	-12.141
▁incels	-12.141
▁inclined	-12.141
▁inclusively	-12.141
▁incompetent	-12.141
▁inconcenience	-12.141
▁inconsistent	-12.141
▁inconvenienced	-12.141
▁inconvenient	-12.141
▁incorrect	-12.141
▁incorrectly	-12.141
▁increasing	-12.141
▁incremental	-12.141
▁incrementally	-12.141
▁incroyables	-12.141
▁indebted	-12.141
▁indecision	-12.141
▁indecisive	-12.141
▁indgenous	-12.141
▁indie	-12.141
▁indifference	-12.141
▁indifferent	-12.141
▁indo	-12.141
▁indulgent	-12.141
▁inept	-12.141
▁inexpensive	-12.141
▁infancy	-12.141
▁infectious	-12.141
▁infinitely	-12.141
▁inflammatory	-12.141
▁inflated	-12.141
▁inflation	-12.141
▁inflexible	-12.141
▁influencefull	-12.141
▁influencers	-12.141
▁inform	-12.141
▁informative	-12.141
▁infuriate	-12.141
▁inhabit	-12.141
▁inhabiting	-12.141
▁inhibit	-12.141
▁inhibited	-12.141
▁inhuman	-12.141
▁inhumane	-12.141
▁initiated	-12.141
▁inlove	-12.141
▁innitially	-12.141
▁innocence	-12.141
▁innocently	-12.141
▁inquisitive	-12.141
▁inseparable	-12.141
▁inserted	-12.141
▁insider	-12.141
▁insisted	-12.141
▁inspected	-12.141
▁inspite	-12.141
▁instantaneously	-12.141
▁instigator	-12.141
▁instilled	-12.141
▁instinctive	-12.141
▁institute	-12.141
▁instructional	-12.141
▁instructs	-12.141
▁insulted	-12.141
▁intact	-12.141
▁intension	-12.141
▁intently	-12.141
▁interesed	-12.141
▁intermittent	-12.141
▁intern	-12.141
▁internalized	-12.141
▁interrupt	-12.141
▁interviewing	-12.141
▁intrigued	-12.141
▁introduction	-12.141
▁introductory	-12.141
▁introversion	-12.141
▁intuition	-12.141
▁intuitive	-12.141
▁inundated	-12.141
▁invalid	-12.141
▁invalidity	-12.141
▁invariably	-12.141
▁invasive	-12.141
▁investigate	-12.141
▁investigation	-12.141
▁investigator	-12.141
▁invisibility	-12.141
▁invisible	-12.141
▁involuntary	-12.141
▁involvement	-12.141
▁iop	-12.141
▁iran	-12.141
▁iraq	-12.141
▁irishman	-12.141
▁irregularly	-12.141
▁irrespective	-12.141
▁irresponsibility	-12.141
▁irresponsible	-12.141
▁irritant	-12.141
▁ishaan	-12.141
▁ishayas	-12.141
▁ishtarhowell	-12.141
▁ixl	-12.141
▁jab	-12.141
▁jackbox	-12.141
▁jacked	-12.141
▁jacket	-12.141
▁jackpot	-12.141
▁jackshit	-12.141
▁jacobson	-12.141
▁jamaican	-12.141
▁japan	-12.141
▁jeaousy	-12.141
▁jehovah	-12.141
▁jello	-12.141
▁jelous	-12.141
▁jenkins	-12.141
▁jeopardizing	-12.141
▁jme	-12.141
▁jolly	-12.141
▁jot	-12.141
▁journalism	-12.141
▁journalist	-12.141
▁journalling	-12.141
▁judt	-12.141
▁jumb	-12.141
▁jumpy	-12.141
▁jung	-12.141
▁junkie	-12.141
▁juno	-12.141
▁justifiably	-12.141
▁juvenile	-12.141
▁kabazie	-12.141
▁katakana	-12.141
▁kava	-12.141
▁kckb	-12.141
▁kennel	-12.141
▁kent	-12.141
▁kenya	-12.141
▁kg	-12.141
▁kicker	-12.141
▁kidnapped	-12.141
▁kindergarden	-12.141
▁kinesiologist	-12.141
▁knit	-12.141
▁knkw	-12.141
▁kolonopin	-12.141
▁kong	-12.141
▁krier	-12.141
▁kyle	-12.141
▁lachesism	-12.141
▁lad	-12.141
▁ladder	-12.141
▁lall	-12.141
▁lament	-12.141
▁lamenting	-12.141
▁landscaping	-12.141
▁lanka	-12.141
▁lapdog	-12.141
▁lasagna	-12.141
▁lashed	-12.141
▁lashing	-12.141
▁lastnight	-12.141
▁latch	-12.141
▁lathargic	-12.141
▁lather	-12.141
▁latley	-12.141
▁laughably	-12.141
▁laundromat	-12.141
▁laurie	-12.141
▁lawn	-12.141
▁layed	-12.141
▁layoff	-12.141
▁lazier	-12.141
▁lbl	-12.141
▁lcd	-12.141
▁leafing	-12.141
▁leak	-12.141
▁leaked	-12.141
▁lean	-12.141
▁leapfrog	-12.141
▁learnd	-12.141
▁leash	-12.141
▁lectured	-12.141
▁leech	-12.141
▁leeds	-12.141
▁legality	-12.141
▁legend	-12.141
▁legitimately	-12.141
▁lemon	-12.141
▁lending	-12.141
▁leone	-12.141
▁lesons	-12.141
▁lesotho	-12.141
▁lethal	-12.141
▁leukemia	-12.141
▁lewd	-12.141
▁lgbt	-12.141
▁liability	-12.141
▁liberal	-12.141
▁liberated	-12.141
▁liberating	-12.141
▁liberia	-12.141
▁licence	-12.141
▁licensed	-12.141
▁licensing	-12.141
▁licking	-12.141
▁lifecoach	-12.141
▁lifelessly	-12.141
▁lightbulb	-12.141
▁lighter	-12.141
▁lightning	-12.141
▁liife	-12.141
▁likewise	-12.141
▁lil	-12.141
▁lilly	-12.141
▁limb	-12.141
▁limbo	-12.141
▁liqour	-12.141
▁lisabergstrom	-12.141
▁lisence	-12.141
▁lit	-12.141
▁lite	-12.141
▁liter	-12.141
▁literature	-12.141
▁littlest	-12.141
▁liver	-12.141
▁livestream	-12.141
▁livingbetterandlonger	-12.141
▁llama	-12.141
▁llc	-12.141
▁lmfao	-12.141
▁loath	-12.141
▁lobster	-12.141
▁locate	-12.141
▁located	-12.141
▁lofi	-12.141
▁loiter	-12.141
▁lokmkng	-12.141
▁lollipop	-12.141
▁lone	-12.141
▁loner	-12.141
▁lonervibes	-12.141
▁longing	-12.141
▁lookout	-12.141
▁looping	-12.141
▁looser	-12.141
▁lord	-12.141
▁lorde	-12.141
▁losserrrrrrr	-12.141
▁lottery	-12.141
▁loudness	-12.141
▁lovable	-12.141
▁loveless	-12.141
▁loveliness	-12.141
▁lube	-12.141
▁lucid	-12.141
▁lurker	-12.141
▁lutherclayton	-12.141
▁luxembourg	-12.141
▁lymphoma	-12.141
▁lyrical	-12.141
▁macho	-12.141
▁madagascar	-12.141
▁maddening	-12.141
▁madness	-12.141
▁magical	-12.141
▁maharishi	-12.141
▁mail	-12.141
▁mailed	-12.141
▁maintained	-12.141
▁majorly	-12.141
▁makefun	-12.141
▁maker	-12.141
▁malawi	-12.141
▁maldives	-12.141
▁mali	-12.141
▁mam	-12.141
▁mama	-12.141
▁mammoth	-12.141
▁manchild	-12.141
▁manda	-12.141
▁manhattan	-12.141
▁maniac	-12.141
▁mankind	-12.141
▁manly	-12.141
▁mannequin	-12.141
▁manson	-12.141
▁manu	-12.141
▁manufacturing	-12.141
▁manyyy	-12.141
▁mar	-12.141
▁marble	-12.141
▁marc	-12.141
▁marchwicki	-12.141
▁marginal	-12.141
▁maried	-12.141
▁mariljuana	-12.141
▁marked	-12.141
▁marker	-12.141
▁marvel	-12.141
▁marvelous	-12.141
▁maskless	-12.141
▁massager	-12.141
▁massively	-12.141
▁masturbated	-12.141
▁matched	-12.141
▁materialise	-12.141
▁maternal	-12.141
▁maternity	-12.141
▁mathematical	-12.141
▁mattered	-12.141
▁maturely	-12.141
▁matures	-12.141
▁maturing	-12.141
▁mauritania	-12.141
▁maxed	-12.141
▁maximize	-12.141
▁mayo	-12.141
▁mayor	-12.141
▁mba	-12.141
▁mcauliffe	-12.141
▁mdma	-12.141
▁meaninglessly	-12.141
▁meaninglessness	-12.141
▁measurement	-12.141
▁mechanic	-12.141
▁mediation	-12.141
▁mediocrity	-12.141
▁medular	-12.141
▁mek	-12.141
▁melancholic	-12.141
▁melancholy	-12.141
▁melted	-12.141
▁memoir	-12.141
▁memorable	-12.141
▁memorize	-12.141
▁memorized	-12.141
▁memoryh	-12.141
▁mend	-12.141
▁mending	-12.141
▁meniscus	-12.141
▁menopause	-12.141
▁menstrual	-12.141
▁mentallity	-12.141
▁merciful	-12.141
▁mercurial	-12.141
▁merely	-12.141
▁meridian	-12.141
▁merit	-12.141
▁merry	-12.141
▁messenger	-12.141
▁metaphor	-12.141
▁methodology	-12.141
▁metric	-12.141
▁mexican	-12.141
▁michaelfox	-12.141
▁michelle	-12.141
▁mics	-12.141
▁middling	-12.141
▁migrain	-12.141
▁mihaly	-12.141
▁mil	-12.141
▁milder	-12.141
▁mildly	-12.141
▁milestone	-12.141
▁miller	-12.141
▁mimar	-12.141
▁mindsetmastery	-12.141
▁mineral	-12.141
▁minimize	-12.141
▁minimized	-12.141
▁ministry	-12.141
▁ministryofpoetry	-12.141
▁minneapolis	-12.141
▁mint	-12.141
▁minty	-12.141
▁mirasol	-12.141
▁miscarriage	-12.141
▁miscarried	-12.141
▁misclicked	-12.141
▁miserably	-12.141
▁misfit	-12.141
▁misgendered	-12.141
▁misguided	-12.141
▁misinterpreting	-12.141
▁misogynist	-12.141
▁misogynistic	-12.141
▁misremembered	-12.141
▁missery	-12.141
▁mistreated	-12.141
▁mitigate	-12.141
▁mitigates	-12.141
▁mitt	-12.141
▁mitty	-12.141
▁mixer	-12.141
▁mixing	-12.141
▁mixture	-12.141
▁mo	-12.141
▁mob	-12.141
▁mocked	-12.141
▁moderation	-12.141
▁modt	-12.141
▁module	-12.141
▁molecular	-12.141
▁momentarily	-12.141
▁mon	-12.141
▁monastic	-12.141
▁monitoring	-12.141
▁monk	-12.141
▁monogamous	-12.141
▁monogamy	-12.141
▁monotonous	-12.141
▁moody	-12.141
▁moonshot	-12.141
▁mopey	-12.141
▁morbidly	-12.141
▁moron	-12.141
▁mosque	-12.141
▁motel	-12.141
▁motivates	-12.141
▁motivating	-12.141
▁motive	-12.141
▁moto	-12.141
▁mouse	-12.141
▁mouthful	-12.141
▁mouthguards	-12.141
▁mover	-12.141
▁mozambique	-12.141
▁mrsknowhow	-12.141
▁msde	-12.141
▁msu	-12.141
▁mullet	-12.141
▁muruganar	-12.141
▁mush	-12.141
▁mushroom	-12.141
▁muslim	-12.141
▁muster	-12.141
▁mustered	-12.141
▁muted	-12.141
▁myanmar	-12.141
▁mystical	-12.141
▁nada	-12.141
▁nah	-12.141
▁nailed	-12.141
▁naked	-12.141
▁namaskar	-12.141
▁namibia	-12.141
▁nana	-12.141
▁narly	-12.141
▁narrcisim	-12.141
▁narrcists	-12.141
▁narrowed	-12.141
▁narrowest	-12.141
▁narsassistic	-12.141
▁nationalist	-12.141
▁navigate	-12.141
▁navigating	-12.141
▁naw	-12.141
▁nearest	-12.141
▁neat	-12.141
▁necklace	-12.141
▁neediness	-12.141
▁needle	-12.141
▁needy	-12.141
▁neet	-12.141
▁negating	-12.141
▁neglectful	-12.141
▁neighborhood	-12.141
▁nepotism	-12.141
▁nest	-12.141
▁neuroscientist	-12.141
▁neurotic	-12.141
▁newborn	-12.141
▁newey	-12.141
▁newfound	-12.141
▁newly	-12.141
▁nft	-12.141
▁ng	-12.141
▁nge	-12.141
▁ngo	-12.141
▁nhat	-12.141
▁nicer	-12.141
▁nick	-12.141
▁nicotine	-12.141
▁niger	-12.141
▁nigh	-12.141
▁nighti	-12.141
▁nightingale	-12.141
▁nine	-12.141
▁ninth	-12.141
▁nix	-12.141
▁nj	-12.141
▁nocturnal	-12.141
▁noida	-12.141
▁nomadland	-12.141
▁nonexistent	-12.141
▁nonprofit	-12.141
▁noodle	-12.141
▁noon	-12.141
▁nooooooo	-12.141
▁nootralize	-12.141
▁noradrenaline	-12.141
▁north	-12.141
▁norway	-12.141
▁nostalgic	-12.141
▁nosy	-12.141
▁notch	-12.141
▁noticeably	-12.141
▁notifies	-12.141
▁noting	-12.141
▁notoriously	-12.141
▁nottingham	-12.141
▁nourishing	-12.141
▁nov	-12.141
▁ntohing	-12.141
▁nude	-12.141
▁nuisance	-12.141
▁num	-12.141
▁nutella	-12.141
▁nutrient	-12.141
▁nutritional	-12.141
▁nutritionally	-12.141
▁nutshell	-12.141
▁nyquil	-12.141
▁obermeyer	-12.141
▁objected	-12.141
▁obligatory	-12.141
▁obliges	-12.141
▁oblivious	-12.141
▁obnoxious	-12.141
▁obscenely	-12.141
▁obscure	-12.141
▁observation	-12.141
▁observer	-12.141
▁obstetric	-12.141
▁obstetrics	-12.141
▁obv	-12.141
▁occupy	-12.141
▁octavia	-12.141
▁oddity	-12.141
▁ode	-12.141
▁oe	-12.141
▁offed	-12.141
▁offence	-12.141
▁offsite	-12.141
▁oily	-12.141
▁okayish	-12.141
▁okey	-12.141
▁oldschool	-12.141
▁om	-12.141
▁oncoming	-12.141
▁onedollarhappiness	-12.141
▁onlt	-12.141
▁oooooonnne	-12.141
▁oozing	-12.141
▁openly	-12.141
▁opiate	-12.141
▁oppressed	-12.141
▁optimist	-12.141
▁optimize	-12.141
▁opting	-12.141
▁opts	-12.141
▁ordering	-12.141
▁organ	-12.141
▁organically	-12.141
▁organisation	-12.141
▁organise	-12.141
▁organised	-12.141
▁organiser	-12.141
▁organizational	-12.141
▁orientated	-12.141
▁originating	-12.141
▁orthogonal	-12.141
▁oscar	-12.141
▁ot	-12.141
▁ouchy	-12.141
▁outa	-12.141
▁outbreak	-12.141
▁outcast	-12.141
▁outdoors	-12.141
▁outer	-12.141
▁outline	-12.141
▁outraged	-12.141
▁outset	-12.141
▁outsmart	-12.141
▁ovary	-12.141
▁overclock	-12.141
▁overcomefear	-12.141
▁overcomes	-12.141
▁overdose	-12.141
▁overdoses	-12.141
▁overdrafted	-12.141
▁overdramatic	-12.141
▁overdrive	-12.141
▁overflood	-12.141
▁overflooding	-12.141
▁overhear	-12.141
▁overhwelmed	-12.141
▁overload	-12.141
▁overly	-12.141
▁overpaying	-12.141
▁overpromise	-12.141
▁overreact	-12.141
▁overshadowed	-12.141
▁overstimulated	-12.141
▁overthinks	-12.141
▁overthought	-12.141
▁overworked	-12.141
▁overworking	-12.141
▁owes	-12.141
▁owi	-12.141
▁owned	-12.141
▁owns	-12.141
▁ox	-12.141
▁oxytocin	-12.141
▁pacing	-12.141
▁pained	-12.141
▁painless	-12.141
▁pair	-12.141
▁paired	-12.141
▁pairing	-12.141
▁pal	-12.141
▁palestinian	-12.141
▁palete	-12.141
▁palette	-12.141
▁paliperidone	-12.141
▁palo	-12.141
▁palsy	-12.141
▁paltry	-12.141
▁pang	-12.141
▁panick	-12.141
▁panicky	-12.141
▁pansexual	-12.141
▁paperwork	-12.141
▁paradox	-12.141
▁paralysis	-12.141
▁paranormal	-12.141
▁parcel	-12.141
▁parked	-12.141
▁partial	-12.141
▁partnered	-12.141
▁partying	-12.141
▁passionately	-12.141
▁passionflower	-12.141
▁passively	-12.141
▁passivity	-12.141
▁pasta	-12.141
▁pastry	-12.141
▁patched	-12.141
▁patrol	-12.141
▁paulson	-12.141
▁paving	-12.141
▁pearces	-12.141
▁pedophilia	-12.141
▁pedos	-12.141
▁pee	-12.141
▁pen	-12.141
▁pensez	-12.141
▁pensum	-12.141
▁pepe	-12.141
▁perceiving	-12.141
▁perpetually	-12.141
▁perpetuating	-12.141
▁personalize	-12.141
▁personhood	-12.141
▁persuasive	-12.141
▁pesky	-12.141
▁pessimism	-12.141
▁pessimist	-12.141
▁pest	-12.141
▁petition	-12.141
▁petrified	-12.141
▁pfts	-12.141
▁pharmaceutical	-12.141
▁philadelphia	-12.141
▁phillips	-12.141
▁phoenix	-12.141
▁phoniness	-12.141
▁phony	-12.141
▁phosphatidylserine	-12.141
▁php	-12.141
▁physiologist	-12.141
▁physiotherapist	-12.141
▁piled	-12.141
▁pimp	-12.141
▁pinched	-12.141
▁pincher	-12.141
▁pink	-12.141
▁pinpoint	-12.141
▁pinterest	-12.141
▁piti	-12.141
▁pittance	-12.141
▁pitying	-12.141
▁pivotal	-12.141
▁pivoted	-12.141
▁pjs	-12.141
▁placebo	-12.141
▁placement	-12.141
▁placing	-12.141
▁plagiarized	-12.141
▁plantation	-12.141
▁plasma	-12.141
▁plateauing	-12.141
▁plato	-12.141
▁platoon	-12.141
▁plausible	-12.141
▁playtime	-12.141
▁plea	-12.141
▁pleading	-12.141
▁pleaser	-12.141
▁plumber	-12.141
▁plumits	-12.141
▁plunged	-12.141
▁plushie	-12.141
▁pmdd	-12.141
▁podcasters	-12.141
▁poetic	-12.141
▁pogrom	-12.141
▁pointings	-12.141
▁poisonous	-12.141
▁poky	-12.141
▁pole	-12.141
▁polite	-12.141
▁polka	-12.141
▁pond	-12.141
▁ponders	-12.141
▁pony	-12.141
▁pooh	-12.141
▁poop	-12.141
▁poorest	-12.141
▁poptartfriday	-12.141
▁pornhub	-12.141
▁portfolio	-12.141
▁portion	-12.141
▁portrays	-12.141
▁portsmouth	-12.141
▁pose	-12.141
▁posing	-12.141
▁positing	-12.141
▁postman	-12.141
▁postponing	-12.141
▁potent	-12.141
▁pounce	-12.141
▁powered	-12.141
▁pr	-12.141
▁pradesh	-12.141
▁praised	-12.141
▁preached	-12.141
▁preacher	-12.141
▁precarious	-12.141
▁preceded	-12.141
▁precursor	-12.141
▁predental	-12.141
▁predestined	-12.141
▁predictably	-12.141
▁prediction	-12.141
▁predicts	-12.141
▁preemptively	-12.141
▁preferably	-12.141
▁preffered	-12.141
▁preform	-12.141
▁premed	-12.141
▁prep	-12.141
▁prepackaged	-12.141
▁prequisites	-12.141
▁prescriber	-12.141
▁presenting	-12.141
▁presentmoment	-12.141
▁preserve	-12.141
▁preserving	-12.141
▁pressurized	-12.141
▁presume	-12.141
▁pretents	-12.141
▁prettiest	-12.141
▁prevented	-12.141
▁primed	-12.141
▁priming	-12.141
▁princess	-12.141
▁print	-12.141
▁printables	-12.141
▁prioritising	-12.141
▁prioritized	-12.141
▁prioritizes	-12.141
▁prision	-12.141
▁prisoner	-12.141
▁privatised	-12.141
▁probed	-12.141
▁procastinating	-12.141
▁proccess	-12.141
▁procedure	-12.141
▁proceeds	-12.141
▁processed	-12.141
▁proclaim	-12.141
▁proclaimed	-12.141
▁procrastinator	-12.141
▁prodding	-12.141
▁prodigy	-12.141
▁profusely	-12.141
▁programmed	-12.141
▁progressed	-12.141
▁prompting	-12.141
▁pronoun	-12.141
▁proofed	-12.141
▁propably	-12.141
▁propose	-12.141
▁proposing	-12.141
▁propped	-12.141
▁prosper	-12.141
▁prosthetics	-12.141
▁prostitute	-12.141
▁protective	-12.141
▁protest	-12.141
▁proton	-12.141
▁prototype	-12.141
▁proudest	-12.141
▁prozosin	-12.141
▁pssd	-12.141
▁psychedelics	-12.141
▁psychic	-12.141
▁psycho	-12.141
▁psychoanalysis	-12.141
▁psychopathic	-12.141
▁psyvh	-12.141
▁pt	-12.141
▁pua	-12.141
▁puas	-12.141
▁publicspeaking	-12.141
▁puke	-12.141
▁puking	-12.141
▁pulsifer	-12.141
▁pummel	-12.141
▁pump	-12.141
▁punching	-12.141
▁punchline	-12.141
▁punter	-12.141
▁pup	-12.141
▁purely	-12.141
▁purged	-12.141
▁purposefully	-12.141
▁purposelessness	-12.141
▁purposlesness	-12.141
▁putrid	-12.141
▁qhat	-12.141
▁quad	-12.141
▁quadmester	-12.141
▁qualify	-12.141
▁quantifiable	-12.141
▁quarantined	-12.141
▁quarrel	-12.141
▁quarter	-12.141
▁que	-12.141
▁queen	-12.141
▁quelques	-12.141
▁quilting	-12.141
▁quiplash	-12.141
▁quirky	-12.141
▁quitted	-12.141
▁racial	-12.141
▁racketball	-12.141
▁radiant	-12.141
▁radiate	-12.141
▁radiates	-12.141
▁radiation	-12.141
▁radicalize	-12.141
▁radiohead	-12.141
▁raft	-12.141
▁rag	-12.141
▁rail	-12.141
▁railing	-12.141
▁rainfall	-12.141
▁rajasthan	-12.141
▁ralated	-12.141
▁ramp	-12.141
▁ranch	-12.141
▁randomised	-12.141
▁randomized	-12.141
▁randomness	-12.141
▁ranked	-12.141
▁ranting	-12.141
▁rap	-12.141
▁ratio	-12.141
▁rationalize	-12.141
▁reachable	-12.141
▁reactive	-12.141
▁realtionships	-12.141
▁realtor	-12.141
▁reappear	-12.141
▁rebuilding	-12.141
▁recapture	-12.141
▁receiver	-12.141
▁receptionist	-12.141
▁recharge	-12.141
▁recieved	-12.141
▁recognizes	-12.141
▁recommending	-12.141
▁reconciling	-12.141
▁recruiting	-12.141
▁recruitment	-12.141
▁recycled	-12.141
▁redeem	-12.141
▁redeemed	-12.141
▁redefine	-12.141
▁redemption	-12.141
▁rediculous	-12.141
▁redundant	-12.141
▁reevaluating	-12.141
▁referenced	-12.141
▁refers	-12.141
▁refining	-12.141
▁reflected	-12.141
▁refocus	-12.141
▁reframe	-12.141
▁reframing	-12.141
▁refreshing	-12.141
▁regained	-12.141
▁regenerate	-12.141
▁registered	-12.141
▁regressed	-12.141
▁regressing	-12.141
▁regression	-12.141
▁regrettable	-12.141
▁regularity	-12.141
▁regulation	-12.141
▁rehabilitated	-12.141
▁rehearse	-12.141
▁reincarnation	-12.141
▁reinforce	-12.141
▁reiterate	-12.141
▁reject	-12.141
▁rejecter	-12.141
▁rejecting	-12.141
▁relaxer	-12.141
▁relaying	-12.141
▁relentlessly	-12.141
▁religiously	-12.141
▁remainder	-12.141
▁remarkable	-12.141
▁remdies	-12.141
▁remodel	-12.141
▁remorseful	-12.141
▁remotely	-12.141
▁removal	-12.141
▁removing	-12.141
▁rendered	-12.141
▁renew	-12.141
▁renewal	-12.141
▁rental	-12.141
▁renting	-12.141
▁repaid	-12.141
▁replaceable	-12.141
▁replay	-12.141
▁replicate	-12.141
▁replicated	-12.141
▁replying	-12.141
▁represents	-12.141
▁repression	-12.141
▁reprieve	-12.141
▁reprised	-12.141
▁reproduction	-12.141
▁republic	-12.141
▁repulsive	-12.141
▁rescue	-12.141
▁reselling	-12.141
▁resemble	-12.141
▁resents	-12.141
▁resetting	-12.141
▁resides	-12.141
▁residing	-12.141
▁reskilling	-12.141
▁resonova	-12.141
▁respectful	-12.141
▁respidone	-12.141
▁respiratory	-12.141
▁respondent	-12.141
▁responsibly	-12.141
▁responsive	-12.141
▁restore	-12.141
▁restrained	-12.141
▁restraining	-12.141
▁restricted	-12.141
▁restrictive	-12.141
▁restroom	-12.141
▁restylene	-12.141
▁retaining	-12.141
▁retake	-12.141
▁retirement	-12.141
▁retiring	-12.141
▁retreat	-12.141
▁retribution	-12.141
▁retro	-12.141
▁reunion	-12.141
▁revealed	-12.141
▁revelation	-12.141
▁reveled	-12.141
▁revenge	-12.141
▁reversing	-12.141
▁revise	-12.141
▁revised	-12.141
▁revive	-12.141
▁reviving	-12.141
▁revolt	-12.141
▁revolving	-12.141
▁rexulti	-12.141
▁rhe	-12.141
▁rhetorical	-12.141
▁rica	-12.141
▁richest	-12.141
▁riddled	-12.141
▁ridiculously	-12.141
▁rigged	-12.141
▁righteous	-12.141
▁righteousness	-12.141
▁rinse	-12.141
▁ripe	-12.141
▁risking	-12.141
▁roap	-12.141
▁robbing	-12.141
▁roblox	-12.141
▁robot	-12.141
▁rocket	-12.141
▁rodeo	-12.141
▁roker	-12.141
▁roller	-12.141
▁rolling	-12.141
▁roman	-12.141
▁romanian	-12.141
▁rooftop	-12.141
▁roomate	-12.141
▁roomates	-12.141
▁roomy	-12.141
▁rooted	-12.141
▁rooting	-12.141
▁rosies	-12.141
▁rotation	-12.141
▁rotted	-12.141
▁routinely	-12.141
▁rowan	-12.141
▁royal	-12.141
▁royale	-12.141
▁royally	-12.141
▁ruaridh	-12.141
▁rubbish	-12.141
▁rubin	-12.141
▁rudeness	-12.141
▁rugby	-12.141
▁ruminate	-12.141
▁ruminating	-12.141
▁runaway	-12.141
▁runner	-12.141
▁rwanda	-12.141
▁rythme	-12.141
▁sa	-12.141
▁sabotaged	-12.141
▁sadder	-12.141
▁sadhu	-12.141
▁saffron	-12.141
▁sailboat	-12.141
▁sailing	-12.141
▁salesman	-12.141
▁sallust	-12.141
▁salute	-12.141
▁san	-12.141
▁sand	-12.141
▁sandwhich	-12.141
▁sank	-12.141
▁sanskrit	-12.141
▁santos	-12.141
▁sappy	-12.141
▁sarah	-12.141
▁saturated	-12.141
▁saver	-12.141
▁savor	-12.141
▁savory	-12.141
▁sb	-12.141
▁sbout	-12.141
▁scalp	-12.141
▁scanning	-12.141
▁scarborough	-12.141
▁scarcity	-12.141
▁scariest	-12.141
▁scarificed	-12.141
▁scaring	-12.141
▁scarred	-12.141
▁schooler	-12.141
▁schooling	-12.141
▁schoonmaker	-12.141
▁schopenhauer	-12.141
▁schreiber	-12.141
▁sci	-12.141
▁scored	-12.141
▁scoring	-12.141
▁scorn	-12.141
▁scorsese	-12.141
▁scramble	-12.141
▁scrambled	-12.141
▁scrape	-12.141
▁scraping	-12.141
▁scratched	-12.141
▁scrawled	-12.141
▁screenshots	-12.141
▁scriptural	-12.141
▁scripture	-12.141
▁scroll	-12.141
▁scrutinise	-12.141
▁scrutiny	-12.141
▁sculpt	-12.141
▁sculpting	-12.141
▁sculpture	-12.141
▁scumbags	-12.141
▁sean	-12.141
▁seasoning	-12.141
▁sec	-12.141
▁secluded	-12.141
▁secondarily	-12.141
▁secondary	-12.141
▁secreted	-12.141
▁secretion	-12.141
▁sector	-12.141
▁sedated	-12.141
▁sedating	-12.141
▁seeked	-12.141
▁seeming	-12.141
▁seeps	-12.141
▁segment	-12.141
▁seldom	-12.141
▁selected	-12.141
▁selectively	-12.141
▁selen	-12.141
▁selfharm	-12.141
▁selfharming	-12.141
▁selfless	-12.141
▁seligman	-12.141
▁semen	-12.141
▁senate	-12.141
▁senegal	-12.141
▁sensaion	-12.141
▁sensory	-12.141
▁sentimental	-12.141
▁seperate	-12.141
▁seperation	-12.141
▁sequel	-12.141
▁seratonin	-12.141
▁serf	-12.141
