▁feel	-4.46168
<s>	0
</s>	0
<unk>	0
▁wa	-4.46306
▁like	-4.4672
▁time	-4.69972
▁life	-4.73224
▁get	-4.78975
▁know	-4.81685
▁want	-4.91577
▁thing	-4.99149
▁day	-5.04837
▁even	-5.14616
▁people	-5.15163
▁year	-5.17101
▁one	-5.24648
▁make	-5.25557
▁really	-5.26678
▁work	-5.28437
▁help	-5.33578
▁ha	-5.34461
▁think	-5.38765
▁stress	-5.40752
▁would	-5.40752
▁going	-5.49765
▁go	-5.53048
▁friend	-5.54122
▁much	-5.57974
▁something	-5.58114
▁feeling	-5.60675
▁way	-5.63155
▁never	-5.63748
▁always	-5.67071
▁thought	-5.68152
▁love	-5.7035
▁everything	-5.75063
▁take	-5.75563
▁back	-5.76234
▁also	-5.7742
▁need	-5.77932
▁keep	-5.79138
▁good	-5.80183
▁u	-5.82307
▁still	-5.86509
▁job	-5.88202
▁every	-5.89155
▁depression	-5.91481
▁better	-5.94466
▁could	-5.94669
▁right	-5.95482
▁someone	-5.97752
▁anxiety	-5.9817
▁anything	-5.98801
▁new	-5.98801
▁lot	-6.00718
▁week	-6.01149
▁anyone	-6.01366
▁happy	-6.02454
▁say	-6.0422
▁month	-6.06929
▁bad	-6.07388
▁hard	-6.07618
▁trying	-6.08544
▁moment	-6.09478
▁got	-6.10897
▁try	-6.12577
▁well	-6.13306
▁happiness	-6.15028
▁school	-6.15526
▁since	-6.16277
▁come	-6.17034
▁family	-6.17796
▁nothing	-6.18051
▁start	-6.18307
▁many	-6.18564
▁find	-6.18822
▁see	-6.1908
▁amp	-6.19858
▁today	-6.20642
▁first	-6.21698
▁everyone	-6.22764
▁self	-6.29702
▁anymore	-6.31149
▁mind	-6.31149
▁mental	-6.32028
▁give	-6.32322
▁live	-6.32618
▁ever	-6.32914
▁last	-6.33211
▁person	-6.33808
▁getting	-6.35316
▁point	-6.35316
▁long	-6.36848
▁pain	-6.37157
▁end	-6.37467
▁sleep	-6.37778
▁else	-6.3809
▁past	-6.38717
▁made	-6.39032
▁world	-6.39983
▁problem	-6.42237
▁best	-6.42891
▁started	-6.44544
▁change	-6.44878
▁health	-6.44878
▁im	-6.45886
▁talk	-6.46905
▁care	-6.47247
▁hate	-6.47247
▁away	-6.4759
▁sometimes	-6.47934
▁depressed	-6.48279
▁around	-6.48974
▁stressed	-6.48974
▁home	-6.49323
▁stop	-6.49673
▁let	-6.50377
▁tell	-6.50731
▁thinking	-6.51087
▁doe	-6.51801
▁felt	-6.53609
▁hour	-6.55451
▁without	-6.56573
▁experience	-6.58088
▁fucking	-6.58854
▁used	-6.59626
▁tired	-6.60015
▁parent	-6.60404
▁look	-6.60796
▁maybe	-6.60796
▁hope	-6.63177
▁told	-6.63177
▁please	-6.64389
▁little	-6.66028
▁working	-6.66028
▁though	-6.67695
▁done	-6.68116
▁different	-6.68539
▁put	-6.68539
▁might	-6.68964
▁others	-6.68964
▁part	-6.70248
▁ago	-6.7155
▁cry	-6.71988
▁reason	-6.71988
▁body	-6.72427
▁taking	-6.72427
▁living	-6.74205
▁worse	-6.75106
▁sad	-6.75559
▁emotion	-6.76015
▁listen	-6.76015
▁said	-6.76473
▁tried	-6.76473
▁place	-6.76932
▁dont	-6.77394
▁alone	-6.77858
▁able	-6.78325
▁shit	-6.78325
▁actually	-6.78793
▁wanted	-6.79263
▁head	-6.80211
▁making	-6.8165
▁two	-6.8165
▁wish	-6.8165
▁focus	-6.82135
▁may	-6.82135
▁another	-6.8311
▁remember	-6.8311
▁mom	-6.83602
▁enough	-6.84095
▁etc	-6.84095
▁guy	-6.8509
▁video	-6.87111
▁night	-6.87622
▁idea	-6.88136
▁money	-6.88136
▁wrong	-6.88136
▁situation	-6.88653
▁high	-6.9022
▁step	-6.90747
▁great	-6.91278
▁looking	-6.91278
▁success	-6.91811
▁energy	-6.92887
▁college	-6.93974
▁relationship	-6.94521
▁goal	-6.95072
▁already	-6.96184
▁hurt	-6.96184
▁minute	-6.96184
▁went	-6.96184
▁almost	-6.96744
▁lost	-6.96744
▁important	-6.97307
▁anxious	-6.97874
▁therapy	-6.99017
▁understand	-6.99017
▁constantly	-6.99593
▁heart	-6.99593
▁die	-7.00756
▁normal	-7.00756
▁issue	-7.01342
▁next	-7.01342
▁found	-7.01932
▁mean	-7.01932
▁question	-7.01932
▁post	-7.03123
▁study	-7.03723
▁sure	-7.03723
▁kind	-7.04328
▁lt	-7.04328
▁positive	-7.04936
▁everyday	-7.05547
▁learn	-7.06163
▁left	-7.06163
▁old	-7.06163
▁whole	-7.08663
▁call	-7.09298
▁become	-7.09937
▁class	-7.09937
▁future	-7.09937
▁social	-7.1058
▁happen	-7.11227
▁matter	-7.11227
▁recently	-7.11227
▁talking	-7.11227
▁drey	-7.11878
▁fear	-7.13194
▁use	-7.13859
▁yet	-7.13859
▁le	-7.14528
▁leave	-7.14528
▁move	-7.14528
▁share	-7.15201
▁mother	-7.15879
▁ask	-7.16561
▁covid	-7.16561
▁daily	-7.16561
▁deal	-7.16561
▁music	-7.16561
▁stuff	-7.16561
▁advice	-7.17249
▁bit	-7.17249
▁cause	-7.17249
▁course	-7.17249
▁least	-7.17249
▁house	-7.17941
▁human	-7.17941
▁pretty	-7.18638
▁due	-7.19339
▁meditation	-7.19339
▁support	-7.19339
▁brain	-7.20046
▁finally	-7.20046
▁scared	-7.20046
▁bed	-7.22197
▁free	-7.22197
▁often	-7.22924
▁ok	-7.23657
▁present	-7.23657
▁believe	-7.24395
▁read	-7.24395
▁seems	-7.24395
▁control	-7.25138
▁inside	-7.25138
▁probably	-7.25887
▁together	-7.26642
▁close	-7.28169
▁needed	-7.28169
▁suffering	-7.28169
▁difficult	-7.28941
▁either	-7.28941
▁fuck	-7.28941
▁push	-7.29719
▁word	-7.29719
▁state	-7.30503
▁writing	-7.30503
▁dream	-7.31294
▁break	-7.32091
▁real	-7.32091
▁full	-7.33704
▁gonna	-7.33704
▁thank	-7.3452
▁enjoy	-7.35343
▁happened	-7.35343
▁completely	-7.36173
▁level	-7.36173
▁forward	-7.3701
▁medication	-7.3701
▁dad	-7.37854
▁took	-7.37854
▁currently	-7.38705
▁rather	-7.38705
▁second	-7.38705
▁story	-7.38705
▁starting	-7.39563
▁stay	-7.39563
▁honestly	-7.40429
▁saying	-7.40429
▁guess	-7.41302
▁online	-7.41302
▁outside	-7.41302
▁sorry	-7.41302
▁hi	-7.42183
▁morning	-7.42183
▁symptom	-7.42183
▁doctor	-7.43072
▁peace	-7.43072
▁plan	-7.43072
▁suicide	-7.43072
▁thats	-7.43072
▁seem	-7.43969
▁wanna	-7.43969
▁cant	-7.44874
▁couple	-7.44874
▁deep	-7.44874
▁later	-7.44874
▁age	-7.45787
▁face	-7.45787
▁motivation	-7.46709
▁successful	-7.46709
▁truly	-7.47639
▁whatever	-7.47639
▁god	-7.48578
▁pandemic	-7.48578
▁small	-7.48578
▁learning	-7.49526
▁man	-7.49526
▁phone	-7.49526
▁set	-7.49526
▁attack	-7.50483
▁interview	-7.50483
▁pay	-7.50483
▁usually	-7.50483
▁big	-7.51449
▁came	-7.51449
▁far	-7.51449
▁grade	-7.51449
▁kid	-7.51449
▁eye	-7.52425
▁worry	-7.52425
▁especially	-7.5341
▁memory	-7.5341
▁open	-7.5341
▁stressful	-7.5341
▁eat	-7.54405
▁habit	-7.54405
▁learned	-7.54405
▁low	-7.54405
▁negative	-7.54405
▁sense	-7.54405
▁behind	-7.56425
▁car	-7.56425
▁emotional	-7.56425
▁fact	-7.56425
▁rest	-7.56425
▁turn	-7.56425
▁gone	-7.57451
▁basically	-7.58487
▁book	-7.58487
▁group	-7.58487
▁hand	-7.58487
▁literally	-7.58487
▁thanks	-7.58487
▁helped	-7.59534
▁meet	-7.59534
▁possible	-7.59534
▁show	-7.59534
▁struggling	-7.59534
▁student	-7.59534
▁worst	-7.59534
▁write	-7.59534
▁called	-7.60593
▁room	-7.60593
▁physical	-7.61662
▁worked	-7.61662
▁handle	-7.62743
▁happens	-7.62743
▁supposed	-7.62743
▁wake	-7.62743
▁fine	-7.63836
▁lately	-7.63836
▁reading	-7.63836
▁stuck	-7.63836
▁therapist	-7.63836
▁cannot	-7.64941
▁hey	-7.64941
▁pressure	-7.64941
▁top	-7.64941
▁instead	-7.66058
▁must	-7.66058
▁tip	-7.66058
▁aware	-7.67188
▁game	-7.67188
▁panic	-7.67188
▁super	-7.67188
▁university	-7.67188
▁whenever	-7.67188
▁along	-7.68331
▁easy	-7.68331
▁girl	-7.68331
▁mistake	-7.68331
▁short	-7.68331
▁sound	-7.68331
▁spent	-7.68331
▁true	-7.68331
▁happening	-7.69487
▁light	-7.69487
▁sick	-7.69487
▁teacher	-7.69487
▁child	-7.70657
▁coming	-7.70657
▁constant	-7.70657
▁decided	-7.70657
▁drive	-7.70657
▁hit	-7.70657
▁mindset	-7.70657
▁result	-7.70657
▁boyfriend	-7.7184
▁calm	-7.7184
▁joy	-7.7184
▁kill	-7.7184
▁lead	-7.7184
▁loved	-7.7184
▁worried	-7.7184
▁asked	-7.73038
▁awareness	-7.73038
▁longer	-7.73038
▁spend	-7.73038
▁test	-7.73038
▁afraid	-7.7425
▁bring	-7.7425
▁career	-7.7425
▁choice	-7.7425
▁create	-7.7425
▁okay	-7.7425
▁proud	-7.7425
▁research	-7.7425
▁single	-7.7425
▁country	-7.75477
▁lived	-7.75477
▁moving	-7.75477
▁sit	-7.75477
▁suicidal	-7.75477
▁asking	-7.76719
▁effect	-7.76719
▁exercise	-7.76719
▁interested	-7.76719
▁soon	-7.76719
▁taken	-7.76719
▁universe	-7.76719
▁angry	-7.77977
▁broke	-7.77977
▁food	-7.77977
▁given	-7.77977
▁hear	-7.77977
▁hello	-7.77977
▁nice	-7.77977
▁nobody	-7.77977
▁space	-7.77977
▁amount	-7.79251
▁healing	-7.79251
▁healthy	-7.79251
▁knew	-7.79251
▁sadness	-7.79251
▁treatment	-7.79251
▁wanting	-7.79251
▁youtube	-7.79251
▁certain	-7.80542
▁extremely	-7.80542
▁giving	-7.80542
▁journey	-7.80542
▁name	-7.80542
▁process	-7.80542
▁side	-7.80542
▁early	-7.81849
▁follow	-7.81849
▁miss	-7.81849
▁worth	-7.81849
▁drug	-7.83173
▁telling	-7.83173
▁based	-7.84516
▁continue	-7.84516
▁fun	-7.84516
▁lie	-7.84516
▁seen	-7.84516
▁struggle	-7.84516
▁survey	-7.84516
▁disorder	-7.85876
▁forget	-7.85876
▁however	-7.85876
▁late	-7.85876
▁link	-7.85876
▁personal	-7.85876
▁reach	-7.85876
▁realize	-7.85876
▁waiting	-7.85876
▁whether	-7.85876
▁within	-7.85876
▁death	-7.87256
▁grateful	-7.87256
▁half	-7.87256
▁lonely	-7.87256
▁medium	-7.87256
▁pushing	-7.87256
▁anyway	-7.88654
▁became	-7.88654
▁check	-7.88654
▁exam	-7.88654
▁lack	-7.88654
▁play	-7.88654
▁stupid	-7.88654
▁towards	-7.88654
▁alive	-7.90073
▁answer	-7.90073
▁experienced	-7.90073
▁helping	-7.90073
▁hold	-7.90073
▁type	-7.90073
▁walk	-7.90073
▁company	-7.91511
▁sort	-7.91511
▁watch	-7.91511
▁purpose	-7.92971
▁quite	-7.92971
▁seeing	-7.92971
▁attention	-7.94453
▁brother	-7.94453
▁diagnosed	-7.94453
▁med	-7.94453
▁mood	-7.94453
▁run	-7.94453
▁sister	-7.94453
▁accept	-7.95957
▁empty	-7.95957
▁entire	-7.95957
▁finding	-7.95957
▁individual	-7.95957
▁power	-7.95957
▁quit	-7.95957
▁soul	-7.95957
▁three	-7.95957
▁eventually	-7.97483
▁fight	-7.97483
▁project	-7.97483
▁severe	-7.97483
▁truth	-7.97483
▁beautiful	-7.99034
▁breathe	-7.99034
▁example	-7.99034
▁expectation	-7.99034
▁girlfriend	-7.99034
▁idk	-7.99034
▁reality	-7.99034
▁reddit	-7.99034
▁simple	-7.99034
▁sleeping	-7.99034
▁stopped	-7.99034
▁young	-7.99034
▁activity	-8.00609
▁anger	-8.00609
▁choose	-8.00609
▁eating	-8.00609
▁event	-8.00609
▁figure	-8.00609
▁hell	-8.00609
▁information	-8.00609
▁notice	-8.00609
▁turned	-8.00609
▁weird	-8.00609
▁yes	-8.00609
▁adult	-8.02209
▁allow	-8.02209
▁business	-8.02209
▁changed	-8.02209
▁failure	-8.02209
▁focusing	-8.02209
▁improve	-8.02209
▁knowing	-8.02209
▁losing	-8.02209
▁met	-8.02209
▁passion	-8.02209
▁suck	-8.02209
▁suffer	-8.02209
▁episode	-8.03835
▁impact	-8.03835
▁mine	-8.03835
▁practice	-8.03835
▁sitting	-8.03835
▁account	-8.05488
▁amazing	-8.05488
▁comment	-8.05488
▁form	-8.05488
▁kinda	-8.05488
▁path	-8.05488
▁watching	-8.05488
▁article	-8.07168
▁degree	-8.07168
▁explain	-8.07168
▁fill	-8.07168
▁pas	-8.07168
▁somehow	-8.07168
▁driving	-8.08878
▁gratitude	-8.08878
▁greater	-8.08878
▁major	-8.08878
▁term	-8.08878
▁wife	-8.08878
▁wondering	-8.08878
▁act	-8.10617
▁action	-8.10617
▁apart	-8.10617
▁breath	-8.10617
▁cut	-8.10617
▁four	-8.10617
▁period	-8.10617
▁dealing	-8.12387
▁decision	-8.12387
▁dying	-8.12387
▁force	-8.12387
▁ive	-8.12387
▁known	-8.12387
▁putting	-8.12387
▁understanding	-8.12387
▁woman	-8.12387
▁absolutely	-8.14189
▁anybody	-8.14189
▁desire	-8.14189
▁easier	-8.14189
▁kept	-8.14189
▁killing	-8.14189
▁lose	-8.14189
▁mentally	-8.14189
▁option	-8.14189
▁physically	-8.14189
▁podcasts	-8.14189
▁several	-8.14189
▁society	-8.14189
▁studying	-8.14189
▁technique	-8.14189
▁tension	-8.14189
▁using	-8.14189
▁achieve	-8.16024
▁across	-8.16024
▁assignment	-8.16024
▁conversation	-8.16024
▁heard	-8.16024
▁huge	-8.16024
▁meant	-8.16024
▁member	-8.16024
▁perspective	-8.16024
▁reduce	-8.16024
▁simply	-8.16024
▁wait	-8.16024
▁whats	-8.16024
▁alcohol	-8.17893
▁breakdown	-8.17893
▁message	-8.17893
▁movie	-8.17893
▁opportunity	-8.17893
▁release	-8.17893
▁session	-8.17893
▁smile	-8.17893
▁spiritual	-8.17893
▁trust	-8.17893
▁water	-8.17893
▁ability	-8.19798
▁comfort	-8.19798
▁deserve	-8.19798
▁headache	-8.19798
▁illness	-8.19798
▁management	-8.19798
▁mostly	-8.19798
▁participant	-8.19798
▁son	-8.19798
▁yesterday	-8.19798
▁appreciate	-8.2174
▁busy	-8.2174
▁chest	-8.2174
▁complete	-8.2174
▁contact	-8.2174
▁dog	-8.2174
▁fail	-8.2174
▁following	-8.2174
▁hair	-8.2174
▁listening	-8.2174
▁nature	-8.2174
▁number	-8.2174
▁playing	-8.2174
▁saw	-8.2174
▁similar	-8.2174
▁born	-8.2372
▁condition	-8.2372
▁cope	-8.2372
▁fall	-8.2372
▁gotten	-8.2372
▁manage	-8.2372
▁numb	-8.2372
▁overwhelmed	-8.2372
▁ready	-8.2372
▁realized	-8.2372
▁relief	-8.2372
▁stand	-8.2372
▁straight	-8.2372
▁upset	-8.2372
▁app	-8.2574
▁appreciated	-8.2574
▁belief	-8.2574
▁cost	-8.2574
▁current	-8.2574
▁exactly	-8.2574
▁expect	-8.2574
▁fix	-8.2574
▁goosebump	-8.2574
▁horrible	-8.2574
▁list	-8.2574
▁terrible	-8.2574
▁tomorrow	-8.2574
▁trauma	-8.2574
▁barely	-8.27802
▁caused	-8.27802
▁chill	-8.27802
▁cold	-8.27802
▁dead	-8.27802
▁general	-8.27802
▁hospital	-8.27802
▁miserable	-8.27802
▁missing	-8.27802
▁noticed	-8.27802
▁talked	-8.27802
▁visit	-8.27802
▁worrying	-8.27802
▁birthday	-8.29907
▁despite	-8.29907
▁ex	-8.29907
▁front	-8.29907
▁mad	-8.29907
▁mess	-8.29907
▁opinion	-8.29907
▁order	-8.29907
▁semester	-8.29907
▁task	-8.29907
▁useless	-8.29907
▁wave	-8.29907
▁blood	-8.32058
▁challenge	-8.32058
▁died	-8.32058
▁easily	-8.32058
▁fast	-8.32058
▁hoping	-8.32058
▁method	-8.32058
▁related	-8.32058
▁shitty	-8.32058
▁skill	-8.32058
▁strong	-8.32058
▁awful	-8.34256
▁content	-8.34256
▁crazy	-8.34256
▁cycle	-8.34256
▁date	-8.34256
▁drink	-8.34256
▁emotionally	-8.34256
▁happier	-8.34256
▁harder	-8.34256
▁line	-8.34256
▁moved	-8.34256
▁relax	-8.34256
▁sharing	-8.34256
▁sign	-8.34256
▁art	-8.36503
▁begin	-8.36503
▁broken	-8.36503
▁comfortable	-8.36503
▁dark	-8.36503
▁eligible	-8.36503
▁finish	-8.36503
▁honest	-8.36503
▁interesting	-8.36503
▁main	-8.36503
▁poor	-8.36503
▁questionnaire	-8.36503
▁relate	-8.36503
▁text	-8.36503
▁uni	-8.36503
▁add	-8.38802
▁breathing	-8.38802
▁brief	-8.38802
▁build	-8.38802
▁case	-8.38802
▁chance	-8.38802
▁circumstance	-8.38802
▁difference	-8.38802
▁failed	-8.38802
▁faith	-8.38802
▁father	-8.38802
▁fault	-8.38802
▁focused	-8.38802
▁google	-8.38802
▁growing	-8.38802
▁leaving	-8.38802
▁meaning	-8.38802
▁receive	-8.38802
▁shift	-8.38802
▁slowly	-8.38802
▁speak	-8.38802
▁stressing	-8.38802
▁tend	-8.38802
▁although	-8.41155
▁area	-8.41155
▁beat	-8.41155
▁city	-8.41155
▁detail	-8.41155
▁drinking	-8.41155
▁effort	-8.41155
▁exhausted	-8.41155
▁growth	-8.41155
▁insecurity	-8.41155
▁internet	-8.41155
▁loser	-8.41155
▁multiple	-8.41155
▁overcome	-8.41155
▁progress	-8.41155
▁relaxing	-8.41155
▁running	-8.41155
▁stomach	-8.41155
▁supplement	-8.41155
▁ups	-8.41155
▁weekend	-8.41155
▁beginning	-8.43565
▁benefit	-8.43565
▁computer	-8.43565
▁creating	-8.43565
▁except	-8.43565
▁fucked	-8.43565
▁grow	-8.43565
▁knowledge	-8.43565
▁nearly	-8.43565
▁none	-8.43565
▁oh	-8.43565
▁perfect	-8.43565
▁quote	-8.43565
▁screen	-8.43565
▁serious	-8.43565
▁suddenly	-8.43565
▁sun	-8.43565
▁tool	-8.43565
▁avoid	-8.46034
▁b	-8.46034
▁caught	-8.46034
▁fighting	-8.46034
▁forced	-8.46034
▁fully	-8.46034
▁hurting	-8.46034
▁ill	-8.46034
▁keeping	-8.46034
▁manager	-8.46034
▁passed	-8.46034
▁paying	-8.46034
▁program	-8.46034
▁seemed	-8.46034
▁somewhere	-8.46034
▁specific	-8.46034
▁yeah	-8.46034
▁anywhere	-8.48566
▁brings	-8.48566
▁bullshit	-8.48566
▁burden	-8.48566
▁depressive	-8.48566
▁email	-8.48566
▁falling	-8.48566
▁higher	-8.48566
▁hobby	-8.48566
▁immediately	-8.48566
▁looked	-8.48566
▁non	-8.48566
▁solution	-8.48566
▁tv	-8.48566
▁waking	-8.48566
▁walking	-8.48566
▁weight	-8.48566
▁yoga	-8.48566
▁apartment	-8.51163
▁becoming	-8.51163
▁buy	-8.51163
▁field	-8.51163
▁final	-8.51163
▁gave	-8.51163
▁loneliness	-8.51163
▁piece	-8.51163
▁regret	-8.51163
▁schedule	-8.51163
▁seriously	-8.51163
▁sex	-8.51163
▁skin	-8.51163
▁smart	-8.51163
▁system	-8.51163
▁topic	-8.51163
▁totally	-8.51163
▁tough	-8.51163
▁waste	-8.51163
▁bill	-8.5383
▁didnt	-8.5383
▁door	-8.5383
▁ended	-8.5383
▁exist	-8.5383
▁feedback	-8.5383
▁including	-8.5383
▁joke	-8.5383
▁loss	-8.5383
▁mention	-8.5383
▁partner	-8.5383
▁platform	-8.5383
▁pleasure	-8.5383
▁psychiatrist	-8.5383
▁quick	-8.5383
▁role	-8.5383
▁safe	-8.5383
▁special	-8.5383
▁struggled	-8.5383
▁track	-8.5383
▁value	-8.5383
▁weak	-8.5383
▁wonder	-8.5383
▁allowed	-8.5657
▁breaking	-8.5657
▁chronic	-8.5657
▁damn	-8.5657
▁develop	-8.5657
▁genuinely	-8.5657
▁heal	-8.5657
▁impossible	-8.5657
▁lazy	-8.5657
▁meditate	-8.5657
▁meeting	-8.5657
▁paid	-8.5657
▁random	-8.5657
▁response	-8.5657
▁seeking	-8.5657
▁tear	-8.5657
▁toxic	-8.5657
▁vent	-8.5657
▁affect	-8.59387
▁attempt	-8.59387
▁brought	-8.59387
▁causing	-8.59387
▁com	-8.59387
▁coping	-8.59387
▁experiencing	-8.59387
▁five	-8.59387
▁helpful	-8.59387
▁obviously	-8.59387
▁rant	-8.59387
▁rich	-8.59387
▁treat	-8.59387
▁antidepressant	-8.62286
▁anyways	-8.62286
▁apple	-8.62286
▁balance	-8.62286
▁card	-8.62286
▁escape	-8.62286
▁failing	-8.62286
▁gift	-8.62286
▁increase	-8.62286
▁key	-8.62286
▁men	-8.62286
▁relieve	-8.62286
▁shut	-8.62286
▁source	-8.62286
▁spotify	-8.62286
▁stage	-8.62286
▁uncomfortable	-8.62286
▁voice	-8.62286
▁worthless	-8.62286
▁abuse	-8.65271
▁afford	-8.65271
▁building	-8.65271
▁clean	-8.65271
▁community	-8.65271
▁confidence	-8.65271
▁earth	-8.65271
▁embrace	-8.65271
▁ending	-8.65271
▁gf	-8.65271
▁guilty	-8.65271
▁held	-8.65271
▁hopefully	-8.65271
▁interest	-8.65271
▁lol	-8.65271
▁office	-8.65271
▁older	-8.65271
▁position	-8.65271
▁professional	-8.65271
▁quickly	-8.65271
▁staying	-8.65271
▁summer	-8.65271
▁twice	-8.65271
▁boundary	-8.68349
▁changing	-8.68349
▁clear	-8.68349
▁closer	-8.68349
▁concept	-8.68349
▁cried	-8.68349
▁darkness	-8.68349
▁defining	-8.68349
▁direction	-8.68349
▁drop	-8.68349
▁exact	-8.68349
▁financial	-8.68349
▁holding	-8.68349
▁homework	-8.68349
▁intention	-8.68349
▁letting	-8.68349
▁natural	-8.68349
▁reaction	-8.68349
▁training	-8.68349
▁travel	-8.68349
▁unable	-8.68349
▁unless	-8.68349
▁badly	-8.71523
▁bought	-8.71523
▁concentrate	-8.71523
▁created	-8.71523
▁credit	-8.71523
▁deeper	-8.71523
▁driven	-8.71523
▁excuse	-8.71523
▁existence	-8.71523
▁filled	-8.71523
▁fit	-8.71523
▁guide	-8.71523
▁hole	-8.71523
▁inner	-8.71523
▁insomnia	-8.71523
▁lay	-8.71523
▁painful	-8.71523
▁patience	-8.71523
▁personality	-8.71523
▁r	-8.71523
▁rate	-8.71523
▁reply	-8.71523
▁routine	-8.71523
▁send	-8.71523
▁strength	-8.71523
▁throughout	-8.71523
▁air	-8.74802
▁appointment	-8.74802
▁cancer	-8.74802
▁consider	-8.74802
▁disappointed	-8.74802
▁distress	-8.74802
▁earlier	-8.74802
▁education	-8.74802
▁film	-8.74802
▁frequency	-8.74802
▁greatly	-8.74802
▁ground	-8.74802
▁hug	-8.74802
▁husband	-8.74802
▁male	-8.74802
▁mindfulness	-8.74802
▁motivated	-8.74802
▁note	-8.74802
▁onto	-8.74802
▁pill	-8.74802
▁pretending	-8.74802
▁psychology	-8.74802
▁rush	-8.74802
▁suggestion	-8.74802
▁syndrome	-8.74802
▁vision	-8.74802
▁win	-8.74802
▁battle	-8.78193
▁beyond	-8.78193
▁catch	-8.78193
▁cool	-8.78193
▁dating	-8.78193
▁divine	-8.78193
▁doubt	-8.78193
▁effective	-8.78193
▁excited	-8.78193
▁extra	-8.78193
▁forever	-8.78193
▁incredibly	-8.78193
▁laugh	-8.78193
▁liked	-8.78193
▁loving	-8.78193
▁medical	-8.78193
▁middle	-8.78193
▁normally	-8.78193
▁offer	-8.78193
▁picture	-8.78193
▁podcast	-8.78193
▁possibly	-8.78193
▁six	-8.78193
▁song	-8.78193
▁subject	-8.78193
▁trigger	-8.78193
▁ugly	-8.78193
▁wasted	-8.78193
▁bos	-8.81702
▁bother	-8.81702
▁crap	-8.81702
▁creative	-8.81702
▁dealt	-8.81702
▁fatigue	-8.81702
▁fresh	-8.81702
▁harm	-8.81702
▁invited	-8.81702
▁lesson	-8.81702
▁march	-8.81702
▁mum	-8.81702
▁quality	-8.81702
▁rent	-8.81702
▁selfish	-8.81702
▁separately	-8.81702
▁shown	-8.81702
▁sibling	-8.81702
▁strategy	-8.81702
▁team	-8.81702
▁trouble	-8.81702
▁view	-8.81702
▁willing	-8.81702
▁younger	-8.81702
▁asleep	-8.85338
▁available	-8.85338
▁baby	-8.85338
▁blame	-8.85338
▁blue	-8.85338
▁cared	-8.85338
▁certainly	-8.85338
▁common	-8.85338
▁confused	-8.85338
▁connect	-8.85338
▁deeply	-8.85338
▁dr	-8.85338
▁explains	-8.85338
▁factor	-8.85338
▁female	-8.85338
▁foot	-8.85338
▁frustration	-8.85338
▁hopeless	-8.85338
▁join	-8.85338
▁law	-8.85338
▁limit	-8.85338
▁master	-8.85338
▁math	-8.85338
▁naturally	-8.85338
▁near	-8.85338
▁offering	-8.85338
▁passionate	-8.85338
▁powerful	-8.85338
▁public	-8.85338
▁pushed	-8.85338
▁respect	-8.85338
▁seek	-8.85338
▁speaking	-8.85338
▁unhappy	-8.85338
▁wear	-8.85338
▁wont	-8.85338
▁york	-8.85338
▁accepting	-8.89112
▁accomplish	-8.89112
▁actual	-8.89112
▁addiction	-8.89112
▁applied	-8.89112
▁bottom	-8.89112
▁commit	-8.89112
▁compassion	-8.89112
▁ease	-8.89112
▁empathy	-8.89112
▁environment	-8.89112
▁evening	-8.89112
▁express	-8.89112
▁figured	-8.89112
▁finished	-8.89112
▁hang	-8.89112
▁hated	-8.89112
▁imagine	-8.89112
▁intense	-8.89112
▁internal	-8.89112
▁january	-8.89112
▁latest	-8.89112
▁luck	-8.89112
▁lucky	-8.89112
▁married	-8.89112
▁news	-8.89112
▁nightmare	-8.89112
▁opposite	-8.89112
▁overwhelming	-8.89112
▁posting	-8.89112
▁psychological	-8.89112
▁quiet	-8.89112
▁responsibility	-8.89112
▁series	-8.89112
▁sexual	-8.89112
▁spirit	-8.89112
▁stranger	-8.89112
▁subconscious	-8.89112
▁tho	-8.89112
▁title	-8.89112
▁touch	-8.89112
▁train	-8.89112
▁unfortunately	-8.89112
▁wellbeing	-8.89112
▁animal	-8.93035
▁apply	-8.93035
▁arm	-8.93035
▁author	-8.93035
▁bathroom	-8.93035
▁bunch	-8.93035
▁connection	-8.93035
▁courage	-8.93035
▁cuz	-8.93035
▁edge	-8.93035
▁facing	-8.93035
▁friendship	-8.93035
▁frustrated	-8.93035
▁generally	-8.93035
▁graduated	-8.93035
▁grandma	-8.93035
▁holiday	-8.93035
▁improvement	-8.93035
▁influence	-8.93035
▁involved	-8.93035
▁isolation	-8.93035
▁leg	-8.93035
▁managed	-8.93035
▁noise	-8.93035
▁ocd	-8.93035
▁pre	-8.93035
▁presence	-8.93035
▁ptsd	-8.93035
▁raise	-8.93035
▁resource	-8.93035
▁respond	-8.93035
▁rid	-8.93035
▁shoulder	-8.93035
▁slow	-8.93035
▁teach	-8.93035
▁teeth	-8.93035
▁trained	-8.93035
▁useful	-8.93035
▁wow	-8.93035
▁acting	-8.97117
▁annoying	-8.97117
▁biggest	-8.97117
▁blog	-8.97117
▁celebrate	-8.97117
▁center	-8.97117
▁clothes	-8.97117
▁columbia	-8.97117
▁customer	-8.97117
▁cutting	-8.97117
▁decade	-8.97117
▁decent	-8.97117
▁e	-8.97117
▁english	-8.97117
▁everytime	-8.97117
▁everywhere	-8.97117
▁function	-8.97117
▁heavy	-8.97117
▁material	-8.97117
▁mindful	-8.97117
▁misery	-8.97117
▁mobile	-8.97117
▁otherwise	-8.97117
▁ourself	-8.97117
▁overall	-8.97117
▁page	-8.97117
▁party	-8.97117
▁per	-8.97117
▁principle	-8.97117
▁psychologist	-8.97117
▁realizing	-8.97117
▁regularly	-8.97117
▁sensation	-8.97117
▁solve	-8.97117
▁stick	-8.97117
▁surface	-8.97117
▁teaching	-8.97117
▁tl	-8.97117
▁trash	-8.97117
▁various	-8.97117
▁wealth	-8.97117
▁alot	-9.01373
▁among	-9.01373
▁attitude	-9.01373
▁began	-9.01373
▁chat	-9.01373
▁childhood	-9.01373
▁clinician	-9.01373
▁compared	-9.01373
▁connected	-9.01373
▁definitely	-9.01373
▁existing	-9.01373
▁feature	-9.01373
▁fell	-9.01373
▁ignore	-9.01373
▁imposter	-9.01373
▁journal	-9.01373
▁judgement	-9.01373
▁judging	-9.01373
▁monster	-9.01373
▁nervous	-9.01373
▁nowhere	-9.01373
▁particularly	-9.01373
▁pathetic	-9.01373
▁pull	-9.01373
▁reached	-9.01373
▁realise	-9.01373
▁relaxation	-9.01373
▁road	-9.01373
▁root	-9.01373
▁ruined	-9.01373
▁sky	-9.01373
▁sober	-9.01373
▁somewhat	-9.01373
▁spending	-9.01373
▁sport	-9.01373
▁suffered	-9.01373
▁thousand	-9.01373
▁turning	-9.01373
▁wall	-9.01373
▁war	-9.01373
▁wisdom	-9.01373
▁zone	-9.01373
▁agree	-9.05818
▁allowing	-9.05818
▁allows	-9.05818
▁anti	-9.05818
▁aspect	-9.05818
▁besides	-9.05818
▁character	-9.05818
▁checked	-9.05818
▁chi	-9.05818
▁click	-9.05818
▁coffee	-9.05818
▁considering	-9.05818
▁cover	-9.05818
▁development	-9.05818
▁dollar	-9.05818
▁dropped	-9.05818
▁dumb	-9.05818
▁enjoying	-9.05818
▁everybody	-9.05818
▁exhausting	-9.05818
▁followed	-9.05818
▁graduate	-9.05818
▁grew	-9.05818
▁guilt	-9.05818
▁killed	-9.05818
▁lockdown	-9.05818
▁managing	-9.05818
▁medicine	-9.05818
▁missed	-9.05818
▁novel	-9.05818
▁overthinking	-9.05818
▁pick	-9.05818
▁productive	-9.05818
▁realised	-9.05818
▁refuse	-9.05818
▁released	-9.05818
▁rule	-9.05818
▁save	-9.05818
▁scare	-9.05818
▁sent	-9.05818
▁shared	-9.05818
▁significant	-9.05818
▁smoking	-9.05818
▁specially	-9.05818
▁sudden	-9.05818
▁supportive	-9.05818
▁tea	-9.05818
▁terrified	-9.05818
▁throw	-9.05818
▁trans	-9.05818
▁vacation	-9.05818
▁venting	-9.05818
▁worker	-9.05818
▁accident	-9.1047
▁added	-9.1047
▁application	-9.1047
▁argument	-9.1047
▁atleast	-9.1047
▁bright	-9.1047
▁christmas	-9.1047
▁compare	-9.1047
▁compensated	-9.1047
▁conditioned	-9.1047
▁considered	-9.1047
▁discover	-9.1047
▁discus	-9.1047
▁edit	-9.1047
▁external	-9.1047
▁famous	-9.1047
▁folk	-9.1047
▁industry	-9.1047
▁jump	-9.1047
▁kindness	-9.1047
▁likely	-9.1047
▁loud	-9.1047
▁mainly	-9.1047
▁mid	-9.1047
▁nerve	-9.1047
▁pop	-9.1047
▁popular	-9.1047
▁porn	-9.1047
▁prana	-9.1047
▁prior	-9.1047
▁provide	-9.1047
▁recognize	-9.1047
▁relaxed	-9.1047
▁service	-9.1047
▁shower	-9.1047
▁smoke	-9.1047
▁sweet	-9.1047
▁till	-9.1047
▁town	-9.1047
▁wrote	-9.1047
▁acknowledge	-9.15349
▁annoyed	-9.15349
▁aura	-9.15349
▁becomes	-9.15349
▁bf	-9.15349
▁burnt	-9.15349
▁chose	-9.15349
▁closed	-9.15349
▁consequence	-9.15349
▁convince	-9.15349
▁curious	-9.15349
▁debt	-9.15349
▁decide	-9.15349
▁embracing	-9.15349
▁esteem	-9.15349
▁euphoria	-9.15349
▁extreme	-9.15349
▁floor	-9.15349
▁happinessnow	-9.15349
▁hitting	-9.15349
▁identity	-9.15349
▁innovative	-9.15349
▁license	-9.15349
▁loan	-9.15349
▁maintain	-9.15349
▁mg	-9.15349
▁minor	-9.15349
▁muscle	-9.15349
▁participate	-9.15349
▁planet	-9.15349
▁plus	-9.15349
▁pretend	-9.15349
▁rare	-9.15349
▁realization	-9.15349
▁rn	-9.15349
▁science	-9.15349
▁season	-9.15349
▁soothing	-9.15349
▁store	-9.15349
▁telehealth	-9.15349
▁thus	-9.15349
▁unique	-9.15349
▁utilize	-9.15349
▁ward	-9.15349
▁xanax	-9.15349
▁yorkers	-9.15349
▁absolute	-9.20478
▁abusive	-9.20478
▁adhd	-9.20478
▁advance	-9.20478
▁bank	-9.20478
▁bottle	-9.20478
▁calling	-9.20478
▁channel	-9.20478
▁chemical	-9.20478
▁combination	-9.20478
▁conscious	-9.20478
▁contribute	-9.20478
▁daughter	-9.20478
▁diet	-9.20478
▁disease	-9.20478
▁distance	-9.20478
▁dramatic	-9.20478
▁drunk	-9.20478
▁fake	-9.20478
▁fog	-9.20478
▁greatest	-9.20478
▁hide	-9.20478
▁history	-9.20478
▁income	-9.20478
▁insane	-9.20478
▁led	-9.20478
▁mask	-9.20478
▁meditating	-9.20478
▁monday	-9.20478
▁p	-9.20478
▁passing	-9.20478
▁perform	-9.20478
▁planned	-9.20478
▁planning	-9.20478
▁played	-9.20478
▁pray	-9.20478
▁properly	-9.20478
▁regular	-9.20478
▁scary	-9.20478
▁screaming	-9.20478
▁secret	-9.20478
▁sensitive	-9.20478
▁shake	-9.20478
▁showing	-9.20478
▁snap	-9.20478
▁socially	-9.20478
▁spirituality	-9.20478
▁stressor	-9.20478
▁stutter	-9.20478
▁succeed	-9.20478
▁taught	-9.20478
▁tonight	-9.20478
▁trick	-9.20478
▁usual	-9.20478
▁vitamin	-9.20478
▁zero	-9.20478
▁zoom	-9.20478
▁addition	-9.25885
▁affection	-9.25885
▁apparently	-9.25885
▁applying	-9.25885
▁approach	-9.25885
▁attractive	-9.25885
▁average	-9.25885
▁background	-9.25885
▁block	-9.25885
▁bothering	-9.25885
▁chore	-9.25885
▁complain	-9.25885
▁crisis	-9.25885
▁data	-9.25885
▁deadline	-9.25885
▁desperately	-9.25885
▁distant	-9.25885
▁ecstasy	-9.25885
▁essay	-9.25885
▁fire	-9.25885
▁funny	-9.25885
▁gmail	-9.25885
▁green	-9.25885
▁hardly	-9.25885
▁hearing	-9.25885
▁homeless	-9.25885
▁improved	-9.25885
▁jesus	-9.25885
▁journaling	-9.25885
▁judge	-9.25885
▁jumping	-9.25885
▁map	-9.25885
▁mechanism	-9.25885
▁mile	-9.25885
▁min	-9.25885
▁paper	-9.25885
▁participation	-9.25885
▁particular	-9.25885
▁perhaps	-9.25885
▁plant	-9.25885
▁plenty	-9.25885
▁pm	-9.25885
▁posted	-9.25885
▁prepared	-9.25885
▁product	-9.25885
▁pursue	-9.25885
▁reaching	-9.25885
▁react	-9.25885
▁recent	-9.25885
▁repeat	-9.25885
▁shape	-9.25885
▁site	-9.25885
▁slept	-9.25885
▁spring	-9.25885
▁stopping	-9.25885
▁sunshine	-9.25885
▁surrounded	-9.25885
▁tiny	-9.25885
▁treated	-9.25885
▁trip	-9.25885
▁ultimately	-9.25885
▁upon	-9.25885
▁valid	-9.25885
▁vulnerable	-9.25885
▁weed	-9.25885
▁woke	-9.25885
▁accepted	-9.31601
▁access	-9.31601
▁alternative	-9.31601
▁anytime	-9.31601
▁april	-9.31601
▁aside	-9.31601
▁basis	-9.31601
▁bc	-9.31601
▁bringing	-9.31601
▁caring	-9.31601
▁challenging	-9.31601
▁church	-9.31601
▁co	-9.31601
▁context	-9.31601
▁coronavirus	-9.31601
▁depressing	-9.31601
▁diary	-9.31601
▁disappear	-9.31601
▁disappointment	-9.31601
▁doesnt	-9.31601
▁drag	-9.31601
▁ego	-9.31601
▁explaining	-9.31601
▁february	-9.31601
▁frequently	-9.31601
▁guided	-9.31601
▁helpless	-9.31601
▁highschool	-9.31601
▁hormone	-9.31601
▁insurance	-9.31601
▁kick	-9.31601
▁laying	-9.31601
▁leading	-9.31601
▁lift	-9.31601
▁local	-9.31601
▁lovely	-9.31601
▁mana	-9.31601
▁marriage	-9.31601
▁meal	-9.31601
▁messed	-9.31601
▁neck	-9.31601
▁noticing	-9.31601
▁payment	-9.31601
▁personally	-9.31601
▁previous	-9.31601
▁professor	-9.31601
▁prove	-9.31601
▁recommend	-9.31601
▁recovered	-9.31601
▁return	-9.31601
▁ride	-9.31601
▁rise	-9.31601
▁rising	-9.31601
▁risk	-9.31601
▁roommate	-9.31601
▁roosh	-9.31601
▁sat	-9.31601
▁saving	-9.31601
▁scream	-9.31601
▁sentence	-9.31601
▁setting	-9.31601
▁specifically	-9.31601
▁spoken	-9.31601
▁stayed	-9.31601
▁stronger	-9.31601
▁subreddit	-9.31601
▁surgery	-9.31601
▁talent	-9.31601
▁third	-9.31601
▁total	-9.31601
▁understood	-9.31601
▁unhealthy	-9.31601
▁withdrawal	-9.31601
▁wonderful	-9.31601
▁abundance	-9.37663
▁acceptance	-9.37663
▁addict	-9.37663
▁afterwards	-9.37663
▁ahead	-9.37663
▁authentic	-9.37663
▁bear	-9.37663
▁behaviour	-9.37663
▁bigger	-9.37663
▁blocked	-9.37663
▁brand	-9.37663
▁calendar	-9.37663
▁calming	-9.37663
▁capacity	-9.37663
▁club	-9.37663
▁coach	-9.37663
▁consume	-9.37663
▁convinced	-9.37663
▁core	-9.37663
▁countless	-9.37663
▁culture	-9.37663
▁december	-9.37663
▁desperate	-9.37663
▁distraction	-9.37663
▁employee	-9.37663
▁emptiness	-9.37663
▁everyones	-9.37663
▁expected	-9.37663
▁financially	-9.37663
▁forgot	-9.37663
▁forth	-9.37663
▁freaking	-9.37663
▁gender	-9.37663
▁gentle	-9.37663
▁grown	-9.37663
▁hanging	-9.37663
▁hot	-9.37663
▁include	-9.37663
▁increased	-9.37663
▁info	-9.37663
▁insight	-9.37663
▁instant	-9.37663
▁instantly	-9.37663
▁intervention	-9.37663
▁jeremy	-9.37663
▁john	-9.37663
▁lo	-9.37663
▁load	-9.37663
▁lying	-9.37663
▁massive	-9.37663
▁melody	-9.37663
▁mentioned	-9.37663
▁mild	-9.37663
▁mri	-9.37663
▁negativity	-9.37663
▁nurse	-9.37663
▁outcome	-9.37663
▁pattern	-9.37663
▁police	-9.37663
▁potential	-9.37663
▁qi	-9.37663
▁rapture	-9.37663
▁received	-9.37663
▁retail	-9.37663
▁review	-9.37663
▁roof	-9.37663
▁saved	-9.37663
▁score	-9.37663
▁severely	-9.37663
▁smiling	-9.37663
▁spot	-9.37663
▁stable	-9.37663
▁standard	-9.37663
▁sub	-9.37663
▁supervisor	-9.37663
▁swear	-9.37663
▁swept	-9.37663
▁teenager	-9.37663
▁ten	-9.37663
▁ton	-9.37663
▁uk	-9.37663
▁uncle	-9.37663
▁understands	-9.37663
▁warm	-9.37663
▁welcome	-9.37663
▁youth	-9.37663
▁achieved	-9.44117
▁achievement	-9.44117
▁achieving	-9.44117
▁admit	-9.44117
▁affected	-9.44117
▁artist	-9.44117
▁autism	-9.44117
▁basic	-9.44117
▁bipolar	-9.44117
▁bitch	-9.44117
▁blind	-9.44117
▁boy	-9.44117
▁built	-9.44117
▁capable	-9.44117
▁cat	-9.44117
▁clearly	-9.44117
▁client	-9.44117
▁clue	-9.44117
▁completed	-9.44117
▁conclusion	-9.44117
▁connecting	-9.44117
▁critical	-9.44117
▁cure	-9.44117
▁define	-9.44117
▁developed	-9.44117
▁draw	-9.44117
▁drawing	-9.44117
▁driver	-9.44117
▁ear	-9.44117
▁entrepreneur	-9.44117
▁essentially	-9.44117
▁extended	-9.44117
▁f	-9.44117
▁fixed	-9.44117
▁flat	-9.44117
▁flow	-9.44117
▁freedom	-9.44117
▁gas	-9.44117
▁grab	-9.44117
▁grief	-9.44117
▁gym	-9.44117
▁ignored	-9.44117
▁inevitable	-9.44117
▁inspiration	-9.44117
▁instagram	-9.44117
▁l	-9.44117
▁lasted	-9.44117
▁mode	-9.44117
▁motivate	-9.44117
▁neglect	-9.44117
▁neither	-9.44117
▁painting	-9.44117
▁perception	-9.44117
▁performance	-9.44117
▁pet	-9.44117
▁piano	-9.44117
▁pleasing	-9.44117
▁political	-9.44117
▁possibility	-9.44117
▁promotion	-9.44117
▁pure	-9.44117
▁quarantine	-9.44117
▁quitting	-9.44117
▁ran	-9.44117
▁regarding	-9.44117
▁resolve	-9.44117
▁rough	-9.44117
▁ruin	-9.44117
▁rushing	-9.44117
▁senior	-9.44117
▁shine	-9.44117
▁silence	-9.44117
▁somebody	-9.44117
▁speed	-9.44117
▁table	-9.44117
▁tracking	-9.44117
▁urge	-9.44117
▁voluntary	-9.44117
▁walked	-9.44117
▁wearing	-9.44117
▁website	-9.44117
▁yelling	-9.44117
▁accountability	-9.51016
▁alarm	-9.51016
▁alright	-9.51016
▁ambitious	-9.51016
▁attached	-9.51016
▁ball	-9.51016
▁beloved	-9.51016
▁blessing	-9.51016
▁bored	-9.51016
▁charge	-9.51016
▁complex	-9.51016
▁concentration	-9.51016
▁concerned	-9.51016
▁correct	-9.51016
▁counselor	-9.51016
▁count	-9.51016
▁craft	-9.51016
▁criticism	-9.51016
▁dear	-9.51016
▁delete	-9.51016
▁difficulty	-9.51016
▁drama	-9.51016
▁endless	-9.51016
▁entirely	-9.51016
▁favorite	-9.51016
▁finance	-9.51016
▁friday	-9.51016
▁gathering	-9.51016
▁gotta	-9.51016
▁graduating	-9.51016
▁hoped	-9.51016
▁independent	-9.51016
▁infinite	-9.51016
▁invite	-9.51016
▁large	-9.51016
▁leaf	-9.51016
▁lifestyle	-9.51016
▁majority	-9.51016
▁market	-9.51016
▁meaningful	-9.51016
▁mud	-9.51016
▁nephesch	-9.51016
▁nowadays	-9.51016
▁occasionally	-9.51016
▁organized	-9.51016
▁patient	-9.51016
▁paul	-9.51016
▁pause	-9.51016
▁peaceful	-9.51016
▁pissed	-9.51016
▁prescribed	-9.51016
▁private	-9.51016
▁produce	-9.51016
▁psych	-9.51016
▁rarely	-9.51016
▁recovering	-9.51016
▁remove	-9.51016
▁rock	-9.51016
▁ruah	-9.51016
▁rude	-9.51016
▁section	-9.51016
▁shame	-9.51016
▁slip	-9.51016
▁spiral	-9.51016
▁strange	-9.51016
▁tbh	-9.51016
▁throwing	-9.51016
▁tiring	-9.51016
▁toy	-9.51016
▁trapped	-9.51016
▁trial	-9.51016
▁tutorial	-9.51016
▁vice	-9.51016
▁vulnerability	-9.51016
▁wasting	-9.51016
▁weather	-9.51016
▁wheel	-9.51016
▁white	-9.51016
▁accomplished	-9.58427
▁ache	-9.58427
▁affecting	-9.58427
▁anonymous	-9.58427
▁appetite	-9.58427
▁apps	-9.58427
▁assumption	-9.58427
▁attempted	-9.58427
▁awkward	-9.58427
▁band	-9.58427
▁beauty	-9.58427
▁believed	-9.58427
▁black	-9.58427
▁boring	-9.58427
▁c	-9.58427
▁canada	-9.58427
▁clinic	-9.58427
▁commitment	-9.58427
▁coworker	-9.58427
▁creator	-9.58427
▁dedication	-9.58427
▁describe	-9.58427
▁diagnosis	-9.58427
▁differently	-9.58427
▁directly	-9.58427
▁discovered	-9.58427
▁distract	-9.58427
▁dorm	-9.58427
▁enemy	-9.58427
▁essential	-9.58427
▁faster	-9.58427
▁fat	-9.58427
▁fi	-9.58427
▁finishing	-9.58427
▁fired	-9.58427
▁fkn	-9.58427
▁flip	-9.58427
▁fortunate	-9.58427
▁functioning	-9.58427
▁gained	-9.58427
▁gpa	-9.58427
▁guidance	-9.58427
▁gun	-9.58427
▁hamster	-9.58427
▁hardest	-9.58427
▁hardship	-9.58427
▁hung	-9.58427
▁ielts	-9.58427
▁inspire	-9.58427
▁interaction	-9.58427
▁isnt	-9.58427
▁isolated	-9.58427
▁joined	-9.58427
▁launched	-9.58427
▁magic	-9.58427
▁michael	-9.58427
▁minded	-9.58427
▁minimum	-9.58427
▁mirror	-9.58427
▁mix	-9.58427
▁neurologist	-9.58427
▁obvious	-9.58427
▁ocean	-9.58427
▁permission	-9.58427
▁phase	-9.58427
▁plate	-9.58427
▁prescription	-9.58427
▁prevent	-9.58427
▁racing	-9.58427
▁radical	-9.58427
▁raised	-9.58427
▁red	-9.58427
▁remembering	-9.58427
▁resilience	-9.58427
▁satisfaction	-9.58427
▁scale	-9.58427
▁shaking	-9.58427
▁shining	-9.58427
▁silent	-9.58427
▁sometime	-9.58427
▁sore	-9.58427
▁spare	-9.58427
▁suggest	-9.58427
▁supported	-9.58427
▁teen	-9.58427
▁teenage	-9.58427
▁tendency	-9.58427
▁tight	-9.58427
▁toward	-9.58427
▁tunnel	-9.58427
▁typically	-9.58427
▁typing	-9.58427
▁ungrateful	-9.58427
▁unknown	-9.58427
▁version	-9.58427
▁via	-9.58427
▁virtual	-9.58427
▁wind	-9.58427
▁written	-9.58427
▁yell	-9.58427
▁abby	-9.66431
▁abused	-9.66431
▁active	-9.66431
▁ad	-9.66431
▁agreed	-9.66431
▁album	-9.66431
▁alice	-9.66431
▁answering	-9.66431
▁apologize	-9.66431
▁appear	-9.66431
▁argue	-9.66431
▁asks	-9.66431
▁asshole	-9.66431
▁awake	-9.66431
▁awesome	-9.66431
▁awhile	-9.66431
▁bag	-9.66431
▁boost	-9.66431
▁bothered	-9.66431
▁bpd	-9.66431
▁bridge	-9.66431
▁chaos	-9.66431
▁chapter	-9.66431
▁chosen	-9.66431
▁cleaning	-9.66431
▁concern	-9.66431
▁consistent	-9.66431
▁cook	-9.66431
▁developing	-9.66431
▁discussion	-9.66431
▁distracted	-9.66431
▁dull	-9.66431
▁editing	-9.66431
▁embarrassed	-9.66431
▁energetic	-9.66431
▁evidence	-9.66431
▁expert	-9.66431
▁facebook	-9.66431
▁fallen	-9.66431
▁finger	-9.66431
▁forum	-9.66431
▁fred	-9.66431
▁fundraiser	-9.66431
▁gaming	-9.66431
▁gay	-9.66431
▁glad	-9.66431
▁havent	-9.66431
▁ice	-9.66431
▁induced	-9.66431
▁initially	-9.66431
▁inspiring	-9.66431
▁judged	-9.66431
▁lexapro	-9.66431
▁loop	-9.66431
▁marketing	-9.66431
▁mentor	-9.66431
▁necessarily	-9.66431
▁negatively	-9.66431
▁observe	-9.66431
▁offered	-9.66431
▁paranoid	-9.66431
▁perseverance	-9.66431
▁photo	-9.66431
▁pile	-9.66431
▁potentially	-9.66431
▁productivity	-9.66431
▁race	-9.66431
▁radio	-9.66431
▁receiving	-9.66431
▁record	-9.66431
▁recover	-9.66431
▁regardless	-9.66431
▁remind	-9.66431
▁reminds	-9.66431
▁reward	-9.66431
▁scenario	-9.66431
▁smarter	-9.66431
▁smell	-9.66431
▁solely	-9.66431
▁spark	-9.66431
▁spoke	-9.66431
▁survive	-9.66431
▁tested	-9.66431
▁threw	-9.66431
▁toll	-9.66431
▁triggered	-9.66431
▁unbearable	-9.66431
▁violent	-9.66431
▁window	-9.66431
▁winter	-9.66431
▁wishing	-9.66431
▁x	-9.66431
▁aim	-9.75133
▁assume	-9.75133
▁attend	-9.75133
▁attraction	-9.75133
▁beg	-9.75133
▁bike	-9.75133
▁birth	-9.75133
▁board	-9.75133
▁burn	-9.75133
▁burning	-9.75133
▁bus	-9.75133
▁carry	-9.75133
▁cell	-9.75133
▁chasing	-9.75133
▁cheap	-9.75133
▁cheating	-9.75133
▁cigarette	-9.75133
▁cognitive	-9.75133
▁communicate	-9.75133
▁communication	-9.75133
▁competition	-9.75133
▁complaining	-9.75133
▁compound	-9.75133
▁continuing	-9.75133
▁cortisol	-9.75133
▁creation	-9.75133
▁creativity	-9.75133
▁cup	-9.75133
▁damage	-9.75133
▁damaged	-9.75133
▁demon	-9.75133
▁deserves	-9.75133
▁despair	-9.75133
▁destination	-9.75133
▁destroyed	-9.75133
▁dig	-9.75133
▁dinner	-9.75133
▁diploma	-9.75133
▁director	-9.75133
▁disgusting	-9.75133
▁dm	-9.75133
▁draining	-9.75133
▁dread	-9.75133
▁encouraged	-9.75133
▁engineering	-9.75133
▁ether	-9.75133
▁excess	-9.75133
▁exercising	-9.75133
▁exploring	-9.75133
▁fair	-9.75133
▁faking	-9.75133
▁favourite	-9.75133
▁feed	-9.75133
▁fleeting	-9.75133
▁fold	-9.75133
▁forgive	-9.75133
▁fulfillment	-9.75133
▁fund	-9.75133
▁gain	-9.75133
▁ghost	-9.75133
▁goodbye	-9.75133
▁grandpa	-9.75133
▁happiest	-9.75133
▁highest	-9.75133
▁highly	-9.75133
▁imagining	-9.75133
▁importance	-9.75133
▁instance	-9.75133
▁instructor	-9.75133
▁intelligence	-9.75133
▁intrusive	-9.75133
▁irl	-9.75133
▁j	-9.75133
▁jealous	-9.75133
▁junk	-9.75133
▁kicked	-9.75133
▁laptop	-9.75133
▁lasting	-9.75133
▁laughing	-9.75133
▁letter	-9.75133
▁locked	-9.75133
▁mouth	-9.75133
▁movement	-9.75133
▁narcissistic	-9.75133
▁nausea	-9.75133
▁necessary	-9.75133
▁november	-9.75133
▁opening	-9.75133
▁originally	-9.75133
▁paint	-9.75133
▁participating	-9.75133
▁perfectly	-9.75133
▁philosophy	-9.75133
▁picked	-9.75133
▁practicing	-9.75133
▁pregnant	-9.75133
▁provides	-9.75133
▁punch	-9.75133
▁range	-9.75133
▁reassure	-9.75133
▁recognizing	-9.75133
▁reminded	-9.75133
▁replace	-9.75133
▁require	-9.75133
▁restriction	-9.75133
▁returning	-9.75133
▁rope	-9.75133
▁sale	-9.75133
▁server	-9.75133
▁shell	-9.75133
▁shop	-9.75133
▁shorter	-9.75133
▁significantly	-9.75133
▁slightly	-9.75133
▁statement	-9.75133
▁streaming	-9.75133
▁stroke	-9.75133
▁surprised	-9.75133
▁taste	-9.75133
▁temporary	-9.75133
▁tends	-9.75133
▁thankful	-9.75133
▁throat	-9.75133
▁tldr	-9.75133
▁traumatic	-9.75133
▁twitch	-9.75133
▁ugh	-9.75133
▁uncertainty	-9.75133
▁unit	-9.75133
▁user	-9.75133
▁v	-9.75133
▁vayu	-9.75133
▁visited	-9.75133
▁wedding	-9.75133
▁whilst	-9.75133
▁workload	-9.75133
▁worthy	-9.75133
▁writer	-9.75133
▁accomplishment	-9.84664
▁according	-9.84664
▁activate	-9.84664
▁adding	-9.84664
▁affirmation	-9.84664
▁arise	-9.84664
▁ate	-9.84664
▁august	-9.84664
▁autistic	-9.84664
▁avoiding	-9.84664
▁begged	-9.84664
▁belong	-9.84664
▁bitter	-9.84664
▁bloom	-9.84664
▁blow	-9.84664
▁bucket	-9.84664
▁challenged	-9.84664
▁charity	-9.84664
▁chase	-9.84664
▁cheer	-9.84664
▁cicely	-9.84664
▁claim	-9.84664
▁closest	-9.84664
▁cloud	-9.84664
▁colleague	-9.84664
▁consciously	-9.84664
▁consideration	-9.84664
▁continues	-9.84664
▁corona	-9.84664
▁correctly	-9.84664
▁counseling	-9.84664
▁coward	-9.84664
▁crowd	-9.84664
▁daisy	-9.84664
▁dedicate	-9.84664
▁depressant	-9.84664
▁design	-9.84664
▁designed	-9.84664
▁determine	-9.84664
▁dick	-9.84664
▁dirty	-9.84664
▁discord	-9.84664
▁double	-9.84664
▁drained	-9.84664
▁drowning	-9.84664
▁dude	-9.84664
▁earning	-9.84664
▁engaged	-9.84664
▁enjoyment	-9.84664
▁ethic	-9.84664
▁examining	-9.84664
▁expecting	-9.84664
▁expensive	-9.84664
▁extent	-9.84664
▁false	-9.84664
▁favour	-9.84664
▁florence	-9.84664
▁follows	-9.84664
▁forgotten	-9.84664
▁fought	-9.84664
▁foundation	-9.84664
▁freshman	-9.84664
▁frustrating	-9.84664
▁garbage	-9.84664
▁genuine	-9.84664
▁giant	-9.84664
▁global	-9.84664
▁graduation	-9.84664
▁greatness	-9.84664
▁gross	-9.84664
▁harming	-9.84664
▁healthcare	-9.84664
▁hidden	-9.84664
▁hiding	-9.84664
▁humanity	-9.84664
▁hungry	-9.84664
▁ideal	-9.84664
▁ideation	-9.84664
▁identify	-9.84664
▁idiot	-9.84664
▁ignorant	-9.84664
▁injury	-9.84664
▁lb	-9.84664
▁location	-9.84664
▁logical	-9.84664
▁marathon	-9.84664
▁mark	-9.84664
▁migraine	-9.84664
▁modern	-9.84664
▁nauseous	-9.84664
▁neighbor	-9.84664
▁numerous	-9.84664
▁opposed	-9.84664
▁optimistic	-9.84664
▁orange	-9.84664
▁organization	-9.84664
▁overwhelm	-9.84664
▁owner	-9.84664
▁pass	-9.84664
▁playlist	-9.84664
▁promoted	-9.84664
▁questioning	-9.84664
▁rambling	-9.84664
▁rash	-9.84664
▁realisation	-9.84664
▁religious	-9.84664
▁river	-9.84664
▁sadly	-9.84664
▁screwed	-9.84664
▁search	-9.84664
▁searching	-9.84664
▁seed	-9.84664
▁shooting	-9.84664
▁shy	-9.84664
▁silly	-9.84664
▁solo	-9.84664
▁south	-9.84664
▁speaker	-9.84664
▁specialist	-9.84664
▁spotlight	-9.84664
▁sri	-9.84664
▁street	-9.84664
▁strongly	-9.84664
▁subconsciously	-9.84664
▁sunday	-9.84664
▁sunlight	-9.84664
▁suppose	-9.84664
▁surely	-9.84664
▁surrounding	-9.84664
▁sweat	-9.84664
▁thankfully	-9.84664
▁tw	-9.84664
▁underneath	-9.84664
▁unexpected	-9.84664
▁unwanted	-9.84664
▁victim	-9.84664
▁victory	-9.84664
▁volunteer	-9.84664
▁weakness	-9.84664
▁weekly	-9.84664
▁whose	-9.84664
▁wise	-9.84664
▁workout	-9.84664
▁yelled	-9.84664
▁abrupt	-9.952
▁accountable	-9.952
▁actively	-9.952
▁ambition	-9.952
▁amsterdam	-9.952
▁answered	-9.952
▁approved	-9.952
▁ashamed	-9.952
▁associate	-9.952
▁autopilot	-9.952
▁backwards	-9.952
▁bald	-9.952
▁beating	-9.952
▁begun	-9.952
▁behavior	-9.952
▁bell	-9.952
▁bhagavan	-9.952
▁blaming	-9.952
▁blocking	-9.952
▁btw	-9.952
▁buck	-9.952
▁bullied	-9.952
▁burnout	-9.952
▁buying	-9.952
▁cake	-9.952
▁catastrophic	-9.952
▁celebration	-9.952
▁clock	-9.952
▁complicated	-9.952
▁confident	-9.952
▁consistently	-9.952
▁consuming	-9.952
▁controlled	-9.952
▁corner	-9.952
▁crash	-9.952
▁creates	-9.952
▁cross	-9.952
▁cruel	-9.952
▁crushing	-9.952
▁cured	-9.952
▁dance	-9.952
▁danger	-9.952
▁department	-9.952
▁destructive	-9.952
▁devastating	-9.952
▁diabetes	-9.952
▁disabled	-9.952
▁dose	-9.952
▁drain	-9.952
▁dysfunctional	-9.952
▁eliminate	-9.952
▁encounter	-9.952
▁encouragement	-9.952
▁engage	-9.952
▁enjoyed	-9.952
▁enrolled	-9.952
▁entered	-9.952
▁entering	-9.952
▁evil	-9.952
▁exhale	-9.952
▁explode	-9.952
▁explore	-9.952
▁expressing	-9.952
▁faced	-9.952
▁fade	-9.952
▁fairly	-9.952
▁formula	-9.952
▁freak	-9.952
▁freely	-9.952
▁fuel	-9.952
▁fulfilled	-9.952
▁fulfilling	-9.952
▁functional	-9.952
▁gaining	-9.952
▁garden	-9.952
▁gate	-9.952
▁grey	-9.952
▁grounded	-9.952
▁gt	-9.952
▁h	-9.952
▁hall	-9.952
▁happily	-9.952
▁harmful	-9.952
▁hating	-9.952
▁healthier	-9.952
▁hill	-9.952
▁hip	-9.952
▁hollow	-9.952
▁id	-9.952
▁ignoring	-9.952
▁imagined	-9.952
▁immediate	-9.952
▁immune	-9.952
▁impacted	-9.952
▁improving	-9.952
▁incredible	-9.952
▁inflicted	-9.952
▁insanely	-9.952
▁insecure	-9.952
▁irritated	-9.952
▁jaw	-9.952
▁ketamine	-9.952
▁knife	-9.952
▁legit	-9.952
▁lightheadedness	-9.952
▁limiting	-9.952
▁listened	-9.952
▁longevity	-9.952
▁loose	-9.952
▁lower	-9.952
▁lowest	-9.952
▁lyme	-9.952
▁maintaining	-9.952
▁manifest	-9.952
▁meaningless	-9.952
▁measure	-9.952
▁monthly	-9.952
▁motivational	-9.952
▁motorcycle	-9.952
▁mountain	-9.952
▁nervousness	-9.952
▁neutral	-9.952
▁numbness	-9.952
▁ob	-9.952
▁occasion	-9.952
▁opened	-9.952
▁overnight	-9.952
▁peer	-9.952
▁pounding	-9.952
▁ppl	-9.952
▁prepare	-9.952
▁profile	-9.952
▁projecting	-9.952
▁promise	-9.952
▁providing	-9.952
▁psyche	-9.952
▁punishment	-9.952
▁realistically	-9.952
▁recipe	-9.952
▁recognise	-9.952
▁reflect	-9.952
▁relapse	-9.952
▁removed	-9.952
▁report	-9.952
▁rnb	-9.952
▁rut	-9.952
▁screw	-9.952
▁seasonal	-9.952
▁sell	-9.952
▁semi	-9.952
▁sending	-9.952
▁snapped	-9.952
▁snow	-9.952
▁socialize	-9.952
▁sole	-9.952
▁solving	-9.952
▁status	-9.952
▁stepped	-9.952
▁strict	-9.952
▁studio	-9.952
▁succeeding	-9.952
▁sucking	-9.952
▁suggested	-9.952
▁swim	-9.952
▁swimming	-9.952
▁switch	-9.952
▁theory	-9.952
▁therefore	-9.952
▁thread	-9.952
▁thrive	-9.952
▁thrown	-9.952
▁trainer	-9.952
▁transform	-9.952
▁trap	-9.952
▁tutor	-9.952
▁twenty	-9.952
▁unmotivated	-9.952
▁vibe	-9.952
▁visual	-9.952
▁wherever	-9.952
▁winning	-9.952
▁wished	-9.952
▁workplace	-9.952
▁wound	-9.952
▁address	-10.0698
▁adopt	-10.0698
▁adulthood	-10.0698
▁advantage	-10.0698
▁affordable	-10.0698
▁agony	-10.0698
▁approval	-10.0698
▁arguing	-10.0698
▁arrive	-10.0698
▁attain	-10.0698
▁attract	-10.0698
▁audio	-10.0698
▁australia	-10.0698
▁automatically	-10.0698
▁award	-10.0698
▁battling	-10.0698
▁bedroom	-10.0698
▁bird	-10.0698
▁blamed	-10.0698
▁bliss	-10.0698
▁blown	-10.0698
▁box	-10.0698
▁burst	-10.0698
▁campus	-10.0698
▁ceo	-10.0698
▁certification	-10.0698
▁checking	-10.0698
▁circle	-10.0698
▁clinical	-10.0698
▁clinically	-10.0698
▁clip	-10.0698
▁code	-10.0698
▁collection	-10.0698
▁color	-10.0698
▁commute	-10.0698
▁conducting	-10.0698
▁conference	-10.0698
▁conflict	-10.0698
▁confusion	-10.0698
▁consciousness	-10.0698
▁contentment	-10.0698
▁court	-10.0698
▁cousin	-10.0698
▁coworkers	-10.0698
▁demand	-10.0698
▁detached	-10.0698
▁disagree	-10.0698
▁dopamine	-10.0698
▁download	-10.0698
▁drift	-10.0698
▁drove	-10.0698
▁drown	-10.0698
▁dust	-10.0698
▁dysphoria	-10.0698
▁ect	-10.0698
▁educational	-10.0698
▁effexor	-10.0698
▁embarrassing	-10.0698
▁employer	-10.0698
▁equal	-10.0698
▁evolved	-10.0698
▁exposed	-10.0698
▁expression	-10.0698
▁faridabad	-10.0698
▁farther	-10.0698
▁flash	-10.0698
▁flower	-10.0698
▁friendly	-10.0698
▁gap	-10.0698
▁goddamn	-10.0698
▁government	-10.0698
▁gravity	-10.0698
▁greener	-10.0698
▁gut	-10.0698
▁handling	-10.0698
▁headed	-10.0698
▁heat	-10.0698
▁hence	-10.0698
▁hire	-10.0698
▁hometown	-10.0698
▁horizon	-10.0698
▁hughes	-10.0698
▁hundred	-10.0698
▁hygiene	-10.0698
▁ignorance	-10.0698
▁image	-10.0698
▁imagination	-10.0698
▁india	-10.0698
▁interact	-10.0698
▁irritable	-10.0698
▁jolene	-10.0698
▁juice	-10.0698
▁june	-10.0698
▁king	-10.0698
▁knocked	-10.0698
▁laid	-10.0698
▁language	-10.0698
▁laughed	-10.0698
▁limited	-10.0698
▁lined	-10.0698
▁linked	-10.0698
▁lisa	-10.0698
▁luckily	-10.0698
▁machine	-10.0698
▁magically	-10.0698
▁massage	-10.0698
▁meanwhile	-10.0698
▁messaged	-10.0698
▁million	-10.0698
▁named	-10.0698
▁obstacle	-10.0698
▁october	-10.0698
▁odd	-10.0698
▁oil	-10.0698
▁oneself	-10.0698
▁original	-10.0698
▁outlet	-10.0698
▁persistence	-10.0698
▁petty	-10.0698
▁pic	-10.0698
▁picking	-10.0698
▁pit	-10.0698
▁pity	-10.0698
▁pocket	-10.0698
▁poetry	-10.0698
▁pointless	-10.0698
▁pound	-10.0698
▁practical	-10.0698
▁practise	-10.0698
▁pregnancy	-10.0698
▁press	-10.0698
▁price	-10.0698
▁production	-10.0698
▁promos	-10.0698
▁pulling	-10.0698
▁rapist	-10.0698
▁recorded	-10.0698
▁reducing	-10.0698
▁relieving	-10.0698
▁remembered	-10.0698
▁remote	-10.0698
▁repeating	-10.0698
▁replied	-10.0698
▁requirement	-10.0698
▁ringing	-10.0698
▁row	-10.0698
▁scan	-10.0698
▁schoolwork	-10.0698
▁screamed	-10.0698
▁selling	-10.0698
▁september	-10.0698
▁shes	-10.0698
▁shocked	-10.0698
▁shoe	-10.0698
▁shopping	-10.0698
▁slot	-10.0698
▁smallest	-10.0698
▁sobbing	-10.0698
▁soft	-10.0698
▁speech	-10.0698
▁spiraling	-10.0698
▁staring	-10.0698
▁stem	-10.0698
▁sticking	-10.0698
▁stood	-10.0698
▁storm	-10.0698
▁structure	-10.0698
▁stuttering	-10.0698
▁subscribe	-10.0698
▁substance	-10.0698
▁sucked	-10.0698
▁sunny	-10.0698
▁surprise	-10.0698
▁suspect	-10.0698
▁tap	-10.0698
▁target	-10.0698
▁tearing	-10.0698
▁technology	-10.0698
▁temporarily	-10.0698
▁tense	-10.0698
▁timeline	-10.0698
▁timing	-10.0698
▁tongue	-10.0698
▁translation	-10.0698
▁truck	-10.0698
▁twitter	-10.0698
▁unlearning	-10.0698
▁unnecessary	-10.0698
▁unsure	-10.0698
▁vibrating	-10.0698
▁virus	-10.0698
▁vivid	-10.0698
▁vocal	-10.0698
▁warning	-10.0698
▁watched	-10.0698
▁wendy	-10.0698
▁whoever	-10.0698
▁winner	-10.0698
▁yr	-10.0698
▁academic	-10.2033
▁adderall	-10.2033
▁adrenaline	-10.2033
▁adventure	-10.2033
▁agency	-10.2033
▁alcoholic	-10.2033
▁alleviate	-10.2033
▁apologized	-10.2033
▁appearance	-10.2033
▁appreciation	-10.2033
▁arises	-10.2033
▁assuming	-10.2033
▁athlete	-10.2033
▁attempting	-10.2033
▁attending	-10.2033
▁bachelor	-10.2033
▁base	-10.2033
▁beer	-10.2033
▁beginner	-10.2033
▁believer	-10.2033
▁betrayed	-10.2033
▁betty	-10.2033
▁bi	-10.2033
▁bite	-10.2033
▁blanket	-10.2033
▁bless	-10.2033
▁blurry	-10.2033
▁branch	-10.2033
▁breathwork	-10.2033
▁brighter	-10.2033
▁brink	-10.2033
▁brushing	-10.2033
▁bullying	-10.2033
▁bump	-10.2033
▁burned	-10.2033
▁caffeine	-10.2033
▁cancel	-10.2033
▁cancelled	-10.2033
▁candle	-10.2033
▁capital	-10.2033
▁catching	-10.2033
▁centre	-10.2033
▁chatting	-10.2033
▁cheat	-10.2033
▁cheated	-10.2033
▁christian	-10.2033
▁collected	-10.2033
▁competitive	-10.2033
▁confront	-10.2033
▁consistency	-10.2033
▁consumption	-10.2033
▁copy	-10.2033
▁covered	-10.2033
▁crippling	-10.2033
▁cuddle	-10.2033
▁deficiency	-10.2033
▁delay	-10.2033
▁deny	-10.2033
▁depend	-10.2033
▁desired	-10.2033
▁desk	-10.2033
▁detailed	-10.2033
▁determined	-10.2033
▁device	-10.2033
▁digital	-10.2033
▁discipline	-10.2033
▁discussing	-10.2033
▁dissatisfied	-10.2033
▁divorced	-10.2033
▁dress	-10.2033
▁dry	-10.2033
▁dwell	-10.2033
▁ebook	-10.2033
▁economic	-10.2033
▁effectively	-10.2033
▁elementary	-10.2033
▁employment	-10.2033
▁endure	-10.2033
▁envy	-10.2033
▁error	-10.2033
▁evolution	-10.2033
▁exchange	-10.2033
▁excitement	-10.2033
▁exciting	-10.2033
▁exhaustion	-10.2033
▁fame	-10.2033
▁familiar	-10.2033
▁fantasize	-10.2033
▁fantasy	-10.2033
▁fish	-10.2033
▁flight	-10.2033
▁former	-10.2033
▁fortune	-10.2033
▁fragile	-10.2033
▁fuckin	-10.2033
▁funeral	-10.2033
▁gather	-10.2033
▁gp	-10.2033
▁grad	-10.2033
▁gradually	-10.2033
▁grandmother	-10.2033
▁grasp	-10.2033
▁grenade	-10.2033
▁grind	-10.2033
▁grocery	-10.2033
▁harmed	-10.2033
▁heartbroken	-10.2033
▁heck	-10.2033
▁horny	-10.2033
▁horribly	-10.2033
▁hospitalized	-10.2033
▁hyper	-10.2033
▁ignores	-10.2033
▁immense	-10.2033
▁inability	-10.2033
▁inhale	-10.2033
▁interacting	-10.2033
▁internship	-10.2033
▁introverted	-10.2033
▁iphone	-10.2033
▁iron	-10.2033
▁jennifer	-10.2033
▁junior	-10.2033
▁kingdom	-10.2033
▁kiss	-10.2033
▁kitchen	-10.2033
▁lash	-10.2033
▁length	-10.2033
▁lip	-10.2033
▁lock	-10.2033
▁logic	-10.2033
▁loosing	-10.2033
▁lover	-10.2033
▁lung	-10.2033
▁manageable	-10.2033
▁manic	-10.2033
▁manner	-10.2033
▁mature	-10.2033
▁measurable	-10.2033
▁messing	-10.2033
▁meth	-10.2033
▁midterm	-10.2033
▁mission	-10.2033
▁mixed	-10.2033
▁mutual	-10.2033
▁netflix	-10.2033
▁nootropic	-10.2033
▁notification	-10.2033
▁obsessed	-10.2033
▁occasional	-10.2033
▁occurred	-10.2033
▁optimism	-10.2033
▁orgasm	-10.2033
▁owe	-10.2033
▁packing	-10.2033
▁panicking	-10.2033
▁patch	-10.2033
▁pc	-10.2033
▁perceived	-10.2033
▁permanently	-10.2033
▁personalized	-10.2033
▁phrase	-10.2033
▁plastic	-10.2033
▁pls	-10.2033
▁positivity	-10.2033
▁practiced	-10.2033
▁praying	-10.2033
▁preparation	-10.2033
▁pro	-10.2033
▁processing	-10.2033
▁procrastinating	-10.2033
▁procrastination	-10.2033
▁progression	-10.2033
▁proper	-10.2033
▁protect	-10.2033
▁pulled	-10.2033
▁pursuing	-10.2033
▁pussy	-10.2033
▁quietly	-10.2033
▁quiz	-10.2033
▁rain	-10.2033
▁randomly	-10.2033
▁recommendation	-10.2033
▁reduction	-10.2033
▁register	-10.2033
▁rejected	-10.2033
▁relapsed	-10.2033
▁relative	-10.2033
▁reliable	-10.2033
▁religion	-10.2033
▁rely	-10.2033
▁reminder	-10.2033
▁repeated	-10.2033
▁replaced	-10.2033
▁repressed	-10.2033
▁request	-10.2033
▁researching	-10.2033
▁reset	-10.2033
▁resistance	-10.2033
▁responsible	-10.2033
▁restaurant	-10.2033
▁resulting	-10.2033
▁retired	-10.2033
▁romantic	-10.2033
▁route	-10.2033
▁sake	-10.2033
▁scene	-10.2033
▁scratch	-10.2033
▁searched	-10.2033
▁security	-10.2033
▁seemingly	-10.2033
▁settle	-10.2033
▁seven	-10.2033
▁sh	-10.2033
▁sharp	-10.2033
▁shoot	-10.2033
▁shortly	-10.2033
▁shot	-10.2033
▁shouldnt	-10.2033
▁signing	-10.2033
▁slightest	-10.2033
▁snack	-10.2033
▁socialising	-10.2033
▁somethings	-10.2033
▁sooner	-10.2033
▁soreness	-10.2033
▁spine	-10.2033
▁split	-10.2033
▁stepping	-10.2033
▁stillness	-10.2033
▁stone	-10.2033
▁strain	-10.2033
▁style	-10.2033
▁succeeded	-10.2033
▁sugar	-10.2033
▁suit	-10.2033
▁surgeon	-10.2033
▁swallow	-10.2033
▁thesis	-10.2033
▁threatening	-10.2033
▁tied	-10.2033
▁tiredness	-10.2033
▁touched	-10.2033
▁trajectory	-10.2033
▁tree	-10.2033
▁triggering	-10.2033
▁tuesday	-10.2033
▁tuition	-10.2033
▁twin	-10.2033
▁ultimate	-10.2033
▁uplifting	-10.2033
▁validation	-10.2033
▁verbally	-10.2033
▁vital	-10.2033
▁wage	-10.2033
▁warmth	-10.2033
▁web	-10.2033
▁wellness	-10.2033
▁whatsoever	-10.2033
▁wide	-10.2033
▁wrist	-10.2033
▁www	-10.2033
▁yellow	-10.2033
▁abuser	-10.3575
▁acid	-10.3575
▁acknowledging	-10.3575
▁acquire	-10.3575
▁addicted	-10.3575
▁adopted	-10.3575
▁afternoon	-10.3575
▁agreeing	-10.3575
▁agreement	-10.3575
▁american	-10.3575
▁analysing	-10.3575
▁animation	-10.3575
▁announced	-10.3575
▁asap	-10.3575
▁aspiration	-10.3575
▁assault	-10.3575
▁associated	-10.3575
▁attachment	-10.3575
▁attacked	-10.3575
▁aunt	-10.3575
▁automation	-10.3575
▁banned	-10.3575
▁barrier	-10.3575
▁begging	-10.3575
▁behavioral	-10.3575
▁believing	-10.3575
▁binge	-10.3575
▁blank	-10.3575
▁bleeding	-10.3575
▁blockage	-10.3575
▁boat	-10.3575
▁bone	-10.3575
▁bout	-10.3575
▁breakfast	-10.3575
▁breakup	-10.3575
▁briefly	-10.3575
▁brilliant	-10.3575
▁buddha	-10.3575
▁bulletin	-10.3575
▁bully	-10.3575
▁bum	-10.3575
▁burger	-10.3575
▁cage	-10.3575
▁calmed	-10.3575
▁capability	-10.3575
▁careful	-10.3575
▁caretaker	-10.3575
▁cbt	-10.3575
▁chakra	-10.3575
▁chatbot	-10.3575
▁cherish	-10.3575
▁clarity	-10.3575
▁classmate	-10.3575
▁climbing	-10.3575
▁committed	-10.3575
▁committee	-10.3575
▁completing	-10.3575
▁conditioning	-10.3575
▁confirm	-10.3575
▁contacting	-10.3575
▁controlling	-10.3575
▁cop	-10.3575
▁counselling	-10.3575
▁counter	-10.3575
▁coz	-10.3575
▁crappy	-10.3575
▁cream	-10.3575
▁creep	-10.3575
▁crime	-10.3575
▁crucial	-10.3575
▁crumbling	-10.3575
▁crush	-10.3575
▁cube	-10.3575
▁cute	-10.3575
▁dampens	-10.3575
▁dare	-10.3575
▁de	-10.3575
▁deciding	-10.3575
▁decrease	-10.3575
▁dedicated	-10.3575
▁defence	-10.3575
▁definition	-10.3575
▁delhi	-10.3575
▁delivered	-10.3575
▁denied	-10.3575
▁dentist	-10.3575
▁dependent	-10.3575
▁depending	-10.3575
▁depth	-10.3575
▁described	-10.3575
▁diagnose	-10.3575
▁diaphram	-10.3575
▁diego	-10.3575
▁direct	-10.3575
▁dizziness	-10.3575
▁dizzy	-10.3575
▁dna	-10.3575
▁dozen	-10.3575
▁eaten	-10.3575
▁economy	-10.3575
▁emergency	-10.3575
▁emits	-10.3575
▁endeavor	-10.3575
▁enhance	-10.3575
▁enjoyable	-10.3575
▁ensure	-10.3575
▁epilepsy	-10.3575
▁er	-10.3575
▁esc	-10.3575
▁essence	-10.3575
▁eternal	-10.3575
▁evaluate	-10.3575
▁evolve	-10.3575
▁excellent	-10.3575
▁excessive	-10.3575
▁existed	-10.3575
▁exists	-10.3575
▁expand	-10.3575
▁expects	-10.3575
▁explanation	-10.3575
▁exposure	-10.3575
▁fewer	-10.3575
▁figuring	-10.3575
▁filling	-10.3575
▁firm	-10.3575
▁fly	-10.3575
▁follower	-10.3575
▁forcing	-10.3575
▁forgetting	-10.3575
▁foster	-10.3575
▁frankly	-10.3575
▁frequent	-10.3575
▁generation	-10.3575
▁germany	-10.3575
▁glass	-10.3575
▁golden	-10.3575
▁grace	-10.3575
▁grass	-10.3575
▁guard	-10.3575
▁haha	-10.3575
▁hallucination	-10.3575
▁haunt	-10.3575
▁heartbreak	-10.3575
▁heath	-10.3575
▁helper	-10.3575
▁honesty	-10.3575
▁horse	-10.3575
▁hunt	-10.3575
▁impacting	-10.3575
▁increasingly	-10.3575
▁inevitably	-10.3575
▁infusion	-10.3575
▁ingredient	-10.3575
▁inspired	-10.3575
▁instinct	-10.3575
▁intensely	-10.3575
▁internally	-10.3575
▁ironic	-10.3575
▁item	-10.3575
▁iva	-10.3575
▁jealousy	-10.3575
▁july	-10.3575
▁justified	-10.3575
▁justify	-10.3575
▁km	-10.3575
▁landed	-10.3575
▁lane	-10.3575
▁lastly	-10.3575
▁leader	-10.3575
▁league	-10.3575
▁lecture	-10.3575
▁lied	-10.3575
▁lifetime	-10.3575
▁linear	-10.3575
▁literal	-10.3575
▁lmao	-10.3575
▁log	-10.3575
▁london	-10.3575
▁loyal	-10.3575
▁lunch	-10.3575
▁magnesium	-10.3575
▁magnetic	-10.3575
▁mailto	-10.3575
▁mariana	-10.3575
▁mastery	-10.3575
▁mccartney	-10.3575
▁meantime	-10.3575
▁meh	-10.3575
▁meme	-10.3575
▁midnight	-10.3575
▁minimal	-10.3575
▁minimalism	-10.3575
▁minuscule	-10.3575
▁miriam	-10.3575
▁monetary	-10.3575
▁moon	-10.3575
▁motion	-10.3575
▁mr	-10.3575
▁nap	-10.3575
▁neglected	-10.3575
▁network	-10.3575
▁noone	-10.3575
▁normalcy	-10.3575
▁numbing	-10.3575
▁obese	-10.3575
▁obsessing	-10.3575
▁obsession	-10.3575
▁officer	-10.3575
▁oldest	-10.3575
▁ongoing	-10.3575
▁outlook	-10.3575
▁overbearing	-10.3575
▁overcoming	-10.3575
▁overseas	-10.3575
▁overthink	-10.3575
▁oxygen	-10.3575
▁paced	-10.3575
▁pakistan	-10.3575
▁partly	-10.3575
▁pat	-10.3575
▁perfectionism	-10.3575
▁philip	-10.3575
▁plane	-10.3575
▁poisoned	-10.3575
▁prefer	-10.3575
▁preparing	-10.3575
▁pretended	-10.3575
▁preventing	-10.3575
▁previously	-10.3575
▁priority	-10.3575
▁privilege	-10.3575
▁privileged	-10.3575
▁procrastinate	-10.3575
▁prompt	-10.3575
▁property	-10.3575
▁psychiatric	-10.3575
▁psychotic	-10.3575
▁puzzle	-10.3575
▁quits	-10.3575
▁ramana	-10.3575
▁reasonable	-10.3575
▁recording	-10.3575
▁recovery	-10.3575
▁regard	-10.3575
▁relatively	-10.3575
▁relearning	-10.3575
▁releasing	-10.3575
▁relevant	-10.3575
▁remain	-10.3575
▁repeatedly	-10.3575
▁requires	-10.3575
▁reserving	-10.3575
▁restilen	-10.3575
▁resting	-10.3575
▁reverse	-10.3575
▁rewire	-10.3575
▁ritual	-10.3575
▁rotten	-10.3575
▁rupee	-10.3575
▁sacred	-10.3575
▁satisfied	-10.3575
▁satisfying	-10.3575
▁scenery	-10.3575
▁scientist	-10.3575
▁scrolling	-10.3575
▁sea	-10.3575
▁secure	-10.3575
▁seizure	-10.3575
▁sexuality	-10.3575
▁shall	-10.3575
▁showed	-10.3575
▁simultaneously	-10.3575
▁size	-10.3575
▁slipping	-10.3575
▁software	-10.3575
▁sold	-10.3575
▁solid	-10.3575
▁someday	-10.3575
▁sophomore	-10.3575
▁sought	-10.3575
▁spread	-10.3575
▁static	-10.3575
▁steal	-10.3575
▁stereotype	-10.3575
▁straw	-10.3575
▁stretch	-10.3575
▁studied	-10.3575
▁suitable	-10.3575
▁supporting	-10.3575
▁surroundings	-10.3575
▁swarm	-10.3575
▁swing	-10.3575
▁tablet	-10.3575
▁takeaway	-10.3575
▁tangible	-10.3575
▁tennis	-10.3575
▁texted	-10.3575
▁thinker	-10.3575
▁thru	-10.3575
▁transmitter	-10.3575
▁trend	-10.3575
▁troll	-10.3575
▁turkey	-10.3575
▁unemployed	-10.3575
▁unfortunate	-10.3575
▁unlike	-10.3575
▁unreasonable	-10.3575
▁unstable	-10.3575
▁update	-10.3575
▁utter	-10.3575
▁valuable	-10.3575
▁variety	-10.3575
▁vehicle	-10.3575
▁venture	-10.3575
▁vibration	-10.3575
▁videogames	-10.3575
▁villain	-10.3575
▁void	-10.3575
▁wallow	-10.3575
▁warren	-10.3575
▁widow	-10.3575
▁willpower	-10.3575
▁wondered	-10.3575
▁worn	-10.3575
▁wrapped	-10.3575
▁yea	-10.3575
▁yo	-10.3575
▁abilify	-10.5398
▁abyss	-10.5398
▁academically	-10.5398
▁acceptable	-10.5398
▁accidentally	-10.5398
▁accomplishing	-10.5398
▁aching	-10.5398
▁acoustic	-10.5398
▁actor	-10.5398
▁additional	-10.5398
▁addressed	-10.5398
▁adequate	-10.5398
▁aforementioned	-10.5398
▁aka	-10.5398
▁alarming	-10.5398
▁alienated	-10.5398
▁amazon	-10.5398
▁america	-10.5398
▁analogy	-10.5398
▁angel	-10.5398
▁apologise	-10.5398
▁arising	-10.5398
▁assistance	-10.5398
▁assure	-10.5398
▁attainable	-10.5398
▁auric	-10.5398
▁avoided	-10.5398
▁awakening	-10.5398
▁backed	-10.5398
▁balanced	-10.5398
▁balancing	-10.5398
▁baseline	-10.5398
▁basketball	-10.5398
▁bawling	-10.5398
▁beam	-10.5398
▁belly	-10.5398
▁beneath	-10.5398
▁betrayal	-10.5398
▁biological	-10.5398
▁blonded	-10.5398
▁bloody	-10.5398
▁brush	-10.5398
▁bummed	-10.5398
▁calmer	-10.5398
▁candy	-10.5398
▁cardiologist	-10.5398
▁carrot	-10.5398
▁cartoon	-10.5398
▁cash	-10.5398
▁celebrated	-10.5398
▁chair	-10.5398
▁chakras	-10.5398
▁characteristic	-10.5398
▁childish	-10.5398
▁chillls	-10.5398
▁chip	-10.5398
▁clarify	-10.5398
▁clothing	-10.5398
▁collapse	-10.5398
▁comforting	-10.5398
▁committing	-10.5398
▁comparison	-10.5398
▁compliment	-10.5398
▁confide	-10.5398
▁conquer	-10.5398
▁construction	-10.5398
▁consumed	-10.5398
▁contemplated	-10.5398
▁continually	-10.5398
▁contributes	-10.5398
▁contribution	-10.5398
▁convincing	-10.5398
▁cooking	-10.5398
▁corporate	-10.5398
▁counsellor	-10.5398
▁counteract	-10.5398
▁counting	-10.5398
▁crashing	-10.5398
▁craving	-10.5398
▁creepy	-10.5398
▁curiosity	-10.5398
▁cuss	-10.5398
▁dangerous	-10.5398
▁darkest	-10.5398
▁dated	-10.5398
▁davis	-10.5398
▁decides	-10.5398
▁deepest	-10.5398
▁defensive	-10.5398
▁deleted	-10.5398
▁delisa	-10.5398
▁dementia	-10.5398
▁denial	-10.5398
▁denying	-10.5398
▁deserved	-10.5398
▁destroy	-10.5398
▁destroying	-10.5398
▁determination	-10.5398
▁dieing	-10.5398
▁ding	-10.5398
▁disappoint	-10.5398
▁disappointing	-10.5398
▁disciplined	-10.5398
▁dish	-10.5398
▁dislike	-10.5398
▁distanced	-10.5398
▁disturbing	-10.5398
▁downstairs	-10.5398
▁downward	-10.5398
▁dragging	-10.5398
▁drank	-10.5398
▁drastic	-10.5398
▁dreaming	-10.5398
▁drill	-10.5398
▁dwelling	-10.5398
▁earned	-10.5398
▁edition	-10.5398
▁effected	-10.5398
▁eh	-10.5398
▁empathetic	-10.5398
▁empowerment	-10.5398
▁encompassing	-10.5398
▁engaging	-10.5398
▁ent	-10.5398
▁entry	-10.5398
▁euphoric	-10.5398
▁evolving	-10.5398
▁exaggerating	-10.5398
▁excel	-10.5398
▁executive	-10.5398
▁explained	-10.5398
▁explores	-10.5398
▁facet	-10.5398
▁facial	-10.5398
▁faint	-10.5398
▁fan	-10.5398
▁fancy	-10.5398
▁fantasizing	-10.5398
▁fantastic	-10.5398
▁fasting	-10.5398
▁feb	-10.5398
▁fed	-10.5398
▁fee	-10.5398
▁fellow	-10.5398
▁fiance	-10.5398
▁firstly	-10.5398
▁fixing	-10.5398
▁flashback	-10.5398
▁flawed	-10.5398
▁fool	-10.5398
▁football	-10.5398
▁forehead	-10.5398
▁formal	-10.5398
▁fruit	-10.5398
▁fulfill	-10.5398
▁fundamental	-10.5398
▁gathered	-10.5398
▁ged	-10.5398
▁genetic	-10.5398
▁ghosted	-10.5398
▁grammar	-10.5398
▁grand	-10.5398
▁greedy	-10.5398
▁grieve	-10.5398
▁grieving	-10.5398
▁grinding	-10.5398
▁grows	-10.5398
▁grudge	-10.5398
▁guitar	-10.5398
▁hardworking	-10.5398
▁harmony	-10.5398
▁harsh	-10.5398
▁hat	-10.5398
▁hater	-10.5398
▁headspace	-10.5398
▁hoo	-10.5398
▁hopeful	-10.5398
▁hormonal	-10.5398
▁humor	-10.5398
▁ig	-10.5398
▁illusion	-10.5398
▁importantly	-10.5398
▁included	-10.5398
▁increasing	-10.5398
▁infant	-10.5398
▁infected	-10.5398
▁informed	-10.5398
▁ingrained	-10.5398
▁initial	-10.5398
▁intended	-10.5398
▁international	-10.5398
▁invested	-10.5398
▁investment	-10.5398
▁involve	-10.5398
▁irritating	-10.5398
▁israel	-10.5398
▁iv	-10.5398
▁james	-10.5398
▁japanese	-10.5398
▁judgmental	-10.5398
▁kyle	-10.5398
▁lab	-10.5398
▁land	-10.5398
▁largely	-10.5398
▁layer	-10.5398
▁learnt	-10.5398
▁liberate	-10.5398
▁lightheaded	-10.5398
▁lingering	-10.5398
▁listed	-10.5398
▁listens	-10.5398
▁luxury	-10.5398
▁makeup	-10.5398
▁manipulate	-10.5398
▁mantra	-10.5398
▁masturbate	-10.5398
▁messy	-10.5398
▁military	-10.5398
▁mindlessly	-10.5398
▁model	-10.5398
▁monumental	-10.5398
▁moral	-10.5398
▁multi	-10.5398
▁n	-10.5398
▁narrative	-10.5398
▁needing	-10.5398
▁niche	-10.5398
▁nigel	-10.5398
▁noisy	-10.5398
▁nootropics	-10.5398
▁norma	-10.5398
▁nutrition	-10.5398
▁objective	-10.5398
▁ordinary	-10.5398
▁origin	-10.5398
▁ounce	-10.5398
▁output	-10.5398
▁outstanding	-10.5398
▁outward	-10.5398
▁overlooked	-10.5398
▁overreacting	-10.5398
▁pack	-10.5398
▁palpitation	-10.5398
▁paranoia	-10.5398
▁park	-10.5398
▁pathway	-10.5398
▁perfection	-10.5398
▁ph	-10.5398
▁physiological	-10.5398
▁pipe	-10.5398
▁piss	-10.5398
▁pivot	-10.5398
▁pleasant	-10.5398
▁po	-10.5398
▁positively	-10.5398
▁postgraduate	-10.5398
▁powerhouse	-10.5398
▁precious	-10.5398
▁prioritise	-10.5398
▁prison	-10.5398
▁privately	-10.5398
▁profit	-10.5398
▁programming	-10.5398
▁progressively	-10.5398
▁prolonged	-10.5398
▁promised	-10.5398
▁protecting	-10.5398
▁proven	-10.5398
▁provided	-10.5398
▁psychologically	-10.5398
▁pumped	-10.5398
▁punish	-10.5398
▁punished	-10.5398
▁puppy	-10.5398
▁purchase	-10.5398
▁pursuit	-10.5398
▁qualification	-10.5398
▁qualified	-10.5398
▁quest	-10.5398
▁racist	-10.5398
▁raising	-10.5398
▁raped	-10.5398
▁rapidly	-10.5398
▁rational	-10.5398
▁ray	-10.5398
▁reacting	-10.5398
▁realign	-10.5398
▁realistic	-10.5398
▁reckless	-10.5398
▁reference	-10.5398
▁reinvent	-10.5398
▁rejection	-10.5398
▁reminding	-10.5398
▁reside	-10.5398
▁resolved	-10.5398
▁responding	-10.5398
▁rewiring	-10.5398
▁riding	-10.5398
▁rocky	-10.5398
▁rollercoaster	-10.5398
▁round	-10.5398
▁sacrifice	-10.5398
▁safety	-10.5398
▁sanity	-10.5398
▁satisfy	-10.5398
▁scattered	-10.5398
▁scheduled	-10.5398
▁schizophrenia	-10.5398
▁scholarship	-10.5398
▁script	-10.5398
▁selfishness	-10.5398
▁semblance	-10.5398
▁sends	-10.5398
▁sens	-10.5398
▁separated	-10.5398
▁serve	-10.5398
▁severity	-10.5398
▁sexually	-10.5398
▁shallow	-10.5398
▁shattered	-10.5398
▁sheet	-10.5398
▁signed	-10.5398
▁sin	-10.5398
▁sincerely	-10.5398
▁sing	-10.5398
▁singing	-10.5398
▁sink	-10.5398
▁skillset	-10.5398
▁smaller	-10.5398
▁smooth	-10.5398
▁sorrow	-10.5398
▁sounded	-10.5398
▁spell	-10.5398
▁square	-10.5398
▁ssri	-10.5398
▁stalking	-10.5398
▁star	-10.5398
▁stare	-10.5398
▁stated	-10.5398
▁stepmom	-10.5398
▁stiff	-10.5398
▁striving	-10.5398
▁suffice	-10.5398
▁sum	-10.5398
▁supply	-10.5398
▁surprisingly	-10.5398
▁survived	-10.5398
▁sustainable	-10.5398
▁sweating	-10.5398
▁tai	-10.5398
▁tax	-10.5398
▁technical	-10.5398
▁ted	-10.5398
▁temp	-10.5398
▁tending	-10.5398
▁terminal	-10.5398
▁terribly	-10.5398
▁texting	-10.5398
▁therapeutic	-10.5398
▁thigh	-10.5398
▁throwaway	-10.5398
▁tie	-10.5398
▁toast	-10.5398
▁tracker	-10.5398
▁trade	-10.5398
▁traffic	-10.5398
▁tragedy	-10.5398
▁trashed	-10.5398
▁trusted	-10.5398
▁tune	-10.5398
▁twelve	-10.5398
▁typical	-10.5398
▁un	-10.5398
▁unconscious	-10.5398
▁united	-10.5398
▁unlearn	-10.5398
▁unrealistic	-10.5398
▁unwind	-10.5398
▁upcoming	-10.5398
▁upper	-10.5398
▁upsetting	-10.5398
▁upside	-10.5398
▁ur	-10.5398
▁validated	-10.5398
▁versus	-10.5398
▁visualization	-10.5398
▁wade	-10.5398
▁wash	-10.5398
▁wasnt	-10.5398
▁wet	-10.5398
▁whine	-10.5398
▁wholesome	-10.5398
▁wolf	-10.5398
▁yall	-10.5398
▁zoloft	-10.5398
▁abandoned	-10.7629
▁abandonment	-10.7629
▁abortion	-10.7629
▁absence	-10.7629
▁absurd	-10.7629
▁accessible	-10.7629
▁accolade	-10.7629
▁accumulate	-10.7629
▁acquiring	-10.7629
▁acted	-10.7629
▁adjust	-10.7629
▁admission	-10.7629
▁admitted	-10.7629
▁adrenal	-10.7629
▁advertising	-10.7629
▁affective	-10.7629
▁agent	-10.7629
▁aggressive	-10.7629
▁agitated	-10.7629
▁ah	-10.7629
▁align	-10.7629
▁alt	-10.7629
▁ambiguity	-10.7629
▁analyze	-10.7629
▁ancient	-10.7629
▁android	-10.7629
▁anhedonia	-10.7629
▁annoy	-10.7629
▁anorexia	-10.7629
▁anyones	-10.7629
▁apathetic	-10.7629
▁apology	-10.7629
▁appreciative	-10.7629
▁approximately	-10.7629
▁appt	-10.7629
▁arrives	-10.7629
▁arthritis	-10.7629
▁ascension	-10.7629
▁ashwagandha	-10.7629
▁asmi	-10.7629
▁aspergers	-10.7629
▁assessment	-10.7629
▁atlas	-10.7629
▁atm	-10.7629
▁atmosphere	-10.7629
▁auditory	-10.7629
▁auto	-10.7629
▁ba	-10.7629
▁backstory	-10.7629
▁baggage	-10.7629
▁bahadurgarh	-10.7629
▁balcony	-10.7629
▁barley	-10.7629
▁beach	-10.7629
▁bead	-10.7629
▁beatles	-10.7629
▁beta	-10.7629
▁bias	-10.7629
▁billion	-10.7629
▁bio	-10.7629
▁biting	-10.7629
▁bleed	-10.7629
▁blessed	-10.7629
▁blooming	-10.7629
▁bold	-10.7629
▁bombarded	-10.7629
▁bond	-10.7629
▁bonus	-10.7629
▁borderline	-10.7629
▁bore	-10.7629
▁boss	-10.7629
▁bowel	-10.7629
▁brick	-10.7629
▁brien	-10.7629
▁bro	-10.7629
▁browsing	-10.7629
▁brushed	-10.7629
▁bubble	-10.7629
▁bubbly	-10.7629
▁buddhism	-10.7629
▁buddhist	-10.7629
▁budget	-10.7629
▁buffet	-10.7629
▁bug	-10.7629
▁butterfly	-10.7629
▁buzzing	-10.7629
▁calmly	-10.7629
▁calmness	-10.7629
▁camera	-10.7629
▁canceled	-10.7629
▁candidate	-10.7629
▁captain	-10.7629
▁carlos	-10.7629
▁carolyn	-10.7629
▁carried	-10.7629
▁carrying	-10.7629
▁cease	-10.7629
▁ceiling	-10.7629
▁centerforfearlessresearch	-10.7629
▁certificate	-10.7629
▁chamomile	-10.7629
▁chart	-10.7629
▁chastise	-10.7629
▁chemistry	-10.7629
▁chiropractor	-10.7629
▁chooses	-10.7629
▁chuckle	-10.7629
▁circuit	-10.7629
▁circuiting	-10.7629
▁citizen	-10.7629
▁cleared	-10.7629
▁clearing	-10.7629
▁clench	-10.7629
▁climate	-10.7629
▁cluster	-10.7629
▁column	-10.7629
▁combining	-10.7629
▁comparing	-10.7629
▁compassionate	-10.7629
▁compelled	-10.7629
▁compete	-10.7629
▁concentrating	-10.7629
▁conduct	-10.7629
▁confirming	-10.7629
▁confronting	-10.7629
▁conscience	-10.7629
▁consist	-10.7629
▁contacted	-10.7629
▁contains	-10.7629
▁contend	-10.7629
▁contrary	-10.7629
▁controling	-10.7629
▁convert	-10.7629
▁cooked	-10.7629
▁couch	-10.7629
▁cracked	-10.7629
▁crave	-10.7629
▁craves	-10.7629
▁criminal	-10.7629
▁critic	-10.7629
▁criticized	-10.7629
▁crushed	-10.7629
▁ct	-10.7629
▁cultivate	-10.7629
▁cum	-10.7629
▁curl	-10.7629
▁cutest	-10.7629
▁cycling	-10.7629
▁daycare	-10.7629
▁deaf	-10.7629
▁debate	-10.7629
▁debilitating	-10.7629
▁decline	-10.7629
▁defeated	-10.7629
▁defend	-10.7629
▁definite	-10.7629
▁delayed	-10.7629
▁deliberately	-10.7629
▁depleted	-10.7629
▁describes	-10.7629
▁desperation	-10.7629
▁determines	-10.7629
▁devere	-10.7629
▁devise	-10.7629
▁diamond	-10.7629
▁dilemma	-10.7629
▁disability	-10.7629
▁disagreement	-10.7629
▁disappeared	-10.7629
▁disappearing	-10.7629
▁disclaimer	-10.7629
▁discomfort	-10.7629
▁disguise	-10.7629
▁disregarded	-10.7629
▁dj	-10.7629
▁donate	-10.7629
▁downfall	-10.7629
▁downhill	-10.7629
▁dropping	-10.7629
▁drtlab	-10.7629
▁dunno	-10.7629
▁duty	-10.7629
▁dweck	-10.7629
▁dy	-10.7629
▁earn	-10.7629
▁easiest	-10.7629
▁economics	-10.7629
▁ed	-10.7629
▁editor	-10.7629
▁eeyore	-10.7629
▁efficient	-10.7629
▁efficiently	-10.7629
▁eg	-10.7629
▁eight	-10.7629
▁element	-10.7629
▁elon	-10.7629
▁em	-10.7629
▁emailed	-10.7629
▁employed	-10.7629
▁endured	-10.7629
▁engineer	-10.7629
▁enjoys	-10.7629
▁enter	-10.7629
▁entrepreneurial	-10.7629
▁entrepreneurship	-10.7629
▁established	-10.7629
▁excluding	-10.7629
▁existential	-10.7629
▁exit	-10.7629
▁exiting	-10.7629
▁expense	-10.7629
▁expressed	-10.7629
▁extends	-10.7629
▁exurbs	-10.7629
▁failiure	-10.7629
▁fearful	-10.7629
▁feminine	-10.7629
▁fiction	-10.7629
▁fifteen	-10.7629
▁file	-10.7629
▁fitness	-10.7629
▁fixating	-10.7629
▁flag	-10.7629
▁flare	-10.7629
▁flipped	-10.7629
▁flourish	-10.7629
▁flu	-10.7629
▁fluctuated	-10.7629
▁fluent	-10.7629
▁fomo	-10.7629
▁founder	-10.7629
▁fraud	-10.7629
▁futile	-10.7629
▁gang	-10.7629
▁garyvee	-10.7629
▁giggle	-10.7629
▁gossip	-10.7629
▁gradual	-10.7629
▁granddaughter	-10.7629
▁grandfather	-10.7629
▁grandparent	-10.7629
▁gratification	-10.7629
▁greed	-10.7629
▁grit	-10.7629
▁guideline	-10.7629
▁hallway	-10.7629
▁handbook	-10.7629
▁handled	-10.7629
▁hangout	-10.7629
▁hardcore	-10.7629
▁hatred	-10.7629
▁heaven	-10.7629
▁heavily	-10.7629
▁hectic	-10.7629
▁helicopter	-10.7629
▁heroin	-10.7629
▁highway	-10.7629
▁hike	-10.7629
▁hilarious	-10.7629
▁himalaya	-10.7629
▁hint	-10.7629
▁holy	-10.7629
▁homeschooling	-10.7629
▁honor	-10.7629
▁hooker	-10.7629
▁humour	-10.7629
▁hydrogen	-10.7629
▁hypochondriac	-10.7629
▁ik	-10.7629
▁illustration	-10.7629
▁immunity	-10.7629
▁imperfection	-10.7629
▁impressed	-10.7629
▁inbreath	-10.7629
▁incapable	-10.7629
▁incident	-10.7629
▁indeed	-10.7629
▁independence	-10.7629
▁indian	-10.7629
▁indicated	-10.7629
▁inferior	-10.7629
▁inflammation	-10.7629
▁influenced	-10.7629
▁inherently	-10.7629
▁innovate	-10.7629
▁input	-10.7629
▁inquiry	-10.7629
▁instrumental	-10.7629
▁insufficient	-10.7629
▁integrity	-10.7629
▁intelligent	-10.7629
▁intend	-10.7629
▁intensity	-10.7629
▁intent	-10.7629
▁intentionally	-10.7629
▁interruption	-10.7629
▁intimidating	-10.7629
▁intro	-10.7629
▁introduced	-10.7629
▁introvert	-10.7629
▁intuitive	-10.7629
▁invest	-10.7629
▁involves	-10.7629
▁io	-10.7629
▁irrational	-10.7629
▁ish	-10.7629
▁ishtar	-10.7629
▁ivy	-10.7629
▁jar	-10.7629
▁jazz	-10.7629
▁jeremyhughes	-10.7629
▁jim	-10.7629
▁joining	-10.7629
▁joint	-10.7629
▁joyfully	-10.7629
▁jp	-10.7629
▁judgemental	-10.7629
▁jumped	-10.7629
▁junky	-10.7629
▁jus	-10.7629
▁ka	-10.7629
▁karma	-10.7629
▁kickboxing	-10.7629
▁kicking	-10.7629
▁kidney	-10.7629
▁killer	-10.7629
▁kilometer	-10.7629
▁kindly	-10.7629
▁label	-10.7629
▁labor	-10.7629
▁lacking	-10.7629
▁lady	-10.7629
▁lap	-10.7629
▁larger	-10.7629
▁largest	-10.7629
▁laughter	-10.7629
▁laundry	-10.7629
▁lawyer	-10.7629
▁lessen	-10.7629
▁lethal	-10.7629
▁libido	-10.7629
▁liking	-10.7629
▁lillie	-10.7629
▁lily	-10.7629
▁loathing	-10.7629
▁locking	-10.7629
▁logically	-10.7629
▁lois	-10.7629
▁longest	-10.7629
▁lust	-10.7629
▁luther	-10.7629
▁mandatory	-10.7629
▁manipulated	-10.7629
▁marine	-10.7629
▁match	-10.7629
▁mate	-10.7629
▁mbct	-10.7629
▁mentality	-10.7629
▁mentioning	-10.7629
▁milk	-10.7629
▁millennials	-10.7629
▁miracle	-10.7629
▁modeling	-10.7629
▁moderate	-10.7629
▁momentary	-10.7629
▁mooji	-10.7629
▁moreover	-10.7629
▁mortgage	-10.7629
▁motivator	-10.7629
▁musk	-10.7629
▁nail	-10.7629
▁napoleon	-10.7629
▁narrow	-10.7629
▁national	-10.7629
▁native	-10.7629
▁nearby	-10.7629
▁netherlands	-10.7629
▁neurological	-10.7629
▁nicely	-10.7629
▁nit	-10.7629
▁nose	-10.7629
▁nothingness	-10.7629
▁notified	-10.7629
▁nursing	-10.7629
▁object	-10.7629
▁oblivion	-10.7629
▁obsessive	-10.7629
▁occur	-10.7629
▁occurrence	-10.7629
▁ofc	-10.7629
▁onset	-10.7629
▁op	-10.7629
▁ought	-10.7629
▁outbreath	-10.7629
▁outdoor	-10.7629
▁outright	-10.7629
▁outwardly	-10.7629
▁overweight	-10.7629
▁packed	-10.7629
▁painkiller	-10.7629
▁painter	-10.7629
▁palm	-10.7629
▁panicked	-10.7629
▁parenting	-10.7629
▁parking	-10.7629
▁pausing	-10.7629
▁payed	-10.7629
▁peek	-10.7629
▁penny	-10.7629
▁percent	-10.7629
▁perfectionist	-10.7629
▁performing	-10.7629
▁permanent	-10.7629
▁pete	-10.7629
▁phd	-10.7629
▁phobia	-10.7629
▁picky	-10.7629
▁player	-10.7629
▁pleaded	-10.7629
▁plodding	-10.7629
▁plp	-10.7629
▁pointed	-10.7629
▁poisoning	-10.7629
▁politely	-10.7629
▁poorly	-10.7629
▁popping	-10.7629
▁popularity	-10.7629
▁poverty	-10.7629
▁prayer	-10.7629
▁presented	-10.7629
▁prestigious	-10.7629
▁prevention	-10.7629
▁primary	-10.7629
▁prioritised	-10.7629
▁privacy	-10.7629
▁professionally	-10.7629
▁profound	-10.7629
▁programme	-10.7629
▁promising	-10.7629
▁proudly	-10.7629
▁provider	-10.7629
▁pursued	-10.7629
▁quo	-10.7629
▁rabbit	-10.7629
▁rage	-10.7629
▁rainbow	-10.7629
▁rainy	-10.7629
▁raisedbynarcissists	-10.7629
▁rake	-10.7629
▁ramble	-10.7629
▁rapid	-10.7629
▁reacts	-10.7629
▁realignment	-10.7629
▁reap	-10.7629
▁reasoning	-10.7629
▁reassurance	-10.7629
▁recognized	-10.7629
▁recommended	-10.7629
▁reduces	-10.7629
▁reel	-10.7629
▁reflecting	-10.7629
▁refused	-10.7629
▁regaining	-10.7629
▁rehab	-10.7629
▁relates	-10.7629
▁relating	-10.7629
▁relearn	-10.7629
▁relentless	-10.7629
▁reliever	-10.7629
▁relive	-10.7629
▁reluctant	-10.7629
▁remains	-10.7629
▁repair	-10.7629
▁replacement	-10.7629
▁representative	-10.7629
▁required	-10.7629
▁researcher	-10.7629
▁resentment	-10.7629
▁residential	-10.7629
▁resistant	-10.7629
▁resisting	-10.7629
▁resolution	-10.7629
▁resort	-10.7629
▁rested	-10.7629
▁restful	-10.7629
▁restless	-10.7629
▁restroom	-10.7629
▁reveals	-10.7629
▁rewriting	-10.7629
▁ripped	-10.7629
▁rlly	-10.7629
▁robert	-10.7629
▁roll	-10.7629
▁rot	-10.7629
▁rupert	-10.7629
▁rushed	-10.7629
▁sample	-10.7629
▁sansation	-10.7629
▁sapphire	-10.7629
▁sarcastic	-10.7629
▁screwing	-10.7629
▁scrolled	-10.7629
▁seminar	-10.7629
▁separate	-10.7629
▁sergio	-10.7629
▁shaky	-10.7629
▁shed	-10.7629
▁sheep	-10.7629
▁shortened	-10.7629
▁shuts	-10.7629
▁sided	-10.7629
▁signal	-10.7629
▁simplest	-10.7629
▁ski	-10.7629
▁skinny	-10.7629
▁skull	-10.7629
▁skydiving	-10.7629
▁slave	-10.7629
▁sleepless	-10.7629
▁snapchat	-10.7629
▁solitude	-10.7629
▁sonething	-10.7629
▁spaced	-10.7629
▁spiritually	-10.7629
▁spreadsheet	-10.7629
▁squeeze	-10.7629
▁stab	-10.7629
▁stability	-10.7629
▁standing	-10.7629
▁starving	-10.7629
▁station	-10.7629
▁stats	-10.7629
▁stigma	-10.7629
▁stock	-10.7629
▁stream	-10.7629
▁string	-10.7629
▁stubborn	-10.7629
▁subjective	-10.7629
▁submit	-10.7629
▁submitted	-10.7629
▁subsided	-10.7629
▁suffocating	-10.7629
▁summary	-10.7629
▁sunrise	-10.7629
▁suppress	-10.7629
▁survival	-10.7629
▁suspicion	-10.7629
▁suspicious	-10.7629
▁switched	-10.7629
▁switzerland	-10.7629
▁sympathy	-10.7629
▁tall	-10.7629
▁tedious	-10.7629
▁tent	-10.7629
▁terrifies	-10.7629
▁testing	-10.7629
▁texture	-10.7629
▁thanking	-10.7629
▁thiamine	-10.7629
▁thirty	-10.7629
▁thrash	-10.7629
▁threat	-10.7629
▁tia	-10.7629
▁tidy	-10.7629
▁timer	-10.7629
▁toddler	-10.7629
▁toe	-10.7629
▁toilet	-10.7629
▁tolerance	-10.7629
▁tolerate	-10.7629
▁tomato	-10.7629
▁torment	-10.7629
▁toronto	-10.7629
▁torrent	-10.7629
▁torture	-10.7629
▁totaled	-10.7629
▁trace	-10.7629
▁trait	-10.7629
▁transformation	-10.7629
▁transitioning	-10.7629
▁translate	-10.7629
▁transness	-10.7629
▁transport	-10.7629
▁treating	-10.7629
▁tremendous	-10.7629
▁trendy	-10.7629
▁trustworthy	-10.7629
▁tumour	-10.7629
▁typo	-10.7629
▁ub	-10.7629
▁um	-10.7629
▁unaware	-10.7629
▁uncertain	-10.7629
▁unconditional	-10.7629
▁unemployment	-10.7629
▁unexpectedly	-10.7629
▁unfulfilled	-10.7629
▁unlovable	-10.7629
▁unplanned	-10.7629
▁unpleasant	-10.7629
▁urgent	-10.7629
▁us	-10.7629
▁valerian	-10.7629
▁vessel	-10.7629
▁vibrant	-10.7629
▁viewing	-10.7629
▁viewpoint	-10.7629
▁virginity	-10.7629
▁visible	-10.7629
▁visiting	-10.7629
▁visualize	-10.7629
▁volunteering	-10.7629
▁vomit	-10.7629
▁waited	-10.7629
▁wallet	-10.7629
▁wan	-10.7629
▁wandsworth	-10.7629
▁wealthy	-10.7629
▁webinar	-10.7629
▁weirdly	-10.7629
▁wich	-10.7629
▁wing	-10.7629
▁wire	-10.7629
▁wit	-10.7629
▁woozy	-10.7629
▁wouldnt	-10.7629
▁wwii	-10.7629
▁xx	-10.7629
▁ya	-10.7629
▁yale	-10.7629
▁yay	-10.7629
▁yogi	-10.7629
▁yogic	-10.7629
▁abiding	-11.0506
▁abnormal	-11.0506
▁abroad	-11.0506
▁absorb	-11.0506
▁abundant	-11.0506
▁accountant	-11.0506
▁accused	-11.0506
▁accustomed	-11.0506
▁acidic	-11.0506
▁actualized	-11.0506
▁adapting	-11.0506
▁adaptive	-11.0506
▁addictive	-11.0506
▁additionally	-11.0506
▁admittedly	-11.0506
▁adolescent	-11.0506
▁adopting	-11.0506
▁adorable	-11.0506
▁advanced	-11.0506
▁adversity	-11.0506
▁advise	-11.0506
▁advocate	-11.0506
▁african	-11.0506
▁afterward	-11.0506
▁aged	-11.0506
▁agenda	-11.0506
▁agonizing	-11.0506
▁aide	-11.0506
▁al	-11.0506
▁alert	-11.0506
▁alien	-11.0506
▁aligned	-11.0506
▁alkaline	-11.0506
▁altogether	-11.0506
▁alzheimer	-11.0506
▁amazingly	-11.0506
▁ambrosio	-11.0506
▁ambulance	-11.0506
▁amongst	-11.0506
▁amplified	-11.0506
▁anguished	-11.0506
▁anniversary	-11.0506
▁anonymously	-11.0506
▁ant	-11.0506
▁anxiousness	-11.0506
▁ap	-11.0506
▁apathy	-11.0506
▁apparent	-11.0506
▁applies	-11.0506
▁apprenticeship	-11.0506
▁approached	-11.0506
▁apt	-11.0506
▁arbitrary	-11.0506
▁arent	-11.0506
▁articulate	-11.0506
▁artwork	-11.0506
▁asexual	-11.0506
▁ashwaganda	-11.0506
▁asian	-11.0506
▁assigned	-11.0506
▁assist	-11.0506
▁assisted	-11.0506
▁astonishing	-11.0506
▁atheist	-11.0506
▁athletic	-11.0506
▁automatic	-11.0506
▁babe	-11.0506
▁bake	-11.0506
▁bar	-11.0506
▁bare	-11.0506
▁baseball	-11.0506
▁basement	-11.0506
▁bat	-11.0506
▁bath	-11.0506
▁bay	-11.0506
▁bearable	-11.0506
▁bedtime	-11.0506
▁behold	-11.0506
▁belonged	-11.0506
▁benefited	-11.0506
▁berate	-11.0506
▁berating	-11.0506
▁bible	-11.0506
▁blah	-11.0506
▁bleach	-11.0506
▁blueberry	-11.0506
▁boil	-11.0506
▁boiled	-11.0506
▁bombing	-11.0506
▁booked	-11.0506
▁boom	-11.0506
▁boot	-11.0506
▁border	-11.0506
▁boredom	-11.0506
▁boxing	-11.0506
▁brazil	-11.0506
▁bread	-11.0506
▁breakthrough	-11.0506
▁broadly	-11.0506
▁brutal	-11.0506
▁bumpy	-11.0506
▁burdened	-11.0506
▁bustling	-11.0506
▁butt	-11.0506
▁byproduct	-11.0506
▁cabin	-11.0506
▁calc	-11.0506
▁campaign	-11.0506
▁capitalism	-11.0506
▁capture	-11.0506
▁cardiovascular	-11.0506
▁casual	-11.0506
▁catastrophe	-11.0506
▁category	-11.0506
▁celebrating	-11.0506
▁cent	-11.0506
▁century	-11.0506
▁certified	-11.0506
▁chain	-11.0506
▁charm	-11.0506
▁cheerleader	-11.0506
▁chem	-11.0506
▁chew	-11.0506
▁chicken	-11.0506
▁chin	-11.0506
▁choking	-11.0506
▁chunk	-11.0506
▁cinematic	-11.0506
▁circus	-11.0506
▁civil	-11.0506
▁claimed	-11.0506
▁classify	-11.0506
▁cleaned	-11.0506
▁cocoon	-11.0506
▁coin	-11.0506
▁collect	-11.0506
▁collective	-11.0506
▁colouring	-11.0506
▁combat	-11.0506
▁comfortably	-11.0506
▁commited	-11.0506
▁compiled	-11.0506
▁complaint	-11.0506
▁component	-11.0506
▁composure	-11.0506
▁compromise	-11.0506
▁compulsive	-11.0506
▁concerning	-11.0506
▁concrete	-11.0506
▁confusing	-11.0506
▁consent	-11.0506
▁consists	-11.0506
▁continued	-11.0506
▁continuous	-11.0506
▁contract	-11.0506
▁convincingly	-11.0506
▁cooky	-11.0506
▁cornerstone	-11.0506
▁correlation	-11.0506
▁corrupted	-11.0506
▁cosmic	-11.0506
▁coupled	-11.0506
▁covidya	-11.0506
▁cow	-11.0506
▁cozy	-11.0506
▁cramming	-11.0506
▁craze	-11.0506
▁crimsonpill	-11.0506
▁crossing	-11.0506
▁crown	-11.0506
▁crumble	-11.0506
▁crypto	-11.0506
▁dagger	-11.0506
▁dalai	-11.0506
▁david	-11.0506
▁daytime	-11.0506
▁dearly	-11.0506
▁decreased	-11.0506
▁defeat	-11.0506
▁defense	-11.0506
▁defined	-11.0506
▁deflect	-11.0506
▁deliberate	-11.0506
▁delight	-11.0506
▁delirious	-11.0506
▁deliver	-11.0506
▁delusion	-11.0506
▁deprived	-11.0506
▁derive	-11.0506
▁deserving	-11.0506
▁dessert	-11.0506
▁destruction	-11.0506
▁detox	-11.0506
▁detriment	-11.0506
▁dev	-11.0506
▁devoid	-11.0506
▁diarrhea	-11.0506
▁dictate	-11.0506
▁digestion	-11.0506
▁digestive	-11.0506
▁digging	-11.0506
▁diminishing	-11.0506
▁dirt	-11.0506
▁disconnected	-11.0506
▁discussed	-11.0506
▁disengagement	-11.0506
▁dismiss	-11.0506
▁disney	-11.0506
▁dissertation	-11.0506
▁dissonance	-11.0506
▁distressed	-11.0506
▁distribution	-11.0506
▁division	-11.0506
▁documentary	-11.0506
▁doll	-11.0506
▁donating	-11.0506
▁doomed	-11.0506
▁dos	-11.0506
▁dosage	-11.0506
▁dot	-11.0506
▁dragged	-11.0506
▁drastically	-11.0506
▁drone	-11.0506
▁dual	-11.0506
▁duh	-11.0506
▁dynamic	-11.0506
▁dysfunction	-11.0506
▁eager	-11.0506
▁earpiece	-11.0506
▁earthquake	-11.0506
▁easter	-11.0506
▁eats	-11.0506
▁ecstatic	-11.0506
▁edited	-11.0506
▁el	-11.0506
▁elaborate	-11.0506
▁electricity	-11.0506
▁electromagnetic	-11.0506
▁elevate	-11.0506
▁eli	-11.0506
▁elite	-11.0506
▁embarrassment	-11.0506
▁embraced	-11.0506
▁enable	-11.0506
▁enables	-11.0506
▁encourage	-11.0506
▁endorphin	-11.0506
▁england	-11.0506
▁enlightenment	-11.0506
▁enters	-11.0506
▁enthusiasm	-11.0506
▁entity	-11.0506
▁envious	-11.0506
▁epiphany	-11.0506
▁equation	-11.0506
▁errand	-11.0506
▁escaped	-11.0506
▁escaping	-11.0506
▁escapism	-11.0506
▁ethical	-11.0506
▁europe	-11.0506
▁eventual	-11.0506
▁everthing	-11.0506
▁evoke	-11.0506
▁evolutionary	-11.0506
▁evolves	-11.0506
▁existent	-11.0506
▁experiment	-11.0506
▁experimented	-11.0506
▁exploding	-11.0506
▁exponentially	-11.0506
▁extensive	-11.0506
▁facade	-11.0506
▁factory	-11.0506
▁fading	-11.0506
▁fails	-11.0506
▁fate	-11.0506
▁favor	-11.0506
▁fb	-11.0506
▁fearing	-11.0506
▁feasible	-11.0506
▁feat	-11.0506
▁featured	-11.0506
▁fence	-11.0506
▁fever	-11.0506
▁filmmaker	-11.0506
▁fist	-11.0506
▁fittest	-11.0506
▁flatmate	-11.0506
▁flaw	-11.0506
▁fling	-11.0506
▁float	-11.0506
▁flood	-11.0506
▁flunked	-11.0506
▁foe	-11.0506
▁folder	-11.0506
▁foreign	-11.0506
▁forgets	-11.0506
▁formed	-11.0506
▁fortunately	-11.0506
▁fourteen	-11.0506
▁fractured	-11.0506
▁frame	-11.0506
▁framed	-11.0506
▁framework	-11.0506
▁frank	-11.0506
▁freaked	-11.0506
▁french	-11.0506
▁fridge	-11.0506
▁fried	-11.0506
▁frightening	-11.0506
▁frisson	-11.0506
▁froze	-11.0506
▁frozen	-11.0506
▁fuhg	-11.0506
▁fulfilment	-11.0506
▁fulfils	-11.0506
▁fullest	-11.0506
▁functionally	-11.0506
▁fundamentally	-11.0506
▁funniest	-11.0506
▁gaba	-11.0506
▁gallbladder	-11.0506
▁gambino	-11.0506
▁gear	-11.0506
▁generate	-11.0506
▁generous	-11.0506
▁genetics	-11.0506
▁german	-11.0506
▁gesture	-11.0506
▁ghosting	-11.0506
▁gina	-11.0506
▁glance	-11.0506
▁gloomy	-11.0506
▁gold	-11.0506
▁gosh	-11.0506
▁graciously	-11.0506
▁grain	-11.0506
▁grammy	-11.0506
▁granted	-11.0506
▁graph	-11.0506
▁groundbreaking	-11.0506
▁grounding	-11.0506
▁guidedmeditation	-11.0506
▁guiding	-11.0506
▁gutted	-11.0506
▁ham	-11.0506
▁handful	-11.0506
▁happend	-11.0506
▁harassment	-11.0506
▁harbor	-11.0506
▁harshly	-11.0506
▁haunted	-11.0506
▁heading	-11.0506
▁headline	-11.0506
▁healer	-11.0506
▁healthiest	-11.0506
▁heave	-11.0506
▁heavenly	-11.0506
▁height	-11.0506
▁herb	-11.0506
▁herbal	-11.0506
▁hesitate	-11.0506
▁hid	-11.0506
▁highlight	-11.0506
▁hindsight	-11.0506
▁hired	-11.0506
▁hmm	-11.0506
▁ho	-11.0506
▁homeschooled	-11.0506
▁homophobic	-11.0506
▁honour	-11.0506
▁hook	-11.0506
▁host	-11.0506
▁household	-11.0506
▁housemate	-11.0506
▁howard	-11.0506
▁hr	-11.0506
▁hugged	-11.0506
▁humility	-11.0506
▁hunting	-11.0506
▁hustle	-11.0506
▁hw	-11.0506
▁icu	-11.0506
▁idle	-11.0506
▁imbalance	-11.0506
▁immigrated	-11.0506
▁impactful	-11.0506
▁impartial	-11.0506
▁inbox	-11.0506
▁includes	-11.0506
▁incorporate	-11.0506
▁indication	-11.0506
▁indoors	-11.0506
▁inducing	-11.0506
▁indulge	-11.0506
▁infection	-11.0506
▁infront	-11.0506
▁injured	-11.0506
▁insanity	-11.0506
▁inspirational	-11.0506
▁instability	-11.0506
▁institution	-11.0506
▁instrument	-11.0506
▁instrumentals	-11.0506
▁insulting	-11.0506
▁intake	-11.0506
▁intending	-11.0506
▁interactive	-11.0506
▁interfere	-11.0506
▁interpretation	-11.0506
▁intimacy	-11.0506
▁intuition	-11.0506
▁invalidated	-11.0506
▁investing	-11.0506
▁invitation	-11.0506
▁inwards	-11.0506
▁iowa	-11.0506
▁iq	-11.0506
▁itll	-11.0506
▁jan	-11.0506
▁jerk	-11.0506
▁jewish	-11.0506
▁jittery	-11.0506
▁joyful	-11.0506
▁joyous	-11.0506
▁jumbled	-11.0506
▁keen	-11.0506
▁ki	-11.0506
▁klaus	-11.0506
▁knee	-11.0506
▁lama	-11.0506
▁lame	-11.0506
▁landlord	-11.0506
▁launching	-11.0506
▁leaning	-11.0506
▁lease	-11.0506
▁liar	-11.0506
▁library	-11.0506
▁lick	-11.0506
▁licorice	-11.0506
▁lifelong	-11.0506
▁lifting	-11.0506
▁lighting	-11.0506
▁lionel	-11.0506
▁lit	-11.0506
▁litterally	-11.0506
▁litteraly	-11.0506
▁liver	-11.0506
▁lmk	-11.0506
▁logging	-11.0506
▁lord	-11.0506
▁lori	-11.0506
▁lotta	-11.0506
▁lowering	-11.0506
▁lucrative	-11.0506
▁mabye	-11.0506
▁mae	-11.0506
▁magazine	-11.0506
▁maharshi	-11.0506
▁manages	-11.0506
▁manga	-11.0506
▁mania	-11.0506
▁manifested	-11.0506
▁manifesting	-11.0506
▁marble	-11.0506
▁marry	-11.0506
▁massaging	-11.0506
▁mastering	-11.0506
▁mastermind	-11.0506
▁masturbated	-11.0506
▁masturbating	-11.0506
▁masturbation	-11.0506
▁mater	-11.0506
▁mechanical	-11.0506
▁medicated	-11.0506
▁mega	-11.0506
▁melted	-11.0506
▁mere	-11.0506
▁metabolism	-11.0506
▁metal	-11.0506
▁midst	-11.0506
▁millionaire	-11.0506
▁mindedness	-11.0506
▁mindless	-11.0506
▁mini	-11.0506
▁misinterpret	-11.0506
▁mistaken	-11.0506
▁mod	-11.0506
▁moderator	-11.0506
▁momma	-11.0506
▁morale	-11.0506
▁moreso	-11.0506
▁motif	-11.0506
▁mount	-11.0506
▁mra	-11.0506
▁mrv	-11.0506
▁mumbai	-11.0506
▁mundane	-11.0506
▁musician	-11.0506
▁mystery	-11.0506
▁myth	-11.0506
▁narcissist	-11.0506
▁nasal	-11.0506
▁nauseated	-11.0506
▁nealy	-11.0506
▁nearing	-11.0506
▁necessity	-11.0506
▁neglecting	-11.0506
▁neuralgia	-11.0506
▁neuro	-11.0506
▁neurotransmitter	-11.0506
▁newbie	-11.0506
▁nobel	-11.0506
▁noble	-11.0506
▁nod	-11.0506
▁nonchalantly	-11.0506
▁nonetheless	-11.0506
▁nope	-11.0506
▁norepinephrine	-11.0506
▁normalize	-11.0506
▁novelty	-11.0506
▁nyc	-11.0506
▁obligation	-11.0506
▁obtain	-11.0506
▁occupied	-11.0506
▁odds	-11.0506
▁offense	-11.0506
▁official	-11.0506
▁ops	-11.0506
▁optimal	-11.0506
▁orb	-11.0506
▁ordeal	-11.0506
▁ordered	-11.0506
▁organised	-11.0506
▁organize	-11.0506
▁outcast	-11.0506
▁outta	-11.0506
▁overdosed	-11.0506
▁overloaded	-11.0506
▁overpower	-11.0506
▁overwork	-11.0506
▁pace	-11.0506
▁pant	-11.0506
▁paralysis	-11.0506
▁partially	-11.0506
▁participated	-11.0506
▁partnership	-11.0506
▁passenger	-11.0506
▁passive	-11.0506
▁penis	-11.0506
▁peppermint	-11.0506
▁persevere	-11.0506
▁persistent	-11.0506
▁persona	-11.0506
▁pharma	-11.0506
▁phenomenon	-11.0506
▁physic	-11.0506
▁physicist	-11.0506
▁physique	-11.0506
▁piling	-11.0506
▁pillow	-11.0506
▁pissing	-11.0506
▁pitch	-11.0506
▁pitched	-11.0506
▁plague	-11.0506
▁planting	-11.0506
▁platonic	-11.0506
▁pleased	-11.0506
▁plum	-11.0506
▁poem	-11.0506
▁poet	-11.0506
▁poison	-11.0506
▁policy	-11.0506
▁polish	-11.0506
▁poll	-11.0506
▁pond	-11.0506
▁posse	-11.0506
▁posture	-11.0506
▁pouring	-11.0506
▁powerless	-11.0506
▁practically	-11.0506
▁predictable	-11.0506
▁predicting	-11.0506
▁preference	-11.0506
▁prepares	-11.0506
▁prescribe	-11.0506
▁presently	-11.0506
▁president	-11.0506
▁pressured	-11.0506
▁prevents	-11.0506
▁principal	-11.0506
▁prize	-11.0506
▁probability	-11.0506
▁probable	-11.0506
▁problematic	-11.0506
▁producing	-11.0506
▁programmer	-11.0506
▁progressing	-11.0506
▁projected	-11.0506
▁promo	-11.0506
▁proposal	-11.0506
▁protected	-11.0506
▁province	-11.0506
▁prozac	-11.0506
▁publicly	-11.0506
▁published	-11.0506
▁punishing	-11.0506
▁questionable	-11.0506
▁rapper	-11.0506
▁rationally	-11.0506
▁raver	-11.0506
▁razor	-11.0506
▁reactive	-11.0506
▁reader	-11.0506
▁realising	-11.0506
▁receives	-11.0506
▁recession	-11.0506
▁recurring	-11.0506
▁reduced	-11.0506
▁redundant	-11.0506
▁referring	-11.0506
▁refresh	-11.0506
▁refusal	-11.0506
▁regain	-11.0506
▁region	-11.0506
▁regretted	-11.0506
▁regretting	-11.0506
▁reject	-11.0506
▁relation	-11.0506
▁relies	-11.0506
▁relying	-11.0506
▁repairing	-11.0506
▁repetitive	-11.0506
▁replaceable	-11.0506
▁replay	-11.0506
▁replicate	-11.0506
▁reported	-11.0506
▁resent	-11.0506
▁resented	-11.0506
▁resigning	-11.0506
▁resilient	-11.0506
▁resist	-11.0506
▁resolving	-11.0506
▁resonate	-11.0506
▁resonated	-11.0506
▁responder	-11.0506
▁responds	-11.0506
▁restart	-11.0506
▁restlessness	-11.0506
▁resume	-11.0506
▁retarded	-11.0506
▁returned	-11.0506
▁reverts	-11.0506
▁reviewed	-11.0506
▁revolve	-11.0506
▁rhythm	-11.0506
▁ridiculous	-11.0506
▁ring	-11.0506
▁rip	-11.0506
▁roadblock	-11.0506
▁robbed	-11.0506
▁rolled	-11.0506
▁roomie	-11.0506
▁rug	-11.0506
▁ruining	-11.0506
▁ruled	-11.0506
▁rumination	-11.0506
▁salary	-11.0506
▁salt	-11.0506
▁samadhi	-11.0506
▁sandwich	-11.0506
▁satan	-11.0506
▁saturday	-11.0506
▁savior	-11.0506
▁scheduling	-11.0506
▁scientific	-11.0506
▁scientifically	-11.0506
▁scolded	-11.0506
▁scratched	-11.0506
▁seat	-11.0506
▁sedated	-11.0506
▁sensed	-11.0506
▁serenity	-11.0506
▁seroquel	-11.0506
▁serotonin	-11.0506
▁sertraline	-11.0506
▁served	-11.0506
▁setback	-11.0506
▁settling	-11.0506
▁shamble	-11.0506
▁shifting	-11.0506
▁ship	-11.0506
▁shortage	-11.0506
▁shortness	-11.0506
▁shotgun	-11.0506
▁shout	-11.0506
▁shouted	-11.0506
▁shoved	-11.0506
▁shutting	-11.0506
▁silently	-11.0506
▁sinking	-11.0506
▁skip	-11.0506
▁skipping	-11.0506
▁skype	-11.0506
▁skyrocketed	-11.0506
▁slammed	-11.0506
▁sleeper	-11.0506
▁slide	-11.0506
▁slowed	-11.0506
▁sluggish	-11.0506
▁sobriety	-11.0506
▁soil	-11.0506
▁solace	-11.0506
▁soldier	-11.0506
▁solitary	-11.0506
▁somone	-11.0506
▁sooo	-11.0506
▁sorta	-11.0506
▁sorted	-11.0506
▁spanish	-11.0506
▁spanked	-11.0506
▁spectacle	-11.0506
▁spectrum	-11.0506
▁spike	-11.0506
▁spiraled	-11.0506
▁spouse	-11.0506
▁staircase	-11.0506
▁stall	-11.0506
▁startup	-11.0506
▁stating	-11.0506
▁steady	-11.0506
▁stephen	-11.0506
▁stepmother	-11.0506
▁stole	-11.0506
▁stored	-11.0506
▁strained	-11.0506
▁strand	-11.0506
▁stray	-11.0506
▁strive	-11.0506
▁stroll	-11.0506
▁strongest	-11.0506
▁structured	-11.0506
▁submission	-11.0506
▁suffocated	-11.0506
▁suggests	-11.0506
▁supervisory	-11.0506
▁suppression	-11.0506
▁surpass	-11.0506
▁surround	-11.0506
▁survivor	-11.0506
▁swearing	-11.0506
▁sympathetic	-11.0506
▁synthesis	-11.0506
▁tad	-11.0506
▁talented	-11.0506
▁taylor	-11.0506
▁temple	-11.0506
▁terrifying	-11.0506
▁testosterone	-11.0506
▁texas	-11.0506
▁tf	-11.0506
▁theanine	-11.0506
▁thick	-11.0506
▁thin	-11.0506
▁thoughs	-11.0506
▁threaten	-11.0506
▁thrust	-11.0506
▁tht	-11.0506
▁thursday	-11.0506
▁tick	-11.0506
▁ticket	-11.0506
▁tightly	-11.0506
▁tinder	-11.0506
▁tingling	-11.0506
▁tiniest	-11.0506
▁tinnitus	-11.0506
▁tire	-11.0506
▁titled	-11.0506
▁tom	-11.0506
▁tommorow	-11.0506
▁tone	-11.0506
▁toothache	-11.0506
▁torturous	-11.0506
▁tradition	-11.0506
▁traditional	-11.0506
▁transportation	-11.0506
▁traveling	-11.0506
▁treacherous	-11.0506
▁tremendously	-11.0506
▁trending	-11.0506
▁tribe	-11.0506
▁tribulation	-11.0506
▁trigeminal	-11.0506
▁trivial	-11.0506
▁troubling	-11.0506
▁trough	-11.0506
▁truthfully	-11.0506
▁tumbling	-11.0506
▁tumblr	-11.0506
▁tummy	-11.0506
▁turmeric	-11.0506
▁ukraine	-11.0506
▁unbearably	-11.0506
▁unconsciously	-11.0506
▁uncover	-11.0506
▁understandable	-11.0506
▁unfair	-11.0506
▁unfamiliar	-11.0506
▁unintelligent	-11.0506
▁uninterrupted	-11.0506
▁unity	-11.0506
▁universal	-11.0506
▁unlikely	-11.0506
▁unloved	-11.0506
▁unnoticed	-11.0506
▁unpacking	-11.0506
▁unprecedented	-11.0506
▁unprepared	-11.0506
▁unproductive	-11.0506
▁unsuccessful	-11.0506
▁unsuccessfully	-11.0506
▁untill	-11.0506
▁unusual	-11.0506
▁unwell	-11.0506
▁upbeat	-11.0506
▁updated	-11.0506
▁urged	-11.0506
▁uselessness	-11.0506
▁vaccine	-11.0506
▁valentine	-11.0506
▁vaping	-11.0506
▁varied	-11.0506
▁varying	-11.0506
▁veggie	-11.0506
▁verification	-11.0506
▁versa	-11.0506
▁verve	-11.0506
▁village	-11.0506
▁viral	-11.0506
▁virgin	-11.0506
▁virtually	-11.0506
▁viscous	-11.0506
▁visitor	-11.0506
▁vocabulary	-11.0506
▁voiced	-11.0506
▁volleyball	-11.0506
▁vomiting	-11.0506
▁vote	-11.0506
▁walmart	-11.0506
▁wander	-11.0506
▁wandering	-11.0506
▁warmer	-11.0506
▁warrant	-11.0506
▁washing	-11.0506
▁wednesday	-11.0506
▁weighing	-11.0506
▁weighs	-11.0506
▁welcomed	-11.0506
▁wellbutrin	-11.0506
▁whatnot	-11.0506
▁whereas	-11.0506
▁whim	-11.0506
▁wiggle	-11.0506
▁wild	-11.0506
▁willingly	-11.0506
▁wine	-11.0506
▁witnessed	-11.0506
▁wooden	-11.0506
▁wore	-11.0506
▁worsens	-11.0506
▁writes	-11.0506
▁wtf	-11.0506
▁xr	-11.0506
▁yard	-11.0506
▁zombie	-11.0506
▁abandon	-11.4561
▁abdomen	-11.4561
▁abnormality	-11.4561
▁abolishing	-11.4561
▁abscess	-11.4561
▁absent	-11.4561
▁abstract	-11.4561
▁abusing	-11.4561
▁ac	-11.4561
▁accelerated	-11.4561
▁accepts	-11.4561
▁accompany	-11.4561
▁accompanying	-11.4561
▁accordance	-11.4561
▁accordingly	-11.4561
▁accounting	-11.4561
▁accurately	-11.4561
▁acknowledged	-11.4561
▁acne	-11.4561
▁acquaintance	-11.4561
▁acronym	-11.4561
▁actionable	-11.4561
▁activated	-11.4561
▁activist	-11.4561
▁actualize	-11.4561
▁acute	-11.4561
▁adamant	-11.4561
▁adapt	-11.4561
▁adaptability	-11.4561
▁adaptable	-11.4561
▁adequately	-11.4561
▁adhere	-11.4561
▁adhering	-11.4561
▁adjusted	-11.4561
▁adjusting	-11.4561
▁admin	-11.4561
▁admins	-11.4561
▁admire	-11.4561
▁admitting	-11.4561
▁adoptive	-11.4561
▁adrenalin	-11.4561
▁advantageous	-11.4561
▁adversely	-11.4561
▁aesthetic	-11.4561
▁afar	-11.4561
▁affable	-11.4561
▁affair	-11.4561
▁affectionate	-11.4561
▁afterthought	-11.4561
▁aging	-11.4561
▁agrees	-11.4561
▁ai	-11.4561
▁aid	-11.4561
▁aiding	-11.4561
▁ailment	-11.4561
▁aimed	-11.4561
▁aimless	-11.4561
▁airplane	-11.4561
▁alarmingly	-11.4561
▁alaska	-11.4561
▁alcoholism	-11.4561
▁aligning	-11.4561
▁aliviate	-11.4561
▁alllll	-11.4561
▁alongside	-11.4561
▁alopecia	-11.4561
▁alpha	-11.4561
▁alprazolam	-11.4561
▁alrealdy	-11.4561
▁alteration	-11.4561
▁alternate	-11.4561
▁altough	-11.4561
▁altruism	-11.4561
▁alveolus	-11.4561
▁amaal	-11.4561
▁amazed	-11.4561
▁ambiance	-11.4561
▁amends	-11.4561
▁ammount	-11.4561
▁amphetamine	-11.4561
▁analysis	-11.4561
▁analyzed	-11.4561
▁ancestor	-11.4561
▁ancien	-11.4561
▁andew	-11.4561
▁androgenetic	-11.4561
▁anemia	-11.4561
▁aneurism	-11.4561
▁anew	-11.4561
▁angelic	-11.4561
▁angle	-11.4561
▁angrier	-11.4561
▁angst	-11.4561
▁animating	-11.4561
▁ankle	-11.4561
▁annoys	-11.4561
▁anthropology	-11.4561
▁antidote	-11.4561
▁antisocial	-11.4561
▁appalled	-11.4561
▁appealing	-11.4561
▁appearence	-11.4561
▁appears	-11.4561
▁appropriate	-11.4561
▁approve	-11.4561
▁approves	-11.4561
▁aptitude	-11.4561
▁ard	-11.4561
▁argues	-11.4561
▁armed	-11.4561
▁arnold	-11.4561
▁aromatherapy	-11.4561
▁arrange	-11.4561
▁arranged	-11.4561
▁arrogant	-11.4561
▁artery	-11.4561
▁artistic	-11.4561
▁ascending	-11.4561
▁asd	-11.4561
▁asf	-11.4561
▁asfff	-11.4561
▁asocially	-11.4561
▁ass	-11.4561
▁assertiveness	-11.4561
▁asskisser	-11.4561
▁asthma	-11.4561
▁aswell	-11.4561
▁atmospheric	-11.4561
▁atom	-11.4561
▁atpeace	-11.4561
▁attach	-11.4561
▁attacking	-11.4561
▁attained	-11.4561
▁attended	-11.4561
▁audition	-11.4561
▁authenticity	-11.4561
▁authorattn	-11.4561
▁automated	-11.4561
▁autumn	-11.4561
▁avail	-11.4561
▁awaits	-11.4561
▁awarded	-11.4561
▁aways	-11.4561
▁awe	-11.4561
▁awry	-11.4561
▁backbone	-11.4561
▁backfire	-11.4561
▁backpack	-11.4561
▁backspaced	-11.4561
▁backup	-11.4561
▁badass	-11.4561
▁bait	-11.4561
▁balding	-11.4561
▁baldness	-11.4561
▁bang	-11.4561
▁banging	-11.4561
▁barefoot	-11.4561
▁barricade	-11.4561
▁bathe	-11.4561
▁bathing	-11.4561
▁battlefield	-11.4561
▁bawl	-11.4561
▁beacuse	-11.4561
▁bearing	-11.4561
▁bedding	-11.4561
▁bee	-11.4561
▁beed	-11.4561
▁beem	-11.4561
▁befor	-11.4561
▁beggining	-11.4561
▁behave	-11.4561
▁behavioural	-11.4561
▁beholder	-11.4561
▁beige	-11.4561
▁beingness	-11.4561
▁belated	-11.4561
▁belgium	-11.4561
▁belt	-11.4561
▁bemindfulonline	-11.4561
▁bench	-11.4561
▁bender	-11.4561
▁beneficial	-11.4561
▁bestfriend	-11.4561
▁bestselling	-11.4561
▁betray	-11.4561
▁bfa	-11.4561
▁bich	-11.4561
▁biggies	-11.4561
▁biking	-11.4561
▁billie	-11.4561
▁binary	-11.4561
▁binging	-11.4561
▁biography	-11.4561
▁biology	-11.4561
▁bitterness	-11.4561
▁blacked	-11.4561
▁blanchard	-11.4561
▁blatantly	-11.4561
▁blemish	-11.4561
▁blesses	-11.4561
▁blm	-11.4561
▁blocker	-11.4561
▁blogger	-11.4561
▁blowing	-11.4561
▁blur	-11.4561
▁blurred	-11.4561
▁boarding	-11.4561
▁bombed	-11.4561
▁boo	-11.4561
▁bookshelf	-11.4561
▁boosted	-11.4561
▁boosting	-11.4561
▁booth	-11.4561
▁bottled	-11.4561
▁bouncing	-11.4561
▁bow	-11.4561
▁bragging	-11.4561
▁brat	-11.4561
▁brazilian	-11.4561
▁breast	-11.4561
▁brew	-11.4561
▁bricker	-11.4561
▁brighten	-11.4561
▁britain	-11.4561
▁bronson	-11.4561
▁bros	-11.4561
▁browse	-11.4561
▁bruise	-11.4561
▁bruised	-11.4561
▁brunch	-11.4561
▁budda	-11.4561
▁budding	-11.4561
▁buffett	-11.4561
▁buggy	-11.4561
▁bulimia	-11.4561
▁bulking	-11.4561
▁bullet	-11.4561
▁bumping	-11.4561
▁bungee	-11.4561
▁burdening	-11.4561
▁burg	-11.4561
▁buried	-11.4561
▁buttered	-11.4561
▁bye	-11.4561
▁bystander	-11.4561
▁cafeteria	-11.4561
▁cafine	-11.4561
▁caller	-11.4561
▁cambodia	-11.4561
▁camel	-11.4561
▁canadian	-11.4561
▁candor	-11.4561
▁cannabis	-11.4561
▁canton	-11.4561
▁canucknaround	-11.4561
▁captaindepression	-11.4561
▁caravan	-11.4561
▁careerwise	-11.4561
▁carer	-11.4561
▁carol	-11.4561
▁cart	-11.4561
▁casting	-11.4561
▁casually	-11.4561
▁catastrophize	-11.4561
▁cater	-11.4561
▁catharsis	-11.4561
▁cattle	-11.4561
▁cave	-11.4561
▁cavity	-11.4561
▁cbc	-11.4561
▁ccertain	-11.4561
▁ccna	-11.4561
▁cec	-11.4561
▁celebrity	-11.4561
▁cemetery	-11.4561
▁centered	-11.4561
▁cert	-11.4561
▁certainty	-11.4561
▁cf	-11.4561
▁challeged	-11.4561
▁challeges	-11.4561
▁chanting	-11.4561
▁characterize	-11.4561
▁charismatic	-11.4561
▁charming	-11.4561
▁chated	-11.4561
▁chattanooga	-11.4561
▁chatted	-11.4561
▁chatter	-11.4561
▁chattering	-11.4561
▁cheaper	-11.4561
▁checkout	-11.4561
▁cheesy	-11.4561
▁chef	-11.4561
▁cherry	-11.4561
▁chester	-11.4561
▁chevrolet	-11.4561
▁chilled	-11.4561
▁chillllll	-11.4561
▁chime	-11.4561
▁china	-11.4561
▁chipping	-11.4561
▁chocolate	-11.4561
▁chord	-11.4561
▁chris	-11.4561
▁christ	-11.4561
▁christianity	-11.4561
▁chromebook	-11.4561
▁ci	-11.4561
▁ciggarettes	-11.4561
▁circulating	-11.4561
▁citizenship	-11.4561
▁claiming	-11.4561
▁clairvoyance	-11.4561
▁clamp	-11.4561
▁clapping	-11.4561
▁classic	-11.4561
▁classroom	-11.4561
▁claude	-11.4561
▁cleaner	-11.4561
▁clearer	-11.4561
▁cleft	-11.4561
▁climax	-11.4561
▁climb	-11.4561
▁climbed	-11.4561
▁cloak	-11.4561
▁clocking	-11.4561
▁clonazepam	-11.4561
▁closing	-11.4561
▁closure	-11.4561
▁cloudy	-11.4561
▁clout	-11.4561
▁clown	-11.4561
▁clueless	-11.4561
▁clumsy	-11.4561
▁clutter	-11.4561
▁coaching	-11.4561
▁cocktail	-11.4561
▁cocky	-11.4561
▁coco	-11.4561
▁coding	-11.4561
▁coelho	-11.4561
▁coffin	-11.4561
▁coincidence	-11.4561
▁collaboration	-11.4561
▁collapsed	-11.4561
▁collecting	-11.4561
▁collins	-11.4561
▁colon	-11.4561
▁colorful	-11.4561
▁combating	-11.4561
▁combine	-11.4561
▁comedian	-11.4561
▁comedy	-11.4561
▁comfortability	-11.4561
▁comfy	-11.4561
▁comic	-11.4561
▁commence	-11.4561
▁commends	-11.4561
▁commented	-11.4561
▁commenting	-11.4561
▁commerce	-11.4561
▁commiserating	-11.4561
▁commiting	-11.4561
▁communicating	-11.4561
▁compatible	-11.4561
▁competency	-11.4561
▁competent	-11.4561
▁complained	-11.4561
▁comprehensive	-11.4561
▁compulsion	-11.4561
▁conceptualization	-11.4561
▁conforming	-11.4561
▁congratulation	-11.4561
▁congressional	-11.4561
▁consedring	-11.4561
▁consequently	-11.4561
▁conservative	-11.4561
▁considers	-11.4561
▁consitent	-11.4561
▁consolidate	-11.4561
▁constraint	-11.4561
▁construct	-11.4561
▁constructing	-11.4561
▁constructively	-11.4561
▁consult	-11.4561
▁consultant	-11.4561
▁consumerism	-11.4561
▁consumes	-11.4561
▁contain	-11.4561
▁contemplating	-11.4561
▁continent	-11.4561
▁continuously	-11.4561
▁contributed	-11.4561
▁contributing	-11.4561
▁controllable	-11.4561
▁controller	-11.4561
▁convenience	-11.4561
▁convenient	-11.4561
▁conventional	-11.4561
▁conventionally	-11.4561
▁conversion	-11.4561
▁conviced	-11.4561
▁cooperative	-11.4561
▁cooping	-11.4561
▁coordination	-11.4561
▁coordinator	-11.4561
▁coped	-11.4561
▁copious	-11.4561
▁corey	-11.4561
▁correlate	-11.4561
▁cortex	-11.4561
▁costly	-11.4561
▁countdown	-11.4561
▁county	-11.4561
▁coverage	-11.4561
▁coveted	-11.4561
▁cpa	-11.4561
▁crab	-11.4561
▁crackhead	-11.4561
▁cracking	-11.4561
▁cramped	-11.4561
▁crashed	-11.4561
▁crawled	-11.4561
▁crawlies	-11.4561
▁creatively	-11.4561
▁creature	-11.4561
▁creek	-11.4561
▁crew	-11.4561
▁criterion	-11.4561
▁criticised	-11.4561
▁criticizes	-11.4561
▁crowded	-11.4561
▁crowed	-11.4561
▁crumbled	-11.4561
▁crybaby	-11.4561
▁crystal	-11.4561
▁cuddling	-11.4561
▁culmination	-11.4561
▁cultivating	-11.4561
▁cumming	-11.4561
▁cunt	-11.4561
▁cupboard	-11.4561
▁cursed	-11.4561
▁curve	-11.4561
▁curving	-11.4561
▁custody	-11.4561
▁cwru	-11.4561
▁cymbalta	-11.4561
▁cynical	-11.4561
▁da	-11.4561
▁daddy	-11.4561
▁dalio	-11.4561
▁damned	-11.4561
▁damped	-11.4561
▁dan	-11.4561
▁dancing	-11.4561
▁dar	-11.4561
▁dared	-11.4561
▁darkly	-11.4561
▁darn	-11.4561
▁daw	-11.4561
▁daydream	-11.4561
▁deadbeat	-11.4561
▁deadlift	-11.4561
▁deault	-11.4561
▁debating	-11.4561
▁declining	-11.4561
▁declutter	-11.4561
▁dedicating	-11.4561
▁deductable	-11.4561
▁deemed	-11.4561
▁deems	-11.4561
▁defaulted	-11.4561
▁defending	-11.4561
▁defination	-11.4561
▁defines	-11.4561
▁deformed	-11.4561
▁defy	-11.4561
▁degrading	-11.4561
▁deity	-11.4561
▁delaying	-11.4561
▁delegate	-11.4561
▁delicious	-11.4561
▁delivering	-11.4561
▁demotivated	-11.4561
▁demotivation	-11.4561
▁dense	-11.4561
▁densest	-11.4561
▁dental	-11.4561
▁depends	-11.4561
▁depersnalization	-11.4561
▁depersonalization	-11.4561
▁deplete	-11.4561
▁depletion	-11.4561
▁deprivation	-11.4561
▁derby	-11.4561
▁designated	-11.4561
▁desktop	-11.4561
▁desmotivated	-11.4561
▁despaired	-11.4561
▁despise	-11.4561
▁destined	-11.4561
▁destiny	-11.4561
▁destress	-11.4561
▁destroys	-11.4561
▁detailing	-11.4561
▁detect	-11.4561
▁deter	-11.4561
▁deteriorated	-11.4561
▁deteriorating	-11.4561
▁detract	-11.4561
▁devalues	-11.4561
▁devastate	-11.4561
▁devastated	-11.4561
▁developemental	-11.4561
▁developer	-11.4561
▁developmental	-11.4561
▁devil	-11.4561
▁devine	-11.4561
▁devotion	-11.4561
▁diafram	-11.4561
▁diametrically	-11.4561
▁dicided	-11.4561
▁dictator	-11.4561
▁dieting	-11.4561
▁dilation	-11.4561
▁dilution	-11.4561
▁dilutional	-11.4561
▁dimension	-11.4561
▁diminish	-11.4561
▁diminished	-11.4561
▁directed	-11.4561
▁disappears	-11.4561
▁disapproved	-11.4561
▁disassembling	-11.4561
▁disaster	-11.4561
▁disfunctional	-11.4561
▁disgust	-11.4561
▁disordered	-11.4561
▁disowned	-11.4561
▁disposition	-11.4561
▁disrupt	-11.4561
▁dissapointed	-11.4561
▁dissappear	-11.4561
▁dissociate	-11.4561
▁distancing	-11.4561
▁distinction	-11.4561
▁distortion	-11.4561
▁distracting	-11.4561
▁distracts	-11.4561
▁distressing	-11.4561
▁ditch	-11.4561
▁divide	-11.4561
▁divorce	-11.4561
▁dizzyness	-11.4561
▁doable	-11.4561
▁doc	-11.4561
▁documenting	-11.4561
▁doer	-11.4561
▁dominant	-11.4561
▁dominate	-11.4561
▁doom	-11.4561
▁doordash	-11.4561
▁doosie	-11.4561
▁dope	-11.4561
▁downvotes	-11.4561
▁downwards	-11.4561
▁dragon	-11.4561
▁dramatically	-11.4561
▁drawn	-11.4561
▁dreading	-11.4561
▁dreamed	-11.4561
▁dreamt	-11.4561
▁dressed	-11.4561
▁drivign	-11.4561
▁drowsy	-11.4561
▁drugged	-11.4561
▁drunken	-11.4561
▁duffle	-11.4561
▁dug	-11.4561
▁duly	-11.4561
▁dumbass	-11.4561
▁dumbfounded	-11.4561
▁dump	-11.4561
▁dumping	-11.4561
▁dysthimia	-11.4561
▁dysthymia	-11.4561
▁eachother	-11.4561
▁earliest	-11.4561
▁eased	-11.4561
▁eastern	-11.4561
▁ebony	-11.4561
▁edgy	-11.4561
▁eeg	-11.4561
▁effecting	-11.4561
▁effortless	-11.4561
▁effortlessly	-11.4561
▁egotistical	-11.4561
▁egypt	-11.4561
▁eilish	-11.4561
▁eith	-11.4561
▁ekg	-11.4561
▁elation	-11.4561
▁elbert	-11.4561
▁elbow	-11.4561
▁elder	-11.4561
▁electric	-11.4561
▁electrical	-11.4561
▁electrocute	-11.4561
▁electrode	-11.4561
▁electronics	-11.4561
▁electrotechnic	-11.4561
▁eliminating	-11.4561
▁elope	-11.4561
▁elsewhere	-11.4561
▁embarassed	-11.4561
▁emit	-11.4561
▁emo	-11.4561
▁emotionless	-11.4561
▁empathize	-11.4561
▁emphaising	-11.4561
▁emphasize	-11.4561
▁employing	-11.4561
▁empower	-11.4561
▁empowered	-11.4561
▁enabled	-11.4561
▁encountered	-11.4561
▁encourages	-11.4561
▁encouraging	-11.4561
▁endeavour	-11.4561
▁endgame	-11.4561
▁enhancing	-11.4561
▁enlighten	-11.4561
▁enlivened	-11.4561
▁enourmous	-11.4561
▁enriching	-11.4561
▁enroll	-11.4561
▁ensures	-11.4561
▁ensuring	-11.4561
▁entail	-11.4561
▁entirety	-11.4561
▁entourage	-11.4561
▁entrapped	-11.4561
▁envelope	-11.4561
▁enveloped	-11.4561
▁envied	-11.4561
▁environmental	-11.4561
▁epidemic	-11.4561
▁equality	-11.4561
▁equally	-11.4561
▁equate	-11.4561
▁equipped	-11.4561
▁eradicated	-11.4561
▁erection	-11.4561
▁ergo	-11.4561
▁eric	-11.4561
▁escalate	-11.4561
▁escort	-11.4561
▁establish	-11.4561
▁estate	-11.4561
▁estranged	-11.4561
▁eternally	-11.4561
▁euphemism	-11.4561
▁euthanasia	-11.4561
▁euthanized	-11.4561
▁evangelism	-11.4561
▁evaporate	-11.4561
▁eventhough	-11.4561
▁everlasting	-11.4561
▁everyon	-11.4561
▁everythings	-11.4561
▁excelling	-11.4561
▁exceptionally	-11.4561
▁excersises	-11.4561
▁excessively	-11.4561
▁excluded	-11.4561
▁exclusive	-11.4561
▁excruciating	-11.4561
▁exhibition	-11.4561
▁existance	-11.4561
▁existencial	-11.4561
▁exited	-11.4561
▁expanded	-11.4561
▁expanding	-11.4561
▁expands	-11.4561
▁expansion	-11.4561
▁expired	-11.4561
▁explicit	-11.4561
▁explosion	-11.4561
▁exposing	-11.4561
▁expound	-11.4561
▁expressive	-11.4561
▁extend	-11.4561
▁externalize	-11.4561
▁externally	-11.4561
▁extort	-11.4561
▁extract	-11.4561
▁extraoedinary	-11.4561
▁extremly	-11.4561
▁extroverted	-11.4561
▁eyebrow	-11.4561
▁eyed	-11.4561
▁fabricated	-11.4561
▁facetimed	-11.4561
▁facility	-11.4561
▁faded	-11.4561
▁failling	-11.4561
▁fairness	-11.4561
▁faithful	-11.4561
▁falsely	-11.4561
▁fam	-11.4561
▁fantasized	-11.4561
▁farm	-11.4561
▁fase	-11.4561
▁fastest	-11.4561
▁fatal	-11.4561
▁fatty	-11.4561
▁fawk	-11.4561
▁faze	-11.4561
▁fearlessness	-11.4561
▁feather	-11.4561
▁feeding	-11.4561
▁feellucky	-11.4561
▁feild	-11.4561
▁felix	-11.4561
▁fella	-11.4561
▁fellowship	-11.4561
▁felon	-11.4561
▁femboy	-11.4561
▁feminist	-11.4561
▁ferriss	-11.4561
▁festival	-11.4561
▁feverish	-11.4561
▁fidget	-11.4561
▁fiercely	-11.4561
▁fifth	-11.4561
▁figment	-11.4561
▁finalised	-11.4561
▁fir	-11.4561
▁fireplace	-11.4561
▁firmly	-11.4561
▁fishing	-11.4561
▁fitful	-11.4561
▁fk	-11.4561
▁flammable	-11.4561
▁flatsharing	-11.4561
▁flavour	-11.4561
▁fledged	-11.4561
▁fleeing	-11.4561
▁flexibility	-11.4561
▁flipping	-11.4561
▁flooded	-11.4561
▁floof	-11.4561
▁floss	-11.4561
▁flossing	-11.4561
▁flowing	-11.4561
▁fluff	-11.4561
▁fluid	-11.4561
▁fluoxetine	-11.4561
▁flutter	-11.4561
▁flying	-11.4561
▁fml	-11.4561
▁foggy	-11.4561
▁folded	-11.4561
▁fond	-11.4561
▁ford	-11.4561
▁forest	-11.4561
▁format	-11.4561
▁formation	-11.4561
▁formatting	-11.4561
▁formidable	-11.4561
▁forming	-11.4561
▁formulate	-11.4561
▁forsaken	-11.4561
▁forsee	-11.4561
▁foul	-11.4561
▁fox	-11.4561
▁fpv	-11.4561
▁franklin	-11.4561
▁freeing	-11.4561
▁freelance	-11.4561
▁freestyle	-11.4561
▁friendzoned	-11.4561
▁frizz	-11.4561
▁frizzle	-11.4561
▁frontline	-11.4561
▁fruitless	-11.4561
▁ft	-11.4561
▁ftm	-11.4561
▁fulfills	-11.4561
▁fuller	-11.4561
▁fulltime	-11.4561
▁fuq	-11.4561
▁fur	-11.4561
▁furious	-11.4561
▁furloughed	-11.4561
▁furry	-11.4561
▁fusion	-11.4561
▁fuvking	-11.4561
▁g	-11.4561
▁gabriel	-11.4561
▁gage	-11.4561
▁gale	-11.4561
▁gamble	-11.4561
▁gambling	-11.4561
▁garage	-11.4561
▁gaslight	-11.4561
▁gaslighting	-11.4561
▁gastroenterologist	-11.4561
▁gatekeeper	-11.4561
▁gateway	-11.4561
▁gatewaylocation	-11.4561
▁gene	-11.4561
▁generalized	-11.4561
▁generic	-11.4561
▁generosity	-11.4561
▁genius	-11.4561
▁genre	-11.4561
▁gently	-11.4561
▁genuity	-11.4561
▁getaway	-11.4561
▁getsmartebooks	-11.4561
▁ghetto	-11.4561
▁gifted	-11.4561
▁gimmick	-11.4561
▁gimpy	-11.4561
▁ginseng	-11.4561
▁givebooks	-11.4561
▁gladness	-11.4561
▁glandular	-11.4561
▁gleaned	-11.4561
▁glimmer	-11.4561
▁globally	-11.4561
▁glow	-11.4561
▁glowing	-11.4561
▁glued	-11.4561
▁goodnight	-11.4561
▁googled	-11.4561
▁gotteb	-11.4561
▁gps	-11.4561
▁graced	-11.4561
▁grandiose	-11.4561
▁grandkids	-11.4561
▁gras	-11.4561
▁gratefulness	-11.4561
▁gravely	-11.4561
▁graying	-11.4561
▁grease	-11.4561
▁greenspace	-11.4561
▁greenspaces	-11.4561
▁greg	-11.4561
▁greyhound	-11.4561
▁grid	-11.4561
▁grieved	-11.4561
▁grim	-11.4561
▁grinded	-11.4561
▁grouched	-11.4561
▁grp	-11.4561
▁grueling	-11.4561
▁guardian	-11.4561
▁guardianship	-11.4561
▁guessed	-11.4561
▁guest	-11.4561
▁guilted	-11.4561
▁gum	-11.4561
▁gymnastics	-11.4561
▁gynaecologist	-11.4561
▁habbit	-11.4561
▁hack	-11.4561
▁hacked	-11.4561
▁hahaha	-11.4561
▁hahahahahah	-11.4561
▁hahhaa	-11.4561
▁halt	-11.4561
▁halted	-11.4561
▁handed	-11.4561
▁handgun	-11.4561
▁handy	-11.4561
▁hanged	-11.4561
▁hanger	-11.4561
▁hangover	-11.4561
▁harbored	-11.4561
▁harmonising	-11.4561
▁harpreet	-11.4561
▁harvey	-11.4561
▁haryana	-11.4561
▁hasnt	-11.4561
▁hassle	-11.4561
▁hastily	-11.4561
▁hatched	-11.4561
▁haw	-11.4561
▁header	-11.4561
▁healed	-11.4561
▁heartbeat	-11.4561
▁heated	-11.4561
▁heatlh	-11.4561
▁hedonic	-11.4561
▁heinous	-11.4561
▁hella	-11.4561
▁hereafter	-11.4561
▁hereunder	-11.4561
▁hernia	-11.4561
▁hero	-11.4561
▁hever	-11.4561
▁heyejehowh	-11.4561
▁hiatal	-11.4561
▁highbrow	-11.4561
▁highlighting	-11.4561
▁hightail	-11.4561
▁hilding	-11.4561
▁himan	-11.4561
▁hind	-11.4561
▁hindi	-11.4561
▁hindu	-11.4561
▁hiring	-11.4561
▁hive	-11.4561
▁hoax	-11.4561
▁hobble	-11.4561
▁hobies	-11.4561
▁holistic	-11.4561
▁hollowed	-11.4561
▁homeschool	-11.4561
▁homophobia	-11.4561
▁honey	-11.4561
▁hooked	-11.4561
▁hop	-11.4561
▁hopelessness	-11.4561
▁horde	-11.4561
▁horrendous	-11.4561
▁hospitalization	-11.4561
▁hostile	-11.4561
▁hotel	-11.4561
▁hotline	-11.4561
▁hourglass	-11.4561
▁housing	-11.4561
▁howell	-11.4561
▁howtomeditate	-11.4561
▁htp	-11.4561
▁huberman	-11.4561
▁huh	-11.4561
▁huhu	-11.4561
▁humbled	-11.4561
▁humored	-11.4561
▁hunger	-11.4561
▁hungover	-11.4561
▁hurricane	-11.4561
▁husk	-11.4561
▁hussle	-11.4561
▁hustlin	-11.4561
▁hyperventilating	-11.4561
▁hypocrite	-11.4561
▁hypocritical	-11.4561
▁ic	-11.4561
▁icahn	-11.4561
▁icon	-11.4561
▁idiocy	-11.4561
▁iii	-11.4561
▁illinois	-11.4561
▁illogical	-11.4561
▁illusionary	-11.4561
▁imagery	-11.4561
▁imaginary	-11.4561
▁imaginative	-11.4561
▁imessage	-11.4561
▁immensely	-11.4561
▁imo	-11.4561
▁impatient	-11.4561
▁implant	-11.4561
▁imposed	-11.4561
▁impress	-11.4561
▁impression	-11.4561
▁impulse	-11.4561
▁inappropriate	-11.4561
▁inattention	-11.4561
▁incarnation	-11.4561
▁inch	-11.4561
▁incompetence	-11.4561
▁inconsiderate	-11.4561
▁incontinent	-11.4561
▁inconvenience	-11.4561
▁incurable	-11.4561
▁indebted	-11.4561
▁indicator	-11.4561
▁individually	-11.4561
▁induce	-11.4561
▁inertia	-11.4561
▁inexplicably	-11.4561
▁infatuated	-11.4561
▁infinitesilence	-11.4561
▁inflatable	-11.4561
▁inflation	-11.4561
▁influential	-11.4561
▁infused	-11.4561
▁inherent	-11.4561
▁inherits	-11.4561
▁inhibit	-11.4561
▁initiate	-11.4561
▁initiative	-11.4561
▁inject	-11.4561
▁injustice	-11.4561
▁inlove	-11.4561
▁insidious	-11.4561
▁insignificant	-11.4561
▁insist	-11.4561
▁insists	-11.4561
▁insomniac	-11.4561
▁instantaneous	-11.4561
▁instantaneously	-11.4561
▁instigator	-11.4561
▁instilling	-11.4561
▁institutionalised	-11.4561
▁instruction	-11.4561
▁instructs	-11.4561
▁insult	-11.4561
▁intellectual	-11.4561
▁intends	-11.4561
▁intercourse	-11.4561
▁intern	-11.4561
▁internalised	-11.4561
▁internalized	-11.4561
▁interrupt	-11.4561
▁intersex	-11.4561
▁interst	-11.4561
▁interval	-11.4561
▁interviewed	-11.4561
▁intrigued	-11.4561
▁introduce	-11.4561
▁introduces	-11.4561
▁introduction	-11.4561
▁invades	-11.4561
▁inventing	-11.4561
▁invisibility	-11.4561
▁invisible	-11.4561
▁involvement	-11.4561
▁involving	-11.4561
▁ip	-11.4561
▁irb	-11.4561
▁ireland	-11.4561
▁ironically	-11.4561
▁irrelevant	-11.4561
▁irreparable	-11.4561
▁irresponsibility	-11.4561
▁isolating	-11.4561
▁italy	-11.4561
▁itd	-11.4561
▁iteration	-11.4561
▁iu	-11.4561
▁ivf	-11.4561
▁jack	-11.4561
▁jacked	-11.4561
▁jaded	-11.4561
▁jail	-11.4561
▁jakepreddy	-11.4561
▁jana	-11.4561
▁japan	-11.4561
▁jayne	-11.4561
▁jazzed	-11.4561
▁je	-11.4561
▁jelous	-11.4561
▁jerking	-11.4561
▁joe	-11.4561
▁joked	-11.4561
▁joking	-11.4561
▁joleneobrien	-11.4561
▁jonathan	-11.4561
▁journalling	-11.4561
▁joyously	-11.4561
▁judaism	-11.4561
▁judgment	-11.4561
▁juggle	-11.4561
▁jukebox	-11.4561
▁jumb	-11.4561
▁jumbo	-11.4561
▁justice	-11.4561
▁k	-11.4561
▁kawasaki	-11.4561
▁kennel	-11.4561
▁keystone	-11.4561
▁kinder	-11.4561
▁kissed	-11.4561
▁knock	-11.4561
▁knocking	-11.4561
▁knowhow	-11.4561
▁korn	-11.4561
▁la	-11.4561
▁labelled	-11.4561
▁lake	-11.4561
▁lamp	-11.4561
▁latter	-11.4561
▁laughably	-11.4561
▁launch	-11.4561
▁lavish	-11.4561
▁lawn	-11.4561
▁laziness	-11.4561
▁leafing	-11.4561
▁leaking	-11.4561
▁leap	-11.4561
▁learnd	-11.4561
▁learner	-11.4561
▁leash	-11.4561
▁lecturing	-11.4561
▁leech	-11.4561
▁leftover	-11.4561
▁legacy	-11.4561
▁legally	-11.4561
▁legitimate	-11.4561
▁leisure	-11.4561
▁lemmy	-11.4561
▁lender	-11.4561
▁lesbian	-11.4561
▁lesons	-11.4561
▁lesser	-11.4561
▁lethargic	-11.4561
▁leveled	-11.4561
▁leverage	-11.4561
▁liberal	-11.4561
▁liberation	-11.4561
▁licence	-11.4561
▁licensed	-11.4561
▁licking	-11.4561
▁liege	-11.4561
▁lightly	-11.4561
▁lighty	-11.4561
▁likelihood	-11.4561
▁likwise	-11.4561
▁limb	-11.4561
▁lingers	-11.4561
▁lingo	-11.4561
▁linkedin	-11.4561
▁linking	-11.4561
▁lionsheartlifestyle	-11.4561
▁liquid	-11.4561
▁listener	-11.4561
▁listing	-11.4561
▁literary	-11.4561
▁lively	-11.4561
▁liverpool	-11.4561
▁livestream	-11.4561
▁livinginthemoment	-11.4561
▁loaded	-11.4561
▁loath	-11.4561
▁loathed	-11.4561
▁locus	-11.4561
▁logo	-11.4561
▁loner	-11.4561
▁longed	-11.4561
▁looknat	-11.4561
▁loom	-11.4561
▁loooooot	-11.4561
▁loophole	-11.4561
▁loses	-11.4561
▁louder	-11.4561
▁lovable	-11.4561
▁lowered	-11.4561
▁lurking	-11.4561
▁luxurious	-11.4561
▁lymphoma	-11.4561
▁lyrical	-11.4561
▁madness	-11.4561
▁magical	-11.4561
▁magnitude	-11.4561
▁maid	-11.4561
▁mail	-11.4561
▁maintains	-11.4561
▁malfunction	-11.4561
▁malibu	-11.4561
▁managment	-11.4561
▁maneuver	-11.4561
▁manipulating	-11.4561
▁manipulation	-11.4561
▁manipulative	-11.4561
▁marijuana	-11.4561
▁marketplace	-11.4561
▁marred	-11.4561
▁marrying	-11.4561
▁martin	-11.4561
▁masculinity	-11.4561
▁masked	-11.4561
▁masking	-11.4561
▁mass	-11.4561
▁matched	-11.4561
▁materialistic	-11.4561
▁mathematically	-11.4561
▁matted	-11.4561
▁mattered	-11.4561
▁matured	-11.4561
▁maturing	-11.4561
▁mba	-11.4561
▁mcdonald	-11.4561
▁mcdonalds	-11.4561
▁mci	-11.4561
▁mckeown	-11.4561
▁mcu	-11.4561
▁mdd	-11.4561
▁meagrely	-11.4561
▁mealplan	-11.4561
▁measured	-11.4561
▁measuring	-11.4561
▁meat	-11.4561
▁mechatronics	-11.4561
▁medal	-11.4561
▁mediation	-11.4561
▁mediavine	-11.4561
▁medically	-11.4561
▁meditated	-11.4561
▁medulla	-11.4561
▁mek	-11.4561
▁melbourne	-11.4561
▁mellow	-11.4561
▁melt	-11.4561
▁mending	-11.4561
▁meniscus	-11.4561
▁mercy	-11.4561
▁meridian	-11.4561
▁merit	-11.4561
▁messaging	-11.4561
▁metaphorically	-11.4561
▁meteor	-11.4561
▁methodology	-11.4561
▁mexico	-11.4561
▁mf	-11.4561
▁michaeljames	-11.4561
▁michigan	-11.4561
▁micromanaged	-11.4561
▁microphone	-11.4561
▁microwave	-11.4561
▁midday	-11.4561
▁milder	-11.4561
▁mildly	-11.4561
▁milestone	-11.4561
▁mill	-11.4561
▁milla	-11.4561
▁mindfully	-11.4561
▁mineral	-11.4561
▁minority	-11.4561
▁minus	-11.4561
▁misanthrope	-11.4561
▁misbehaves	-11.4561
▁misfit	-11.4561
▁misfortune	-11.4561
▁misunderstanding	-11.4561
▁mitty	-11.4561
▁mixture	-11.4561
▁moan	-11.4561
▁moaning	-11.4561
▁mobilize	-11.4561
▁modest	-11.4561
▁modesty	-11.4561
▁modt	-11.4561
▁molecular	-11.4561
▁molecule	-11.4561
▁molested	-11.4561
▁molesting	-11.4561
▁monitor	-11.4561
▁monkey	-11.4561
▁moody	-11.4561
▁mope	-11.4561
▁morgan	-11.4561
▁morphed	-11.4561
▁mortal	-11.4561
▁motivates	-11.4561
▁motor	-11.4561
▁motorhead	-11.4561
▁mouthful	-11.4561
▁mouthguards	-11.4561
▁movember	-11.4561
▁msc	-11.4561
▁mtv	-11.4561
▁multifaceted	-11.4561
▁mumbo	-11.4561
▁murdered	-11.4561
▁muslim	-11.4561
▁mutually	-11.4561
▁muvespace	-11.4561
▁mxf	-11.4561
▁myriad	-11.4561
▁mystic	-11.4561
▁naive	-11.4561
▁naked	-11.4561
▁namely	-11.4561
▁narcissism	-11.4561
▁narrowing	-11.4561
▁nasa	-11.4561
▁nasty	-11.4561
▁nat	-11.4561
▁nation	-11.4561
▁nazi	-11.4561
▁nde	-11.4561
▁nearest	-11.4561
▁needle	-11.4561
▁needy	-11.4561
▁neglectful	-11.4561
▁negotiation	-11.4561
▁neice	-11.4561
▁neighborhood	-11.4561
▁neighborly	-11.4561
▁neighbour	-11.4561
▁nepal	-11.4561
▁nephew	-11.4561
▁net	-11.4561
▁neuropathy	-11.4561
▁nevertheless	-11.4561
▁newspaper	-11.4561
▁nexplanon	-11.4561
▁nft	-11.4561
▁nico	-11.4561
▁nicotine	-11.4561
▁niece	-11.4561
▁nighttime	-11.4561
▁nightwish	-11.4561
▁nitpicks	-11.4561
▁nocturnal	-11.4561
▁noel	-11.4561
▁nofap	-11.4561
▁noida	-11.4561
▁nonsense	-11.4561
▁nonstop	-11.4561
▁noregrets	-11.4561
▁norm	-11.4561
▁north	-11.4561
▁nosedive	-11.4561
▁nostril	-11.4561
▁nothin	-11.4561
▁noticeable	-11.4561
▁nour	-11.4561
▁nurture	-11.4561
▁nurtureshock	-11.4561
▁nut	-11.4561
▁nyquil	-11.4561
▁obesity	-11.4561
▁objectively	-11.4561
▁obligated	-11.4561
▁observant	-11.4561
▁observing	-11.4561
▁obtaining	-11.4561
▁obv	-11.4561
▁ocassionally	-11.4561
▁occupation	-11.4561
▁occurence	-11.4561
▁occurs	-11.4561
▁oct	-11.4561
▁oe	-11.4561
▁ofcourse	-11.4561
▁offed	-11.4561
▁offender	-11.4561
▁offensive	-11.4561
▁officially	-11.4561
▁offload	-11.4561
▁ohhh	-11.4561
▁ohhhh	-11.4561
▁oit	-11.4561
▁olympic	-11.4561
▁omg	-11.4561
▁onlinesuccesgroup	-11.4561
▁operates	-11.4561
▁operating	-11.4561
▁operation	-11.4561
▁operator	-11.4561
▁oppose	-11.4561
▁oppressed	-11.4561
▁optional	-11.4561
▁originating	-11.4561
▁orleans	-11.4561
▁ormond	-11.4561
▁orthogonal	-11.4561
▁ot	-11.4561
▁otherway	-11.4561
▁outa	-11.4561
▁outer	-11.4561
▁outfit	-11.4561
▁outgoing	-11.4561
▁outing	-11.4561
▁outsider	-11.4561
▁outwards	-11.4561
▁ovary	-11.4561
▁overanalyze	-11.4561
▁overate	-11.4561
▁overdoses	-11.4561
▁overdramatic	-11.4561
▁overeat	-11.4561
▁overeating	-11.4561
▁overhead	-11.4561
▁overpaying	-11.4561
▁overrated	-11.4561
▁overthinks	-11.4561
▁overview	-11.4561
▁overwatch	-11.4561
▁overwhelmingly	-11.4561
▁overworked	-11.4561
▁owned	-11.4561
▁owning	-11.4561
▁oy	-11.4561
▁pageviews	-11.4561
▁painfully	-11.4561
▁paintbrush	-11.4561
▁paltry	-11.4561
▁pam	-11.4561
▁pan	-11.4561
▁pandora	-11.4561
▁papaw	-11.4561
▁paperwork	-11.4561
▁paradoxically	-11.4561
▁paragraph	-11.4561
▁paralyzing	-11.4561
▁paraphrasing	-11.4561
▁parental	-11.4561
▁partial	-11.4561
▁password	-11.4561
▁paste	-11.4561
▁pathology	-11.4561
▁patronizing	-11.4561
▁paulo	-11.4561
▁payback	-11.4561
▁payer	-11.4561
▁payout	-11.4561
▁peaceandlove	-11.4561
▁pearl	-11.4561
▁peice	-11.4561
▁pepper	-11.4561
▁perceivable	-11.4561
▁perceive	-11.4561
▁perceives	-11.4561
▁perfecting	-11.4561
▁performed	-11.4561
▁performer	-11.4561
▁periodically	-11.4561
▁perk	-11.4561
▁permit	-11.4561
▁personnally	-11.4561
▁persuasive	-11.4561
▁petal	-11.4561
▁phenomenal	-11.4561
▁philadelphia	-11.4561
▁philippine	-11.4561
▁philipwade	-11.4561
▁philosopher	-11.4561
▁photographer	-11.4561
▁physician	-11.4561
▁picnic	-11.4561
▁pie	-11.4561
▁piggyback	-11.4561
▁pilot	-11.4561
▁pink	-11.4561
▁pinterest	-11.4561
▁piteous	-11.4561
▁piti	-11.4561
▁pitying	-11.4561
▁pivoting	-11.4561
▁plab	-11.4561
▁placed	-11.4561
▁placing	-11.4561
▁planner	-11.4561
▁plasma	-11.4561
▁playground	-11.4561
▁plea	-11.4561
▁pleasanton	-11.4561
▁plot	-11.4561
▁pointing	-11.4561
▁politician	-11.4561
▁politics	-11.4561
▁poof	-11.4561
▁pool	-11.4561
▁poorer	-11.4561
▁popularly	-11.4561
▁population	-11.4561
▁portion	-11.4561
▁portrait	-11.4561
▁portray	-11.4561
▁portrayed	-11.4561
▁posponing	-11.4561
▁poster	-11.4561
▁posttraumatic	-11.4561
▁pouch	-11.4561
▁pr	-11.4561
▁praise	-11.4561
▁pranayama	-11.4561
▁prayed	-11.4561
▁preaching	-11.4561
▁precaution	-11.4561
▁precise	-11.4561
▁predator	-11.4561
▁predestined	-11.4561
▁predicament	-11.4561
▁preform	-11.4561
▁prejudice	-11.4561
▁preoccupied	-11.4561
▁preparedness	-11.4561
▁prerequisite	-11.4561
▁prescriber	-11.4561
▁presentation	-11.4561
▁preservation	-11.4561
▁pressing	-11.4561
▁pressuring	-11.4561
▁prestige	-11.4561
▁pretents	-11.4561
▁prevailed	-11.4561
▁prevalent	-11.4561
▁pride	-11.4561
▁prime	-11.4561
▁printed	-11.4561
▁prioritize	-11.4561
▁probation	-11.4561
▁prodded	-11.4561
▁producer	-11.4561
▁prof	-11.4561
▁profoundly	-11.4561
▁prolongs	-11.4561
▁promote	-11.4561
▁promoting	-11.4561
▁prone	-11.4561
▁pronounce	-11.4561
▁proof	-11.4561
▁propelled	-11.4561
▁prospect	-11.4561
▁prostitute	-11.4561
▁protein	-11.4561
▁protest	-11.4561
▁protocol	-11.4561
▁proved	-11.4561
▁provoke	-11.4561
▁prude	-11.4561
▁prudent	-11.4561
▁pry	-11.4561
▁pshyical	-11.4561
▁psychic	-11.4561
▁psychoanalysis	-11.4561
▁psychopathic	-11.4561
▁psychosis	-11.4561
▁psychotherapy	-11.4561
▁purifier	-11.4561
▁purposeless	-11.4561
▁pyramid	-11.4561
▁qhat	-11.4561
▁quantifiable	-11.4561
▁quicker	-11.4561
▁quickest	-11.4561
▁racism	-11.4561
▁raffle	-11.4561
▁raining	-11.4561
▁rajasthan	-11.4561
▁randomised	-11.4561
▁randomized	-11.4561
▁rank	-11.4561
▁ranked	-11.4561
▁ranting	-11.4561
▁rape	-11.4561
▁raping	-11.4561
▁rapport	-11.4561
▁rat	-11.4561
▁rationalize	-11.4561
▁reactionary	-11.4561
▁readily	-11.4561
▁realigned	-11.4561
▁realm	-11.4561
▁realy	-11.4561
▁rearrange	-11.4561
▁rebirth	-11.4561
▁rebutted	-11.4561
▁receiver	-11.4561
▁receptor	-11.4561
▁reciprocate	-11.4561
▁recommending	-11.4561
▁reconciling	-11.4561
▁reconnect	-11.4561
▁recruitment	-11.4561
▁recurrent	-11.4561
▁redditors	-11.4561
▁redundancy	-11.4561
▁reef	-11.4561
▁refer	-11.4561
▁referencing	-11.4561
▁referral	-11.4561
▁referred	-11.4561
▁refinance	-11.4561
▁refined	-11.4561
▁reflection	-11.4561
▁refreshing	-11.4561
▁registered	-11.4561
▁regulate	-11.4561
▁rehabilitated	-11.4561
▁reinforces	-11.4561
▁reinforcing	-11.4561
▁reinterpretation	-11.4561
▁rejuvenate	-11.4561
▁relatable	-11.4561
▁releaseyouranxietymonster	-11.4561
▁relied	-11.4561
▁relieved	-11.4561
▁remained	-11.4561
▁remark	-11.4561
▁remarkable	-11.4561
▁remarry	-11.4561
▁remedy	-11.4561
▁reminisce	-11.4561
▁remodel	-11.4561
▁remorseful	-11.4561
▁removal	-11.4561
▁render	-11.4561
▁rendering	-11.4561
▁renovation	-11.4561
▁renowned	-11.4561
▁reopened	-11.4561
▁rep	-11.4561
▁repayment	-11.4561
▁repetition	-11.4561
▁replacing	-11.4561
▁repop	-11.4561
▁repost	-11.4561
▁repressing	-11.4561
▁reprogram	-11.4561
▁requested	-11.4561
▁reschedule	-11.4561
▁rescue	-11.4561
▁reserve	-11.4561
▁reshaping	-11.4561
▁resignedwithoutajob	-11.4561
▁respected	-11.4561
▁respective	-11.4561
▁responded	-11.4561
▁restarted	-11.4561
▁restored	-11.4561
▁restrain	-11.4561
▁restructure	-11.4561
▁retake	-11.4561
▁retard	-11.4561
▁retention	-11.4561
▁rethink	-11.4561
▁retiree	-11.4561
▁retirement	-11.4561
▁retort	-11.4561
▁reunion	-11.4561
▁reveal	-11.4561
▁revenue	-11.4561
▁revisited	-11.4561
▁revolution	-11.4561
▁revolutionary	-11.4561
▁revolved	-11.4561
▁rewarded	-11.4561
▁rewatch	-11.4561
▁rhis	-11.4561
▁ridden	-11.4561
▁riddled	-11.4561
▁rider	-11.4561
▁rightfully	-11.4561
▁risking	-11.4561
▁risky	-11.4561
▁ritalin	-11.4561
▁riveter	-11.4561
▁roast	-11.4561
▁rob	-11.4561
▁robbins	-11.4561
▁robin	-11.4561
▁rocket	-11.4561
▁romhack	-11.4561
▁roomates	-11.4561
▁rose	-11.4561
▁rosie	-11.4561
▁roughly	-11.4561
▁royally	-11.4561
▁rub	-11.4561
▁rudeness	-11.4561
▁russian	-11.4561
▁rx	-11.4561
▁sabotaging	-11.4561
▁sack	-11.4561
▁sacrificing	-11.4561
▁saddest	-11.4561
▁safer	-11.4561
▁salesman	-11.4561
▁sam	-11.4561
▁sane	-11.4561
▁sank	-11.4561
▁santani	-11.4561
▁satisficing	-11.4561
▁savouring	-11.4561
▁scam	-11.4561
▁scammed	-11.4561
▁scammer	-11.4561
▁scapegoat	-11.4561
▁scar	-11.4561
▁scarce	-11.4561
▁scarcity	-11.4561
▁schizophrenic	-11.4561
▁scholar	-11.4561
▁schollarship	-11.4561
▁schoolbook	-11.4561
▁schwarzenegger	-11.4561
▁scored	-11.4561
▁scrap	-11.4561
▁scrawny	-11.4561
▁scriptural	-11.4561
▁scrutinise	-11.4561
▁se	-11.4561
▁secondly	-11.4561
▁secreted	-11.4561
▁secretion	-11.4561
▁secretly	-11.4561
▁seeping	-11.4561
▁seize	-11.4561
▁seldom	-11.4561
▁selfrealization	-11.4561
▁senseless	-11.4561
▁sentimental	-11.4561
▁separation	-11.4561
▁sept	-11.4561
▁servant	-11.4561
▁settled	-11.4561
▁settlement	-11.4561
▁sever	-11.4561
▁sew	-11.4561
▁sexist	-11.4561
▁shabby	-11.4561
▁shaming	-11.4561
▁shave	-11.4561
▁shaving	-11.4561
▁shaw	-11.4561
▁shedding	-11.4561
▁shelf	-11.4561
▁shelter	-11.4561
▁shifted	-11.4561
▁shittless	-11.4561
▁shitton	-11.4561
▁shivering	-11.4561
▁shock	-11.4561
▁shocking	-11.4561
▁shook	-11.4561
▁shouting	-11.4561
▁shove	-11.4561
▁showbiz	-11.4561
▁showered	-11.4561
▁showering	-11.4561
▁shrug	-11.4561
▁shutdown	-11.4561
▁si	-11.4561
▁sideline	-11.4561
▁sigh	-11.4561
▁sight	-11.4561
▁simplified	-11.4561
▁simplify	-11.4561
▁simulation	-11.4561
▁sinai	-11.4561
▁sincere	-11.4561
▁sincero	-11.4561
▁sits	-11.4561
▁skipped	-11.4561
▁skyball	-11.4561
▁slamming	-11.4561
▁slap	-11.4561
▁slapped	-11.4561
▁slasher	-11.4561
▁sleeve	-11.4561
▁slice	-11.4561
▁slipknot	-11.4561
▁slipped	-11.4561
▁slit	-11.4561
▁slob	-11.4561
▁slows	-11.4561
▁sludge	-11.4561
▁smam	-11.4561
▁smashed	-11.4561
▁smelled	-11.4561
▁smelling	-11.4561
▁smidgen	-11.4561
▁smiled	-11.4561
▁smirking	-11.4561
▁smith	-11.4561
▁smoothly	-11.4561
▁smth	-11.4561
▁snapping	-11.4561
▁snappy	-11.4561
▁sniffle	-11.4561
▁snowing	-11.4561
▁snowstorm	-11.4561
▁snri	-11.4561
▁sob	-11.4561
▁soccer	-11.4561
▁sociable	-11.4561
▁socialise	-11.4561
▁socializing	-11.4561
▁societal	-11.4561
▁sociopath	-11.4561
▁solar	-11.4561
▁solidity	-11.4561
▁somedays	-11.4561
▁somethin	-11.4561
▁somtimes	-11.4561
▁sooooo	-11.4561
▁soriano	-11.4561
▁sorority	-11.4561
▁sounding	-11.4561
▁soundproofing	-11.4561
▁soviet	-11.4561
▁sow	-11.4561
▁sp	-11.4561
▁spacey	-11.4561
▁spacier	-11.4561
▁spasm	-11.4561
▁spazzing	-11.4561
▁specialty	-11.4561
▁specie	-11.4561
▁speculate	-11.4561
▁spelled	-11.4561
▁spends	-11.4561
▁spewing	-11.4561
▁spiralling	-11.4561
▁spitting	-11.4561
▁splint	-11.4561
▁spoiling	-11.4561
▁sponsor	-11.4561
▁spontaneously	-11.4561
▁spoon	-11.4561
▁spreader	-11.4561
▁spreading	-11.4561
▁sriramana	-11.4561
▁stabbed	-11.4561
▁staff	-11.4561
▁stain	-11.4561
▁stair	-11.4561
▁stalker	-11.4561
▁stance	-11.4561
▁standyby	-11.4561
▁stanford	-11.4561
▁starred	-11.4561
▁startet	-11.4561
▁steered	-11.4561
▁steering	-11.4561
▁stepfather	-11.4561
▁stereotyped	-11.4561
▁sternberg	-11.4561
▁sterssing	-11.4561
▁steve	-11.4561
▁stew	-11.4561
▁stiffness	-11.4561
▁stimulated	-11.4561
▁stimulation	-11.4561
▁stimulis	-11.4561
▁stirring	-11.4561
▁stoic	-11.4561
▁stolen	-11.4561
▁stopppef	-11.4561
▁straighten	-11.4561
▁straightforward	-11.4561
▁strategic	-11.4561
▁streak	-11.4561
▁stressfully	-11.4561
▁stretching	-11.4561
▁stride	-11.4561
▁stroking	-11.4561
▁strssed	-11.4561
▁stubbornness	-11.4561
▁stunted	-11.4561
▁stupor	-11.4561
▁stuttered	-11.4561
▁submissive	-11.4561
▁subscriber	-11.4561
▁subscription	-11.4561
▁subsequently	-11.4561
▁substantial	-11.4561
▁subtance	-11.4561
▁subtle	-11.4561
▁succeeds	-11.4561
▁succes	-11.4561
▁successfully	-11.4561
▁sucker	-11.4561
▁sucky	-11.4561
▁suffers	-11.4561
▁suicidality	-11.4561
▁suicidewatch	-11.4561
▁sulpiride	-11.4561
▁summoning	-11.4561
▁superb	-11.4561
▁supercharge	-11.4561
▁superficial	-11.4561
▁superior	-11.4561
▁supermarket	-11.4561
▁superpower	-11.4561
▁sur	-11.4561
▁surefire	-11.4561
▁surfing	-11.4561
▁surge	-11.4561
▁surly	-11.4561
▁surprising	-11.4561
▁surrender	-11.4561
▁surviving	-11.4561
▁swaying	-11.4561
▁sweetest	-11.4561
▁sweetheart	-11.4561
▁swell	-11.4561
▁swollen	-11.4561
▁swore	-11.4561
▁symtoms	-11.4561
▁synchronicity	-11.4561
▁tab	-11.4561
▁tackle	-11.4561
▁taco	-11.4561
▁tactful	-11.4561
▁tag	-11.4561
▁taichi	-11.4561
▁taiwan	-11.4561
▁taker	-11.4561
▁talentless	-11.4561
▁tangibility	-11.4561
▁tasking	-11.4561
▁tasting	-11.4561
▁taxing	-11.4561
▁teamwork	-11.4561
▁tech	-11.4561
▁technically	-11.4561
▁teddy	-11.4561
▁television	-11.4561
▁telltale	-11.4561
▁temptation	-11.4561
▁tempting	-11.4561
▁tenaciously	-11.4561
▁tenfold	-11.4561
▁tennessee	-11.4561
▁terror	-11.4561
▁terrorist	-11.4561
▁testis	-11.4561
▁tether	-11.4561
▁theoretical	-11.4561
▁therappy	-11.4561
▁thereafter	-11.4561
▁thereby	-11.4561
▁thermometer	-11.4561
▁theyve	-11.4561
▁thingy	-11.4561
▁thinning	-11.4561
▁thlught	-11.4561
▁thorough	-11.4561
▁thoughtctrl	-11.4561
▁thoughtful	-11.4561
▁threshold	-11.4561
▁thug	-11.4561
▁tiger	-11.4561
▁tiktok	-11.4561
▁til	-11.4561
▁tim	-11.4561
▁timeframe	-11.4561
▁tina	-11.4561
▁tipping	-11.4561
▁tireless	-11.4561
▁tizzy	-11.4561
▁toiled	-11.4561
▁toiling	-11.4561
▁tony	-11.4561
▁torn	-11.4561
▁tortured	-11.4561
▁tossed	-11.4561
▁tote	-11.4561
▁tougher	-11.4561
▁toughest	-11.4561
▁tour	-11.4561
▁tourist	-11.4561
▁tower	-11.4561
▁traced	-11.4561
▁trading	-11.4561
▁tragic	-11.4561
▁tranquillity	-11.4561
▁transcendence	-11.4561
▁transecures	-11.4561
▁transfer	-11.4561
▁transferable	-11.4561
▁transferred	-11.4561
▁transformed	-11.4561
▁transition	-11.4561
▁translating	-11.4561
▁transmit	-11.4561
▁transmits	-11.4561
▁transmitted	-11.4561
▁transmitting	-11.4561
▁transphobic	-11.4561
▁trapping	-11.4561
▁traumatized	-11.4561
▁travail	-11.4561
▁travelling	-11.4561
▁trazodone	-11.4561
▁treading	-11.4561
▁triathlete	-11.4561
▁tricky	-11.4561
▁trillion	-11.4561
▁triumph	-11.4561
▁triumphant	-11.4561
▁tropical	-11.4561
▁truer	-11.4561
▁trump	-11.4561
▁trusting	-11.4561
▁truthful	-11.4561
▁tweak	-11.4561
▁twist	-11.4561
▁twisting	-11.4561
▁twitching	-11.4561
▁tycoon	-11.4561
▁tyson	-11.4561
▁uc	-11.4561
▁uglier	-11.4561
▁ugliness	-11.4561
▁uh	-11.4561
▁ultramarathon	-11.4561
▁umm	-11.4561
▁unappealing	-11.4561
▁unappreciated	-11.4561
▁unattainable	-11.4561
▁unavoidable	-11.4561
▁unbelievable	-11.4561
▁unbelievably	-11.4561
▁uncontrolled	-11.4561
▁uncreadible	-11.4561
▁undateable	-11.4561
▁undecided	-11.4561
▁underage	-11.4561
▁underdeveloped	-11.4561
▁underestimate	-11.4561
▁undergoing	-11.4561
▁underlying	-11.4561
▁undermined	-11.4561
▁underperformed	-11.4561
▁underwent	-11.4561
▁undivided	-11.4561
▁undo	-11.4561
▁undoing	-11.4561
▁uneasiness	-11.4561
▁uneasy	-11.4561
▁unenthusiastic	-11.4561
▁unequal	-11.4561
▁unfairly	-11.4561
▁unfold	-11.4561
▁unhappiness	-11.4561
▁unimaginable	-11.4561
▁uninspired	-11.4561
▁uninvited	-11.4561
▁unlock	-11.4561
▁unlucky	-11.4561
▁unmatchable	-11.4561
▁unmatched	-11.4561
▁unpaid	-11.4561
▁unpopular	-11.4561
▁unquantifiable	-11.4561
▁unravel	-11.4561
▁unreal	-11.4561
▁unrepresentative	-11.4561
▁unresolved	-11.4561
▁unsatisfied	-11.4561
▁unseen	-11.4561
▁unsupervised	-11.4561
▁untangle	-11.4561
▁untiled	-11.4561
▁untrained	-11.4561
▁unwilling	-11.4561
▁unwise	-11.4561
▁uploaded	-11.4561
▁upscale	-11.4561
▁upturn	-11.4561
▁upvotes	-11.4561
▁usefulness	-11.4561
▁utc	-11.4561
▁utility	-11.4561
▁utilizing	-11.4561
▁utm	-11.4561
▁utterly	-11.4561
▁vacant	-11.4561
▁vacate	-11.4561
▁vain	-11.4561
▁valium	-11.4561
▁valorant	-11.4561
▁vanquished	-11.4561
▁vape	-11.4561
▁variable	-11.4561
▁variating	-11.4561
▁varies	-11.4561
▁vaso	-11.4561
▁veg	-11.4561
▁vegus	-11.4561
▁venezuela	-11.4561
▁venlafaxin	-11.4561
▁verge	-11.4561
▁viable	-11.4561
▁vibrate	-11.4561
▁vibrator	-11.4561
▁vicious	-11.4561
▁vigorus	-11.4561
▁vigour	-11.4561
▁visibly	-11.4561
▁visualise	-11.4561
▁visually	-11.4561
▁vocalise	-11.4561
▁voicemail	-11.4561
▁volatility	-11.4561
▁volontarily	-11.4561
▁volume	-11.4561
▁vortex	-11.4561
▁vyvanse	-11.4561
▁w	-11.4561
▁wailing	-11.4561
▁walter	-11.4561
▁wannabe	-11.4561
▁warehouse	-11.4561
▁warnock	-11.4561
▁warzones	-11.4561
▁watering	-11.4561
▁watery	-11.4561
▁wavy	-11.4561
▁weakest	-11.4561
▁weapon	-11.4561
▁weighted	-11.4561
▁weirder	-11.4561
▁weirdo	-11.4561
▁western	-11.4561
▁wether	-11.4561
▁wfh	-11.4561
▁whack	-11.4561
▁wheter	-11.4561
▁whimper	-11.4561
▁whiner	-11.4561
▁whirling	-11.4561
▁whisper	-11.4561
▁whoo	-11.4561
▁whta	-11.4561
▁wifi	-11.4561
▁wig	-11.4561
▁wiki	-11.4561
▁wikipedia	-11.4561
▁wilderness	-11.4561
▁willingness	-11.4561
▁wilson	-11.4561
▁wince	-11.4561
▁wisely	-11.4561
▁wishful	-11.4561
▁withdrawn	-11.4561
▁witness	-11.4561
▁woeful	-11.4561
▁woken	-11.4561
▁wonderland	-11.4561
▁wonna	-11.4561
▁wood	-11.4561
▁wooded	-11.4561
▁workaholic	-11.4561
▁workaholism	-11.4561
▁workflow	-11.4561
▁worldly	-11.4561
▁worldwide	-11.4561
▁worm	-11.4561
▁worsened	-11.4561
▁worthiness	-11.4561
▁worthlessness	-11.4561
▁wouldve	-11.4561
▁wreck	-11.4561
▁writting	-11.4561
▁wronged	-11.4561
▁wven	-11.4561
▁xan	-11.4561
▁xy	-11.4561
▁yearns	-11.4561
▁yee	-11.4561
▁yk	-11.4561
▁youngest	-11.4561
▁youngster	-11.4561
▁youre	-11.4561
▁youtuber	-11.4561
▁yummy	-11.4561
▁zen	-11.4561
▁aarrrrggghhh	-12.1492
▁aau	-12.1492
▁abdomin	-12.1492
▁abide	-12.1492
▁abject	-12.1492
▁aborigine	-12.1492
▁aborted	-12.1492
▁aboslutey	-12.1492
▁abotu	-12.1492
▁abrasion	-12.1492
▁abruptly	-12.1492
▁absorbing	-12.1492
▁abuela	-12.1492
▁academy	-12.1492
▁accidental	-12.1492
▁accidently	-12.1492
▁acclimated	-12.1492
▁accommodating	-12.1492
▁accompanied	-12.1492
▁accomplice	-12.1492
▁accumulated	-12.1492
▁accumulation	-12.1492
▁accurate	-12.1492
▁accusation	-12.1492
▁accuse	-12.1492
▁accusion	-12.1492
▁achievable	-12.1492
▁achieves	-12.1492
▁acquired	-12.1492
▁acrid	-12.1492
▁activation	-12.1492
▁activism	-12.1492
▁adage	-12.1492
▁adam	-12.1492
▁adaptation	-12.1492
▁adapted	-12.1492
▁adaptogen	-12.1492
▁addressing	-12.1492
▁adept	-12.1492
▁administration	-12.1492
▁admirable	-12.1492
▁admiration	-12.1492
▁admired	-12.1492
▁adoration	-12.1492
▁adore	-12.1492
▁adsense	-12.1492
▁adventurous	-12.1492
▁advertise	-12.1492
▁advertisement	-12.1492
▁advising	-12.1492
▁advisory	-12.1492
▁aeronautical	-12.1492
▁afect	-12.1492
▁affiliate	-12.1492
▁affiliation	-12.1492
▁affirming	-12.1492
▁afflicted	-12.1492
▁affraid	-12.1492
▁afghanistan	-12.1492
▁afloat	-12.1492
▁afriad	-12.1492
▁africa	-12.1492
▁afterlife	-12.1492
▁afterschool	-12.1492
▁aggressively	-12.1492
▁aggrieved	-12.1492
▁agitation	-12.1492
▁agressive	-12.1492
▁aha	-12.1492
▁ahold	-12.1492
▁aiming	-12.1492
▁aimlessly	-12.1492
▁aimlessness	-12.1492
▁aircraft	-12.1492
▁airline	-12.1492
▁airport	-12.1492
▁akin	-12.1492
▁aknowledged	-12.1492
▁alabama	-12.1492
▁albania	-12.1492
▁alberto	-12.1492
▁alchemist	-12.1492
▁alchemy	-12.1492
▁alchohol	-12.1492
▁alci	-12.1492
▁alcolism	-12.1492
▁alexa	-12.1492
▁algebra	-12.1492
▁algorithm	-12.1492
▁alienation	-12.1492
▁aligns	-12.1492
▁aliveness	-12.1492
▁allotted	-12.1492
▁allways	-12.1492
▁aloofness	-12.1492
▁aloud	-12.1492
▁alphonse	-12.1492
▁alter	-12.1492
▁alters	-12.1492
▁altetness	-12.1492
▁amaalzaza	-12.1492
▁amazings	-12.1492
▁amenity	-12.1492
▁amid	-12.1492
▁amidst	-12.1492
▁amino	-12.1492
▁aminobutyric	-12.1492
▁ammal	-12.1492
▁amorphous	-12.1492
▁amorphousness	-12.1492
▁amplify	-12.1492
▁amputation	-12.1492
▁amusement	-12.1492
▁analogously	-12.1492
▁analyse	-12.1492
▁analytical	-12.1492
▁anata	-12.1492
▁anatomy	-12.1492
▁andrea	-12.1492
▁andrew	-12.1492
▁andy	-12.1492
▁anecdote	-12.1492
▁ang	-12.1492
▁angsty	-12.1492
▁anhedonic	-12.1492
▁animated	-12.1492
▁anime	-12.1492
▁anki	-12.1492
▁ann	-12.1492
▁anngel	-12.1492
▁announcement	-12.1492
▁annoyance	-12.1492
▁annual	-12.1492
▁antacid	-12.1492
▁antibody	-12.1492
▁anticipate	-12.1492
▁anticipation	-12.1492
▁antioxidant	-12.1492
▁antipsychotic	-12.1492
▁antonia	-12.1492
▁antything	-12.1492
▁anuthing	-12.1492
▁anwser	-12.1492
▁anwsers	-12.1492
▁anyday	-12.1492
▁anythings	-12.1492
▁anywho	-12.1492
▁aphatic	-12.1492
▁apnea	-12.1492
▁apolitical	-12.1492
▁apologised	-12.1492
▁appaling	-12.1492
▁apparel	-12.1492
▁appart	-12.1492
▁appeal	-12.1492
▁appearing	-12.1492
▁apperenrly	-12.1492
▁appliance	-12.1492
▁apppreactied	-12.1492
▁appraisal	-12.1492
▁appreciates	-12.1492
▁appreciating	-12.1492
▁appreicated	-12.1492
▁approaching	-12.1492
▁appropriately	-12.1492
▁approving	-12.1492
▁arabic	-12.1492
▁arctic	-12.1492
▁arduous	-12.1492
▁arguably	-12.1492
▁argued	-12.1492
▁arhan	-12.1492
▁arleady	-12.1492
▁armchair	-12.1492
▁armenia	-12.1492
▁army	-12.1492
▁aromatic	-12.1492
▁arrangement	-12.1492
▁arrest	-12.1492
▁arrgh	-12.1492
▁arrh	-12.1492
▁arrived	-12.1492
▁ascensionmeditation	-12.1492
▁ash	-12.1492
▁ashed	-12.1492
▁ashore	-12.1492
▁aspen	-12.1492
▁asperger	-12.1492
▁assaulted	-12.1492
▁assed	-12.1492
▁assert	-12.1492
▁association	-12.1492
▁assortment	-12.1492
▁assumed	-12.1492
▁astral	-12.1492
▁astrology	-12.1492
▁astronomical	-12.1492
▁aswel	-12.1492
▁atomoxetine	-12.1492
▁attaching	-12.1492
▁attracted	-12.1492
▁attractiveness	-12.1492
▁attribute	-12.1492
▁attuned	-12.1492
▁audacity	-12.1492
▁audience	-12.1492
▁aunti	-12.1492
▁aussie	-12.1492
▁austin	-12.1492
▁australian	-12.1492
▁austria	-12.1492
▁authorized	-12.1492
▁autocad	-12.1492
▁automates	-12.1492
▁autopsy	-12.1492
▁availability	-12.1492
▁avalanche	-12.1492
▁avatar	-12.1492
▁avenue	-12.1492
▁aversion	-12.1492
▁avoidance	-12.1492
▁avoir	-12.1492
▁await	-12.1492
▁awaited	-12.1492
▁awkwardly	-12.1492
▁awnser	-12.1492
▁aww	-12.1492
▁awww	-12.1492
▁axiety	-12.1492
▁axis	-12.1492
▁ayurvedic	-12.1492
▁aztec	-12.1492
▁babbling	-12.1492
▁baboon	-12.1492
▁backing	-12.1492
▁backlag	-12.1492
▁backsliding	-12.1492
▁backstories	-12.1492
▁backyard	-12.1492
▁bacteria	-12.1492
▁badge	-12.1492
▁badminton	-12.1492
▁badmouth	-12.1492
▁baffled	-12.1492
▁baffling	-12.1492
▁baggier	-12.1492
▁bail	-12.1492
▁bailed	-12.1492
▁baldy	-12.1492
▁balles	-12.1492
▁bam	-12.1492
▁ban	-12.1492
▁bandaid	-12.1492
▁banger	-12.1492
▁bangin	-12.1492
▁bangladesh	-12.1492
▁bankrupt	-12.1492
▁bankruptcy	-12.1492
▁banter	-12.1492
▁barbiee	-12.1492
▁barr	-12.1492
▁barrel	-12.1492
▁barren	-12.1492
▁basicly	-12.1492
▁basket	-12.1492
▁batch	-12.1492
▁battery	-12.1492
▁batting	-12.1492
▁bbq	-12.1492
▁bcak	-12.1492
▁beabadoobee	-12.1492
▁bearly	-12.1492
▁beast	-12.1492
▁beaten	-12.1492
▁beautifully	-12.1492
▁becausw	-12.1492
▁beckons	-12.1492
▁becouse	-12.1492
▁bedwetting	-12.1492
▁beeing	-12.1492
▁beep	-12.1492
▁beforehand	-12.1492
▁beforelife	-12.1492
▁befriend	-12.1492
▁befriending	-12.1492
▁beggar	-12.1492
▁begs	-12.1492
▁behalf	-12.1492
▁belching	-12.1492
▁beleicve	-12.1492
▁beleive	-12.1492
▁belittling	-12.1492
▁belive	-12.1492
▁belligerently	-12.1492
▁belonging	-12.1492
▁belongs	-12.1492
▁ben	-12.1492
▁benchmark	-12.1492
▁beneficially	-12.1492
▁bengaluru	-12.1492
▁benzo	-12.1492
▁beside	-12.1492
▁bestfriends	-12.1492
▁bestseller	-12.1492
▁betraying	-12.1492
▁bettering	-12.1492
▁beverage	-12.1492
▁bff	-12.1492
▁bhe	-12.1492
▁bhramari	-12.1492
▁biafra	-12.1492
▁biased	-12.1492
▁bigoted	-12.1492
▁billing	-12.1492
▁bin	-12.1492
▁binding	-12.1492
▁binged	-12.1492
▁biologically	-12.1492
▁biostatistics	-12.1492
▁birthed	-12.1492
▁bisexual	-12.1492
▁bitcoin	-12.1492
▁bitten	-12.1492
▁bitterly	-12.1492
▁blackpillers	-12.1492
▁bland	-12.1492
▁blasted	-12.1492
▁blasting	-12.1492
▁bleak	-12.1492
▁blend	-12.1492
▁blew	-12.1492
▁blindsided	-12.1492
▁blink	-12.1492
▁blip	-12.1492
▁blissfully	-12.1492
▁bloated	-12.1492
▁blogging	-12.1492
▁blossom	-12.1492
▁blundell	-12.1492
▁blunt	-12.1492
▁bnot	-12.1492
▁bodywork	-12.1492
▁boeing	-12.1492
▁bogus	-12.1492
▁bohoo	-12.1492
▁boiling	-12.1492
▁bombard	-12.1492
▁bomber	-12.1492
▁bona	-12.1492
▁bonded	-12.1492
▁bonjour	-12.1492
▁bookcase	-12.1492
▁boomer	-12.1492
▁boops	-12.1492
▁booster	-12.1492
▁bootstrap	-12.1492
▁booze	-12.1492
▁boris	-12.1492
▁borough	-12.1492
▁borrow	-12.1492
▁bossa	-12.1492
▁botched	-12.1492
▁botswana	-12.1492
▁bottling	-12.1492
▁bounce	-12.1492
▁bound	-12.1492
▁bpm	-12.1492
▁brace	-12.1492
▁bracket	-12.1492
▁braid	-12.1492
▁braincells	-12.1492
▁brainwashing	-12.1492
▁brake	-12.1492
▁branding	-12.1492
▁brandish	-12.1492
▁brave	-12.1492
▁breadth	-12.1492
▁breakneck	-12.1492
▁breathed	-12.1492
▁breeze	-12.1492
▁bribe	-12.1492
▁bride	-12.1492
▁bridging	-12.1492
▁brightening	-12.1492
▁british	-12.1492
▁britney	-12.1492
▁broadcast	-12.1492
▁broader	-12.1492
▁broadway	-12.1492
▁broccoli	-12.1492
▁brokenness	-12.1492
▁brotherelisoriano	-12.1492
▁brow	-12.1492
▁brunt	-12.1492
▁bud	-12.1492
▁buddy	-12.1492
▁budge	-12.1492
▁bugging	-12.1492
▁bulldog	-12.1492
▁bummer	-12.1492
▁bundled	-12.1492
▁burdnern	-12.1492
▁burkina	-12.1492
▁burping	-12.1492
▁burundi	-12.1492
▁bury	-12.1492
▁busier	-12.1492
▁bust	-12.1492
▁bustedandblack	-12.1492
▁busyness	-12.1492
▁butter	-12.1492
▁buttock	-12.1492
▁button	-12.1492
▁byw	-12.1492
▁ca	-12.1492
▁cab	-12.1492
▁cabinet	-12.1492
▁cable	-12.1492
▁cacophony	-12.1492
▁cafe	-12.1492
▁cagegory	-12.1492
▁cakewalk	-12.1492
▁cal	-12.1492
▁calculated	-12.1492
▁calf	-12.1492
▁caliber	-12.1492
▁calorie	-12.1492
▁cam	-12.1492
▁camp	-12.1492
▁campground	-12.1492
▁camping	-12.1492
▁cancelling	-12.1492
▁candid	-12.1492
▁canoe	-12.1492
▁canola	-12.1492
▁capstone	-12.1492
▁capsule	-12.1492
▁caracterized	-12.1492
▁carbongrit	-12.1492
▁cardio	-12.1492
▁carefree	-12.1492
▁caregiver	-12.1492
▁caregiving	-12.1492
▁careless	-12.1492
▁carl	-12.1492
▁carnegie	-12.1492
▁carnivorous	-12.1492
▁carpet	-12.1492
▁carreer	-12.1492
▁carve	-12.1492
▁cascade	-12.1492
▁casino	-12.1492
▁caster	-12.1492
▁castle	-12.1492
▁catalyst	-12.1492
▁catecholamine	-12.1492
▁caterpillar	-12.1492
▁catherine	-12.1492
▁caving	-12.1492
▁ceased	-12.1492
▁cedar	-12.1492
▁cegep	-12.1492
▁cellphone	-12.1492
▁cellular	-12.1492
▁censored	-12.1492
▁central	-12.1492
▁centralised	-12.1492
▁cerebral	-12.1492
▁cerified	-12.1492
▁chad	-12.1492
▁chalked	-12.1492
▁chamber	-12.1492
▁champion	-12.1492
▁channeling	-12.1492
▁chaotic	-12.1492
▁charactestic	-12.1492
▁charged	-12.1492
▁charging	-12.1492
▁charitable	-12.1492
▁charles	-12.1492
▁charlotte	-12.1492
▁chartered	-12.1492
▁chased	-12.1492
▁cheapskate	-12.1492
▁cheek	-12.1492
▁cheered	-12.1492
▁cheerful	-12.1492
▁cheery	-12.1492
▁chemo	-12.1492
▁chennai	-12.1492
▁cherished	-12.1492
▁cherokee	-12.1492
▁chewed	-12.1492
▁chewing	-12.1492
▁chez	-12.1492
▁chickened	-12.1492
▁childless	-12.1492
▁chinese	-12.1492
▁chirping	-12.1492
▁cholesterol	-12.1492
▁chooser	-12.1492
▁choosing	-12.1492
▁chop	-12.1492
▁chromebooks	-12.1492
▁chronicly	-12.1492
▁chtbl	-12.1492
▁chuckled	-12.1492
▁cinnamon	-12.1492
▁circuitry	-12.1492
▁citalopram	-12.1492
▁citified	-12.1492
▁civic	-12.1492
▁civilization	-12.1492
▁claivoyance	-12.1492
▁clambering	-12.1492
▁clamped	-12.1492
▁clarifying	-12.1492
▁clash	-12.1492
▁classical	-12.1492
▁clay	-12.1492
▁clayton	-12.1492
▁cleanning	-12.1492
▁cleanse	-12.1492
▁clenched	-12.1492
▁clever	-12.1492
▁clicked	-12.1492
▁cling	-12.1492
▁clinging	-12.1492
▁clique	-12.1492
▁clocked	-12.1492
▁clonazapam	-12.1492
▁closely	-12.1492
▁closet	-12.1492
▁cloth	-12.1492
▁clouding	-12.1492
▁clutching	-12.1492
▁cmo	-12.1492
▁coast	-12.1492
▁coaster	-12.1492
▁coaxing	-12.1492
▁coconut	-12.1492
▁codo	-12.1492
▁coerce	-12.1492
▁coeval	-12.1492
▁coexist	-12.1492
▁coexistence	-12.1492
▁cog	-12.1492
▁cognitively	-12.1492
▁coinbase	-12.1492
▁coivd	-12.1492
▁colder	-12.1492
▁cole	-12.1492
▁collaborating	-12.1492
▁collantes	-12.1492
▁collateral	-12.1492
▁collobaration	-12.1492
▁colombo	-12.1492
▁colour	-12.1492
▁colourless	-12.1492
▁combined	-12.1492
▁combustion	-12.1492
▁comeback	-12.1492
▁comeing	-12.1492
▁comforted	-12.1492
▁comma	-12.1492
▁commiserate	-12.1492
▁commissioned	-12.1492
▁commonly	-12.1492
▁commonplace	-12.1492
▁communicated	-12.1492
▁communism	-12.1492
▁commuter	-12.1492
▁comorbid	-12.1492
▁comoros	-12.1492
▁companionship	-12.1492
▁compensation	-12.1492
▁competes	-12.1492
▁competing	-12.1492
▁complication	-12.1492
▁complied	-12.1492
▁composition	-12.1492
▁compounding	-12.1492
▁comprehend	-12.1492
▁conceivable	-12.1492
▁concert	-12.1492
▁concerta	-12.1492
▁concluding	-12.1492
▁concur	-12.1492
▁condemn	-12.1492
▁condemned	-12.1492
▁condescending	-12.1492
▁conecernkng	-12.1492
▁confessed	-12.1492
▁confidential	-12.1492
▁confidently	-12.1492
▁confined	-12.1492
▁confines	-12.1492
▁confirmation	-12.1492
▁conflicted	-12.1492
▁conflicting	-12.1492
▁conform	-12.1492
▁conformity	-12.1492
▁confrontation	-12.1492
▁confronted	-12.1492
▁confuzzle	-12.1492
▁congo	-12.1492
▁congratulate	-12.1492
▁congratulated	-12.1492
▁conjunction	-12.1492
▁considerable	-12.1492
▁consisting	-12.1492
▁console	-12.1492
▁conspiring	-12.1492
▁constally	-12.1492
▁constipation	-12.1492
▁constituted	-12.1492
▁constructive	-12.1492
▁consultation	-12.1492
▁contained	-12.1492
▁container	-12.1492
▁contemporary	-12.1492
▁contemptible	-12.1492
▁continously	-12.1492
▁continuousness	-12.1492
▁contradiction	-12.1492
▁controversy	-12.1492
▁convalescing	-12.1492
▁conversate	-12.1492
▁converse	-12.1492
▁conversing	-12.1492
▁converted	-12.1492
▁converting	-12.1492
▁convey	-12.1492
▁convict	-12.1492
▁conviction	-12.1492
▁convos	-12.1492
▁convulsive	-12.1492
▁cookoo	-12.1492
▁cooler	-12.1492
▁coolness	-12.1492
▁cooped	-12.1492
▁cooperate	-12.1492
▁coral	-12.1492
▁cord	-12.1492
▁corneal	-12.1492
▁corp	-12.1492
▁corrected	-12.1492
▁corrective	-12.1492
▁correlated	-12.1492
▁correlative	-12.1492
▁correspondence	-12.1492
▁costa	-12.1492
▁costing	-12.1492
▁cough	-12.1492
▁councilor	-12.1492
▁countryside	-12.1492
▁courted	-12.1492
▁courteous	-12.1492
▁covering	-12.1492
▁covey	-12.1492
▁cowardly	-12.1492
▁cower	-12.1492
▁cpstd	-12.1492
▁cptsd	-12.1492
▁crack	-12.1492
▁cram	-12.1492
▁cramp	-12.1492
▁crankier	-12.1492
▁crasher	-12.1492
▁crawl	-12.1492
▁crawling	-12.1492
▁creatives	-12.1492
▁creeped	-12.1492
▁creeping	-12.1492
▁crier	-12.1492
▁cringey	-12.1492
▁crinkled	-12.1492
▁critically	-12.1492
▁criticise	-12.1492
▁critter	-12.1492
▁croaking	-12.1492
▁crocodile	-12.1492
▁crude	-12.1492
▁crushingly	-12.1492
▁crutch	-12.1492
▁cruz	-12.1492
▁crystallizes	-12.1492
▁csep	-12.1492
▁csikszentmihalyi	-12.1492
▁cu	-12.1492
▁culminated	-12.1492
▁cult	-12.1492
▁cultivated	-12.1492
▁cultural	-12.1492
▁cumbersome	-12.1492
▁cuppa	-12.1492
▁curating	-12.1492
▁curb	-12.1492
▁curcumin	-12.1492
▁curling	-12.1492
▁curly	-12.1492
▁curse	-12.1492
▁cushion	-12.1492
▁cutler	-12.1492
▁cutted	-12.1492
▁cv	-12.1492
▁cw	-12.1492
▁cya	-12.1492
▁cyberstalk	-12.1492
▁cyberstalker	-12.1492
▁cylinder	-12.1492
▁czechia	-12.1492
▁daan	-12.1492
▁dae	-12.1492
▁dale	-12.1492
▁dalliance	-12.1492
▁damaging	-12.1492
▁dang	-12.1492
▁dangerously	-12.1492
▁dangle	-12.1492
▁darker	-12.1492
▁darren	-12.1492
▁darwinian	-12.1492
▁daryl	-12.1492
▁dashed	-12.1492
▁daugther	-12.1492
▁davinciresolve	-12.1492
▁dawned	-12.1492
▁daybreaker	-12.1492
▁daydreaming	-12.1492
▁daze	-12.1492
▁deactivated	-12.1492
▁dealer	-12.1492
▁dearest	-12.1492
▁deathbed	-12.1492
▁debated	-12.1492
▁debit	-12.1492
▁decayed	-12.1492
▁decease	-12.1492
▁deceit	-12.1492
▁decency	-12.1492
▁deception	-12.1492
▁deceptive	-12.1492
▁decimal	-12.1492
▁decipher	-12.1492
▁decisive	-12.1492
▁declined	-12.1492
▁decorated	-12.1492
▁decoration	-12.1492
▁decorative	-12.1492
▁decreasing	-12.1492
▁deed	-12.1492
▁deem	-12.1492
▁default	-12.1492
▁defeating	-12.1492
▁defiantly	-12.1492
▁definetely	-12.1492
▁definetly	-12.1492
▁deflated	-12.1492
▁degeneracy	-12.1492
▁degenerate	-12.1492
▁dehydrated	-12.1492
▁deliberation	-12.1492
▁delicate	-12.1492
▁delisabranchnealy	-12.1492
▁delivery	-12.1492
▁delta	-12.1492
▁deluding	-12.1492
▁delusional	-12.1492
▁deluxe	-12.1492
▁demanding	-12.1492
▁demean	-12.1492
▁democracy	-12.1492
▁demonstrate	-12.1492
▁demonstrated	-12.1492
▁dengue	-12.1492
▁deniability	-12.1492
▁denmark	-12.1492
▁denounce	-12.1492
▁denton	-12.1492
▁departing	-12.1492
▁dependable	-12.1492
▁dependant	-12.1492
▁depended	-12.1492
▁deposited	-12.1492
▁depress	-12.1492
▁depressingly	-12.1492
▁depriving	-12.1492
▁deression	-12.1492
▁dermatologist	-12.1492
▁description	-12.1492
▁desensitized	-12.1492
▁designation	-12.1492
▁designer	-12.1492
▁designing	-12.1492
▁despressed	-12.1492
▁destructed	-12.1492
▁detach	-12.1492
▁detachment	-12.1492
▁determining	-12.1492
▁detestable	-12.1492
▁develops	-12.1492
▁deviation	-12.1492
▁devistating	-12.1492
▁devoted	-12.1492
▁devoting	-12.1492
▁devouring	-12.1492
▁dialed	-12.1492
▁dialogue	-12.1492
▁diaper	-12.1492
▁diazepam	-12.1492
▁dictated	-12.1492
▁differ	-12.1492
▁differs	-12.1492
▁digest	-12.1492
▁dildo	-12.1492
▁diligence	-12.1492
▁dimattina	-12.1492
▁dime	-12.1492
▁diminishes	-12.1492
▁dining	-12.1492
▁dipping	-12.1492
▁directing	-12.1492
▁directionless	-12.1492
▁directs	-12.1492
▁disagreed	-12.1492
▁disappointement	-12.1492
▁disappoints	-12.1492
▁disapproving	-12.1492
▁disassociated	-12.1492
▁disassociation	-12.1492
▁discard	-12.1492
▁discharged	-12.1492
▁disciple	-12.1492
▁disclosure	-12.1492
▁disconnect	-12.1492
▁discontentment	-12.1492
▁discontinued	-12.1492
▁discounting	-12.1492
▁discouragement	-12.1492
▁discovery	-12.1492
▁diseased	-12.1492
▁disgusted	-12.1492
▁dishonesty	-12.1492
▁dishwasher	-12.1492
▁disingenuous	-12.1492
▁disinterest	-12.1492
▁dismissed	-12.1492
▁dispair	-12.1492
▁dispelled	-12.1492
▁dispellingmyths	-12.1492
▁displacement	-12.1492
▁display	-12.1492
▁displeasure	-12.1492
▁dispraxic	-12.1492
▁disproportionate	-12.1492
▁disregarding	-12.1492
▁disrespect	-12.1492
▁disrespecting	-12.1492
▁disrupted	-12.1492
▁dissapear	-12.1492
▁dissatisfaction	-12.1492
▁dissect	-12.1492
▁dissociated	-12.1492
▁dissociating	-12.1492
▁dissociation	-12.1492
▁distaste	-12.1492
▁distilled	-12.1492
▁distinguish	-12.1492
▁distraught	-12.1492
▁distributed	-12.1492
▁dive	-12.1492
▁diverse	-12.1492
▁divert	-12.1492
▁divided	-12.1492
▁divinely	-12.1492
▁divisional	-12.1492
▁dming	-12.1492
▁documantaries	-12.1492
▁document	-12.1492
▁documentation	-12.1492
▁doeasn	-12.1492
▁doggy	-12.1492
▁dollop	-12.1492
▁dom	-12.1492
▁domesticity	-12.1492
▁dominated	-12.1492
▁donald	-12.1492
▁donation	-12.1492
▁dong	-12.1492
▁donkey	-12.1492
▁donovan	-12.1492
▁doorway	-12.1492
▁dopa	-12.1492
▁dorky	-12.1492
▁doubting	-12.1492
▁douchebags	-12.1492
▁dough	-12.1492
▁downer	-12.1492
▁downloaded	-12.1492
▁downloads	-12.1492
▁downplay	-12.1492
▁downplayed	-12.1492
▁downplays	-12.1492
▁downright	-12.1492
▁downshift	-12.1492
▁downtown	-12.1492
▁downvote	-12.1492
▁downvoted	-12.1492
▁downvoting	-12.1492
▁dozing	-12.1492
▁dreadful	-12.1492
▁dredge	-12.1492
▁drenched	-12.1492
▁dried	-12.1492
▁drier	-12.1492
▁drifted	-12.1492
▁drifting	-12.1492
▁drinker	-12.1492
▁drip	-12.1492
▁drool	-12.1492
▁drowned	-12.1492
▁drunkenness	-12.1492
▁dt	-12.1492
▁ducey	-12.1492
▁duck	-12.1492
▁ducking	-12.1492
▁duhigg	-12.1492
▁dulled	-12.1492
▁dullness	-12.1492
▁dumbells	-12.1492
▁dummy	-12.1492
▁dumped	-12.1492
▁dumpster	-12.1492
▁dumspter	-12.1492
▁duy	-12.1492
▁dysphoric	-12.1492
▁eachothers	-12.1492
▁earlyaccess	-12.1492
▁earphone	-12.1492
▁earring	-12.1492
▁earthy	-12.1492
▁eas	-12.1492
▁easterlin	-12.1492
▁eater	-12.1492
▁eather	-12.1492
▁ebb	-12.1492
▁ebtey	-12.1492
▁echo	-12.1492
▁ecosystem	-12.1492
▁edith	-12.1492
▁educate	-12.1492
▁educated	-12.1492
▁ee	-12.1492
▁effed	-12.1492
▁effervescent	-12.1492
▁egg	-12.1492
▁eheh	-12.1492
▁eighth	-12.1492
▁einstein	-12.1492
▁elated	-12.1492
▁election	-12.1492
▁electrician	-12.1492
▁electro	-12.1492
▁electrocuted	-12.1492
▁electron	-12.1492
▁elemental	-12.1492
▁elephant	-12.1492
▁elevator	-12.1492
▁elicit	-12.1492
▁elixir	-12.1492
▁elles	-12.1492
▁elliott	-12.1492
▁emailing	-12.1492
▁emancipate	-12.1492
▁embarassing	-12.1492
▁embark	-12.1492
▁embarrass	-12.1492
▁embarrassingly	-12.1492
▁embryo	-12.1492
▁emerged	-12.1492
▁emerges	-12.1492
▁eminem	-12.1492
▁eminence	-12.1492
▁emitting	-12.1492
▁emotionality	-12.1492
▁empahisise	-12.1492
▁empath	-12.1492
▁empathised	-12.1492
▁emphasized	-12.1492
▁employ	-12.1492
▁empowering	-12.1492
▁en	-12.1492
▁endeavoured	-12.1492
▁endometriosis	-12.1492
▁endrant	-12.1492
▁endures	-12.1492
▁enduring	-12.1492
▁engagement	-12.1492
▁engine	-12.1492
▁engulfed	-12.1492
▁enhancement	-12.1492
▁enhances	-12.1492
▁enlightens	-12.1492
▁enormous	-12.1492
▁enormously	-12.1492
▁enquiry	-12.1492
▁enrolling	-12.1492
▁entertain	-12.1492
▁entertained	-12.1492
▁entertainment	-12.1492
▁enthrall	-12.1492
▁entitled	-12.1492
▁entitlement	-12.1492
▁entrance	-12.1492
▁entreprener	-12.1492
▁enunciating	-12.1492
▁envisioned	-12.1492
▁epa	-12.1492
▁equates	-12.1492
▁erase	-12.1492
▁erasing	-12.1492
▁erect	-12.1492
▁ericfreeman	-12.1492
▁erm	-12.1492
▁ernestine	-12.1492
▁erupted	-12.1492
▁escalated	-12.1492
▁escapist	-12.1492
▁esophagus	-12.1492
▁espn	-12.1492
▁est	-12.1492
▁estes	-12.1492
▁estimating	-12.1492
▁estrogen	-12.1492
▁eswatini	-12.1492
▁et	-12.1492
▁eternity	-12.1492
▁ethiopia	-12.1492
▁ethnicity	-12.1492
▁eu	-12.1492
▁eunuch	-12.1492
▁evade	-12.1492
▁evaluated	-12.1492
▁evaluating	-12.1492
▁evangelist	-12.1492
▁eventho	-12.1492
▁everyonegoatyy	-12.1492
▁everyonesgoatyyy	-12.1492
▁everythi	-12.1492
▁everyting	-12.1492
▁eveyday	-12.1492
▁eveyrhting	-12.1492
▁eveything	-12.1492
▁evict	-12.1492
▁evoking	-12.1492
▁evolutionaly	-12.1492
▁exacerbating	-12.1492
▁examine	-12.1492
▁exceedingly	-12.1492
▁exceeds	-12.1492
▁exceptional	-12.1492
▁excercises	-12.1492
▁excitation	-12.1492
▁exclaimed	-12.1492
▁exclusively	-12.1492
▁excusing	-12.1492
▁execution	-12.1492
▁exemple	-12.1492
▁exemplifying	-12.1492
▁exhaust	-12.1492
▁existant	-12.1492
▁experimental	-12.1492
▁expertise	-12.1492
▁expierenced	-12.1492
▁expierencing	-12.1492
▁expiration	-12.1492
▁exploit	-12.1492
▁expose	-12.1492
▁expoused	-12.1492
▁exquisite	-12.1492
▁extinct	-12.1492
▁extinguish	-12.1492
▁extolled	-12.1492
▁extracurriculars	-12.1492
▁extraordinary	-12.1492
▁eyelid	-12.1492
▁eyyyy	-12.1492
▁faceless	-12.1492
▁facetime	-12.1492
▁facilitate	-12.1492
▁facilitates	-12.1492
▁facilitating	-12.1492
▁factual	-12.1492
▁fainter	-12.1492
▁faked	-12.1492
▁falcon	-12.1492
▁falre	-12.1492
▁familly	-12.1492
▁famously	-12.1492
▁fanboy	-12.1492
▁fantastical	-12.1492
▁farewell	-12.1492
▁farmer	-12.1492
▁fascinating	-12.1492
▁fashion	-12.1492
▁faso	-12.1492
▁fatherhood	-12.1492
▁fatherless	-12.1492
▁fatigued	-12.1492
▁fav	-12.1492
▁feared	-12.1492
▁feeing	-12.1492
▁felipe	-12.1492
▁feminism	-12.1492
▁femoral	-12.1492
▁fertility	-12.1492
▁festive	-12.1492
▁festivity	-12.1492
▁fetish	-12.1492
▁fibromyalga	-12.1492
▁fictional	-12.1492
▁fide	-12.1492
▁fierce	-12.1492
▁fiery	-12.1492
▁filed	-12.1492
▁fin	-12.1492
▁financcial	-12.1492
▁financed	-12.1492
▁findinghappiness	-12.1492
▁finest	-12.1492
▁finland	-12.1492
▁firefighter	-12.1492
▁firstborn	-12.1492
▁fixated	-12.1492
▁fixation	-12.1492
▁fizzle	-12.1492
▁fizzled	-12.1492
▁flagged	-12.1492
▁flailing	-12.1492
▁flair	-12.1492
▁flake	-12.1492
▁flashing	-12.1492
▁flatlines	-12.1492
▁flattened	-12.1492
▁flatulence	-12.1492
▁flaunting	-12.1492
▁flavor	-12.1492
▁flawlessly	-12.1492
▁flea	-12.1492
▁fled	-12.1492
▁flew	-12.1492
▁flexible	-12.1492
▁flinch	-12.1492
▁flinching	-12.1492
▁flirty	-12.1492
▁floating	-12.1492
▁flooding	-12.1492
▁flourishing	-12.1492
▁fluctuates	-12.1492
▁flushed	-12.1492
▁flyer	-12.1492
▁fmp	-12.1492
▁fo	-12.1492
▁fogged	-12.1492
▁fondest	-12.1492
▁font	-12.1492
▁fooling	-12.1492
▁footing	-12.1492
▁forcefully	-12.1492
▁forcibly	-12.1492
▁foreheaded	-12.1492
▁foreigner	-12.1492
▁foresight	-12.1492
▁forgein	-12.1492
▁forging	-12.1492
▁forgiven	-12.1492
▁forgiveness	-12.1492
▁formally	-12.1492
▁formative	-12.1492
▁forty	-12.1492
▁fourth	-12.1492
▁foward	-12.1492
▁fr	-12.1492
▁fraction	-12.1492
▁fragmentation	-12.1492
▁frail	-12.1492
▁franc	-12.1492
▁francisco	-12.1492
▁frankie	-12.1492
▁frantic	-12.1492
▁fraught	-12.1492
▁frayed	-12.1492
▁freacking	-12.1492
▁freelancer	-12.1492
▁freeman	-12.1492
▁freeness	-12.1492
▁freeze	-12.1492
▁freezing	-12.1492
▁freindly	-12.1492
▁freinds	-12.1492
▁fremont	-12.1492
▁freshens	-12.1492
▁fricken	-12.1492
▁fridaymorning	-12.1492
▁fridaymotivation	-12.1492
▁fridaythoughts	-12.1492
▁friendless	-12.1492
▁friggin	-12.1492
▁frightened	-12.1492
▁frisbee	-12.1492
▁frisky	-12.1492
▁frontend	-12.1492
▁fronting	-12.1492
▁frosting	-12.1492
▁frusterated	-12.1492
▁fsh	-12.1492
▁fucken	-12.1492
▁fucker	-12.1492
▁fuckign	-12.1492
▁fuelled	-12.1492
▁ful	-12.1492
▁fundamentalist	-12.1492
▁funk	-12.1492
▁funnest	-12.1492
▁fuqn	-12.1492
▁furniture	-12.1492
▁fuse	-12.1492
▁futility	-12.1492
▁fwd	-12.1492
▁fyi	-12.1492
▁gabapentin	-12.1492
▁gabrielshaw	-12.1492
▁gacha	-12.1492
▁gag	-12.1492
▁gainful	-12.1492
▁gal	-12.1492
▁gallstone	-12.1492
▁gambia	-12.1492
▁gamechanger	-12.1492
▁gamma	-12.1492
▁gangmembers	-12.1492
▁garcia	-12.1492
▁gardening	-12.1492
▁garmin	-12.1492
▁gary	-12.1492
▁gasping	-12.1492
▁gastrointestinal	-12.1492
▁gatherer	-12.1492
▁gauge	-12.1492
▁gawjus	-12.1492
▁gaze	-12.1492
▁ge	-12.1492
▁geared	-12.1492
▁gearing	-12.1492
▁gen	-12.1492
▁genuinenly	-12.1492
▁geographic	-12.1492
▁george	-12.1492
▁georgia	-12.1492
▁gerd	-12.1492
▁giddy	-12.1492
▁gifting	-12.1492
▁giggled	-12.1492
▁giggling	-12.1492
▁ginanoeld	-12.1492
▁girly	-12.1492
▁gliding	-12.1492
▁globe	-12.1492
▁globus	-12.1492
▁glock	-12.1492
▁gloom	-12.1492
▁glorified	-12.1492
▁glory	-12.1492
▁glove	-12.1492
▁goddamb	-12.1492
▁gogetfunding	-12.1492
▁goin	-12.1492
▁golf	-12.1492
▁gonit	-12.1492
▁goodwill	-12.1492
▁goofy	-12.1492
▁goose	-12.1492
▁gorgeous	-12.1492
▁governed	-12.1492
▁grabbing	-12.1492
▁gracefully	-12.1492
▁gram	-12.1492
▁grammatical	-12.1492
▁granphater	-12.1492
▁grant	-12.1492
▁grasped	-12.1492
▁graveled	-12.1492
▁grazed	-12.1492
▁greatfull	-12.1492
▁greet	-12.1492
▁greeted	-12.1492
▁greeting	-12.1492
▁gretchen	-12.1492
▁grinch	-12.1492
▁grindr	-12.1492
▁grip	-12.1492
▁groin	-12.1492
▁groom	-12.1492
▁grouchy	-12.1492
▁groupon	-12.1492
▁gruesome	-12.1492
▁guarantee	-12.1492
▁guaranteed	-12.1492
▁guarded	-12.1492
▁gueee	-12.1492
▁guinea	-12.1492
▁guinness	-12.1492
▁gulp	-12.1492
▁gurgling	-12.1492
▁guru	-12.1492
▁gush	-12.1492
▁gymnast	-12.1492
▁hahah	-12.1492
▁hahahah	-12.1492
▁hahahaha	-12.1492
▁hairline	-12.1492
▁hairstylist	-12.1492
▁haiti	-12.1492
▁halfway	-12.1492
▁halloween	-12.1492
▁halo	-12.1492
▁halp	-12.1492
▁hammering	-12.1492
▁handicapped	-12.1492
▁handing	-12.1492
▁handwritten	-12.1492
▁hanh	-12.1492
▁happg	-12.1492
▁happybucketlife	-12.1492
▁harassed	-12.1492
▁harassing	-12.1492
▁hardwork	-12.1492
▁hardy	-12.1492
▁harmonized	-12.1492
▁harping	-12.1492
▁harpreetsandhu	-12.1492
▁harris	-12.1492
▁harshness	-12.1492
▁hart	-12.1492
▁hartford	-12.1492
▁harvard	-12.1492
▁hateful	-12.1492
▁haunting	-12.1492
▁havnt	-12.1492
▁havoc	-12.1492
▁havve	-12.1492
▁hawk	-12.1492
▁hazy	-12.1492
▁hd	-12.1492
▁healthline	-12.1492
▁heartache	-12.1492
▁heartbreaking	-12.1492
▁heartburn	-12.1492
▁hearted	-12.1492
▁heartless	-12.1492
▁heater	-12.1492
▁heavier	-12.1492
▁hebrew	-12.1492
▁heed	-12.1492
▁heel	-12.1492
▁heightened	-12.1492
▁heir	-12.1492
▁helmet	-12.1492
▁helplessness	-12.1492
▁helpline	-12.1492
▁helpp	-12.1492
▁henderson	-12.1492
▁herd	-12.1492
▁hermit	-12.1492
▁hesitant	-12.1492
▁hesitating	-12.1492
▁hesitation	-12.1492
▁heuristic	-12.1492
▁hfa	-12.1492
▁hh	-12.1492
▁hiatus	-12.1492
▁hii	-12.1492
▁hiked	-12.1492
▁hinder	-12.1492
▁hindering	-12.1492
▁hinduism	-12.1492
▁histrionics	-12.1492
▁hitted	-12.1492
▁hiv	-12.1492
▁hmmm	-12.1492
▁hnd	-12.1492
▁hoarding	-12.1492
▁holiness	-12.1492
▁hollowness	-12.1492
▁homemade	-12.1492
▁homemaker	-12.1492
▁honed	-12.1492
▁hong	-12.1492
▁honorary	-12.1492
▁honored	-12.1492
▁hood	-12.1492
▁hookup	-12.1492
▁hopping	-12.1492
▁horrific	-12.1492
▁horrified	-12.1492
▁horrifying	-12.1492
▁horticulture	-12.1492
▁hospitalisation	-12.1492
▁hostel	-12.1492
▁hosting	-12.1492
▁hotlines	-12.1492
▁housewife	-12.1492
▁housework	-12.1492
▁howtobehappy	-12.1492
▁http	-12.1492
▁hubbard	-12.1492
▁hubby	-12.1492
▁huffing	-12.1492
▁hugely	-12.1492
▁huma	-12.1492
▁humanely	-12.1492
▁humanness	-12.1492
▁humid	-12.1492
▁humiliated	-12.1492
▁humilliations	-12.1492
▁humming	-12.1492
▁hunch	-12.1492
▁hunched	-12.1492
▁hungrier	-12.1492
▁hunter	-12.1492
▁hurdle	-12.1492
▁hurried	-12.1492
▁hurtful	-12.1492
▁hut	-12.1492
▁hydroxyzine	-12.1492
▁hype	-12.1492
▁hyperawareness	-12.1492
▁hypersensitive	-12.1492
▁hypomanic	-12.1492
▁hypothermia	-12.1492
▁hysterectomy	-12.1492
▁hysterical	-12.1492
▁ibs	-12.1492
▁ibuprophen	-12.1492
▁icecream	-12.1492
▁iceland	-12.1492
▁identified	-12.1492
▁identifies	-12.1492
▁identifying	-12.1492
▁idgaf	-12.1492
▁idiotic	-12.1492
▁idol	-12.1492
▁idolise	-12.1492
▁ignite	-12.1492
▁illegally	-12.1492
▁illumination	-12.1492
▁illustrate	-12.1492
▁illustrates	-12.1492
▁illustrator	-12.1492
▁ilness	-12.1492
▁ilnesses	-12.1492
▁ima	-12.1492
▁imaginings	-12.1492
▁imalive	-12.1492
▁immature	-12.1492
▁immaturity	-12.1492
▁immersed	-12.1492
▁immet	-12.1492
▁immidiatly	-12.1492
▁immoral	-12.1492
▁immunocompromised	-12.1492
▁imnotevenstressedanymore	-12.1492
▁impeccable	-12.1492
▁imperative	-12.1492
▁imperfect	-12.1492
▁implement	-12.1492
▁implemented	-12.1492
▁implied	-12.1492
▁imply	-12.1492
▁implying	-12.1492
▁imposition	-12.1492
▁impossibility	-12.1492
▁impotent	-12.1492
▁impressive	-12.1492
▁improbable	-12.1492
▁impulsively	-12.1492
▁inadequate	-12.1492
▁inadvertently	-12.1492
▁inaliating	-12.1492
▁inanimate	-12.1492
▁inaya	-12.1492
▁inayaconnect	-12.1492
▁inbetween	-12.1492
▁incapacitates	-12.1492
▁incase	-12.1492
▁incel	-12.1492
▁incels	-12.1492
▁inclined	-12.1492
▁inclusively	-12.1492
▁incompetent	-12.1492
▁inconsistent	-12.1492
▁inconvenienced	-12.1492
▁inconvenient	-12.1492
▁incorrect	-12.1492
▁incremental	-12.1492
▁incrementally	-12.1492
▁incroyables	-12.1492
▁indecision	-12.1492
▁indecisive	-12.1492
▁independently	-12.1492
▁indgenous	-12.1492
▁indie	-12.1492
▁indifference	-12.1492
▁indifferent	-12.1492
▁indomitable	-12.1492
▁indulgent	-12.1492
▁ineffective	-12.1492
▁inevitability	-12.1492
▁inexpensive	-12.1492
▁infancy	-12.1492
▁infectious	-12.1492
▁infinitely	-12.1492
▁inflammatory	-12.1492
▁inflated	-12.1492
▁inflexible	-12.1492
▁influencefull	-12.1492
▁influencers	-12.1492
▁inform	-12.1492
▁informative	-12.1492
▁infuriate	-12.1492
▁inhabit	-12.1492
▁inhibited	-12.1492
▁inhuman	-12.1492
▁inhumane	-12.1492
▁inimitable	-12.1492
▁innate	-12.1492
▁innitially	-12.1492
▁innocence	-12.1492
▁innocent	-12.1492
▁innovation	-12.1492
▁inquisitive	-12.1492
▁insensitive	-12.1492
▁inserted	-12.1492
▁insider	-12.1492
▁insisted	-12.1492
▁insistent	-12.1492
▁inspected	-12.1492
▁instilled	-12.1492
▁instinctive	-12.1492
▁integrate	-12.1492
▁integrated	-12.1492
▁intension	-12.1492
▁interconnectivity	-12.1492
▁interdependence	-12.1492
▁interesed	-12.1492
▁intermittent	-12.1492
▁internalizes	-12.1492
▁intersection	-12.1492
▁interverence	-12.1492
▁interviewing	-12.1492
▁intimate	-12.1492
▁introductory	-12.1492
▁introversion	-12.1492
▁inundated	-12.1492
▁invading	-12.1492
▁invalid	-12.1492
▁invalidating	-12.1492
▁invalidity	-12.1492
▁invariably	-12.1492
▁invasive	-12.1492
▁investigate	-12.1492
▁investigating	-12.1492
▁investigation	-12.1492
▁inviting	-12.1492
▁involuntary	-12.1492
▁iop	-12.1492
▁iran	-12.1492
▁iraq	-12.1492
▁irish	-12.1492
▁irregularly	-12.1492
▁irreversible	-12.1492
▁irritability	-12.1492
▁irs	-12.1492
▁ishaan	-12.1492
▁ishayas	-12.1492
▁ishtarhowell	-12.1492
▁island	-12.1492
▁isolate	-12.1492
▁isoleted	-12.1492
▁issued	-12.1492
▁itchy	-12.1492
▁ixl	-12.1492
▁jab	-12.1492
▁jackbox	-12.1492
▁jacket	-12.1492
▁jackpot	-12.1492
▁jackshit	-12.1492
▁jacobson	-12.1492
▁jagged	-12.1492
▁jake	-12.1492
▁jakeducey	-12.1492
▁jamaican	-12.1492
▁janitor	-12.1492
▁jeaousy	-12.1492
▁jee	-12.1492
▁jehovah	-12.1492
▁jello	-12.1492
▁jelly	-12.1492
▁jen	-12.1492
▁jenkins	-12.1492
▁jeopardizing	-12.1492
▁jiggle	-12.1492
▁jj	-12.1492
▁jkz	-12.1492
▁jme	-12.1492
▁jon	-12.1492
▁jot	-12.1492
▁journalist	-12.1492
▁joyless	-12.1492
▁jumpy	-12.1492
▁jung	-12.1492
▁junkie	-12.1492
▁juno	-12.1492
▁justifiably	-12.1492
▁katakana	-12.1492
▁kava	-12.1492
▁kckb	-12.1492
▁ked	-12.1492
▁kenya	-12.1492
▁kg	-12.1492
▁kicker	-12.1492
▁kife	-12.1492
▁kinesiologist	-12.1492
▁kinky	-12.1492
▁kist	-12.1492
▁knkw	-12.1492
▁knot	-12.1492
▁knowledgeable	-12.1492
▁kolonopin	-12.1492
▁kong	-12.1492
▁korean	-12.1492
▁krier	-12.1492
▁kroger	-12.1492
▁ksm	-12.1492
▁kumusha	-12.1492
▁kumushafoundation	-12.1492
▁kylehilding	-12.1492
▁labour	-12.1492
▁lachesism	-12.1492
▁lad	-12.1492
▁lall	-12.1492
▁lament	-12.1492
▁landlady	-12.1492
▁landscaping	-12.1492
▁lanka	-12.1492
▁lasagna	-12.1492
▁lashed	-12.1492
▁lashing	-12.1492
▁lastnight	-12.1492
▁lastyear	-12.1492
▁latley	-12.1492
▁laughable	-12.1492
▁laughted	-12.1492
▁laundromat	-12.1492
▁laurie	-12.1492
▁lawson	-12.1492
▁lazier	-12.1492
▁lbl	-12.1492
▁lcd	-12.1492
▁leak	-12.1492
▁lean	-12.1492
▁leapfrog	-12.1492
▁lectured	-12.1492
▁leeds	-12.1492
▁legal	-12.1492
▁legend	-12.1492
▁legitimately	-12.1492
▁lemon	-12.1492
▁lend	-12.1492
▁lending	-12.1492
▁lengthy	-12.1492
▁leone	-12.1492
▁lesotho	-12.1492
▁leukemia	-12.1492
▁lewd	-12.1492
▁lgbt	-12.1492
▁lgbtq	-12.1492
▁liability	-12.1492
▁liberated	-12.1492
▁liberating	-12.1492
▁liberia	-12.1492
▁lifelessly	-12.1492
▁lightbulb	-12.1492
▁lightning	-12.1492
▁liife	-12.1492
▁likewise	-12.1492
▁lil	-12.1492
▁limbo	-12.1492
▁limitation	-12.1492
▁limitless	-12.1492
▁lining	-12.1492
▁lionelwilson	-12.1492
▁liquor	-12.1492
▁lisabergstrom	-12.1492
▁lisence	-12.1492
▁lite	-12.1492
▁liter	-12.1492
▁littlest	-12.1492
▁livingbetterandlonger	-12.1492
▁llama	-12.1492
▁lmfao	-12.1492
▁lne	-12.1492
▁lobster	-12.1492
▁locate	-12.1492
▁lofi	-12.1492
▁loiter	-12.1492
▁lonervibes	-12.1492
▁longing	-12.1492
▁lookkng	-12.1492
▁lookout	-12.1492
▁looping	-12.1492
▁looser	-12.1492
▁losserrrrrrr	-12.1492
▁lottery	-12.1492
▁loudness	-12.1492
▁loveless	-12.1492
▁loveliness	-12.1492
▁lsd	-12.1492
▁lube	-12.1492
▁lucid	-12.1492
▁lullaby	-12.1492
▁lump	-12.1492
▁lurker	-12.1492
▁lutherclayton	-12.1492
▁luxembourg	-12.1492
▁lyon	-12.1492
▁macho	-12.1492
▁madagascar	-12.1492
▁maharishi	-12.1492
▁maia	-12.1492
▁mailed	-12.1492
▁maintained	-12.1492
▁makefun	-12.1492
▁maker	-12.1492
▁malady	-12.1492
▁malawi	-12.1492
▁maldives	-12.1492
▁malfunctioning	-12.1492
▁mali	-12.1492
▁mall	-12.1492
▁mam	-12.1492
▁mama	-12.1492
▁mammoth	-12.1492
▁manchester	-12.1492
▁manchild	-12.1492
▁manda	-12.1492
▁maniac	-12.1492
▁manipualtive	-12.1492
▁mankind	-12.1492
▁manly	-12.1492
▁mannerism	-12.1492
▁mansion	-12.1492
▁manu	-12.1492
▁manual	-12.1492
▁manualized	-12.1492
▁manufacture	-12.1492
▁manufacturing	-12.1492
▁mar	-12.1492
▁marchwicki	-12.1492
▁marginal	-12.1492
▁maried	-12.1492
▁mariljuana	-12.1492
▁marked	-12.1492
▁marker	-12.1492
▁marketer	-12.1492
▁marvel	-12.1492
▁marvelous	-12.1492
▁marx	-12.1492
▁mary	-12.1492
▁masculine	-12.1492
▁maskless	-12.1492
▁massager	-12.1492
▁massively	-12.1492
▁masterclass	-12.1492
▁masterful	-12.1492
▁materialise	-12.1492
▁maternity	-12.1492
▁mathernal	-12.1492
▁matthew	-12.1492
▁mattmark	-12.1492
▁mattress	-12.1492
▁maturely	-12.1492
▁matures	-12.1492
▁mauritania	-12.1492
▁maxed	-12.1492
▁maximise	-12.1492
▁maximize	-12.1492
▁maximum	-12.1492
▁mayan	-12.1492
▁mayo	-12.1492
▁mayor	-12.1492
▁mcauliffe	-12.1492
▁mcconaughey	-12.1492
▁mdma	-12.1492
▁meaninglessness	-12.1492
▁measurement	-12.1492
▁mechanic	-12.1492
▁mediocre	-12.1492
▁meditationteacher	-12.1492
▁medular	-12.1492
▁melancholy	-12.1492
▁melatonin	-12.1492
▁meltdown	-12.1492
▁memoir	-12.1492
▁memorable	-12.1492
▁memorize	-12.1492
▁memorized	-12.1492
▁menace	-12.1492
▁mend	-12.1492
▁mendes	-12.1492
▁menopause	-12.1492
▁menstrual	-12.1492
▁mentallity	-12.1492
▁mentaly	-12.1492
▁meowing	-12.1492
▁merciful	-12.1492
▁mercilessly	-12.1492
▁mercurial	-12.1492
▁merely	-12.1492
▁mesopotamia	-12.1492
▁messenger	-12.1492
▁meta	-12.1492
▁metaphor	-12.1492
▁metric	-12.1492
▁mexican	-12.1492
▁michaelfox	-12.1492
▁michelle	-12.1492
▁micro	-12.1492
▁mics	-12.1492
▁migrain	-12.1492
▁mihaly	-12.1492
▁miller	-12.1492
▁millionth	-12.1492
▁mimar	-12.1492
▁mindsetmastery	-12.1492
▁mindspace	-12.1492
▁minimize	-12.1492
▁minimized	-12.1492
▁ministry	-12.1492
▁ministryofpoetry	-12.1492
▁mint	-12.1492
▁minty	-12.1492
▁mirasol	-12.1492
▁miscarriage	-12.1492
▁misdiagnosed	-12.1492
▁miserably	-12.1492
▁misgendered	-12.1492
▁misguided	-12.1492
▁misogynist	-12.1492
▁misogynistic	-12.1492
▁missery	-12.1492
▁missionary	-12.1492
▁mistakenly	-12.1492
▁mitigate	-12.1492
▁mitigates	-12.1492
▁mitt	-12.1492
▁mob	-12.1492
▁mocked	-12.1492
▁moderation	-12.1492
▁momentarily	-12.1492
▁mommy	-12.1492
▁mon	-12.1492
▁monastic	-12.1492
▁monk	-12.1492
▁monotonous	-12.1492
▁monthes	-12.1492
▁mooded	-12.1492
▁moonlight	-12.1492
▁moonshine	-12.1492
▁moonshot	-12.1492
▁mopey	-12.1492
▁morbidly	-12.1492
▁mormon	-12.1492
▁moron	-12.1492
▁morose	-12.1492
▁morsel	-12.1492
▁mosque	-12.1492
▁mostlyyy	-12.1492
▁motel	-12.1492
▁motive	-12.1492
▁moto	-12.1492
▁mourns	-12.1492
▁mouse	-12.1492
▁mover	-12.1492
▁mozambique	-12.1492
▁mrsknowhow	-12.1492
▁msu	-12.1492
▁mt	-12.1492
▁mug	-12.1492
▁mullet	-12.1492
▁multimillionaires	-12.1492
▁multitasking	-12.1492
▁multivitamin	-12.1492
▁mumbling	-12.1492
▁muruganar	-12.1492
▁mush	-12.1492
▁mushroom	-12.1492
▁musical	-12.1492
▁musing	-12.1492
▁muster	-12.1492
▁mustered	-12.1492
▁muted	-12.1492
▁muttered	-12.1492
▁myanmar	-12.1492
▁mystical	-12.1492
▁mythology	-12.1492
▁nada	-12.1492
▁nadis	-12.1492
▁nag	-12.1492
▁nagging	-12.1492
▁nah	-12.1492
▁namaskar	-12.1492
▁nameless	-12.1492
▁namibia	-12.1492
▁nana	-12.1492
▁narcisisstic	-12.1492
▁narrowest	-12.1492
▁nationalist	-12.1492
▁naturallyecstatic	-12.1492
▁navigate	-12.1492
▁navigating	-12.1492
▁naw	-12.1492
▁neat	-12.1492
▁nebours	-12.1492
▁necklace	-12.1492
▁nectar	-12.1492
▁needes	-12.1492
▁neediness	-12.1492
▁neet	-12.1492
▁negating	-12.1492
▁nepotism	-12.1492
▁nest	-12.1492
▁neuroscientist	-12.1492
▁neurotic	-12.1492
▁newborn	-12.1492
▁newfound	-12.1492
▁newly	-12.1492
▁newsflash	-12.1492
▁ng	-12.1492
▁nge	-12.1492
▁ngo	-12.1492
▁nhat	-12.1492
▁nicer	-12.1492
▁nicodimattina	-12.1492
▁niger	-12.1492
▁nighti	-12.1492
▁nihilist	-12.1492
▁nine	-12.1492
▁nix	-12.1492
▁nj	-12.1492
▁nomadland	-12.1492
▁nonexistent	-12.1492
▁nonjudgmental	-12.1492
▁nonprofit	-12.1492
▁nonsensical	-12.1492
▁noodle	-12.1492
▁noon	-12.1492
▁nooooooo	-12.1492
▁nootralize	-12.1492
▁normalized	-12.1492
▁norway	-12.1492
▁nostalgic	-12.1492
▁nosy	-12.1492
▁notch	-12.1492
▁noticeably	-12.1492
▁noting	-12.1492
▁nov	-12.1492
▁nova	-12.1492
▁ntohing	-12.1492
▁nude	-12.1492
▁nuh	-12.1492
▁nuisance	-12.1492
▁num	-12.1492
▁nutella	-12.1492
▁nutrient	-12.1492
▁nutritional	-12.1492
▁nutritionally	-12.1492
▁nutshell	-12.1492
▁ny	-12.1492
▁obermeyer	-12.1492
▁obligatory	-12.1492
▁obliges	-12.1492
▁oblivious	-12.1492
▁obnoxious	-12.1492
▁obscenely	-12.1492
▁obscure	-12.1492
▁observation	-12.1492
▁observer	-12.1492
▁obsolete	-12.1492
▁obstetric	-12.1492
▁obstetrics	-12.1492
▁occurring	-12.1492
▁octavia	-12.1492
▁oddity	-12.1492
▁oded	-12.1492
▁offchance	-12.1492
▁offence	-12.1492
▁offended	-12.1492
▁offsite	-12.1492
▁ofmy	-12.1492
▁oily	-12.1492
▁okayish	-12.1492
▁okey	-12.1492
▁oldschool	-12.1492
▁olympics	-12.1492
▁om	-12.1492
▁oncoming	-12.1492
▁onedollarhappiness	-12.1492
▁onlt	-12.1492
▁oooooonnne	-12.1492
▁oozing	-12.1492
▁openly	-12.1492
▁opiate	-12.1492
▁oppinion	-12.1492
▁opted	-12.1492
▁optimist	-12.1492
▁optimize	-12.1492
▁opts	-12.1492
▁orchestrate	-12.1492
▁ordering	-12.1492
▁organ	-12.1492
▁organically	-12.1492
▁organisation	-12.1492
▁organise	-12.1492
▁organiser	-12.1492
▁organizing	-12.1492
▁orientated	-12.1492
▁orientation	-12.1492
▁oriented	-12.1492
▁ouchy	-12.1492
▁ourworld	-12.1492
▁outburst	-12.1492
▁outdoors	-12.1492
▁outline	-12.1492
▁outset	-12.1492
▁outsmart	-12.1492
▁outweighs	-12.1492
▁oven	-12.1492
▁overachievement	-12.1492
▁overachiever	-12.1492
▁overclock	-12.1492
▁overcomefear	-12.1492
▁overcomes	-12.1492
▁overconsumption	-12.1492
▁overdose	-12.1492
▁overdrafted	-12.1492
▁overdrive	-12.1492
▁overflood	-12.1492
▁overflooding	-12.1492
▁overflowing	-12.1492
▁overhear	-12.1492
▁overload	-12.1492
▁overly	-12.1492
▁overplan	-12.1492
▁overpromise	-12.1492
▁overreact	-12.1492
▁overshadowed	-12.1492
▁overstimulated	-12.1492
▁overtime	-12.1492
▁overtook	-12.1492
▁overweigh	-12.1492
▁overworker	-12.1492
▁overworking	-12.1492
▁owes	-12.1492
▁ownership	-12.1492
▁owns	-12.1492
▁ox	-12.1492
▁oxytocin	-12.1492
▁paddle	-12.1492
▁painless	-12.1492
▁painted	-12.1492
▁pair	-12.1492
▁paired	-12.1492
▁pairing	-12.1492
▁pakistani	-12.1492
▁pal	-12.1492
▁palestinian	-12.1492
▁palete	-12.1492
▁palette	-12.1492
▁palsy	-12.1492
▁pang	-12.1492
▁panicky	-12.1492
▁pansexual	-12.1492
▁papa	-12.1492
▁paradigm	-12.1492
▁paradox	-12.1492
▁paralized	-12.1492
▁paralyzed	-12.1492
▁paranormal	-12.1492
▁parcel	-12.1492
▁parked	-12.1492
▁partnered	-12.1492
▁partying	-12.1492
▁passionately	-12.1492
▁passionflower	-12.1492
▁passively	-12.1492
▁passivity	-12.1492
▁pastry	-12.1492
▁patched	-12.1492
▁patrol	-12.1492
▁paulson	-12.1492
▁paving	-12.1492
▁paycheck	-12.1492
▁pdf	-12.1492
▁peacefully	-12.1492
▁peachy	-12.1492
▁pearces	-12.1492
▁pedal	-12.1492
▁pedo	-12.1492
▁pedophilia	-12.1492
▁pedos	-12.1492
▁pen	-12.1492
▁pencil	-12.1492
▁pensez	-12.1492
▁pensum	-12.1492
▁pepe	-12.1492
▁perceiving	-12.1492
▁perpetual	-12.1492
▁perpetually	-12.1492
▁persecuted	-12.1492
▁personalize	-12.1492
▁personhood	-12.1492
▁pesky	-12.1492
▁pessimism	-12.1492
▁pessimist	-12.1492
▁pessimistic	-12.1492
▁peterwarnock	-12.1492
▁petrified	-12.1492
▁pharmaceutical	-12.1492
▁phaternal	-12.1492
▁phoning	-12.1492
▁phosphatidylserine	-12.1492
▁photography	-12.1492
▁photoshoots	-12.1492
▁php	-12.1492
▁phsyical	-12.1492
▁physicaly	-12.1492
▁physiologist	-12.1492
▁physiotherapist	-12.1492
▁pianist	-12.1492
▁pierced	-12.1492
▁pimp	-12.1492
▁pinched	-12.1492
▁pincher	-12.1492
▁pinpoint	-12.1492
▁pitching	-12.1492
▁pitfall	-12.1492
▁pittance	-12.1492
▁pivoted	-12.1492
▁pjs	-12.1492
▁placebo	-12.1492
▁plagiarized	-12.1492
▁plain	-12.1492
▁plantation	-12.1492
▁plateauing	-12.1492
▁platitude	-12.1492
▁plato	-12.1492
▁plausible	-12.1492
▁playtime	-12.1492
▁pleading	-12.1492
▁pleaser	-12.1492
▁pleasurable	-12.1492
▁plumber	-12.1492
▁plunged	-12.1492
▁plushie	-12.1492
▁pmdd	-12.1492
▁podcasters	-12.1492
▁poetic	-12.1492
▁pogrom	-12.1492
▁pointings	-12.1492
▁pointlessness	-12.1492
▁poisonous	-12.1492
▁poking	-12.1492
▁poky	-12.1492
▁pole	-12.1492
▁polka	-12.1492
▁pollard	-12.1492
▁poly	-12.1492
▁ponders	-12.1492
▁pony	-12.1492
▁pooh	-12.1492
▁poorest	-12.1492
▁popsugar	-12.1492
▁pornography	-12.1492
▁portfolio	-12.1492
▁portrays	-12.1492
▁pose	-12.1492
▁posing	-12.1492
▁possession	-12.1492
▁postman	-12.1492
▁postponing	-12.1492
▁potato	-12.1492
▁potent	-12.1492
▁pounce	-12.1492
▁poured	-12.1492
▁powdered	-12.1492
▁powered	-12.1492
▁powfu	-12.1492
▁practicality	-12.1492
▁praised	-12.1492
▁preached	-12.1492
▁preacher	-12.1492
▁precarious	-12.1492
▁preceded	-12.1492
▁precursor	-12.1492
▁predental	-12.1492
▁predict	-12.1492
▁prediction	-12.1492
▁predicts	-12.1492
▁preemptively	-12.1492
▁preface	-12.1492
▁preferable	-12.1492
▁prefers	-12.1492
▁premed	-12.1492
▁prep	-12.1492
▁presenting	-12.1492
▁presentmoment	-12.1492
▁preserving	-12.1492
▁pression	-12.1492
▁pressurized	-12.1492
▁prettiest	-12.1492
▁prevented	-12.1492
▁prey	-12.1492
▁primed	-12.1492
▁priming	-12.1492
▁princess	-12.1492
▁print	-12.1492
▁printables	-12.1492
▁prioritising	-12.1492
▁prioritized	-12.1492
▁prioritizes	-12.1492
▁prision	-12.1492
▁prisoner	-12.1492
▁privatised	-12.1492
▁proactive	-12.1492
▁prob	-12.1492
▁probed	-12.1492
▁procastinating	-12.1492
▁proccess	-12.1492
▁procedure	-12.1492
▁proceed	-12.1492
▁proceeded	-12.1492
▁proceeds	-12.1492
▁proclaimed	-12.1492
▁prodding	-12.1492
▁prodigy	-12.1492
▁profusely	-12.1492
▁progressed	-12.1492
▁projection	-12.1492
▁prominent	-12.1492
▁prompting	-12.1492
▁pronounced	-12.1492
▁proofed	-12.1492
▁propably	-12.1492
▁propel	-12.1492
▁propose	-12.1492
▁proposing	-12.1492
▁propped	-12.1492
▁prosper	-12.1492
▁prosthetics	-12.1492
▁protective	-12.1492
▁prototype	-12.1492
▁proudest	-12.1492
▁provoking	-12.1492
▁prozosin	-12.1492
▁psats	-12.1492
▁psychedelics	-12.1492
▁psycho	-12.1492
▁psychopath	-12.1492
▁psyvh	-12.1492
▁pt	-12.1492
▁pua	-12.1492
▁puas	-12.1492
▁publicspeaking	-12.1492
▁publish	-12.1492
▁puddle	-12.1492
▁puke	-12.1492
▁puking	-12.1492
▁pulsifer	-12.1492
▁pummel	-12.1492
▁pump	-12.1492
▁punching	-12.1492
▁punchline	-12.1492
▁punter	-12.1492
▁pup	-12.1492
▁purely	-12.1492
▁purgatory	-12.1492
▁purged	-12.1492
▁purifying	-12.1492
▁purposefully	-12.1492
▁purposelessness	-12.1492
▁purposlesness	-12.1492
▁putrid	-12.1492
▁pyschopath	-12.1492
▁pysiotherapist	-12.1492
▁q	-12.1492
▁quad	-12.1492
▁quadmester	-12.1492
▁qualify	-12.1492
▁quarantined	-12.1492
▁quarrel	-12.1492
▁quarter	-12.1492
▁que	-12.1492
▁queen	-12.1492
▁quelques	-12.1492
▁questioned	-12.1492
▁quilting	-12.1492
▁quiplash	-12.1492
▁quitted	-12.1492
▁racial	-12.1492
▁racketball	-12.1492
▁racking	-12.1492
▁radar	-12.1492
▁radiant	-12.1492
▁radiate	-12.1492
▁radiates	-12.1492
▁radiation	-12.1492
▁radicalize	-12.1492
▁radiohead	-12.1492
▁raft	-12.1492
▁rag	-12.1492
▁raging	-12.1492
▁rail	-12.1492
▁rainfall	-12.1492
▁ralated	-12.1492
▁ram	-12.1492
▁randomness	-12.1492
▁rap	-12.1492
▁ratio	-12.1492
▁reacted	-12.1492
▁realll	-12.1492
▁realtor	-12.1492
▁reappear	-12.1492
▁reasonably	-12.1492
▁rebuild	-12.1492
▁rebuilding	-12.1492
▁recall	-12.1492
▁recharge	-12.1492
▁recieved	-12.1492
▁reckon	-12.1492
▁recognition	-12.1492
▁recognizably	-12.1492
▁rectified	-12.1492
▁redeem	-12.1492
▁redeemed	-12.1492
▁redefine	-12.1492
▁redemption	-12.1492
▁rediculous	-12.1492
▁redirect	-12.1492
▁redo	-12.1492
▁redraw	-12.1492
▁reevaluating	-12.1492
▁referenced	-12.1492
▁refers	-12.1492
▁refining	-12.1492
▁reflected	-12.1492
▁reflux	-12.1492
▁refocus	-12.1492
▁reframe	-12.1492
▁reframing	-12.1492
▁regained	-12.1492
▁regenerate	-12.1492
▁regressed	-12.1492
▁regressing	-12.1492
▁regression	-12.1492
▁regrettable	-12.1492
▁regularity	-12.1492
▁regulation	-12.1492
▁rehabilitation	-12.1492
▁reign	-12.1492
▁reincarnation	-12.1492
▁reinforce	-12.1492
▁reinforced	-12.1492
▁reiterate	-12.1492
▁rejecter	-12.1492
▁rejecting	-12.1492
▁rejoined	-12.1492
▁relashionship	-12.1492
▁relaxer	-12.1492
▁religiously	-12.1492
▁relinquish	-12.1492
▁relish	-12.1492
▁relocate	-12.1492
▁relocating	-12.1492
▁remaining	-12.1492
▁remdies	-12.1492
▁remembers	-12.1492
▁remission	-12.1492
▁remorse	-12.1492
▁remotely	-12.1492
▁removing	-12.1492
▁rendered	-12.1492
▁rendition	-12.1492
▁renew	-12.1492
▁renewal	-12.1492
▁rental	-12.1492
▁rented	-12.1492
▁repaid	-12.1492
▁repetitiveness	-12.1492
▁replaying	-12.1492
▁reporting	-12.1492
▁represent	-12.1492
▁repression	-12.1492
▁reprieve	-12.1492
▁reprimand	-12.1492
▁reprised	-12.1492
▁reproduction	-12.1492
▁republic	-12.1492
▁repulsive	-12.1492
▁repurpose	-12.1492
▁repurposed	-12.1492
▁reputable	-12.1492
▁reputation	-12.1492
▁requesting	-12.1492
▁reselling	-12.1492
▁resemble	-12.1492
▁resents	-12.1492
▁resetting	-12.1492
▁reshape	-12.1492
▁resident	-12.1492
▁resides	-12.1492
▁residing	-12.1492
▁resigned	-12.1492
▁reskilling	-12.1492
▁resonova	-12.1492
▁respectful	-12.1492
▁respidone	-12.1492
▁respiratory	-12.1492
▁responsibly	-12.1492
▁responsive	-12.1492
▁restore	-12.1492
▁restoring	-12.1492
▁restraining	-12.1492
▁restraint	-12.1492
▁restricted	-12.1492
▁restrictive	-12.1492
▁restylene	-12.1492
▁resulted	-12.1492
▁resurface	-12.1492
▁resurfacing	-12.1492
▁retaining	-12.1492
▁rethinking	-12.1492
▁retire	-12.1492
▁retiring	-12.1492
▁retrain	-12.1492
▁retreat	-12.1492
▁retribution	-12.1492
▁retro	-12.1492
▁retroactively	-12.1492
▁reunited	-12.1492
▁revealed	-12.1492
▁revelation	-12.1492
▁reveled	-12.1492
▁revenge	-12.1492
▁reversed	-12.1492
▁reversing	-12.1492
▁revised	-12.1492
▁revising	-12.1492
▁revive	-12.1492
▁reviving	-12.1492
▁revolt	-12.1492
▁revolves	-12.1492
▁revolving	-12.1492
▁rexulti	-12.1492
▁rhe	-12.1492
▁rhetorical	-12.1492
▁rhyming	-12.1492
▁rica	-12.1492
▁richest	-12.1492
▁ridiculously	-12.1492
▁rigged	-12.1492
▁righteous	-12.1492
▁righteousness	-12.1492
▁rigid	-12.1492
▁rigorous	-12.1492
▁ripe	-12.1492
▁rly	-12.1492
▁rmd	-12.1492
▁roap	-12.1492
▁robbing	-12.1492
▁rocking	-12.1492
▁rodeo	-12.1492
▁roker	-12.1492
▁roleplaying	-12.1492
▁roller	-12.1492
▁rolling	-12.1492
▁roman	-12.1492
▁romance	-12.1492
▁romanian	-12.1492
▁rooftop	-12.1492
▁roomy	-12.1492
▁rooted	-12.1492
▁rooting	-12.1492
▁rosies	-12.1492
▁rotates	-12.1492
▁rotation	-12.1492
▁rotted	-12.1492
▁routinely	-12.1492
▁rowan	-12.1492
▁royal	-12.1492
▁rubbish	-12.1492
▁rubin	-12.1492
▁ruminate	-12.1492
▁ruminating	-12.1492
▁runaway	-12.1492
▁rural	-12.1492
▁rwanda	-12.1492
▁rythme	-12.1492
▁sa	-12.1492
▁sabotaged	-12.1492
▁saddens	-12.1492
▁sadhu	-12.1492
▁safeguard	-12.1492
▁saffron	-12.1492
▁sailboat	-12.1492
▁sailing	-12.1492
▁sallust	-12.1492
▁sally	-12.1492
▁salute	-12.1492
▁salvation	-12.1492
▁san	-12.1492
▁sand	-12.1492
▁sandhu	-12.1492
▁sandwhich	-12.1492
▁sanskrit	-12.1492
▁santa	-12.1492
▁santayana	-12.1492
▁santos	-12.1492
▁sappy	-12.1492
▁sas	-12.1492
▁saturated	-12.1492
▁saver	-12.1492
▁savor	-12.1492
▁savory	-12.1492
▁savransky	-12.1492
▁sb	-12.1492
▁sbout	-12.1492
▁scab	-12.1492
▁scalp	-12.1492
▁scanning	-12.1492
▁scarborough	-12.1492
▁scariest	-12.1492
▁scarificed	-12.1492
▁scaring	-12.1492
▁scarring	-12.1492
▁scented	-12.1492
▁schooler	-12.1492
▁schopenhauer	-12.1492
▁schreiber	-12.1492
▁sci	-12.1492
▁scoffing	-12.1492
▁scorn	-12.1492
▁scramble	-12.1492
▁scrambled	-12.1492
▁scrape	-12.1492
▁scraping	-12.1492
▁scrawled	-12.1492
▁screened	-12.1492
▁scripted	-12.1492
▁scripture	-12.1492
▁scroll	-12.1492
▁scrutiny	-12.1492
▁sculpt	-12.1492
▁sculpting	-12.1492
▁scumbags	-12.1492
▁seabed	-12.1492
▁sean	-12.1492
▁seance	-12.1492
▁seasoning	-12.1492
▁sec	-12.1492
▁secluded	-12.1492
▁secondarily	-12.1492
▁secured	-12.1492
▁sedating	-12.1492
▁seeked	-12.1492
▁seeming	-12.1492
▁segment	-12.1492
▁segragate	-12.1492
▁selectively	-12.1492
▁selen	-12.1492
▁selfharm	-12.1492
▁seligman	-12.1492
▁semen	-12.1492
▁senate	-12.1492
▁senegal	-12.1492
▁sensitivity	-12.1492
▁sensory	-12.1492
▁separating	-12.1492
▁seperate	-12.1492
▁seperation	-12.1492
▁sequel	-12.1492
▁seratonin	-12.1492
▁serf	-12.1492
▁seriousness	-12.1492
▁serving	-12.1492
▁setup	-12.1492
▁sewing	-12.1492
▁sexualized	-12.1492
▁sexualizing	-12.1492
▁sexy	-12.1492
▁sf	-12.1492
▁shady	-12.1492
▁shaken	-12.1492
▁shakespeare	-12.1492
▁shameful	-12.1492
▁shaped	-12.1492
▁shattering	-12.1492
▁shcool	-12.1492
▁shear	-12.1492
▁sheer	-12.1492
▁shenanigan	-12.1492
▁sheri	-12.1492
▁shipping	-12.1492
▁shirt	-12.1492
▁shite	-12.1492
▁shithole	-12.1492
▁shitter	-12.1492
▁shittyasses	-12.1492
▁shiver	-12.1492
▁shize	-12.1492
▁shockingly	-12.1492
▁shone	-12.1492
▁shortest	-12.1492
▁shoutouts	-12.1492
▁shoveling	-12.1492
▁shrinking	-12.1492
▁shrugged	-12.1492
▁sht	-12.1492
▁shuffling	-12.1492
▁sidelining	-12.1492
▁sidetracked	-12.1492
▁sierra	-12.1492
▁sighting	-12.1492
